<blank>
<s>
</s>
the
of
and
in
to
is
a
be
for
with
or
not
The
that
are
on
as
it
should
(@@
have
you
by
this
has
at
-
an
patients
been
,
was
If
.
use
will
-@@
from
may
your
which
ing
were
in@@
can
if
S@@
)
other
ed
s
In
any
es
re@@
one
What
used
must
than
these
1
treatment
more
also
no
It
there
they
?
P@@
mg
C@@
dose
s.
•
European
s,
s@@
B@@
ation
all
A@@
T@@
F@@
E@@
who
/
D@@
L@@
M@@
only
after
but
'@@
e@@
un@@
For
A
t@@
t
o@@
such
al@@
e
their
b@@
H@@
G@@
er
1/
an@@
d@@
3
2
its
into
when
I
N@@
blood
do
c@@
en@@
risk
g@@
i@@
).
at@@
EU/
es.
p@@
ate
:
al
e,
V@@
m@@
),
e.
take
during
y@@
injection
R@@
er@@
effects
es,
y
O@@
n@@
section
as@@
doctor
st@@
ar@@
4@@
(see
ed.
on@@
would
5@@
w@@
it@@
5
up
k@@
o
a@@
about
active
clinical
people
report
4
2@@
0@@
we
10
product
tablets
l@@
time
information
I@@
r@@
medicinal
is@@
or@@
out
There
3@@
two
–
given
1@@
before
IS
K@@
ti@@
am@@
f@@
ac@@
first
7@@
ed,
de@@
el@@
ic@@
di@@
6
what
y,
very
ic
does
new
had
those
h@@
u@@
human
treated
products
WHAT
Commission
ations
recommended
es@@
ml
il@@
number
ine
over
being
insulin
increased
Why
taken
;
v@@
Do
os@@
solution
able
im@@
7
z@@
This
8@@
FOR
op@@
increase
ag@@
system
some
between
need
without
us@@
a,
ing,
age
ad@@
side
us
following
ab@@
's
same
then
y.
ated
per
where
less
ol@@
When
6@@
ts
ro@@
We
ers
ri@@
so
taking
studies
children
om@@
Oral
le@@
years
me@@
ing.
ul@@
be@@
8
ted
se@@
study
ation,
ch@@
W@@
i
under
could
most
ap@@
ent@@
9@@
Patients
cannot
tion
ation.
ex@@
pro@@
m
U@@
administration
ia
In@@
renal
three
/@@
therapy
including
using
100
example,
You
reported
because
x
severe
ec@@
available
against
9
data
Member
06/
'
th@@
per@@
EU
case
30
ur@@
least
both
!
oral
l
50
AND
day
dis@@
administered
co@@
skin
made
even
them
known
ly
combination
women
g
symptoms
However,
con@@
adverse
D
red
ir@@
Union
Europe
important
t,
reactions
tic
d
within
et@@
.@@
rate
pre@@
lo@@
see
sp@@
No
Z@@
effect
patient
therefore
safety
tr@@
weeks
li@@
mg/
order
disease
20
+
further
j@@
last
no@@
ra@@
medicines
oc@@
levels
contains
ant
n
type
id@@
hepatic
many
associated
si@@
C
well
000
ent
how
health
t.
k
s)
work
12
high
IT
um@@
Tel:
Mr
ed@@
ut@@
ot@@
ter@@
J@@
20@@
substance
every
through
times
pl@@
ia,
@@
daily
body
days
10@@
ting
considered
possible
tell
once
15
en
ing@@
cases
a.
d,
due
S
cause
Y@@
result
ne@@
infusion
whether
level
each
T
compared
25
d.
As
he@@
much
way
te@@
0.@@
containing
One
ating
make
he
USED
end
ous
doses
par@@
just
like
40
Al@@
s?
200@@
too
x@@
site
observed
<
to@@
tic@@
de
le
water
em@@
c
week
events
total
p
s:
necessary
yl@@
period
ph@@
results
non-@@
single
long
medicine
liver
reduced
L
months
response
al,
OF
tion.
States
million
ally
change
impairment
az@@
%
did
>
specific
treat
ates
ha@@
development
ob@@
patients.
B
over@@
year
vial
certain
vi@@
199@@
ine,
24
ant@@
ence
er,
and@@
white
measures
experience
virus
conditions
rec@@
set
To
15@@
ensure
serious
disorders
ep@@
g.
place
19@@
ar
com@@
based
ati@@
Marketing
e?
please
part
od@@
al.
end@@
until
care
tions
tive
receiving
E
main
medical
group
su@@
food
h
ation@@
get
hours
put
reduction
anti@@
different
Treatment
Medicines
control
infection
w
low
either
ast@@
po@@
United
market
needle
animals
become
e-@@
ance
problems
Re@@
mis@@
ary
ter
tion,
‘@@
all@@
iv@@
child
ase
treatment.
is,
inter@@
in,
means
ies
anc@@
it.
13@@
ity
14
cells
while
potential
however,
ou@@
tion@@
reduce
ability
syringe
RE@@
b
Con@@
shown
R
received
ov@@
17@@
four
pa@@
working
sub@@
activity
ell@@
ari@@
pain
provided
few
plasma
ev@@
down
THE
another
start
1.@@
substances
pe@@
small
vaccine
ill@@
der@@
ment
Use
Therefore,
Pro@@
our
notice
(A4-0@@
‘
via
sh@@
ver@@
str@@
pre-filled
ask
min@@
approximately
already
’s
form
ial
hyper@@
greater
er.
bi@@
population
%)
efficacy
18
ox@@
Human
60
als
studied
Council
come
lower
allergic
up@@
qu@@
benefit
00
mean
pharmacist.
man@@
um
ol
ks
N
for@@
higher
tri@@
eye
changes
appropriate
Ch@@
ine@@
X@@
sugar
significant
"@@
-2@@
immediately
2.
et
particularly
done
contact
col@@
related
P
current
sodium
know
expected
la@@
est
11
atic
ate,
impact
ide
needs
breast
growth
mon@@
ly,
clear
ical
go
th
called
protein
ve@@
e)
production
since
(A5-0@@
All
IN@@
car@@
ingredients
ma@@
According
read
Report
/2001)
res@@
weight
prevent
se
area
é@@
14@@
stop
ds
individual
leaflet
listed
(C@@
cell
ten@@
special
35@@
mo@@
use.
2.@@
300
UK
ren@@
4.@@
fe@@
ml)
exposure
gen@@
es?
give
ations.
required
16@@
included
local
right
iti@@
support
acid
fl@@
found
But
seen
major
EMEA
cal@@
An@@
still
country
effective
common
(e.
similar
lead
ure@@
line
around
Ex@@
function
Th@@
caused
waste
signs
now
ated.
cl@@
cancer
might
itis,
18@@
amount
13
second
ass@@
gr@@
hepatitis
30@@
dec@@
if@@
and/
controlled
drug
Annex
16
prior
02@@
af@@
chronic
king
ist@@
rel@@
point
immune
marketing
often
powder
out@@
ers.
cy@@
St@@
continue
led
heart
200
cr@@
'.
back
og@@
ity.
state
du@@
good
allow
tablet
12@@
ative
day.
ig@@
ers,
package
res
(P@@
effectiveness
bo@@
Agency
pain,
help
authorisation
five
ity,
trials
6.@@
AN@@
work@@
re,
monitoring
especially
21
pressure
ak@@
next
(A@@
Authorisation
Please
pack
/00@@
countries
28@@
ying
sk@@
in.
gl@@
anti-@@
are@@
ness
we@@
id
terms
infection,
Committee
carried
placebo
on,
animal
Only
sal@@
years.
TE@@
70
)@@
management
ste@@
sive
quality
am
av@@
%.
reaction
ta@@
pen
dosage
do@@
ants
Your
SE@@
normal
%,
loss
so@@
receive
veterinary
ed?
Not
fi@@
ud@@
include
own
ST@@
present
better
always
ris@@
0
[@@
affect
particular
factor
le,
r
ts,
ach@@
young
long-term
ose
80
AL@@
Ne@@
national
te
=
healthy
form@@
ans
50@@
additional
comp@@
Where
es)
public
reports
wor@@
cat@@
usually
trans@@
lin@@
G
ent.
00/
gets
suspension
moderate
ve
il
ents
ke
5%
tim@@
limited
►
off
tiv@@
Par@@
occur
Ar@@
recommended.
go@@
el
example
age,
ised
yet
ist
and,
disposed
1,
RI@@
*
absorption
They
measure
serum
fin@@
ce@@
Kingdom
25@@
us,
areas
These
provide
them.
date
old
ted.
causes
ly@@
scientific
war@@
bone
ations,
por@@
life
longer
large
est@@
ings
responsible
his
enc@@
ca@@
procedure
cre@@
vis@@
Ac@@
ion@@
ip@@
MEDICINAL
according
s).
ib@@
tional
average
time.
having
MA@@
ate.
V
4.4).
ins
decrease
indicated
diseases
bleeding
avoid
5.@@
concentrations
experienced
inf@@
28
des@@
X
on.
les
CO@@
think
arm@@
ters
ru@@
e:
How
/98)
sc@@
ure
3.@@
(E@@
36@@
ent,
At
ard
75
general
uc@@
ty
adult
IU
far
men
significantly
maximum
27@@
adults
5-@@
produced
flu@@
pregnancy
author@@
AT@@
den@@
time,
it,
itis
instructions
patients,
M
sol@@
dic@@
ten
acute
wa@@
ER@@
oper@@
rare
2,
protection
injection.
below
O
ine.
s;
EU@@
YOU
damage
release
ance.
currently
OR
infected
mixed
AR@@
ser@@
AD@@
2%
37@@
pr@@
ho@@
ory
kg
y-@@
France
cartridges
au@@
17
account
cor@@
bur@@
continued
baseline
amine
ster@@
tions.
sed
pen@@
tests
≥
antibodies
ded
six
Di@@
sen@@
sion
adjustment
act
serious,
subjects
3,
difficult
trac@@
tin
ion
therapeutic
pos@@
full
decreased
one.
inhibitors
ch
enzyme
BEFORE
above
duration
EC@@
f
2.5
respiratory
ise
standard
likely
z
poly@@
tor@@
leaflet,
ang@@
key
excreted
research
process
sa@@
monitored
access
3%
therapy.
London
val@@
term
):
an,
solvent
risks
ide@@
vials
month
diabetes
56
mat@@
under@@
position
Detailed
ann@@
”
sec@@
caution
infections
(a
sha@@
decision
the@@
pharmacokinetics
list
en,
So
whole
situation
test
estimated
syndrome
rates
le.
carefully
Wh@@
48
air@@
red.
concentration
mal@@
land
ia.
reg@@
lat@@
third
AC@@
breast-feeding
want
increases
allowed
Ab@@
ement
AP@@
ia@@
show
objective
fact
Com@@
course
MP@@
disp@@
values
obtained
assessment
paediatric
age.
ment@@
Mon@@
ci@@
alcohol
enough
ish@@
concomitant
+@@
recent
22
clo@@
strain@@
limit
emea.
ling
del@@
Liprolog
EN@@
Medicinal
H
ular
year.
overall
fo@@
agents
na@@
ribavirin
bro@@
Mrs
tra@@
ritonavir
pharmacokinetic
CI@@
s),
our@@
among
applied
achieved
interferon
TI@@
198@@
cap
Pol@@
product,
post@@
incidence
(S@@
develop
little
event
34@@
evidence
milk.
dos@@
Name
various
ad
Un@@
ities
best
light
Report:
/97)
Tel.
alone
subcutaneous
groups
primary
sion@@
“
38@@
F
En@@
established
act@@
film-coated
ted,
vaccination
ge
twice
gastrointestinal
hy@@
iz@@
http:
ally,
land@@
Winthrop
fa@@
,@@
failure
AL
activities
demonstrated
gi@@
gu@@
Ro@@
Holder
re-@@
fully
o,
lim@@
together
1-@@
Co@@
ant.
Eesti
needles
never
/0@@
used.
stat@@
oph@@
several
an.
ard@@
vari@@
influence
ely
left
developing
ax@@
ton@@
mild
ence,
40@@
cap@@
disease.
half
Teva
basis
regard
vitro
400
uri@@
ency
red,
ves
No@@
recently
Dr
initi@@
hi@@
years,
-1@@
ub@@
/www.
ys@@
resulting
transport
proposed
An
07/
VI@@
clearance
adequate
cul@@
ator@@
der
ment,
erg@@
indic@@
addition
appears
AUTHORISATION
names
VE@@
subject
but@@
produce
particles
increasing
isation
ile
sur@@
CHMP
hard
bl@@
factors
olog@@
accordance
my
tis
glucose
appear
milk
itself
On
going
(A5-00@@
doctor.
hypo@@
usual
types
0.5
developed
,000
Inter@@
mar@@
cell@@
of@@
designed
368/
loc@@
is.
sometimes
ess
visual
viral
ast
remain
6/
pri@@
RO@@
bar@@
cur@@
ents.
analysis
29@@
clinically
free
os
Safety
AS@@
ages
prescribed
23
direc@@
ever
ments
u
Comb
question
ther@@
intravenous
study,
adolescents
vo@@
39@@
able.
medicine.
ran@@
ON
path@@
From
gener@@
household
her@@
General
ps
inject
open@@
pat@@
systemic
500
2000
35
involved
repor@@
ven@@
1%
ME@@
avir
tak@@
(F@@
tract
150
ly.
USE
comes
energy
’
pi@@
one,
ane
4,
in-@@
assessed
(EMEA)
europa.
value
wh@@
evaluated
sure
rac@@
ty@@
CE@@
ani@@
Ad@@
AUC
Pre@@
st
approved
whose
Mar@@
dri@@
aid
y?
again
Products
ful
Many
affected
fat@@
rat@@
Canary
issues
IU/
micro@@
months.
19
therapy,
addition,
volume
Spain
De@@
reconstituted
complete
ator
kin@@
spec@@
showed
yr@@
negative
directly
improvement
Im@@
starting
mb@@
Hypersensitivity
s'
hol@@
1)
ded.
Westferry
26@@
immediately.
makes
fil@@
600
SA@@
dem@@
feline
gre@@
action
website
IC@@
storage
again.
clearly
ban@@
o.
initial
pit@@
me
performed
pre-@@
6,
(M@@
pharmac@@
IF
products.
{@@
thro@@
great
Information
region
&
7%
ful@@
ated,
%),
E14
mit@@
fall
resistant
00@@
ning
lack
described
lact@@
aged
material
ici@@
ology
pharmacist
Dis@@
Summary
gen
waste.
dose.
label
multiple
tis,
inflammation
br@@
points
tal@@
needed
reached
alfa-2b
one@@
Ph@@
ned
history
my@@
new@@
therefore,
acc@@
+4@@
previous
ding
inhibitor
sit@@
Circus,
U
relevant
intended
ess,
tions,
rather
don@@
sign@@
Insuman
not,
Insulin
2-@@
days.
ros@@
respon@@
osis
follow-up
Wharf,
completely
fold
whom
remains
authorities
dry
international
concerned
EUR
45
t-@@
treatment,
application
es:
4HB,
inten@@
ath@@
drugs
ism
ar,
Germany
continu@@
pres@@
tub@@
rules
impairment.
1,@@
ases
reli@@
leg@@
hom@@
imp@@
tu@@
request
ically
vitamin
positive
ological
held
fac@@
amp@@
Take
State
labelling
elec@@
close
sion,
ain@@
pregnant
red@@
Y
ire
UL@@
muscle
S.
(0.@@
ens
natural
cloudy
inal
potassium
cent@@
Renal
ere@@
',
32
can@@
HIV
occurred
plus
ratio
Its
C.
regular
medi@@
in)
enti@@
-0@@
ign@@
ses
-f@@
you.
product.
contain
sw@@
man
á@@
minutes
tre@@
hours.
measured
proportion
’.
hormone
require
extent
early
bottle
fer@@
4-@@
OP@@
hypersensitivity
fied
2)
org@@
5,
ys
SPECIAL
University
hand@@
Product
progress
protect
say
eg@@
Euro@@
system@@
generally
drive
re.
studies,
method
65
discontinued
follow@@
frequency
available.
capsules
tics
preparation
ising
igh@@
out.
final
air
survival
followed
peripheral
ited
ite
ors
ons
ure.
í@@
Le@@
da@@
Any
(for
evaluation
fir@@
ances
als.
se.
men@@
sil@@
Section
DISPOSAL
WASTE
sti@@
cha@@
food.
/200@@
/2000)
apply
ture
aff@@
tissue
S,
osis,
bu@@
Ag@@
26
antibiotics
unknown.
cont@@
Humalog
questions,
ts.
(used
dosing
non@@
abnormal
lab@@
Me@@
III
prevention
selec@@
33
);
sum@@
applic@@
Vi@@
upper
stored
PRECAUTIONS
UNUSED
oun@@
weak@@
phosph@@
throughout
Is
fail@@
them,
presence
fol@@
ness,
short
ole
ra
field
body.
surface
ity@@
day,
updated
"
SU@@
L-@@
Let
3.
arg@@
neuro@@
prote@@
regulation
inc@@
tro@@
en.
ently
Ireland
spo@@
carry
way.
ok@@
frequently
administration.
suffering
4%
test@@
bre@@
off@@
list@@
Nor@@
equivalent
ir
Limited
that,
Even
cases,
ron@@
interaction
post-@@
part@@
mg/@@
Invented
regul@@
reason
monotherapy
aliz@@
iting
questions
placed
system.
role
infec@@
status
equal
ive
International
table
(1
re
undergoing
Netherlands
Internet
possibility
less@@
ust@@
shows
k,
HOLDER
countries.
tw@@
resistance
3/
ell
range
medicines,
Q@@
allerg@@
ple@@
level.
measuring
ay
surgery
control@@
identified
*@@
SI@@
she
Portugal
mil@@
fication
t?
39
Str@@
weeks.
necessary.
medicines.
(including
staff
reduc@@
70@@
Based
yl
o-@@
multi@@
lit@@
dr@@
ble@@
DE@@
ately
valu@@
ions
ish
Pharma
3-@@
difficulty
overdose
7,
rash
presented
(N@@
cop@@
eth@@
creatinine
hydro@@
swe@@
improve
Parliament
elderly
authorised
Of
dat@@
condition
ously
pal@@
phosphate
criteria
phase
na
disease,
mechanism
as,
contents
Because
propos@@
death
why
her
sin@@
follow
ogen@@
vir@@
ene
lic@@
leading
atory
lymph@@
observed.
testing
69@@
toxic
micrograms
mg)
AN
ual
hor@@
art@@
Pharmac@@
ill
direct
introduced
Av@@
systems
look
Olanzapine
wastewater
Question
training
sto@@
products,
sy@@
amin@@
10%
met@@
IV@@
year@@
co-@@
se,
submitted
ies.
1000
cour@@
seek
ash@@
Very
distribution
hal@@
als,
ment.
happen@@
maintenance
closely
tis@@
target
rise
divided
8%
vastatin
cle@@
Since
els
4.5).
skin,
od
forms
infection.
PRODUCTS
Working
Car@@
rib@@
fat
differences
ö@@
eri@@
view
person
mentioned
che@@
ich
toxicity
%).
disorder,
commonly
ous@@
soft
hel@@
During
able,
determined
et,
mus@@
pur@@
dogs
ational
Table
urinary
store
ef@@
Uncommon
technical
except
organ@@
consider
.,
impaired
struc@@
self-@@
ff@@
coun@@
app@@
conf@@
ban
ing?
acceptable
g/
difference
biological
binding
mark@@
s/
bab@@
’@@
treat@@
sing
break@@
tt@@
alis@@
exposed
costs
ality
chloride
cleansing
something
har@@
96/
hour
swelling
tumour
depres@@
aemia
II@@
mor@@
dul@@
content
injections
ret@@
at,
uniformly
ked
past
recombinant
ail@@
sions
let
head@@
bott@@
excessive
others
ate@@
(A4-00@@
pulmonary
(4@@
posi@@
combined
ion,
8,
day@@
slightly
ship
31
ST
min
saf@@
pol@@
use,
}
um,
problem
sun@@
reach
oil
90
low@@
Once
children.
ge@@
ents,
essential
win@@
Subject:
previously
acting
6%
defined
feel
insul@@
a-@@
hands
dur@@
Vir@@
relevance
initiated
50%
Qu@@
mono@@
action.
pass
CV
attention
ack@@
star@@
pic@@
VIII
AB@@
ements
MR@@
ue
C)
injected
yn@@
Per@@
event@@
st,
physical
34
Po@@
lik@@
advice
New
feed
ed:
−
ws
ä@@
rest@@
vic@@
reasons
benefits
said
RISPERDAL
(H@@
mental
oedema
800
ple
top@@
mainly
fract@@
bor@@
sections
ulcer@@
ties
Res@@
We@@
patch
PE@@
concluded
ess@@
flo@@
meth@@
dist@@
bioavailability
alternative
solutions
maintain
That
talk
started
(the
nurse
ion.
placebo.
replacement
minor
dependent
withdrawal
000@@
toxic@@
calcium
contraindicated
inspec@@
colour@@
son
ice
works
bul@@
service
27
investig@@
pens
appe@@
lu@@
(0)@@
qual@@
excipients.
read@@
ation?
Other
circumstances
A,
determine
metabolites
central
involving
arthritis
TH@@
kidney
36
vs
with@@
Be@@
back@@
AG@@
ities.
Su@@
pack@@
market.
ded,
ligh@@
recommendations
INFORMATION
inv@@
dra@@
vel@@
Our
84
top
versus
é
peri@@
lan@@
step
ni@@
accoun@@
deficiency
ric@@
NO@@
(CHMP)
actions
pigs
IN
regards
induc@@
He@@
us.
coated
Manufacturer
es;
Pfizer
sexual
Italy
Before
proposals
clos@@
EU/1/00/131/0@@
Europe@@
/99)
24@@
]
receptor
TA@@
tar@@
fun@@
sm@@
m,
Val@@
Health
(3
conducted
real
int@@
ence.
giving
progressive
Sol@@
5.2).
emerg@@
ution
“@@
technology
arch@@
ref@@
produc@@
Cal@@
tain@@
tly
Or@@
vir
all,
open
I.
haem@@
th,
or,
des
reducing
ID@@
harmon@@
NE@@
II
onset
class
weigh@@
avi@@
Common
metabol@@
rop@@
ear@@
98
bio@@
...
et.
pharmaceutical
projects
although
log@@
holder
return
aware
deb@@
bon@@
k.
eng@@
AB
keep
ort
radi@@
4.8).
ance,
existing
oid
ines
consumption
injec@@
ster
sufficient
mi@@
adi@@
lip@@
sed,
prolonged
um.
ut
check
GmbH
correct
til@@
pe
person@@
abdominal
atives
thus
29
me.
ter,
mu@@
ry
find
warning
suffer
comm@@
away
(H-0@@
stop@@
secondary
rapid
hip
doctor,
S)
initiation
HA@@
adver@@
CYP3A4
prof@@
hospit@@
rapidly
RA@@
stomach
ore@@
Ser@@
temperature
Sch@@
human@@
enter@@
face
French
ism,
liquid
Read
42
cover
immediate
7.@@
nec@@
compar@@
58@@
46
amide
IX
ators
ade
sensitive
rati@@
activ@@
diseas@@
ophil@@
nam@@
tur@@
th.
streng@@
vivo
programme
feeling
fic@@
stre@@
supervision
*,
address
marked
consideration
examined
tive,
poor
quickly
stage
alfa
vaccin@@
glycaem@@
antibody
cer@@
oz@@
possible,
1.
equ@@
IT@@
moder@@
ide.
month@@
ended
mod@@
avir@@
Cmax
Study
vaccines
changed
eyes
FROM
insufficiency
formation
aut@@
work.
thyroid
consider@@
internal
tablet@@
ight
hydrox@@
Common:
risk@@
ili@@
water.
Who
d?
K
ring
effects.
trial
species
0%
doses.
9.@@
Cl@@
tide
comple@@
My@@
GI@@
icity
lactic
Fin@@
(5
ving
let@@
Trudexa
male
added
rest
progression
tor
adequately
damaged
MATERIALS
PRODUCTS,
transpor@@
nausea,
Clinical
advised
ug@@
Se@@
diff@@
gh@@
harm
materials
de,
ental
(0)
granted
60@@
UN@@
rap@@
particular,
EU/1/00/132/0@@
emp@@
parts
takes
Article
A.
parameters
median
nit@@
group.
]@@
site.
ga@@
ine-@@
confirmed
medicin@@
week@@
tical
minimum
el,
len@@
los@@
interest
growing
aem@@
subsequent
Enbrel
month.
DERIVED
SUCH
Pa@@
cri@@
ini@@
CPMP
Therefore
steps
diagnosis
Mus@@
chloride,
elling
ext@@
ey@@
powder,
political
social
remove
sustained
concentr@@
independent
corresponding
it's
manag@@
otox@@
cas@@
concentrate
w,
vein
9,
sup@@
ON@@
ped
ush@@
raz@@
room
industry
Hol@@
operation
regarding
name
prescription
objec@@
requirements
Sec@@
mag@@
022/
decided
drink
ders
expiry
%@@
way,
3)
Cy@@
oedema,
oma
ml.
hear@@
rheumatoid
intake
reductase
Rec@@
improved
exp@@
ech@@
across
PegIntron
mur@@
sul@@
summary
Some
ists
que
37
ally.
mofetil
ore
studied.
(B@@
joint
sel@@
100@@
hon@@
Fe@@
referred
posed
49
fracture
discontinuation
dysp@@
possibly
mouth
balance
mp@@
allow@@
a)
fiel@@
sho@@
ering
C,
For@@
µ@@
enzymes
Ber@@
Gen@@
proposal
integr@@
consequences
carri@@
agre@@
cau@@
acid@@
healthcare
haemoglobin
Uncommon:
diseases.
SA
document
identi@@
outside
hap@@
ants.
safe
consum@@
Merck
stopped
outer
ed)
9%
kg/
(95%
fu@@
ens@@
ept
tics.
fewer
st.
m.
DNA
degree
i.
correctly
wn
tac@@
making
disorder
serv@@
ening
ner
connec@@
Doc@@
Road
view,
sts
unused
market@@
EU/1/0@@
crisis
separate
amounts
high@@
Within
adjust@@
leuk@@
long@@
represent@@
lic
orm@@
ter.
dose,
ved
Pi@@
Trans@@
prop@@
injections.
Adverse
improv@@
ith@@
g,
metabolite
ear
goes
structure
APPROPRIATE
tip
profile
yellow
Am@@
D-@@
Her@@
humans
antiretroviral
thought
ble
Consequently,
States,
kept
prim@@
Unfortunately,
prepar@@
resulted
tivity
osteoporosis
upon
chemical
ping
8.@@
alised
bra@@
fondaparinux
67
ung@@
ound
160
tax@@
fel@@
requ@@
(as
T)
frozen
public@@
mix
Ma@@
ship@@
ur
v
Severe
pay
supplied
ures
potentially
defin@@
whe@@
Mal@@
sor@@
Luxembourg
fast@@
business
ver
soci@@
capacity
kind
Experience
thing
nation@@
plan
simply
exactly
tics,
(such
stri@@
GF@@
mg@@
nervous
children,
gia,
respectively.
ACR
def@@
weight.
MS@@
considered.
HMG-CoA
ies,
injection,
diet
76
tig@@
commun@@
ju@@
solid
cartridge
ones
sterile
tin@@
or.
After
providing
Cor@@
LE@@
block@@
glo@@
ie@@
derived
Dose
relating
bacterial
farm@@
used,
requirements.
tab@@
ik@@
002
issu@@
ably
lies
NovoMix
righ@@
grow@@
cut@@
period.
setting
animals.
exist@@
speci@@
dro@@
250
diabetic
super@@
arc@@
smoking
cholesterol
erc@@
ank@@
female
mid@@
dine
bin@@
Lev@@
well.
occurs
1997
services
rash,
present@@
advis@@
2002.
collec@@
protec@@
ide,
Tr@@
herpes
ez@@
May
card
Tell
tion?
Tra@@
contain@@
train@@
bas@@
actually
A/
thes@@
discontinu@@
purpose
Under
arter@@
global
din@@
half-life
outcome
ing:
les@@
rarely
tom@@
exposu@@
transient
abine
complic@@
ds,
0.0@@
antiviral
yt@@
ired
1.5
capsule
stitu@@
alisation
ost@@
ics
Furthermore,
pig@@
ium
ic,
As@@
ber@@
thin@@
becoming
physician
eding
Mix25
chang@@
conver@@
ay@@
Pen
import@@
HIV@@
system,
001
ght
Instructions
forget
ional
chest
ocy@@
women,
weekly
environment.
almost
TR@@
cho@@
ome@@
function.
2006.
refers
Gre@@
cardiac
blister
transdermal
urg@@
Mycophenolate
indicate
Viraferon
financial
LI@@
id,
odi@@
plastic
proper
GlaxoSmithKline
driving
car
product@@
pen,
Sweden
specifically
ending
Pe@@
tically
there@@
price
Pl@@
38
2/
N-@@
toler@@
ants,
sites
frequent
ick@@
fever
stand@@
sion.
I,
high-@@
ark@@
inhal@@
cattle
solution.
percentage
elevated
Pharmacovigilance
frag@@
assistance
umab
(1@@
CYP2C@@
dop@@
4/
cardi@@
s-@@
original
brought
e).
EX@@
repeated
x,
mut@@
port
alcohol@@
drinking
eral
proper@@
October
ors,
majority
fre@@
p.
led,
fungal
att@@
aring
me,
ms
Bar@@
4.2).
him
fur@@
importance
BATCH
RELEASE
á
Although
om
ous.
histor@@
legal
bel@@
economic
Fer@@
SP@@
sulf@@
ant,
extremely
lac@@
depression
inhibition
metabolised
digital
Pri@@
myel@@
vol@@
patients)
metabolism
-1
information.
ocular
viruses
tuberculosis
ras@@
antibio@@
amino
effec@@
wall
ened
inhibit@@
rix
HO@@
eu/.
removed
oul@@
ed;
someone
Tur@@
degrad@@
65@@
pneumon@@
June
ities,
request@@
acts
Ap@@
France,
sible
inst@@
old.
fact@@
com
aw@@
ana
here
Sal@@
Using
along
Met@@
opin@@
ds.
Factor
MANUFACTURING
RESPONSIBLE
family
speaking
killed
aim
perhaps
negoti@@
-related
syndrome,
develop@@
da
CT@@
U/
l)
slaugh@@
20%
levels.
time@@
load@@
stable
utes
counts
ors.
/1@@
ain
vit@@
relap@@
eye,
ina
subjec@@
Prevention
excretion
irrit@@
ian
Party
facil@@
struction
Stre@@
pap@@
haemat@@
rig@@
competi@@
Sub@@
contrast
diver@@
Tel@@
scre@@
atten@@
Rom@@
Lilly
OÜ
41
short@@
ure,
tel@@
ond@@
004
ring@@
ange
issue
My
lowest
arm
osi@@
empty
mortality
vag@@
lung
rosis
attemp@@
dose-@@
maintained
metabolit@@
hour@@
sib@@
discontinue
excluded
box@@
de.
separ@@
8/
inhibits
90@@
ne
Ribavirin
Rap@@
OS@@
urine
benefit@@
efavirenz
tered
dar@@
embry@@
are:
ates,
medication
phen@@
entire
recovery
il,
Package
drop
adap@@
lam@@
mean@@
on-@@
Infec@@
failure,
’,
achieve
members
rol@@
CONSTA
broken
04/
abil@@
dangerous
ings.
consumers
Then
live
call
crim@@
model
guidelines
lesions
findings
simvastatin
relative
haz@@
patient@@
OR@@
Hy@@
thromb@@
usion
birth
(n=@@
ame
satis@@
suspected
renc@@
consistent
Tarceva
transfer@@
plan@@
titration
serotonin
ade@@
edly
5/
Rem@@
FOR@@
6-@@
cent
63
year,
He
Mic@@
suitable
tation
ke@@
ó@@
dys@@
manufact@@
port@@
dom@@
emb@@
Regulation
Des@@
increas@@
environmental
opath@@
consist@@
last@@
adop@@
govern@@
Pr@@
e;
row@@
valid
encour@@
provides
swabs)
Avoid
ACTIVE
Sverige
reason@@
lead@@
really
bronch@@
happens
and/or
metformin
stry
successful
pir@@
il.
alys@@
Gu@@
post
responses
beta@@
fibr@@
yme
suggest
ism@@
cardiovascular
unless
q@@
cit@@
repeat
(D@@
laboratory
stick
ffe@@
P-@@
Up@@
leukaemia
arly
Por@@
Bi@@
Commun@@
syringes
difficulties
preserv@@
constitu@@
rep@@
recon@@
diluted
rh@@
obtain
Sharp
Pharmaceuticals
representative
educ@@
decis@@
Nob@@
breast@@
nes@@
stated
glass
alone,
explo@@
world
fish@@
/99):
disturb@@
47
suicidal
converted
es).
weakness
relationship
ation)
radiation
diarrhoea
an-@@
every@@
smok@@
vision,
dam@@
elev@@
recept@@
um-@@
acquired
(4
worse
ogenic
While
radio@@
drop@@
modi@@
GM@@
phot@@
irbesartan
bit@@
lear@@
recognised
hypoten@@
int
allows
attack@@
2001
pas@@
ides
supply
80@@
bru@@
September
process.
pes
Skin
ings,
XX@@
PV@@
investigated
Mix50
w.
Germany,
report,
substanc@@
lob@@
countries,
correc@@
ous,
blister@@
El@@
ching
ampoule
pan@@
ton
sulph@@
Important
opinion
food,
USER
highly
Nevertheless,
this,
nothing
treating
zidovudine
tive.
study.
CI:
od,
contained
situ@@
achiev@@
head
brain
(range
cost
detec@@
resol@@
studies.
mic@@
inhibit
bacter@@
microgram@@
persistent
Sim@@
d-@@
CM@@
mission
seiz@@
Parkinson's
regimen
opening
fy
fill
syndrome@@
der,
ency.
eu@@
vomiting,
assist@@
Ital@@
well-@@
EE@@
ods
Mil@@
strain
Li@@
directive
ises
eas@@
route
sep@@
Cha@@
bacteria
up,
encies
exce@@
nel
wide
milk,
stra@@
6.6.
Characteristics,
vial@@
swelling,
wel@@
accep@@
pen.
pH
ch,
front
probably
child@@
Authorisations
Irbesartan
contr@@
disposal
MARKETING
toc@@
so,
compens@@
mit
organis@@
interpre@@
matter
pul@@
6.3.
a?
case,
pon@@
rup@@
ently,
comparable
Veterinary
causing
targ@@
suicide
deaths
5)
Studies
parti@@
ement,
up.
milestone
mg.
wn@@
restric@@
25%
load
Alzheimer's
ids
L,
NA@@
LO@@
inside
hum@@
ulation
ground
compatible
adv@@
PAR@@
Haem@@
provi@@
ute
4.3).
L)
resolution
canc@@
mer@@
ml@@
count
atic@@
salt
resul@@
gene
cartridge.
Basal
web
Pregnancy
bal@@
ativ@@
quantity
ily
provision
duc@@
fight
Hepatic
(HIV@@
appropri@@
lif@@
media
-C@@
themselves
ka
immunodeficiency
differen@@
ave
Russi@@
noted
fast
formul@@
trials.
behaviour
necessary,
try
however
point@@
passed
elimination
minimisation)
30%
opathy
33@@
TRI@@
soon
(V@@
promot@@
alysis
infants
RMP
November
omet@@
highest
squ@@
aph@@
EXUBERA
iron
id.
Organ@@
Taking
ach
kill@@
inj@@
clin@@
anaemia
reserv@@
particip@@
age@@
prov@@
ports
population.
defec@@
easily
5.1).
MM@@
psychiatric
ination
establish@@
apparent
night
Dohme
ce
doing
asis
diure@@
onto
ace
studi@@
003
Powder
ock@@
Sloven@@
plac@@
course,
spoon
looks
polic@@
Will
excess
44
Protopy
complet@@
stitution
reference
diabetes,
cells.
ket@@
deep
nausea
exercise
orr@@
i,
LU@@
chol@@
ency,
popul@@
LD@@
180
neutr@@
body,
11@@
transi@@
LDL
appl@@
lys@@
low.
exc@@
edi@@
hospital
reconstitution
post-marketing
transfer
dioxide
passes
granting
Community
gli@@
4.4
medic@@
(S)
reduces
demonstr@@
cycle
gradually
With
face,
ame@@
precautions
ets
clon@@
methyl@@
info@@
writ@@
Direc@@
people@@
at.
B.
born
compromis@@
006
believe
closed
rs
else
inform
autom@@
ism.
complain@@
Afric@@
any@@
tonn@@
employment
word
More
consult
control.
numb@@
nor
hypoglycaemia
painful
(≥
Pos@@
f,
seven
inadequate
cid@@
favour
(pharmacovigilance
reach@@
Plan
unknown
reactions.
ViraferonPeg
od.
ization
intoler@@
applications
ReFacto
Among
bottom
rim@@
y:
acet@@
raised
technolog@@
include:
worked
teach@@
Efficacy
documents
Increased
ished
whereas
pot@@
excep@@
ham@@
house
ole@@
increased.
res.
persons
health@@
reaction,
Pot@@
gra@@
vial.
size
excipients
Inf@@
pep@@
strict
ement.
persist
result,
syrup
vaccine.
effects,
On@@
effectiv@@
ix@@
mess@@
functioning
Presid@@
told
Their
commit@@
money
words
speak@@
groups.
CH@@
α
platelet
anxi@@
hepat@@
mening@@
situations
analys@@
TN@@
1).
randomised
meat
dip@@
conc@@
inhaled
tively
imaging
week)
I).
SS
breathing
blood@@
pregnanc@@
ures.
cross-@@
absorbed
effect.
CP@@
April
occur.
thir@@
197@@
lin
net@@
5.
ry@@
confidence
users
colour
MAH
asthma
chance
Lo@@
ific@@
T.
Side
instruc@@
Italy,
symptomatic
led.
Blood
characteris@@
agreed
done.
Ha@@
principle
mother
ator.
ac
mothers
uses
ude
+35@@
EU/1/08/4@@
Four@@
plant
Belgi@@
justi@@
opportun@@
happen
ess.
decide
workers
road
market,
Firstly,
Dan@@
Wil@@
speak
occur@@
vertebral
terminal
tol@@
quite
ign
var@@
conditions,
secre@@
termin@@
F-@@
rever@@
methotrexate
score
opened
sity
Guid@@
receptors
zo@@
question@@
EMEA.
individu@@
aries
careful
ese
ol.
kg/@@
atin
idal
ek
confir@@
PRO@@
myc@@
centre
ori@@
erated
co-administered
-M@@
complications
plic@@
strong
Stat@@
bag@@
DI@@
DepoCyte
ise,
Em@@
2007
ised,
T,
ust
q
ef
other@@
disorders:
normally
elimin@@
demonstrate
tube
arth@@
shall
150@@
falling
Je@@
spe@@
chick@@
Some@@
Commission@@
sch@@
impairment:
amendment
text
harmful
vot@@
idea
(debate)
Raptiva
convul@@
is)
phas@@
h,
tal
oid@@
fertility
protein@@
comparison
altern@@
minimisation
mol@@
mm@@
ies@@
clar@@
ergic
glyc@@
peginterferon
minim@@
rit@@
eme@@
mov@@
95
Most
el.
IntronA
PRODUCT
Er@@
atis@@
gradu@@
induced
epilep@@
Anti@@
turn@@
°@@
spread
openia
syn@@
detected
thrombocyt@@
sens@@
Chinese
-like
breath@@
(s)
German@@
increased,
eds
................@@
Wor@@
power
pain@@
problems,
procedu@@
fing@@
Österreich
Box
function,
ick
adine
materi@@
wat@@
ord@@
ured
ert
ats
stag@@
η@@
care@@
then@@
budget@@
continues
visible
established.
coming
living
.'
vote
900
eline
titr@@
Over@@
cere@@
immuno@@
losartan
interactions
you@@
nutrition
polyethylene
nerve
trials,
predominantly
aggres@@
consci@@
decreases
Acute
determin@@
ier
T-@@
gue,
hepar@@
fixed
interact
progres@@
norm@@
adal@@
placebo-controlled
vent@@
lar@@
feron
MIU
begin
Novo@@
milli@@
bladder
ointment
gest@@
hypertensive
leakage
Pen@@
55
ation:
________@@
companies
(1.@@
eyelid
supplement@@
ml/
hydr@@
accompanied
nasal
drug@@
mmol/
son@@
cod@@
gue
Each
Park
ale
ound@@
push
acids
inser@@
doub@@
call@@
operating
divi@@
aim@@
fish
covered
And
exercised
le-@@
definition
Ly@@
omi@@
Lu@@
opathy,
placebo@@
reproductive
plas@@
percent
ulcers
(another
Ca@@
PR@@
pra@@
ocyt@@
ma
remain@@
infus@@
vomiting
ments.
(9@@
none
otide
treatment@@
depend@@
HAR@@
neg@@
gluc@@
took
vaccinated
tem@@
abnormalities
calcitonin
ine)
device
machines.
Hyper@@
disappear@@
4.
idi@@
competent
sensitivity
agent
War@@
design@@
deal
FO@@
NAME
lowering
conditions.
rang@@
S-@@
unc@@
transl@@
bodies
ness.
women.
numbers
alist
ased
ia),
AIDS
ve,
eff@@
bs
p,
ja
water,
condition@@
abol@@
sale
accidentally
cros@@
ty.
infectious
German
Telzir
tablets,
as.
sed.
death@@
nic@@
OptiS@@
tion)
Cap@@
flex@@
ments,
button
groun@@
rently
aving
Both
pow@@
consumer
gro@@
law@@
agricultural
cust@@
some@@
certainly
use@@
purpos@@
cases.
ules
overe@@
glucos@@
tran@@
times.
group,
sis
anim@@
44@@
mem@@
round
arr@@
(G@@
intervals
noe@@
optimal
weeks,
years)
3.5
toxin
charg@@
Agency@@
delayed
chlor@@
nephro@@
sid@@
ions.
kidne@@
ely.
haemorrhage,
ther
7-@@
Sh@@
redness
7.5
8-@@
Humira
virus@@
mother@@
below@@
meal
fasting
eration
mou@@
hasn't
....@@
temperat@@
xim@@
yp@@
industr@@
ture@@
microbiological
known.
helps
aria
corneal
2000@@
black
ml,
ate)
ties.
Characteristics
adj@@
user
omer@@
adults.
induce
consequ@@
linked
Injection
parties
CR@@
rent
gently
turn
pati@@
ü@@
nat@@
E.
interest@@
ere
need@@
discar@@
law
procedure.
Neupro
amendments
Co-administration
ery
cancer.
IU@@
007
pipette
bring
abor@@
Suspension
proportion@@
professional
competition
ans@@
Is@@
ans,
Response
rul@@
es'
Commission's
ben@@
Denmark
treatments
impl@@
require@@
needed.
machines
shor@@
22@@
reported.
mg,
irritation
ting@@
peak
fying
10-@@
(6
tend@@
ays
measure@@
plasma@@
Gli@@
Lam@@
topical
candidi@@
fall@@
4)
induction
acuity
itation
ing)
99@@
Following
(1.5
recorded
ram@@
occurring
calici@@
Beta@@
retin@@
trou@@
worsening
magnetic
transferase
optim@@
91
Te@@
delay
ature
ATE
m2
Preparation
Fr@@
stitute
company
play@@
oro@@
artan
SPC
rubber
assess@@
Man@@
cirrh@@
diarrhoea,
85
opa@@
organic
involves
Bas@@
ol,
meeting
ral@@
Bre@@
tion:
Leaflet
/9@@
Fax:
tit@@
running
should:
E-@@
les,
wear
scal@@
Children
tou@@
heavy
cru@@
ampoules
offic@@
expres@@
challeng@@
lines
Yondelis
bed
rotated
indication
White
Z
Bel@@
euro@@
accur@@
demand
ars
die
environment
disast@@
education
agend@@
Europe,
perfec@@
votes
danger
people,
quot@@
employ@@
s!
Tlf:
lamivudine
abacavir
f.
haemophilia
emia
D)
techniqu@@
stric@@
exa
encephal@@
intestinal
ness@@
site,
dosing.
(with
reas@@
non
respond
re:
interval
week.
later
3).
accidental
thromboembolic
osis.
CYP2@@
atin@@
prec@@
naïve
mul@@
includes
bilirub@@
addi@@
tec
L.
Op@@
teen
clusion
lastic
observ@@
characteristics
table@@
2003
ually
exten@@
cover@@
predic@@
ty,
Europe.
breast-feeding.
BE@@
ker@@
polysorbate
implementation
July
66@@
ible@@
down@@
und@@
slowly
YY@@
eyel@@
ase,
assess
unlikely
liv@@
yel@@
Belgium,
glut@@
ital
consul@@
trade
stor@@
cris@@
cartridg@@
break
Eli
Eston@@
.com
coloured
eliminated
................................................................@@
rejec@@
joined
uring
kil@@
Sil@@
supervis@@
ounds
amended
J
resources
stem
potenti@@
sing@@
42@@
BIOLOGICAL
solu@@
pris@@
manufacturer
official
own@@
respec@@
procedures
leads
approach
ques@@
recognise
choose
(hypersensitive)
this.
ought
ys.
severe,
virological
wit@@
ot
regularly
ety,
igh
thyro@@
ized
y)
extension
20,
ed-@@
apar@@
os,
fluid
ys,
PRE@@
MA
55@@
concurrently
concomitantly
impro@@
(<
random@@
las@@
(O@@
sclerosis
repe@@
individuals
oty@@
thre@@
two-@@
enzy@@
tenofovir
ides,
hepati@@
finding
entan
hair
language
rin@@
uc
fever,
foc@@
ax
Dub@@
units
light.
mas@@
corticosteroids
receiv@@
dysfunction
2008.
extra
ack
packs
py@@
transplant
Public
urtic@@
therap@@
Number
yourself
oxygen@@
appointed
hormon@@
San@@
@@@
Du@@
liber@@
whilst
Pan@@
Food
shi@@
thel@@
deriv@@
reverse
”.
arrang@@
long-@@
chain
KwikPen
common:
industrial
Members
feeding.
policy
that@@
cloud@@
accid@@
objectives
mind
requires
forced
parents
vehicles
Can
things
hop@@
ίου
Perhaps
e'
alism
cu@@
(I@@
74
2.0
partial
appeared
insufficient
though@@
bir@@
ural
OPTISON
undesirable
body@@
invasive
minimise
aly@@
framework
virus,
rash@@

aemia,
worsen@@
formed
uz@@
nine
flow
1A@@
phenyl@@
genotype
7/
eded
Tritanrix
(n
classi@@
ric
relation
respectivel@@
ei@@
rhinotracheitis
flu
enza
=@@
incid@@
ile@@
dropped,
mixture
YP@@
component
palms
headache,
uro@@
angiotensin
abnorm@@
Applic@@
diagnosed
49@@
appropriate.
ousness,
Sw@@
muc@@
lation
cle
de-@@
shoul@@
carcinogenic
ranging
Finland
ches
vers
sector
nature
met
published
dre@@
pancre@@
galactose
71
chil@@
im
NG@@
ER
them@@
run@@
dest@@
che
IX@@
Three
Excipi@@
tures
Ba@@
projec@@
By
cep@@
Os
disappear
equipment
remov@@
specific@@
005
Over
UC@@
activity.
wid@@
mention
road@@
seri@@
erythropoietin
Greece,
jo@@
fentanyl
four@@
respect
future
tex@@
tic,
answ@@
security
hope
dead@@
μ@@
trag@@
country,
Without
avir/
calculated
CE
(800
blo@@
(6@@
will@@
fore@@
respectively,
adding
acetyl@@
(3@@
ab
performance
days,
oste@@
siz@@
Specification,
weight,
ther,
standing
unstable
ALT
V,
lo
capsul@@
affecting
permanent
ways
AF
examin@@
hydrochlorothiazide
absolute
properties
World
shel@@
Therap@@
contrib@@
CL@@
Mo@@
alert
Tim@@
SAR@@
board
approach@@
chemic@@
al-@@
ates.
malignant
Management
Pulmonary
-00@@
compani@@
diagno@@
double
avoided
problem@@
All@@
Tran@@
isolates
glob@@
proof
ality,
package.
below.
development.
..
level@@
Administration
EL@@
nigh@@
UK@@
bour@@
Dosage
build@@
OL@@
uting
Ltd
Belgium
only.
hood
thereby
box
sirolimus
roph@@
cream
vaccine,
noti@@
mixing
serve
taining
ize
carbon
HEX@@
vest@@
ya
transplant@@
MANUFACTURER
la
aphane
Latvi@@
ú@@
financ@@
antigens
drin@@
border
legislation
mutagenic
loratadine
oblig@@
chec@@
instrum@@
destro@@
erro@@
ality.
gn@@
fra@@
introduction
tun@@
viol@@
instance,
rights
employe@@
accidents
clim@@
!@@
mark
san@@
90%
decreas@@
attached
lop@@
(e.g.
low-@@
evid@@
vision
(2.@@
-treated
binds
mic
50,
89
gain@@
(90@@
reductions
som@@
fatal
l.
rolimus
marrow
origin
15%
beta-@@
blocking
CYP@@
adolescents.
au
Sur@@
nor@@
chemotherapy
1.0
chemo@@
basic
purposes
six@@
eight
slight
recurrent
Actr@@
observation
ility
displa@@
ic.
pharmacovigilance
ba@@
Free
consult@@
ne,
ta
75@@
tumours
ement@@
force
exper@@
deterior@@
greatly
act.
unit
antigen@@
Rare
ost
inated
DO@@
clotting
MIRCERA
Br@@
SEN@@
dig@@
bind
contin@@
-term
evaluate
liver.
hypertension.
web@@
med@@
precau@@
den
requirement
ety
metabolic
ρ@@
tase
clear@@
sci@@
sen
372
insuffici@@
energ@@
judg@@
Hung@@
radioactive
Attenuated
Czech
diseases,
depending
standards
ther.
withdra@@
style
feeding
batch
examination
ye@@
6/@@
damag@@
appli@@
ken
sulphon@@
ticles
Lithu@@
Mer@@
Christi@@
Cam@@
ch.
British
area,
recogn@@
annual
risk.
Austri@@
Ver@@
disc@@
Questions
fied.
world@@
sign
citizens
ort@@
acy
so-called
suff@@
e!
Ingelheim
68
entis
B,
normal.
larger
protease
9/
ered
patient's
response.
aesthesia,
stimulates
perfor@@
circulating
fem@@
enrolled
max
fr@@
wise
insulin.
trig@@
icin
paren@@
PD@@
asis,
osph@@
administe@@
cessation
60%
populations
adults,
mediated
glucuron@@
hist@@
excluded.
HepB
ongoing
acid,
aes@@
viv@@
Additional
experienc@@
yclin@@
lost
III@@
electro@@
macro@@
alk@@
fib@@
document@@
z,
73
experiencing
10,
cro@@
pumps
thiaz@@
intrac@@
irritation,
untreated
ves@@
Office
smo@@
spontaneous
Ur@@
detection
quantities
g/@@
version
deep@@
cast@@
far@@
isation.
lev@@
Special
contrac@@
ella
Botulinum
exerc@@
extr@@
orph@@
label@@
Portugal,
iver@@
acu@@
ak
disorder@@
failure.
ff
platelets
asse@@
carton
bo
breath
Kingdom.
organisations
cancer,
enlargement
assi@@
Lim@@
econom@@
ences
bet@@
TO
ls
container
primarily
candi@@
Α@@
children@@
productive
mel@@
contribute
beta
tan@@
future,
necess@@
transmission
64@@
consump@@
Medi@@
monoclonal
Ri@@
solvent,
foot@@
prescription.
life@@
SUBSTANCE
Intrav@@
administer
Ho@@
Metabolism
Bayer
hormones
der.
regular@@
over-@@
distribu@@
lives
innov@@
Commission,
plans
arrest@@
basis.
rely
cut
happened
statistics
Boehringer
Healthcare
stead@@
Note
CVMP
95%
fractures
achieving
methadone
alte@@
Risk
pneumonia,
isc@@
neuropath@@
hyth@@
reactions,
withdrawn
neck
short-term
multi-@@
swollen
Bo@@
looked
older
MD@@
HB@@
ulin
inhibitors.
(2@@
amino@@
PI@@
CHAMPIX
basel@@
patient-@@
INVE@@
icon@@
statistically
saquin@@
avir,
exhib@@
exacerb@@
pre-existing
day)
l,
went
returned
ating,
caem@@
disoproxil
generation
R-@@
........@@
_@@
exam@@
ase.
difficul@@
invol@@
iliary
ker
and.
shop@@
BYETTA
hand
sal
are,
sug@@
2).
baby.
Janu@@
Interne@@
expert
sy
agreement
table.
ideation
orth@@
kal@@
2006
pegylated
Reduc@@
t)
sodi@@
ported
experim@@
affected.
conventional
filter
oedema@@
Naglazyme
ia)
US
States.
mand@@
infections,
characterised
61
conjunction
arian
Business
armac@@
uk@@
72
Tel.:
labelled
ash
ING@@
osin
solv@@
anaesthesia
n,
VIR@@
ions,
ing;
professionals
collap@@
suggest@@
conclus@@
co-infected
prin@@
expect@@
limit@@
handling
fru@@
than@@
Tritace
mir@@
injection@@
Ru@@
budget
IB@@
st-@@
broad@@
St
atically
who@@
ched
Col@@
Just
quar@@
nal@@
claim@@
Tri@@
guarante@@
ven
discus@@
programmes
impression
buy
Look
West@@
President,
note
required.
R)
41%
omal@@
filled
chromosome
surveillance
hypoglycaem@@
antagon@@
II,
orphan
Yt@@
ingredient
(called
Gr@@
revealed
somnol@@
ties,
endpoint
erythema
program@@
behaviour@@
EF@@
border@@
ability.
intrav@@
ane@@
thrombotic
getting
surrounding
MB@@
tacrolimus
despite
agg@@
Seven
denafil
liter@@
John's
................................@@
refriger@@
analogues
blisters
useful
atr@@
epide@@
eric@@
VER@@
stages
volu@@
glucose-@@
child's
leave
gastro@@
acchar@@
guidance
closure
Na@@
Sign@@
macular
procedural
lactation.
ja@@
inium
Long@@
sequ@@
suspec@@
eu/
3.0
ACE@@
review
revision
sity.
factor@@
hydroxy@@
dexamethasone
belongs
diuretics,
Ra@@
Author@@
advant@@
expenditure
President
è@@
period,
avoided.
uni@@
pay@@
marg@@
expression
j
incin@@
stimul@@
transp@@
allowing
combin@@
approv@@
orally
zer@@
inverted
gel
rist@@
deliv@@
120
wn.
main@@
ADROVANCE
tot@@
paid
009
371/
372/
373/
EU/1/99/127/0@@
(%)
hydrochloric
view@@
know@@
Are
rising
Feline
heal@@
Slovenská
harm@@
tural
(L@@
hold
second@@
tern@@
psych@@
him@@
concerning
hot@@
Ul@@
memb@@
Ste@@
step.
ration
institu@@
cost@@
obvious
hun@@
hard@@
freezer
figure
power@@
nuclear
peac@@
Treaty
funds
ity?
Orphan
loxacin
pharyng@@
evalu@@
requiring
compon@@
circumstances.
advanced
correspon@@
group@@
g.,
NSA@@
absc@@
contraceptive
1.0@@
Kap@@
malignanc@@
ures,
Quality
sufficiently
propor@@
Other@@
anaphy@@
geal
potent
dep@@
toge@@
ward
embol@@
morning
4.5
days@@
CYP3A@@
riton@@
defici@@
disorders,
understo@@
osing
Tox@@
steady
subsequently
directed
0)
FlexPen
Thrombo@@
EMEA@@
research@@
cooperation
Pharmaceutical
compan@@
C-@@
Dec@@
ING
retinal
muscular
uron@@
heat
unit@@
involvement
adopted
pass@@
effectively
83
breast-fe@@
aking
UTE@@
emulsion
isol@@
rod@@
Serious
clean
cycles
r.
eyes,
rip@@
results.
Periodic
bil@@
mouth,
:@@
voriconazole
forwar@@
interrup@@
becomes
Wyeth
System@@
aft
horses
knowledg@@
CON@@
res,
istic
ugh@@
Qualified
surge@@
IR@@
culoskeletal
tile
alogue
intramuscular
ice,
pain.
ands
lay@@
],
....
OptiSet
Pack
ards
asse
concern
clean@@
tablets.
NovoRapid
source
HBV
BMS
Cardi@@
issued
acidosis
tra-@@
Sever@@
med
applying
fla@@
Sou@@
G1
weg
batter@@
ible
ar.
building
ong
administrative
restrictions
eating
diffe@@
bes@@
800@@
-based
scale
gives
wn,
achieved,
everything
nutri@@
intervention
Ram@@
amb@@
subsidi@@
concerned,
work,
priv@@
Yet
/96)
indications
tly.
adren@@
infusion.
yoursel@@
Assessment
inhibitor@@
ae
etary
vascular
react
ist.
Hel@@
pup@@
dy@@
woman
inflamm@@
BM@@
4.9
ability,
Effects
administration,
etro@@
0.25
sleep@@
see@@
-on
completed
finally
2,@@
secu@@
intr@@
amprenavir
younger
rod
synthesis
PO@@
ative,
FIR@@
ture.
one-@@
97
wom@@
men,
neuropathy
e),
y;
TMZ
somatropin
delay@@
Mixt@@
TRE@@
mob@@
famil@@
Further
sides
pseud@@
TION@@
renew@@
2002
animals,
lungs
topotecan
mechan@@
you,
ples
substr@@
spir@@
hypertension
ORACEA
positions
prac@@
nal
ior
Board
Dosing
eli@@
Wa@@
anticoagul@@
lum@@
ilis
alle@@
daily.
well@@
ensu@@
slow
discussion
leuc@@
Dysp@@
immunosuppres@@
pressure.
ly-@@
subcutaneously
congestion,
Gastrointestinal
cough,
ucle@@
alyse
odynamic
lor@@
conven@@
alfa-2@@
vascul@@
nursing
today
doctors
81
H,
®
absor@@
ogen
ols
Disorders
ada
eye@@
tigh@@
Candida
machin@@
+37@@
eder@@
em
is:
gas
Brussels
swit@@
sudden
controls
larg@@
Greec@@
areas,
self
ve.
substances,
bridge
protective
line@@
vehic@@
ept@@
dihydrogen
EXP
resuspend
windo@@
people.
nur@@
Inactivated
cel@@
republika
organiz@@
ž
able@@
astro@@
recru@@
former
tice
ingly
health,
mobil@@
fal@@
prior@@
sound
figures
pla@@
place,
anything
won@@
sort
scienti@@
farmers
violence
invest@@
though
sold
fishing
citizen@@
IL@@
eness
occurs,
given.
(T@@
antipsycho@@
STELARA
advisable
placebo-treated
7)
trial,
sions,
joint@@
uric
Phil@@
modification
clots
haemorrhage
recommend@@
transf@@
const@@
life-threatening
infiltr@@
liver,
ists,
fati@@
Ti@@
fos@@
inflammatory
tissue.
build
VAN@@
sof@@
ym@@
phy@@
prophylaxis
52
itching,
10.@@
reaction@@
trop@@
ipr@@
supporting
releas@@
oxide
eczem@@
PE
analysis.
MAR@@
factory
Six
meaning@@
stud@@
D3
gate
crushed
NovoLet
thick@@
photosensi@@
asthenia,
dizziness,
evaluated.
Cour@@
Irish
angina
operative
gover@@
log
thoroughly
Reg@@
adjust
86
num@@
UR@@
efficient
symptoms,
penetr@@
sustain@@
terro@@
7.
resist@@
premature
radiolab@@
Immuno@@
openia,
presid@@
attempts
multiforme
oxib
tissues
Urinary
showing
tasks
site:
Swed@@
asta
ex
white,
common.
eat
wort
aver@@
undertaken
1998.
van
Hou@@
Rapid
nucleoside
tolerance
limits
itate
Protec@@
phil@@
La@@
ber
supplements
reliable
outcom@@
AS
general,
Shel@@
t:
alum@@
position,
after@@
gland
Tre@@
ary,
reflec@@
marketed
foreign
CCID50
agu@@
blocks
all.
states
les.
commercial
nar@@
stopping
medium
present,
typ@@
dict@@
temporary
burn@@
House
Child@@
says
n.
recycl@@
water@@
limited.
hereditary
pens,
discussed
surgical
valsartan
ver,
Always
initiative
items
Decision
insi@@
detect
ified
tic.
seems
Or
Patient
Kar@@
understand@@
off-white
practice.
Rapporteur
which,
sizes
indeed
regi@@
fri@@
gies
May@@
traditional
victims
univer@@
euro
capit@@
Amendment
thly,
period@@
three-@@
CV@@
64
kne@@
358
etic
udin
sleep
metast@@
bleeding,
selective
Prof@@
gastric
cou@@
episodes
missing
Karve@@
Tracleer
icy@@
neon@@
join@@
reac@@
thrombin
dex@@
VA@@
Atri@@
AM@@
food@@
oprost
tam@@
HIV-1
album@@
favourable
proxim@@
neurological
92
25,
alkaline
μ
venous
70%
sub-@@
regim@@
fluoro@@
kg@@
NR@@
panleucopenia
(one
inity
pran@@
Ig@@
quanti@@
(200
TIC@@
estimate
triglycer@@
attri@@
inib
Venous
Events
siglitazone
ase-@@
lon
impair
motor
Luxembour@@
before.
ood
recovery.
nerv@@
Ret@@
succ@@
Disease
Starlix
agree
particles.
emo@@
formulations
association
04@@
bus@@
aneous
poisoning
quinol@@
Director@@
RT
ption
vastat@@
enhanc@@
ascular
Sustained
glyco@@
Interaction
P.
rial
Wat@@
net
membrane
--------@@
ro
Denmark,
Spain,
Ireland,
warnings
Men@@
tionary
addres@@
V.
residues
forward
project
mal
CP
blue
Tw@@
strateg@@
discard
Place@@
disodium
places
Unit@@
substitutes
PL@@
Main@@
pruritus,
anu@@
humans.
packaging
+372
SQUIBB
+46
c.
TS
itchy
nel@@
activity,
Ge@@
Opin@@
waiting
endogenous
copy
problem,
sett@@
yed
life,
suspension.
concerns
Sebivo
plung@@
4.2
manufacturer(s)
forme@@
variability,
virosis
Industri@@
ters.
(R@@
packag@@
cum@@
urea
008
364/
EU/1/98/0@@
clear,
contamin@@
shire
Ham@@
preferably
others.
strong@@
l'@@
accel@@
DE
Method
guar@@
create
bri@@
miss
wish
comb@@
ania,
hes@@
mun@@
suspen@@
Holder.
iber@@
hypoc@@
recommendation
summ@@
ly:
oms
sively
that.
compe@@
Whether
defend
death.
burden
health.
school
alloc@@
forc@@
emissions
government
job
prices
bureauc@@
arri@@
s’
syringe,
carton.
examination.
Ziagen
operate
pivotal
abov@@
alendron@@
cyt@@
sed@@
Suc@@
GONAL-f
mig@@
CN@@
rat
lymp@@
A-@@
x.
nicotinic
in).
inflixim@@
Neuro@@
cm
molec@@
ED@@
thrombosis
hormonal
propose
producing
Program@@
ranged
diarrhoe@@
stit@@
-free
seizures
order@@
subjects.
ab,
alf@@
infection@@
daily,
otitis
vehicle
rivastigmine
ococc@@
ulcer
solid@@
strictly
ocor@@
scores
D,
HD@@
anth@@
37/
performed.
Tas@@
(12
laid
Si@@
cars
poli@@
single-@@
ciclosporin
lymphocyt@@
salmon
volunteers
Anim@@
amlodipine
intensi@@
appearance.
Inno@@
MabThera
omat@@
ellular
add
9-@@
activation
NAME@@
ome
/E@@
availability
ram
discharg@@
permitted
ses.
famili@@
advantages
ts:
introduc@@
agon@@
eti@@
Min@@
relev@@
lig@@
certific@@
rhabdomyolys@@
aggrav@@
epileptic
Ty@@
committe@@
surgery.
pressure,
pump
establish
●
alpha
tools
party
liferative
atur@@
inform@@
glycoprotein
Syn@@
(hyper@@
oring
alise
flav@@
s):
WITH
ential
Preparing
known:
-up
pregnancy.
agulation
information,
changes.
rous
travel
SL@@
BRISTOL-MYERS
Bal@@
ting,
INE
activated
effici@@
sex@@
mail@@
Regul@@
patient.
manufacturer@@
System
omyc@@
sa
cup
properly
resid@@
minimal
appear@@
diet.
hot
nitro@@
014
010
pack.
84@@
his@@
ι@@
milky.
kers
roc@@
Tem@@
ato@@
chair@@
ends
doctor@@
vessels
accepted
understand
exist
play
opportunity
process@@
genic
considerable
23@@
sent
hous@@
threat@@
Elderly
implement@@
presents
success
methods
seriously
Reference
colon@@
'the
production.
by-@@
sidi@@
deal@@
România
trad@@
terroris@@
countr@@
tonnes
traffic@@
coast@@
came
unemployment
ations?
(A4-04@@
53
DK@@
96
AMMONAP@@
gran@@
Leuk@@
stavudine
addressed
rout@@
Symptoms
monitored.
agonist
routine
FS@@
loss,
disorders.
tle
ropin
symptoms.
flushing
week,
Type
(5@@
Effentora
tox@@
insom@@
aconazole
electronic
overweight
transpa@@
certain@@
disab@@
micrograms/
extensively
Kineret
ained
Phase
58
step@@
mg/day)
take,
docetaxel
manner
a;
erythro@@
sco@@
osin@@
mellitus
Ras@@
pharmacological
somewhat
6)
ters,
movements
courses
resuspended.
clumps
sac@@
P450
depression,
employed
John@@
Servic@@
Official
Research
susceptibility
immunity
disease)
Ox@@
Cent@@
eting
intest@@
udra@@
77
Moreover,
administr@@
sampl@@
benzalkonium
Sum@@
Plac@@
ET@@
ribavir@@
Tc@@
SY@@
documentation
gres@@
underlying
omas
Tev@@
conduc@@
switched
pec@@
qui@@
delays
frequ@@
ious
wards
proce@@
lp
2005,
onic
OM@@
ote
stro@@
ision
out,
ously.
ush
cold
ough@@
intolerance,
malabsorption
piece
seconds
promp@@
areas.
itors
rif@@
dizziness
odium
adjustment@@
distrib@@
Fil@@
66
ency@@
oth
muscle.
brea@@
Nespo
now@@
-filled
Gal@@
Solo@@
affinity
Sa@@
business@@
vary
liqu@@
ass
1998
enh@@
expec@@
straight
communic@@
interven@@
referral
gon@@
defenc@@
practic@@
carbohydrate
aging
excipients,
mix@@
Fab@@
ata
Alduraz@@
ie
microgram
Puh/Tel:
Vic@@
F2
natur@@
contraceptives
mention@@
ild
recognises
Iscover
gent@@
competitive
ans.
success@@
ong@@
Austria,
simpli@@
obvi@@
Mix@@
fig@@
sense
injury
informed
sourc@@
5-0@@
remember
mg/24
thern
wish@@
ANY
mistak@@
industri@@
run
example@@
private
Europeans
freed@@
mom@@
huge
prison@@
pun@@
sou@@
illegal
?@@
fisher@@
ers?
true
ve?
(vote)
it?
ciprofloxacin
blood.
tremor@@
Unit
meas@@
gastroenter@@
myocardial
ID
alopec@@
discharge
lansopraz@@
µg
atinib
arthritis,
Trevaclyn
olan@@
vig@@
psoriatic
EM@@
ference
indicating
modified
throat
affects
bound
11.@@
ecu@@
readily
died
4.4@@
vildagliptin
stimulating
consti@@
-to-@@
carb@@
AU@@
HCV@@
i.e.
known,
heart@@
0.2
estim@@
glu@@
HPV-@@
d:
y).
lipo@@
PA@@
alising
Kep@@
marrow.
metres
≤
volunte@@
IV
ised.
omal
alan@@
AUC@@
infant
taste
cytochrome
unlikely.
dulox@@
etine
pandem@@
latest
anaem@@
Concer@@
blur@@
ñ@@
ater
Evaluation
Secret@@
rences
preci@@
dehydrogenase
ophob@@
Joint
ts@@
suppression
influenz@@
°C
bar
suppli@@
pression
iro@@
severely
emphas@@
tial
mac@@
December
seal
ELISA
EXJ@@
egal@@
esp
secret@@
officials
62
glioblastoma
cos@@
persi@@
clude
awa@@
Repe@@
Single
lotinib
Ir@@
Infl@@
dissemin@@
ves.
21@@
eful@@
VAT@@
examinations
iod@@
b,
eu
w.@@
syndrome.
cholesterol,
ene.
ture,
skin.
dissolved
+49
uv@@
KE@@
Bud@@
ancy
epidermal
Keep
anosine
ide)
digo@@
xin
dihydrate,
tos
Tél@@
…
Ter@@
Total
arms
ny
AID@@
OX@@
sn@@
SARL
Due
cycl@@
stituted
Norge
Chlamy@@
vial,
moving
Rue
opaque
rich@@
holding
became
office
towards
share
ushed
pac@@
dog@@
bility
enter
core
responsibil@@
BeneF@@
syringes,
gir@@
poetin
grounds
TIONS
solvent)
011
check@@
prefer@@
ents:
hydroxide,
anhydro@@
dg@@
Thyro@@
Fondaparinux
Go@@
lied
Slovak@@
occ@@
Ten@@
í
Suomi/Finland
bodi@@
wo@@
prohib@@
times,
necessar@@
accordingly.
ared
(AIDS).
explain@@
ambi@@
accumulation
Pugh
Finland,
speed
forgotten
LV@@
ied
infra@@
ag
ern
Clopidogrel
regime
move
labour
mar
otype
Recon@@
urgent
legisl@@
impossible
ession
book@@
sent@@
virtu@@
vulner@@
mass@@
ither
danger@@
Remember
matters
ean
Another
answer
traffic
military
sea
dram@@
Mc@@
Could
ago
Directive
democrac@@
justified
y!
/1999)
do?
this?
(A5-04@@
Novartis
tetan@@
alu@@
VICH
ipraz@@
chemi@@
.)
inclu@@
pil@@
benzodiazep@@
intraven@@
Kiv@@
circul@@
foetal
Such
breathing,
carcinogenicity
carc@@
Syndro@@
severity
extreme
attacks
1%)
idation
rough
maternal
(i.
earli@@
CEPROTIN
ringing
CS@@
poin@@
signific@@
oma,
alidomide
AVA@@
p=0.00@@
home
headache
ycl@@
QU@@
phosphat@@
methotrexate.
zapine
genit@@
ults
common@@
micrograms/@@
density
0.3
myal@@
antibodi@@
ancer
9%)
scler@@
gone
paclitaxel
-derived
resonance
efaviren@@
EVRA
6-month
grap@@
incidences
notic@@
defer@@
AF@@
edrine
Febru@@
occas@@
ich@@
posts
Brussel@@
Labor@@
specialised
Rev@@
EMENT
principles
titanium
patches
doc@@
conjunctivi@@
ADE
regulatory
Also,
oesophag@@
ADMINISTRATION
prevent@@
oxy@@
tolerated
minutes.
agents.
slow@@
ulo@@
aber@@
developments
See
professional.
dysfunction,
locyt@@
anaemia.
/4@@
block
infarc@@
ograph@@
thoughts
parenter@@
mation
ambris@@
reve@@
occasionally
swab@@
taneous
Netherlands,
enz@@
suppres@@
Changes
AZ@@
inuria
syring@@
oler@@
needle.
spon@@
tite
Cro@@
hn@@
Objec@@
Mean
iness
physicians
ographic
Rare:
Prad@@
ruption
thing,
gel@@
qualific@@
moist@@
substit@@
Minist@@
Madrid
tech@@
oestro@@
W)
kilog@@
immunisation
rine
compli@@
E,
rex@@
Pal@@
ks,
Nov@@
Ci@@
Co-@@
production,
iris
Bur@@
terfen@@
physici@@
complex
additives
lights
proved
ately,
tives
removal
calcul@@
cimeti@@
Neoclarityn
touch
mitting
potassium-sparing
ams
SOL@@
146/
08@@
369/
375/
377/
X/
thing.
Kent
ley
ASC@@
haemodialysis
Lis@@
U.
Sy@@
Put
element@@
ania
ck@@
č
guarantee
conce@@
unborn
Malta
implemented
provis@@
Aug@@
resc@@
stock
varies
connection
anyone
minority
Can@@
debate
THER
Mark@@
tas@@
replaced
review@@
Union,
ifi@@
ARE
stic@@
down.
sl@@
γ@@
uble
compul@@
accept
tors
pu@@
amend@@
char@@
Follow
ij@@
provisions
place.
jus@@
soldi@@
thousands
fuel
Council@@
pestic@@
passeng@@
billion
job@@
(
Indi@@
opol@@
re?
day:
Effec@@
dela@@
GL@@
brovascular
pioglitazone
randomized
race@@
fallen
s'@@
accident
dehydr@@
medicine,
izumab
hypertension,
tility
natal
contracep@@
mann@@
Liv@@
lot
pooled
months,
lex@@
formulation
51
Rel@@
2),
haemorrhag@@
TA
immunoglob@@
shock@@
solution,
discomfor@@
illness
ofovir
tap@@
trav@@
12.@@
great@@
functional
icill@@
olys@@
cispl@@
retur@@
ORI@@
blin@@
Pegasys
periodic
good@@
herpesvirus
Peripheral
SE
hem@@
µg/
inyl
ki@@
phal@@
oti@@
SPRYCE@@
MIR@@
ophthalm@@
67@@
frosted
colourless.
ologically
thi@@
oeph@@
Depart@@
degre@@
Medic@@
pel@@
responsibility
aviroc
det@@
illness,
ting.
redness,
act,
sia,
respective
Non-@@
Tal@@
elap@@
ners
(approximately
Lab@@
Ear
hearing
MS
erythema,
vaccination.
deleg@@
REN@@
Injury,
Doses
Exc@@
Concomitant
Paxene
CD@@
tary
sely
HM@@
TRA@@
shock,
compati@@
eu.
anticipated
cholester@@
dl
meetings
idine
warm@@
Nut@@
even@@
bot@@
utsch@@
turning
fit@@
Ef@@
swallowing
figh@@
glycerol,
ona
endoc@@
OptiC@@
ße
supplements,
Ep@@
transferred
finger
mend@@
represent
ms@@
TAKE
a:
movement
changing
vomiting.
nom@@
tor.
bag
brand
sam@@
stops
IONSYS
ori
enty
inactive
compartment
ral
instructed
carefully.
committee
big@@
avail@@
alter
ition
arity
itary
adjustments
zon@@
tising
ulative
land.
376/
15/
35/
97/
revis@@
spra@@
SoloStar
sun
bub@@
sorbit@@
year}
Subjects
asc@@
zi@@
180°
enous
a's
Oy
500@@
..@@
ow@@
opo@@
los
ler@@
planning
watch
FR@@
KOGENATE
At@@
obstruc@@
itor@@
contraception
oxidase
periodically
rastim
and-@@
obesity
hur@@
Hungary,
Poland,
(MAO@@
atard
Bu@@
shared
discre@@
particul@@
be.
believed
regions
Latvija
foun@@
methoxy
ice.
campa@@
world.
τ@@
fed
uth@@
surve@@
wrong
stand
parliam@@
exces@@
weap@@
Ira@@
immigr@@
Commissioner
income
jobs
dang@@
where@@
cultural
inhabit@@
inflation
Nos
fact,
interests
Ce@@
Trizi@@
occur,
levodopa
anted
Viani
rate.
capac@@
duct@@
82@@
catt@@
tam
absence
ines.
Prometax
elecoxib
care.
sensi@@
enlarg@@
ills
offspring
rats
aud@@
Star@@
HIV-@@
open-@@
Pelzon@@
12-@@
body's
yc@@
4.6
lide
avoid@@
β
adhes@@
process,
gemcitabine
dermati@@
corticosteroid@@
responded
8)
confusion,
activi@@
erythropo@@
fluoxetine
(50
teluk@@
EV@@
ography
dic
IU/@@
(1,000@@
5).
tests,
99
essentially
Fast@@
sugges@@
TE
Equilis
cles
eye.
emtricit@@
mol
parent
ovarian
gain
TENT
mice
CY@@
apo
Prot@@
embolic
double-blind
1996
ATION
_
Mag@@
}@@
tumour@@
tested
experience.
spa@@
Conference
Techn@@
coordination
ordination
surpris@@
degener@@
punc@@
bis@@
sugammadex
surfac@@
ths
(E17@@
development,
bones
labor@@
tability
angi@@
18.@@
environ@@
acks
Ob@@
Post-marketing
Aran@@
Head@@
97@@
symptom@@
triglycerides
Specific
eletal
Mul@@
thal@@
1,000
amongst
export
P)
incorpor@@
pren@@
http:/@@
431
comprehen@@
okinetic
filgrastim
implic@@
EU,
Parliam@@
Council,
rists
irreversible
behind
d)
0.2@@
ets,
Colleg@@
Univer@@
Lond@@
genetic
Don@@
sector@@
thereafter.
tenance
Recom@@
cough
mini@@
chro@@
Sp@@
GE
@merck.
artificial
zz@@
oxetine
shar@@
simplex,
Cat@@
advice.
LIF@@
ited,
Elimination
ophila
vein.
ories
Laborato@@
Har@@
lock
assessment.
continued.
argum@@
pha@@
incre@@
Aprovel
damage.
transparency
life-@@
exception
infants,
simple@@
expl@@
α@@
phenomen@@
rit
wal@@
simil@@
ultr@@
Americ@@
(10
012
103
wine
ηλ@@
b.
Rou@@
P,
beginning
Rh@@
middle
origin@@
gene@@
Glustin
STI@@
ib.
structur@@
Engl@@
Hydrochlorothiazide
continue/
benec@@
equipped
reflect
half-@@
ative.
REAC@@
repa@@
extended
justifi@@
De
occup@@
intention
er's
Franc@@
Key
dered
relatively
sump@@
offer
Lietuva
fif@@
she@@
pointing
precis@@
plants
later.
happening
US@@
draft
succe@@
payments
laun@@
Vaccines
illness@@
processed
dun@@
increasingly
tain
scheme@@
say,
MERI@@
unwanted
Now
Union@@
Sandw@@
9N@@
big
inde@@
MATERIALS,
holid@@
ud
expect
mium
moun@@
suffered
conflic@@
duty
jour@@
saying
moment
Would
crimin@@
Commissioner,
ler
dish
pressu@@
infection)
Imp@@
contribu@@
manife@@
inclusion
peg@@
margin
oxid@@
stomach@@
sarcom@@
tissu@@
secretion
er)
prolong@@
metr@@
esis
NA
oly@@
indicated,
attach@@
otic
Contro@@
bos@@
life.
ologic
length
scan@@
emergency
lafax@@
postmenopausal
fix@@
reaction.
6.
dox@@
estr@@
overed
pharmacology
ins,
Vis@@
spondyli@@
fro@@
imag@@
sper@@
esti@@
itching
mercur@@
opro@@
fumarate
levels,
ren
pram@@
smaller
iso@@
detail@@
declared
approval
March
9.
isation@@
f-life
cells,
tempor@@
biotechnolog@@
faec@@
Spanish
travirine
error
Sk@@
caus@@
chamber
y's
sucro@@
designated
began
Hep@@
congenital
inth
aller@@
elled
nia
gia
essive
High@@
Consi@@
volun@@
oxygen
istax@@
--@@
----@@
woman.
dema
Care
sick@@
experts
lithi@@
”).
Del@@
Opti@@
Ελλάδα
ος
charge
not@@
your@@
Industrial
Sci@@
conges@@
platel@@
ist,
mail:
rob@@
ody
ats,
aven@@
ever@@
sympath@@
aggreg@@
Hydro@@
MP
mot@@
dings
estonia@gsk@@
spas@@
erv@@
Nic@@
ris

Grou@@
Republic,
pub@@
Harmon@@
Combin@@
inadequ@@
neutropenia
disrup@@
attention.
Should
substantial
Women
communication
stabil@@
per.
synthetic
method@@
gradual
occurrence
utro@@
onex
gras@@
ç@@
North
thum@@
dispersible
Repub@@
film@@
{month@@
lef@@
problems.
capable
English
Romania
art
Bulg@@
stimulation
trying
esul@@
cam@@
asked
Committe@@
a).
Parliament@@
possib@@
remin@@
emission
worth@@
practice
Econom@@
morning.
false
piec@@
promotion
foreign'and
warfarin
fut@@
bec@@
mysel@@
cigarett@@
rejection
Memb@@
nex@@
Prac@@
soil
got
11.
instead
ā
successful@@
tail@@
imprint
Air@@
gam@@
glycol-epoetin
mass
category
mechanisms
promis@@
link
putting
arle@@
fear
President@@
antic
ically,
fend
hours,
police
territ@@
ers'
problem.
credit
symb@@
y'
BSE
sav@@
appoint@@
agricul@@
motor@@
ago.
ts?
Does
?'
be?
shock
groups,
older.
recor@@
immunological
continuous
awareness
birds
0.00@@
Blo@@
events,
tent
follow-@@
hoe@@
accumul@@
dogs.
class@@
itive
loxac@@
put@@
vitamins
EME@@
practical
retro@@
profil@@
substanti@@
20-@@
sensitiv@@
mellit@@
auc@@
fam@@
rosis,
covering
ferti@@
ediatric
Bet@@
Pub@@
Development
essor
Group
Scientific
session@@
potassi@@
rants
iden@@
pink
wise,
Ukraine
submit@@
lens@@
prepared
ch-@@
Af@@
tec@@
dust
ses,
ingu@@
ours
ited.
flush@@
rab@@
tolerated.
nose,
foet@@
8.
registered
tious
am.
Incre@@
fluctu@@
neutropen@@
Continu@@
voice
ech
mentation
vess@@
regres@@
Fri@@
veget@@
Cer@@
thousand
hundred
Saint
otherwise
schedule
Thro@@
reat@@
TIV@@
light,
specif@@
enhanced
feed@@
libr@@
database
forec@@
s/@@
focus
operation.
more,
condi@@
pregnant,
suppor@@
insec@@
fle@@
schedu@@
presc@@
specified
paragraph
hence
identify
manufacturers
Hu@@
past@@
ylene
child,
opposite
Vol@@
bal
fertil@@
tivel@@
eb@@
lav@@
ink
Alb@@
elements
Simp@@
identified,
pover@@
anding
eradic@@
knowledge
session
idity
profession@@
beneficial
special@@
Ga@@
Cur@@
travel@@
olig@@
ority
technolo@@
table,
accept@@
tobacco
princi@@
pro-@@
announc@@
goal
conserv@@
contract
involv@@
Ombud@@
scope
ty-@@
when@@
stress
Ukra@@
tained
regarded
So@@
actual
expensive
ap
consequenc@@
society
resourc@@
expen@@
ing'
pesticides
sentenc@@
fair
kilome@@
war
unfortun@@
s'.
newspap@@
pollution
mak@@
school@@
Israel@@
gem@@
ped.
seve@@
diagnos@@
oci@@
prurit@@
grade
impa@@
destroyed
excre@@
action@@
injuri@@
survi@@
migr@@
RA
interfere
pop@@
12,
LT@@
reversible
components
er:
inary
threshold
uptake
decreasing
fovir
looking
egg@@
ograp@@
asal
nee@@
coll@@
tendency
rapporteur@@
samples
ns
audi@@
aspec@@
ating.
appearance
hol
Centre
ress
rou@@
ner@@
preventing
spinal
program
asth@@
ix
sim@@
aer@@
data.
men.
ted@@
ion-@@
collected
programme,
sume
bovine
distributed
spot@@
dium
loy@@
vas@@
transport@@
chem@@
een
performe@@
nose
stil@@
monitor
pose
member
centralised
Spec@@
exclus@@
attack
resolv@@
measurements
pum@@
widely
case.
Peg@@
vely,
anium
Mac@@
spread@@
press
regulated
ries
Fir@@
languages
ves,
aqu@@
easy
meet@@
oglitazone
pregn@@
animal@@
ali@@
serious@@
worl@@
tly,
to.
protected
ten,
benef@@
gender
near
term@@
scap@@
illing
compu@@
λ@@
absolutely
Bri@@
hed
support@@
–@@
picture
women@@
funding
arbit@@
rese@@
distance
rubb@@
safe@@
favour@@
zero
legislative
luc@@
ta,
Ta@@
markets
tively.
ond
television
country.
prospec@@
change,
ife
explan@@
stac@@
critic@@
less.
án@@
contamination
travelling
ibility
decisions
langu@@
other.
refuge@@
payment
stoc@@
profit@@
banned
identity
neigh@@
where.
tax
dol@@
journe@@
orts
hecta@@
tradi@@
envis@@
aband@@
Islam@@
aircraft
Swe@@
pull
minute
HI@@
ock
latter
osteopo@@
hygi@@
regardless
produces
amma@@
interested
concern@@
implemented.
oter@@
resi@@
antly.
yro@@
add@@
visits
circ@@
p=@@
(U@@
tum@@
restricted
influenza
exact
discussions
initiatives
involved.
”@@
practices
coordin@@
immun@@
proc@@
e/
MAO@@
LE
provided.
effect,
conduct
ACT@@
menopausal
med.
mail
transmitted
hyp@@
acter@@
sulin
Puh@@
ternal
ary.
hydrate,
sz@@
arma
acqu@@
ham
Ve@@
amin
worth
Stock@@
dementia
ages,
lad@@
usal
Treat@@
phylac@@
scheme
maintain@@
susp@@
categ@@
gar@@
recomm@@
hand,
seem
d;
rolim@@
claim
keeping
hid@@
fundam@@
fundamental
Pati@@
vacc@@
ffici@@
virus.
sectors
Frank@@
lap@@
distingu@@
hazard@@
text.
tren@@
solutions.
execu@@
simple
exchange
teleph@@
ok
CO2
onin
context
significance
gram@@
vital
oe@@
entr@@
discrimin@@
vie@@
sitting
exceed
get@@
Dem@@
ships
carrying
Alzheim@@
commod@@
motiv@@
damaging
contra@@
programm@@
Turk@@
enough@@
Scot@@
intellig@@
beg@@
th-@@
ury
pollut@@
tack@@
Mediterran@@
prison
ship.
civil@@
referendu@@
namely
scho@@
han@@
million.
politic@@
condem@@
foodstuff@@
bomb@@
am,
population,
circumstanc@@
gal@@
va@@
measurement
suffici@@
paper
aryn@@
dementi@@
ogn@@
surviv@@
polys@@
itch@@
chromos@@
capsu@@
ides.
't
carcinogen@@
____@@
acted
organisation
ely,
ath
minut@@
techni@@
59
docum@@
ffic@@
ger
trend
made.
Adequate
yiel@@
afil
To@@
simul@@
tail
diabet@@
Sud@@
aris@@
@m@@
investigation
Bec@@
neutro@@
sparing
remaining
…………@@
abdom@@
aryng@@
entering
W
stuff@@
marks
weak
elected
assessing
udine
descri@@
feat@@
ild@@
benz@@
once.
sure.
sus@@
replac@@
quickly.
prescri@@
og
independ@@
ient
eep
lamiv@@
SUBST@@
ê@@
phys@@
film
epoetin
impair@@
urely
made,
exists
grams
eph@@
nevertheless
personal
exemp@@
e's
pleas@@
record
poison@@
pric@@
space
distur@@
equip@@
measures,
hu@@
phr@@
here.
espre@@
by@@
preven@@
urity
largely
meet
end.
itsel@@
GD@@
purch@@
created
vil
totally
Parkinson@@
Brit@@
then,
Δ@@
producers
sory
Union.
evi@@
cultiv@@
genu@@
existence
pollu@@
allotted
saw
forest@@
passengers
passp@@
alism.
now,
leav@@
leagu@@
there.
patent@@
do,
(A4@@
guid@@
Environ@@
ready
sus
ially
tware
MED@@
spent
tim
rite
Sc@@
mmol@@
episod@@
cles.
Ben@@
registration
ment:
tric
feel@@
conjunc@@
etr@@
dealt
onaz@@
/ww@@
dail@@
licen@@
criter@@
electric
dema@@
psori@@
fresh
statistical
inu@@
TION
noise
so.
etaxel
MAN@@
ped,
tee
dizz@@
ston@@
ift
vast@@
dispos@@
isations
rub@@
economy
ino@@
UB@@
fen@@
ove
excipi@@
network
eve
Madri@@
EU/1/00/132@@
off.
ria
released
ou
vented
processing
institutions
wea@@
ardis@@
incen@@
written
ished.
ing-@@
meant
iry
munic@@
declar@@
flight
late
possible.
environment@@
antly
litre
orders
fare
promo@@
alogu@@
electricity
Dutch
year-old
unemploy@@
today,
citiz@@
legally
investment
rison@@
Amend@@
Circ@@
whil@@
Hum@@
partner@@
atively
oglit@@
contraindic@@
grad@@
pill@@
perform@@
function@@
calci@@
BI@@
rological
blad@@
electr@@
conj@@
leafle@@
cir@@
extrem@@
ronic
centr@@
themsel@@
clud@@
hic@@
heim@@
youn@@
steroid@@
els,
dermal
research,
mature
orbate
č@@
adul@@
ky
sex
posite
stered
ges@@
aled
Commission.
operational
amlodip@@
radic@@
EU/1/00/131@@
billi@@
mos@@
Ren@@
equival@@
iel@@
ive.
emul@@
regulations
oric@@
fruit
to,
Chin@@
crucial
suggests
concerned.
choice
dru@@
entit@@
ogenous
gri@@
appro@@
again,
appreci@@
warn@@
Characteris@@
disper@@
decision.
heav@@
rule
tention
ordinary
ateg@@
ough
man,
however.
Ά@@
deser@@
abuse
goods
bey@@
millions
tionally
contro@@
democracy
Fren@@
wron@@
Palestini@@
aline
to-@@
iness,
aesthes@@
suic@@
Oc@@
tubercul@@
bron@@
neum@@
ira
9)
8).
bridg@@
confus@@
membran@@
desirable
estig@@
parame@@
bli@@
bat@@
Admini@@
associ@@
Suomi@@
Gmb@@
hydrochlor@@
flow@@
hib@@
dise@@
guidel@@
anaesthes@@
porteur
residu@@
admini@@
With@@
of-@@
rhinotrache@@
Associ@@
careful@@
ingredi@@
sudden@@
Bus@@
consi@@
@gsk@@
whatever
ession@@
understanding
side.
credi@@
comfor@@
duce
Jo@@
oh@@
fron@@
boar@@
built
desc@@
uated
countri@@
servic@@
pers@@
giv@@
kno@@
stem@@
supp@@
imagine
es!
ented
enable
bad
ø@@
zidov@@
buil@@
hos@@
efforts
×
ety.
glycer@@
pared
sell@@
prove
azep@@
ury,
ul
tar
poll@@
detailed
vul@@
ounc@@

relates
corpor@@
idence
potassium-@@
Ger@@
show@@
neumon@@
š@@
3A@@
enforc@@
counterfe@@
dihydro@@
refer
immedi@@
blu@@
§@@
ó
refer@@
>@@
Neu@@
lon@@
Manufacture@@
grastim
ite,
standardis@@
essenti@@
categories
eted
belong@@
origin.
anrix
rele@@
profloxacin
Meth@@
anticip@@
extensive
ately.
rency
thetic
gol@@
American
wast@@
deficit
First,
hund@@
too,
statis@@
fire
everyone
poverty
merely
families
believ@@
penal@@
kid@@
vention
not.
maj@@
mph@@
trex@@
cyto@@
ICH
double-@@
gh
Tarc@@
sted
rence
maxim@@
offici@@
Thir@@
↔
monit@@
Gl@@
dilu@@
subst@@
orrha@@
blind
chole@@
agliptin
adolescent@@
eutic@@
vice
Produc@@
thiazide
ensi@@
rough@@
'and
formin
chloro@@
conv@@
recommen@@
—
pet@@
NT
Vacc@@
thresh@@
ause
ft
ver.
Sing@@
Flex@@
porteur@@
ā@@
ME
eth
rot@@
reven@@
influ@@
aspect
dividu@@
arch
shoc@@
bad@@
claims
Report@@
enormous
anced
thinking
efficiency
Isra@@
mbo@@
acco
tres
ey
refe@@
democr@@
techn@@
suffe@@
civ@@
words,
ince
bit
principle@@
Mad@@
know,
pite
⋅
tho@@
swell@@
ocardi@@
abolism
cough@@
leak@@
recover@@
inogen@@
leng@@
agen
__@@
ween
Heal@@
farin
erythem@@
antic@@
Equ@@
bate
asone
dex
----------------@@
conside@@
aphy@@
osensi@@
Respon@@
Κ@@
op
withdraw@@
fec@@
publish@@
n't
abs@@
ovigil@@
affec@@
oured
stration
ices
ulin@@
atel@@
ovascular
pens@@
vents
realis@@
Fol@@
Pregn@@
asthen@@
survey
bloc@@
obes@@
amoun@@
etan@@
wer
haemodi@@
Do@@
ease
meti@@
rapid@@
fair@@
counter@@
small@@
Dy@@
deter@@
roun@@
house@@
bom@@
paragrap@@
.:
victim@@
what@@
Any@@
eful
arthri@@
synthes@@
ender
zap@@
secon@@
ison
ophthal@@
lung@@
rheum@@
FRO@@
450
AUTHORISA@@
defic@@
Coun@@
onium
ep
tigmine
hydrogen@@
arrhoe@@
ton.
agen@@
mes
Intron@@
----------------------------------------------------------------@@
stent
muscle@@
lowing
del
alfa@@
Park@@
bleed@@
ildagliptin
emis@@
The@@
subcutane@@
hydrate
CHM@@
tridg@@
haemorrha@@
Saf@@
ANCE
ú
Á@@
Ris@@
serot@@
Trit@@
crit@@
Sand@@
tific@@
alities
sever@@
surg@@
diab@@
Slov@@
fied,
expendit@@
land,
ith
grant@@
compreh@@
inno@@
regar@@
dom
plain@@
itable
ardi@@
hin@@
methotrex@@
(0@@
arily
Irel@@
PRI@@
oesopha@@
ource
e.g.
cophenolate
mptom@@
G-@@
n=@@
adol@@
mutagen@@
Virafer@@
perman@@
Lt@@
nucle@@
euticals
TIVE
eutic
Netherland@@
Chang@@
Ó@@
ß@@
EU/1/99/1@@
mach@@
inotrache@@
sty@@
Lat@@
iatric
-fe@@
pointed
Kingdom@@
neph@@
begin@@
ylated
extre@@
tric@@
pend@@
actor
Protop@@
wanted
cigare@@
TM@@
ope
TIN
É@@
hibition
sori@@
uff@@
iter@@
print
responsib@@
ani
tob@@
year-@@
hec@@
Unfortun@@
intro@@
(A5@@
CONST@@
cess@@
agul@@
glycol@@
galact@@
ison@@
respir@@
clus@@
verte@@
vals@@
through@@
dissol@@
off-@@
Win@@
Dos@@
haemophil@@
recur@@
cler@@
--------------------------------@@
Hepati@@
volum@@
jec@@
gram
tricit@@
Fac@@
fumar@@
stom@@
Q
Portu@@
Λ@@
@merc@@
oglobin
menopa@@
Intro@@
len
echnolog@@
intramus@@
vom@@
Consequ@@
ib
plement@@
transpl@@
rel
ská
oud@@
NG
atropin
Pfi@@
thrombo@@
adequ@@
bud@@
opraz@@
quick@@
ery@@
func@@
vac@@
Sain@@
electron@@
rus
pes@@
ī@@
Clin@@
compart@@
´@@
dou@@
dle
mitted
ufact@@
domin@@
mine
phylaxis
schem@@
desir@@
relation@@
this@@
answe@@
rying
over,
commer@@
peop@@
again@@
Every
aircr@@
place@@
poten@@
ival@@
circum@@
character@@
tom
surveill@@
lox@@
mon
orig@@
Pax@@
otechnolog@@
calcit@@
EXUB@@
Í@@
Indu@@
SPECI@@
surger@@
creatin@@
quin@@
levod@@
Cont@@
previ@@
onc@@
enol@@
netic
partic@@
ximately
f-@@
Bot@@
ld
§
uro
β@@
Health@@
Fran@@
suc@@
ampren@@
RELE@@
psycho@@
suscepti@@
retroviral
pharmacokine@@
mati@@
180@@
Jun@@
ount
hibi@@
frame@@
esp@@
ş@@
enty-@@
look@@
doct@@
democ@@
ticle
waste@@
hab@@
fortun@@
Shar@@
becom@@
cig@@
ł@@
æ@@
resuspen@@
UF@@
inic
sligh@@
±@@
alog@@
Further@@
Offic@@
CCID@@
lun@@
includ@@
Post-@@
xi@@
seud@@
Peri@@
til
π@@
ocial
fficul@@
…@@
à
º@@
Ε@@
Common@@
Kwik@@
Wy@@
concomit@@
biv@@
datab@@
Pul@@
ampou@@
†
yethylene
ν@@
ret
VANCE
vent
AST@@
rand@@
→
sym@@
S).
ior@@
fent@@
Dev@@
omen@@
vely
fum@@
σ@@
ciclospor@@
refrig@@
idom@@
milk@@
i.@@
tivi@@
etal
coord@@
roughly
There@@
sla@@
ich,
ă@@
forgot@@
entally
Every@@
Cz@@
echn@@
Boe@@
foreign@@
gast@@
surroun@@
utr@@
inflam@@
sess@@
genital
econ@@
ύ@@
anos@@
cular
Β
OG@@
bum@@
headach@@
Tracle@@
Tru@@
include@@
oint@@
cents
ž@@
♦
arcom@@
prescrip@@
malign@@
ë@@
odynam@@
rece@@
Effentor@@
exact@@
habit@@
angu@@
inver@@
Med@@
solvent@@
lish
ī
verse
oled
pril
mab
manufacture@@
Rus@@
ė
utri@@
Pu@@
Span@@
beli@@
keep@@
telev@@
Palest@@
oS@@
Org@@
(EMEA@@
BYET@@
phylax@@
emplo@@
placebo-@@
herpes@@
mater@@
γ
Leafle@@
europa@@
painf@@
ody@@
aviren@@
lax@@
²
Ple@@
urit@@
sle@@
esopha@@
iness@@
vigil@@
Ρ@@
munolog@@
½
Kine@@
lifer@@
ilep@@
º
citabine
ή@@
tog@@
methox@@
bral
free@@
°
grav@@
adily
acavir
ί@@
traindic@@
alidom@@
idov@@
clu@@
supple@@
ife@@
Pel@@
Zi@@
/Tel:
stead
First@@
logical
Counc@@
£@@
mist@@
agrap@@
percent@@
Trudex@@
idog@@
≤@@
AUTHORI@@
otec@@
exacer@@
interv@@
INI@@
erythropoie@@
exclu@@
oglob@@
hyperten@@
Trac@@
Prepar@@
ulinum
stim@@
ïve
Ano@@
corne@@
adoles@@
ameth@@
achi@@
RISPERD@@
cortico@@
yeth@@
Gastro@@
onazole
Pack@@
HOL@@
ï@@
˚
oside
ific
Candi@@
atric
š
opa
Ade@@
predomin@@
amination
enrol@@
lying
eva
mortal@@
froz@@
forg@@
spring
Joh@@
Ø
vitamin@@
vel
TERI@@
Subjec@@
Τ@@
semin@@
enorm@@
ning.
udg@@
â@@
Everything
resp@@
ellit@@
Octob@@
marro@@
ERA
tast@@
has@@

ICAL
ification,
stav@@
TING
aglip@@
litaxel
ww@@
alkonium
oclon@@
dated
thereaf@@
Ques@@
Μ@@
tiva
otinic
analogu@@
ether
cic@@
vomit@@
Viraferon@@
lix
ampoul@@
estro@@
ο@@
YO@@
HAT
epis@@
Neverthel@@
monary
Injec@@
ã@@
ς
Slo@@
espec@@
tron@@
Å@@
avo@@
Portug@@
Num@@
ammadex
Republic@@
flec@@
fore,
ERS
trache@@
double@@
ο
uniform@@
tting
bov@@
EUR@@
Bul@@
;@@
legis@@
debate)
à@@
Sept@@
lf@@
refu@@
Merc@@
/98@@
Amon@@
ephal@@
STELAR@@
cis@@
e.@@
ledg@@
laz@@
Whar@@
Develop@@
eding.
lish@@
dexameth@@
imin@@
……@@
irub@@
Econ@@
Α
ffec@@
ording
nolog@@
MINI@@
κ@@
θ@@
lyn
Import@@
ė@@
accord@@
ocardial
ercul@@
monito@@
ditional
å@@
ε@@
Liet@@
zem@@
litax@@
heum@@
beha@@
Mab@@
ô@@
perat@@
Luxemb@@
circumst@@
agement
eutical
adone
Denmark@@
ć
Bay@@
DER
Ö@@
Sebiv@@
Doh@@
ELI@@
RESPON@@
÷
Š@@
concer@@
ä
tish
iterran@@
ross
flic@@
fore.
mber
awaren@@
invas@@
itiz@@
valuation
preh@@
ń@@
Dut@@
Accor@@
osk@@
sche@@
matory
lorat@@
MabTher@@
somno@@
disoprox@@
behavi@@
yli@@
CH
Σ@@
Ε
lodip@@
(hypersensitiv@@
King@@
CCI@@
carbo@@
©@@
ADRO@@
Nether@@
onance
δ@@
hring@@
uctu@@
film-@@
™
Fax@@
Č
·
Rese@@
suscep@@
ł
ASE
Depo@@
φ@@
GlaxoSmithK@@
∞@@
olab@@
siglit@@
®@@
clum@@
panleuc@@
lamy@@
Yondel@@
IONSY@@
udi@@
cophenol@@
CHAMP@@
diag@@
antico@@
strum@@
Winthro@@
bod@@
·@@
esti
Nag@@
Rib@@
ricul@@
brou@@
lika
INFORMA@@
amus@@
opha@@
cial
ionally
wee@@
Iris@@
techno@@
ferry
bably
å
simp@@
demon@@
neverthel@@
poe@@
­@@
ő@@
ided.
RIST@@
~@@
≥@@
belo@@
immunolog@@
Experi@@
Peg
Intron
etax@@
topotec@@

Φ@@
Ι@@
Υ
ormone
ider@@
gly@@
SPE@@
Scienti@@
EU/1/99/127@@
MANUFACTURE@@
ń
ð@@
lixim@@
ERD@@
Glax@@
viron@@
travir@@
Telz@@
Trevac@@
oblast@@
(AID@@
USE@@
Š
illed
Preg@@
overy
rivas@@
milest@@
Stud@@
nex
ourc@@
∞
oclonal
known@@
nause@@
Apro@@
ß
fav@@
ω
Lipro@@
Mix
loo@@
Ä@@
Den@@
▲
○
υ@@
atoid
MATERIAL@@
VED
KE
ţ@@
ems
zer
ι
Ο@@
ribed
accum@@
behin@@
ř@@
hou@@
risti@@
&@@
orge
illy
artific@@
uly
thous@@
ige
ś@@
iring
requi@@
Thirdly,
alog
HPV@@

More@@
inhib@@
GONAL@@
Tlf@@
Ü@@
gsk@@
cluded
gal
cipi@@
ext
echan@@
pipet@@
λλ@@
ύ
û@@
ö
MANUFACTU@@
RING
‡
‡@@
él@@
repub@@
Ã@@
ADMINIST@@
CEPRO@@
′
†@@
`
DISP@@
Symptom@@
tico@@
ý@@
±
ONAL@@
otrex@@
endron@@
Leu@@
Prome@@
HMG-Co@@
ņ@@
Eff@@
ORACE@@
glycol-@@
Naglaz@@
ř
oriconazole
1,000@@
likely.
syndro@@
MEDIC@@
Ñ@@
odiazep@@
SUB@@
Neoc@@
idogrel
ylac@@
Isc@@
odic@@
mary
SON
ς@@
Π@@
ę
ę@@
Parkin@@
Commit@@
ş
ieve
µ
ţ
epider@@
Ingel@@
subsequ@@
Inj@@
ό@@
ω@@
Τ
exac@@
Ν@@
pha
cil
decre@@
intel@@
era@@
periodic@@
ć@@
heim
fric@@
howe@@
vote)
ň@@
gn
ysel@@
Aust@@
indu@@
Ther@@
ź@@
Ó
goti@@
/199@@
ë
€@@
decid@@
comit@@
ż@@
ą@@
Wom@@
/99@@
è
ý
chall@@
œ@@
Seri@@
referen@@
`@@
THORI@@
Assess@@
http:@@
angiot@@
Sver@@
psy@@
Uk@@
estonia@@
Elim@@
glit@@
«
»
HMG-@@
sud@@
FORMA@@
ϖ
ό
GlaxoSmith@@
forme
chlo@@
Pegas@@
∗@@
OL-MYERS
Þ@@
þ@@
ð
ustin
ε
Χ@@
ά@@
lospor@@
(CHM@@
DepoCy@@
PROD@@
∅

abdomy@@
recombin@@
ņ
δ
anyl
χ
ż
metab@@
@@
YET@@
²@@
swol@@
so-@@
rhabdomy@@
„@@
Lietuv@@
comitant
Ġ@@
Č@@
õ@@
\@@
culosk@@
#
FORE
↑
@
Novar@@
Ø@@
³
έ@@
Β@@
Ê@@
Ελλάδ@@
wder
MATERI@@
SIBLE
RY@@
OPTI@@
OLOG@@
·
Ş@@
ă
ň
fficacy
♦@@
MIRC@@
hringer
reich
OLOGICAL
È@@
™@@
WIT@@
Θ@@
Γ@@
Σ
Ι
Υ@@
RISP@@
Suspen@@
stren@@
ì@@
Sust@@
lotted
chrome
ureauc@@
redi@@
inte@@
ember
¹@@
Ţ@@
ď@@
alop@@
ő
¡@@
î@@
Ő@@
mith@@
ǐ@@
ï
Ô@@
Ï
Fro@@
elop@@
ǎ@@
spap@@
onia@@
CHA@@
irc@@
inux
ould
threatening
absol@@
#@@
fres@@
lot@@
$
pro
iltr@@
ò
Rep@@
Bene@@
hered@@
sust@@
ì
ree
$@@
accompani@@
phan
ingly.
Qual@@
ò@@
/13@@
ù@@
pendit@@
Lith@@
Third@@
entor@@
