<blank>
<s>
</s>
de
la
et
les
des
le
à
en
du
est
une
que
dans
un
pas
ou
par
a
pour
être
ne
sur
au
été
qui
(@@
d'@@
sont
vous
ce
er
plus
avec
l'@@
chez
-
ont
patients
é
Les
,
il
Le
doit
aux
.
se
ces
peut
Si
traitement
l’@@
e,
e.
votre
in@@
si
La
Une
ent
-@@
cette
S@@
d’@@
ée
ation
s@@
ant
cas
és
ez
d'une
es,
Un
1
es
y
)
e
es.
L'@@
comme
Pour
s
t@@
T@@
On
M@@
on
c@@
ées
?
d@@
re@@
o@@
n'est
après
mg
d'un
:
D@@
A@@
dose
doivent
e@@
mais
dé@@
Vous
•
P@@
b@@
C@@
g@@
é@@
l@@
r@@
1/
B@@
deux
moins
n@@
m@@
R@@
F@@
V@@
2
EU/
elle
ré@@
ch@@
i@@
t
également
L@@
3
"@@
en@@
même
leur
di@@
G@@
on@@
ement
at@@
/
taux
fois
avant
an@@
p@@
Par
er@@
non
f@@
or@@
médicaments
Il
al@@
v@@
peuvent
risque
fait
E@@
tout
ons
ti@@
a@@
h@@
pendant
effets
était
).
avez
al
soit
nombre
%
s,
sans
ac@@
is@@
entre
H@@
n'a
N@@
son
utilisé
ine
ex@@
ag@@
te
médecin
européenne
10
système
4
d'autres
tr@@
im@@
k@@
ar@@
autre
comprimés
u@@
faire
que,
5@@
as@@
),
am@@
aussi
s.
mise
vi@@
sous
4@@
cours
es@@
con@@
rapport
5
Commission
solution
os@@
O@@
ations
o
6
@@
Rapport
(voir
médicament
2@@
I@@
ait
Dans
très
K@@
ri@@
s'@@
i
li@@
it@@
indésirables
y@@
om@@
par@@
rubrique
A
cela
eur
contre
Toutefois,
bien
ent@@
donc
sera
marché
DE
pays
1@@
études
produit
é.
qu@@
personnes
dont
ou@@
prendre
En
produits
ad@@
ée.
autres
tous
jour
0@@
si@@
ab@@
3@@
orale
er.
elles
pl@@
ét@@
traités
ation,
ants
;
ation.
age
ses
el@@
ques
eurs
z@@
qu'il
ap@@
augmentation
niveau
8@@
ité
avoir
6@@
Des
Pourquoi
données
7@@
é,
aire
co@@
Ne
ayant
7
!
ainsi
ol@@
/@@
ir@@
trois
8
n'@@
an
ra@@
type
enfants
ale
és.
us
d
50
000
ite
st@@
eux
»
temps
Nous
L’@@
ans
Tout
9@@
afin
toute
présentant
que.
groupe
fi@@
ie
ils
Voie
anti@@
el
exemple,
bi@@
re
pré@@
in
lors
ml
il@@
«@@
étude
travail
ér@@
maladie
tes
S
pr@@
femmes
op@@
où
et@@
nous
r
forme
u
e)
tu@@
aires
l
ance
er,
pro@@
«
ci@@
U@@
mesures
av@@
mois
site
tant
étaient
certains
informations
ET
per@@
on,
n
chaque
.@@
effet
je
conséquent,
symptômes
atteints
e?
au@@
ement.
ée,
100
9
ante
prise
pi@@
ni@@
alors
Que
peu
sa
30
toutes
06/
association
ot@@
ées.
mg/
ob@@
ère
nécessaire
ence
me
ur@@
ul@@
santé
su@@
encore
era
J@@
devrait
pa@@
ement,
sécurité
êtes
20
doses
pourrait
voie
ements
Mais
C
utiliser
on.
jusqu'à
fonction
ales
j@@
mi@@
gu@@
l'Union
réponse
pris
ques,
cl@@
raison
l'utilisation
ceux
leurs
w@@
contient
x
faut
jours
virus
aucune
and@@
trans@@
semaines
able
première
oc@@
membres
manière
sur@@
inter@@
ec@@
période
e:
15
États
aucun
ni
x@@
point
E
m
iss@@
g
"
200@@
mé@@
ques.
ant@@
+
e-@@
du@@
ai@@
ell@@
cu@@
a,
ph@@
base
résultats
és,
administré
Z@@
ent,
dis@@
exemple
hépatique
troubles
concernant
us@@
end@@
tri@@
ver@@
12
mesure
20@@
ine,
n'ont
25
Selon
problèmes
–
aient
bl@@
is
patient
important
ill@@
car
toujours
eur@@
question
flacon
terme
contrôle
ati@@
ent.
millions
10@@
00/
heures
compris
développement
40
Tel:
l'un
insuffisance
né@@
ser@@
s?
l'
devez
CAS
eu
et,
rénale
em@@
déjà
seulement
maladies
onn@@
te@@
tique
conditions
mis
qu'@@
ate
compte
ées,
aire,
Tous
Y@@
lorsque
mon@@
sé@@
DANS
substances
cliniques
car@@
th@@
perfusion
c
ables
tels
all@@
ers
étant
partie
façon
d'
vos
199@@
mo@@
diminution
quel
M.
animaux
0,@@
long
réduction
aire.
tion
EST-IL
durée
contenant
ine.
T
trop
W@@
ts
vo@@
id@@
ant.
h
seront
ines
è@@
possible
devra
gr@@
voir
ase
ation@@
13@@
QUEL
cas,
clinique
pos@@
po@@
lait
QUE
cour@@
res
recommandé
l'on
administration
Sur
d’une
Lorsque
for@@
tel
Quelles
vie
15@@
ach@@
s’@@
infection
réactions
un@@
24
fl@@
B
él@@
production
ale,
té
montré
depuis
surveillance
d’un
tion.
De
rée
cr@@
min@@
l'in@@
In@@
de@@
cul@@
sou@@
quatre
active
ter@@
Conseil
ents
az@@
européen
DES
at
recommandée
se@@
col@@
IN@@
cellules
besoin
alis@@
d'A@@
cou@@
notice
n’est
faible
com@@
able.
c'est
els
pouvez
réduire
QU'EST-CE
Quel
nouvelle
t,
eu@@
port@@
É@@
qu'une
risques
poids
stylo
l'administration
population
avait
notamment
a.
immédiatement
particulier
val@@
semaine
injectable
certaines
place
selon
ir
oi@@
l'é@@
isation
tion,
mar@@
usage
peau
N
f
syndrome
gi@@
én@@
personne
injection
ais
al.
ères
ç@@
cré@@
n'y
mettre
(A4-0@@
ite,
sion
al,
ris@@
enti@@
s'il
charge
che
Re@@
telle
celle
%)
antes
AN@@
disponibles
te.
ique
ise
actif
X@@
yl@@
14
ens
ven@@
ente
UTILISE
fin
pression
tions
tre
facteur
nouveau
aires,
l'A@@
int@@
ari@@
procédure
présente
substance
cadre
déc@@
utilisation
fin@@
concerne
jamais
qualité
éri@@
Al@@
60
questions
s'est
ue
formation
principe
".
seul
d'ex@@
soient
plusieurs
croissance
groupes
te,
um
protection
ant,
lieu
traiter
vaccin
hé@@
fer@@
es)
pharmacien.
19@@
es?
telles
ge
contr@@
humaine
o-@@
environ
pouvant
traitement.
posologie
ose
18
l'efficacité
ro@@
(A5-0@@
reçu
1,@@
mal@@
ats
moyenne
it
35@@
cet
fu@@
eur.
celui
l'ex@@
lui
no@@
sang
souvent
publi@@
événements
I
douleur
recherche
Toutes
œ
vers
gl@@
vue
est@@
suspension
matière
Votre
qu'elle
entraîner
réaction
ment
grand
utilisés
form@@
ani@@
EN@@
ca@@
essais
euse
concentrations
ale.
14@@
sujets
bles
Par@@
ans,
eau
quantité
ter
uni@@
ten@@
17@@
res@@
reste
rapportés
tiques
ans.
Qu@@
um@@
ité.
tin@@
2.
parce
ve@@
ist@@
TI@@
02@@
e),
quelques
pu@@
ess@@
hi@@
ateur
lo@@
décision
».
importante
aires.
enne
n’@@
k
ins@@
utilis@@
seringue
00
der@@
moyen
suivi
P
e).
ER@@
37@@
trait@@
Qu'@@
dés@@
ég@@
-il
signes
eurs,
ens@@
gra@@
cin@@
existe
/2001)
perte
<
ma@@
cor@@
rés
ain@@
ES@@
serait
pouvoir
problème
cinq
bu@@
donné
ble
L'utilisation
ce@@
savoir
particulièrement
eur,
euses
lis@@
l'objet
=
ox@@
cit@@
demande
la@@
qu'un
l'étude
300
sévère
Ch@@
RE@@
R
ais@@
ques@@
import@@
appar@@
d’autres
éviter
D
ins
valeurs
d'insuline
os
ités
200
quand
att@@
va
,@@
bou@@
man@@
ations,
jour.
ons,
mes
lu@@
Pr@@
16@@
its
ez-vous
11
présence
1,
seule
nouveaux
ve
bon
anticorps
L
mois.
contenu
position
18@@
laquelle
mor@@
entr@@
médi@@
ages
nouvelles
sein
aut@@
70
médecin.
durant
e;
as
jeunes
t.
pris@@
hypo@@
hy@@
ites
ev@@
ml)
humain
cancer
qu'ils
G
ie,
%.
liste
début
TR@@
one
initi@@
tive
ann@@
uti@@
ang@@
rou@@
beaucoup
des@@
ali@@
direc@@
enfant
sol@@
VI@@
fication
Peu
25@@
date
enn@@
ellement
Su@@
éti@@
LES
l'UE
ement@@
fil@@
ig@@
qui@@
-ce
-2@@
me,
30@@
information
ê@@
p
pour@@
âgés
total
pe
b
adultes
actuellement
ations.
programme
ing@@
16
valeur
so@@
aux.
is,
rel@@
cé@@
l'aide
eux.
efficace
am
partir
cation
ences
el,
donn@@
ance.
ini@@
ori@@
poudre
do@@
le@@
80
>
prises
prenez
)@@
sous-@@
lé@@
ité,
my@@
bo@@
patients.
consommation
por@@
prim@@
ol
caractéristiques
elle,
mieux
err@@
radi@@
parti@@
traitements
(par
suite
oni@@
uniquement
inform@@
région
Qu'est
placebo
od@@
graves
notice,
vari@@
2,
AL@@
activités
ov@@
Néanmoins,
vir@@
abilité
ô@@
aide
termes
CO@@
Troubles
0
év@@
indiqué
tiv@@
ard@@
unique
Lors
certain
instructions
2,@@
es:
UI
l'autorisation
Europe
â@@
",
moment
concentration
six
déf@@
aux,
qu’@@
modification
nombreux
cal@@
premier
tolérance
bas@@
action
AC@@
processus
plan
3,
composants
actu@@
O
infections
bonne
utilisée
IS@@
anti-@@
M
évaluation
dr@@
ic@@
comprimé
ons-nous
AD@@
et/
phase
concomitante
points
s)
vol@@
l'Agence
activité
sait
Con@@
%,
insuline
hyper@@
eux,
br@@
tests
6/
augmenter
elle.
péri@@
cat@@
ru@@
aliment@@
due
me@@
Mar@@
[@@
administrée
ité@@
vis@@
dou@@
boîte
devient
dit
che,
sions
Vi@@
s:
qu’il
rec@@
généralement
gestion
contrôl@@
dos@@
dès
ensuite
poly@@
t-@@
oir
soci@@
contact
75
observés
cause
pou@@
An@@
i,
ett@@
attention
administr@@
de.
iv@@
):
domaine
ment@@
mét@@
ax@@
age,
ence,
eurs.
28@@
oph@@
trouve
exist@@
pas@@
responsable
déchets
Veuillez
ère.
el.
*
permettre
Mme
AS@@
facteurs
indésirable
oli@@
ance,
ction
inhibiteurs
12@@
X
gar@@
erait
Parmi
able,
principal
quer
l'am@@
Ré@@
possibilité
sub@@
alité
règlement
d'utiliser
ct@@
comité
ies
en.
rac@@
men@@
28
ances
en,
INFORMATIONS
ouver@@
nécessaire.
21
élevé
activ@@
cri@@
situation
Plus
traité
différents
ère,
zone
50@@
'@@
suivant
s-@@
Royaume-Uni
France
présenté
donner
ateurs
ants,
avaient
ence.
fr@@
entes
avi@@
remarquez
36@@
rapidement
sion,
4.@@
tif
coll@@
hommes
cy@@
chi@@
mu@@
act@@
CE@@
tor@@
Quelle
méthode
année
rées
emb@@
in,
d'administration
actions
in.
recevant
13
sie
dème
grave
N'@@
sal@@
observ@@
pharmacocinétique
rares
(A@@
ante.
changement
our@@
fonctionn@@
pres@@
sti@@
avis
Effets
peut-être
rôle
ass@@
ants.
spécifique
amélioration
(E@@
ss@@
ON@@
tion@@
e!
dernière
convient
tionn@@
03@@
avons
capacité
observée
atteint
d'évaluation
ure
plupart
critères
nor@@
volume
(P@@
permet
ES
flacons
transport
l'enfant
diminu@@
soins
éch@@
aire@@
tou@@
ois
vers@@
passer
années
CI@@
puis
AR@@
régime
augment@@
règles
a-t-il
A,
plac@@
jour,
oire
indi@@
AT@@
chronique
e/
zones
autorités
présent
ide
trouble
ed@@
vit@@
souffrant
ennes
4.4).
6,
ect@@
corps
ues
ren@@
chlorure
particules
ribavirine
protéine
internet
dernier
rapide
ène
mentionné
gue
élev@@
+@@
parlez
quelque
té@@
is.
age.
recevoir
Très
don@@
gn@@
Toute
pourra
it,
l'h@@
continu@@
ets
lég@@
ons.
comment
tro@@
propos@@
compt@@
modifier
génér@@
aine
détaillées
produit,
importantes
conduire
provoquer
ette
ef@@
évalu@@
CA@@
dus
sembl@@
n’a
pourraient
iques
Y
Titulaire
ailleurs,
17
supérieure
ome
significative
ose,
clairement
4,
amin@@
poli@@
véhicules
pe@@
dro@@
27@@
Ex@@
mal
me.
spéci@@
référence
nu@@
conséquences
systèmes
d'informations
AVANT
oti@@
oxy@@
dét@@
compr@@
compl@@
d'insuffisance
(S@@
anc@@
cur@@
cartouches
tent
veuillez
lire
signifie
not@@
voies
»,
individu@@
str@@
ologiques
EL@@
cher@@
titulaire
pes
QUELLES
envisag@@
initiale
état
isme
membre
nation@@
rapport@@
fréquemment
glob@@
sign@@
pt@@
land@@
alisation
LI@@
o,
plus,
vent
SONT
dire
atten@@
de,
deuxième
fréquence
fé@@
prévention
2,5
libération
personnel
différ@@
susceptibles
relatives
mis@@
cap@@
présent@@
ligne
conformément
l'état
parfois
réduit
allergique
met@@
nécessaires
LE
médicament,
ouv@@
d'injection
inhibiteur
demand@@
7/
kg
l'en@@
gé@@
quelle
ém@@
quement
198@@
der
récemment
Quand
face
critère
situ@@
ales.
ra
sp@@
indiqu@@
tés
dispositif
S'il
projets
danger@@
MP@@
it.
H
test
Di@@
douleurs
pon@@
CH@@
ain
ements,
potentiel
56
CONNAITRE
Or,
/98)
vision
ï@@
totale
aff@@
médicament.
qué
autoris@@
gén@@
métabolisme
fond@@
qu'en
►
dû
http:
ay@@
ar
droit
pharmacocinétiques
og@@
modifications
disponible
produ@@
solvant
ili@@
Patients
inf@@
demandez
Monsieur
Nor@@
observé
2%
immun@@
cas@@
limite
termin@@
caus@@
l'an@@
tur@@
pu
bénéfice
Tr@@
radio@@
atives
prolongée
ble.
cons@@
re,
UI/
agents
vaccin@@
prot@@
ologique
Pas
Winthrop
Trois
Son
can@@
0,5
spécifiques
400
passage
LA
ak@@
eront
jou@@
fon@@
L'administration
liés
présentent
lymph@@
an.
oï@@
22
ème
fait@@
bio@@
Parlement
of
hu@@
solutions
Eesti
raisons
/97)
V
parler
placebo.
plasmatiques
cité
adi@@
d'in@@
délai
ion
connaiss@@
emea.
personn@@
défini@@
accor@@
celles
mati@@
tension
liées
soi@@
transport@@
arrê@@
l'effet
heure
ju@@
iste
38@@
48
l'arrêt
parmi
enc@@
abl@@
sodium
Pendant
éléments
vaccination
développer
général
non-@@
-1@@
500
immunitaire
corpor@@
gastro-intestin@@
connu
analyse
l'insuline
semble
autorisation
femme
ès
aill@@
devront
ire
prix
Où
nécessité
x,
cid@@
surface
ME@@
pharmacovigilance
amélior@@
soutien
pé@@
Teva
cam@@
quant
Comb
+4@@
ritonavir
maximale
identi@@
l'activité
cent
enf@@
itu@@
directement
omb@@
voy@@
L'objectif
90@@
endre
l'im@@
survenue
bles.
3,@@
cependant
A.
600
d'efficacité
bactéri@@
EX@@
aspect
mécanisme
charg@@
souhait@@
CHMP
peu@@
propositions
associées
difficultés
mainten@@
UK
cutan@@
développ@@
l'ensemble
40@@
d'é@@
examin@@
rapports
/www.
ly@@
attentivement
résultat
ois@@
préparation
eaux
Insuffisance
/00@@
dernières
Même
recommandée.
types
lev@@
réalis@@
réalisée
II@@
es).
parties
00@@
étudié
MI@@
04@@
...
arg@@
devraient
accept@@
complète
supplémentaires
principalement
U
préparations
vé@@
34@@
détermin@@
elles,
erg@@
En@@
prudence
cher
arm@@
demander
minutes
formes
posi@@
associé
adop@@
ans@@
résumé
température
arr@@
conserv@@
aiguille
Traitement
autr@@
(A5-00@@
patients,
alement
olo@@
ération
rén@@
lesquels
cop@@
F
flu@@
thérapeutique
ep@@
impact
crise
368/
grande
asi@@
or
l'hépatite
service
(1
tique,
cer@@
main@@
suffisamment
nom
150
obtenir
rem@@
lésions
bil@@
augmente
kin@@
troisième
carb@@
S.
grossesse
ez,
blanc
lement
bat@@
Dr
patientes
d'entre
requ@@
ales,
haut
qu'à
mises
tot@@
n'existe
11@@
oculaire,
ut@@
ret@@
scientifique
fic@@
Liprolog
St@@
informer
viol@@
ables.
sucre
surdosage
gen@@
65
air@@
ajustement
ves
prenant
ras@@
C.
70@@
tions.
enregistr@@
hydr@@
faites
accès
aiguilles
aux@@
toutefois
d'être
45
pér@@
surveill@@
vr@@
lan@@
5%
survie
minim@@
allait@@
L'AUTORISATION
bar@@
ulaire
pelliculés
fs
07/
uri@@
respectivement
PR@@
ir.
complètement
cale
tifs
tives
europa.
technique
part
san@@
esse
paramètres
eff@@
tre.
(I@@
âge
produire
suivants:
condu@@
baisse
off@@
march@@
ais,
présenter
eill@@
démontré
elles.
TA@@
Insuman
utilisez
ban@@
Hypersensibilité
travaill@@
L'ex@@
sévères
globules
OR@@
hydrat@@
inflammation
ères,
Tel.
a-@@
rempl@@
liquide
microgrammes
vre
intr@@
avir
dehors
puisse
État
associés
anomalies
organis@@
potenti@@
entre@@
urg@@
fabricant
propre
Pu@@
monde
L'Union
ud@@
rédu@@
vaccins
assurer
3%
mg,
vétérinaire
semaines.
meilleure
diabète
appropri@@
aci@@
rag@@
tres
alimentaire
employ@@
5,
port
conserver
OU
progrès
POUR
limit@@
preuve
mil@@
Utilisation
Affections
réglementation
juste
est-il
résistance
hor@@
pla@@
Canary
bra@@
tradu@@
esti@@
trac@@
récepteurs
Ne@@
d'environ
C,
lesquelles
ture
(EMEA)
proposition
résist@@
ff@@
chang@@
aurait
oblig@@
ordures
dem@@
réc@@
clairance
9,
mat@@
19
différentes
progression
ond@@
passe
mie
rais@@
cartouche
marché.
utilisées
ante,
et.
davantage
Str@@
rir
entraîne
inclu@@
ie.
utilisant
-en
pal@@
foie
intestin@@
l'exposition
sup@@
Westferry
agit
sensation
prati@@
tat@@
ajou@@
d'origine
iter
politique
l'Europe
an,
compos@@
anim@@
tomb@@
objectifs
rar@@
normal@@
prolong@@
vas@@
extr@@
réduite
fac@@
che.
han@@
diagnostic
considér@@
garde
aura
í@@
fréquent
gènes
pense
es;
âg@@
kg/
quotidienne
hyperten@@
tis@@
E14
cellul@@
ane
≥
35
qués
hépatiques
ements.
administrer
jour@@
persist@@
fond
sion.
pati@@
prévenir
gues
á@@
estime
ménagères.
pai@@
ib@@
maintenir
significativement
ative
examen
dispos@@
ble,
Co@@
eure
porter
besoins
AV@@
bri@@
supplémentaire
fréquents
obtenu
commercialis@@
l'eau
ens,
d'ab@@
légère
re.
90
conservation
sexu@@
difficile
là
ré.
avir@@
heures.
Ph@@
Circus,
issement
fournie
(0,@@
IV@@
retrouv@@
estim@@
correctement
ong@@
montre
organ@@
oul@@
pas,
Human
qui,
sorte
L'Europe
hépatite
incluant
sites
premières
Wharf,
rien
hémorragi@@
médicament@@
Mi@@
DU
istes
Ar@@
intégr@@
ches
essi@@
DI@@
suivre
questions,
rait
jours.
suffis@@
régulièrement
somm@@
associée
4HB,
cine
rest@@
mes.
mul@@
DE@@
permis
élevée
cardiaque
ai
6.@@
l'O@@
moyens
ents.
loc@@
affect@@
26@@
proté@@
ceci
diminuer
évit@@
ens.
jug@@
alfa-2b
pharmac@@
23
d'utilisation
and
Allemagne
ologie
abor@@
spécialis@@
premiers
fois,
protéger
connaître
ö@@
l'annexe
autant
—
mode
D'UTILISER
jetés
infect@@
sion@@
articul@@
augmenté
proportion
thromb@@
enne,
ast@@
vitro
roug@@
recommandations
dér@@
2000
contrôler
OP@@
lat@@
5-@@
émi@@
centr@@
tin
Portugal
acide
&
priv@@
pay@@
Elle
Ser@@
intraveineuse
group@@
rap@@
ds
adolescents
portant
se.
ml.
3.
fréquent:
pul@@
objec@@
proch@@
directive
i.
sk@@
dix
L'in@@
NON
habitu@@
modèle
atteinte
harmon@@
accru
acides
és@@
ON
ol,
ers,
via
introdu@@
paragraphe
ne,
bilité
path@@
impos@@
venir
bénéfici@@
arriv@@
effectuée
alu@@
l'évaluation
relative
%).
ases
céphal@@
nat@@
800
allergi@@
sain@@
protéines
semaines,
dura@@
fabri@@
%),
fix@@
dépend@@
sul@@
AI@@
natur@@
cations
ch
distribution
identifi@@
diss@@
pri@@
œ@@
@@@
éli@@
oubli@@
garanti@@
différence
pass@@
29@@
ates
visu@@
dée
8,
um,
»@@
neur@@
cell@@
û@@
petite
isé
ologi@@
nique
réguli@@
carte
alcool@@
connu@@
sor@@
spécifi@@
respiratoires
exigences
endr@@
prouv@@
nos
utilisation.
traitement,
tir@@
nourriture
odi@@
osi@@
survenir
que)
combin@@
homm@@
..
UI@@
For@@
poursuivre
longue
prob@@
Es@@
il,
d'avoir
TITULAIRE
MEDICAMENTS
oy@@
Pharma
voi@@
VIH@@
7%
din@@
métabolites
réponses
cliniquement
seconde
l'association
destinés
inject@@
l'inter@@
2)
ard
chirurgie
répon@@
l'E@@
l'infection
fréqu@@
écou@@
muscul@@
trouv@@
vitamine
ouverture
petit
connue
administrés
documents
d,
glycémie
Fréquent:
ogène
que@@
d'eau
(0)@@
produc@@
131/
notre
eusement
ing
4,@@
techniques
Q@@
lequel
majorité
sous-cutanée
4.5).
ami@@
représente
intérêt
Inter@@
agn@@
vient
nas@@
dit@@
cont@@
end
?@@
/99)
l'augmentation
els,
signific@@
suivant@@
ocar@@
cide
effectu@@
sév@@
rom@@
tissus
1.
Fr@@
post-@@
urin@@
chiens
super@@
monothérapie
yeux
lignes
issant
que:
°@@
version
euse.
(s)
lac@@
tenir
maternel
d.
ille
commun@@
ait-il
SE@@
1)
os,
médicaments.
ce,
suivants
Pro@@
temps.
gonflement
grav@@
dispose
antes.
tan@@
III
plas@@
déficit
d'ac@@
trav@@
moy@@
antibiotiques
itaire
eri@@
électri@@
hépati@@
approuv@@
lè@@
to
l'aiguille
côté
Ou@@
CES
public
forte
objectif
tiers
N’@@
politiques
Or@@
le,
toxicité
fracture
inclus
pourcentage
ET@@
phosphate
SI@@
(un
l'ab@@
enzymes
mol@@
permettant
précéd@@
conseill@@
lact@@
restent
nie
ed
RI@@
indépend@@
z
probablement
Car@@
Quels
assez
m'@@
L'expérience
24@@
supérieur
ures
exposition
modifi@@
Cmax
fonctionnement
immuno@@
érer
);
L-@@
ente.
é:
observées
n'était
sensi@@
efficacité
décès
évalué
double
anci@@
c'est-à-dire
MÉDICAMENTS
es-@@
démontr@@
pli@@
vou@@
o.
exig@@
100@@
prend
ettes
mélanger
aur@@
Eur@@
Insulin
î@@
n'
Plusieurs
/200@@
sec@@
l'homme
versus
tal@@
amine
comport@@
isse
ocyt@@
dur@@
modé@@
doulour@@
EV@@
puiss@@
-0@@
cycl@@
plaquettes
conduite
répét@@
sér@@
pouss@@
dys@@
rev@@
132/
croiss@@
ici
démocrati@@
Qui
/2000)
d'effets
èmes
chol@@
accompagn@@
long@@
hal@@
conséquent
arrêter
minimisation
touch@@
Ce
régions
devant
l'une
fem@@
mid@@
structure
tez
apparition
conten@@
sanguines
généraux
aiss@@
précaution
l’utilisation
longtemps
âgées
réus@@
qu'on
ont-ils
principaux
cyt@@
adéqu@@
ère@@
London
métabolite
mains
fibr@@
idé@@
26
mont@@
artérielle
alt@@
susceptible
gélules
patient.
hémat@@
mer@@
déclar@@
dél@@
Du@@
conseil
ad
précautions
constitu@@
gène
Mal@@
famille
apport@@
cal
humain@@
engag@@
journ@@
industri@@
alité.
c’est
(A4-00@@
possible,
sélec@@
els.
lib@@
assistance
ze
intervalle
adéquate
fér@@
multi@@
ères.
mélang@@
onc@@
ez-@@
l'injection
derniers
py@@
biodisponibilité
L'efficacité
(0)
prom@@
Pfizer
souff@@
s'agit
Seuls
ent-ils
consulter
émie
maj@@
ép@@
bé@@
ose.
sie,
sui@@
niveaux
pur@@
II
AB@@
doute,
dom@@
mortalité
féline
eux@@
co-@@
trop@@
quée
rég@@
Pays-Bas
ä@@
diagnosti@@
assur@@
pan@@
précis@@
correc@@
ution
sem@@
cel@@
oire.
règl@@
années.
comp@@
santé,
Sans
euros
Malheureusement,
derni@@
osseu@@
pourriez
at,
chev@@
nécessaire,
58@@
cycle
libre
l'EMEA
injections
tissu
transpar@@
second@@
ises
infectés
dul@@
color@@
phosph@@
Ro@@
potassium
stylos
mort
mêmes
services
classe
fru@@
l'étiquetage
-je
repas.
No@@
cli@@
ci
humain.
s'assurer
faire,
qu'
considérés
atifs
principale
S,
ce.
extrêmement
d'études
légèrement
dose.
mon
{Nom
inférieur
us,
cô@@
offici@@
ation:
teur
indu@@
7,
sensibilité
réglement@@
autorisations
élévation
pren@@
provo@@
para@@
bru@@
respect@@
ez@@
porte
sérieux
39
adaptation
bas
RISPERDAL
(H@@
1%
l'I@@
heur@@
plasmatique
x.
98
fondaparinux
inférieure
détect@@
anné@@
-9@@
communaut@@
associ@@
appliquer
ance@@
techn@@
accord
ile
rée.
auto-@@
har@@
faite
enfants.
lumière
èg@@
pens@@
bénéfices
limites
our
tes.
justi@@
droits
aujourd'hui
vitesse
cutanées
plus.
oire,
l'autre
audi@@
amm@@
constat@@
actifs
aiguë
cholestérol
menée
Her@@
appli@@
modérée
jeun@@
dirig@@
noti@@
mani@@
confiance
yn@@
bul@@
présid@@
Le@@
ande
dénominations
.,
chose
-t-il
parl@@
no
ers.
certaine
posologique
glycémi@@
3/
opér@@
globale
5,@@
mesur@@
contin@@
syn@@
cutanée
auprès
sid@@
prof@@
mère
ine)
uniformément
D'@@
SUR
pau@@
insp@@
impli@@
her@@
intern@@
changements
jusqu’à
médicaments,
aus@@
présidence
dev@@
Irlande
couleur
garantir
Ce@@
He@@
graph@@
us.
quel@@
déterminer
d'au
traitées
conservé
stimul@@
commencer
dessus
viv@@
l'absence
é?
rel
mélange
Prot@@
conclu
atif
tes,
Ob@@
commercialisation
entreprises
document
ètre
excipients.
prescri@@
mondi@@
num@@
font
L'étude
injecter
contribu@@
étude,
ate.
dispar@@
contrôlée
v
court
l'âge
transmission
situations
phot@@
étu@@
bor@@
rubriques
mag@@
33
rage
interféron
tableau
ges@@
secteur
tement
faisant
app@@
Sch@@
nombreuses
ll@@
différences
membres,
}
capuchon
l'objectif
jet@@
chois@@
part@@
équip@@
atis@@
ait@@
reven@@
er?
citoyens
travailleurs
cess@@
endra
médicale
réalisées
circul@@
ence@@
tête
correspond@@
pil@@
ous
s).
tique.
révélé
rénale,
gence
VIII
iser
essentiellement
évaluée
visi@@
q@@
PO@@
efficac@@
I.
MA@@
évo@@
considéré
AL
suivantes
communi@@
ex
élevés
asse
aliments
justifi@@
capit@@
Faites
puissent
fier
près
meur@@
Voilà
mois,
limiter
appliqu@@
9/
patient@@
]@@
pit@@
C)
rapportées
CT@@
appropriée
étape
aggravation
Th@@
montr@@
ate,
sodium,
ente,
EU@@
ophil@@
Lors@@
GmbH
tenant
lors@@
œu@@
ession
mes,
mang@@
mentionnés
agir
moitié
consiste
étudiée
sais@@
insuffisants
mer
emp@@
remplac@@
ectu@@
titude
issent
j'@@
êt@@
ignor@@
Rien
quantités
essai
95@@
thè@@
cliniques,
idées
l'origine
ouvert
1.@@
omy@@
concentr@@
supplément@@
étudi@@
l'ordre
Trudexa
mg)
glyco@@
éré
enfants,
blanc@@
section
principes
recours
f.
ber@@
ablement
eau.
expérimenté
expli@@
éventu@@
recommandé@@
antes,
tour@@
consommateurs
qu'elles
fongi@@
large
human@@
infec@@
ains
accident@@
utilisation,
itaires
conçu
Premièrement,
(H-0@@
arrêté
d'action
pathie
eng@@
ys@@
Gu@@
professionn@@
s),
seul@@
isol@@
supérieures
d'éviter
39@@
temps,
vu
ents,
limité
mg/@@
considérée
l'absorption
omm@@
rouges
responsables
Pa@@
gie
essenti@@
éc@@
facil@@
inhibe
ex.
alité,
ty@@
européenn@@
..@@
Hy@@
mono@@
abil@@
représentant
budg@@
e"
AB
demi-vie
profil
ensi@@
Bar@@
vastatine
application
glycémie.
verti@@
sains
prépar@@
fai@@
B.
liée
financi@@
EP@@
euse,
pulmon@@
d'inter@@
ines,
stade
CP@@
l'apparition
cardi@@
fois.
chlor@@
fications
fourn@@
produit.
(S)
inst@@
assi@@
micr@@
hom@@
oires
AP@@
oir@@
reconstitué
Préparation
dre
consommat@@
the
l’un
vention
002
PE@@
art@@
S'@@
sujet
constitue
ordin@@
interdiction
évènements
g/
systémique
44@@
Lu@@
f,
petits
étudiées
altération
g,
répond@@
atin@@
(T@@
-1
maximum
zon@@
transfér@@
1-@@
améliorer
arrêt
ection
cancér@@
SU@@
propriétés
ER
causes
nationales
excessi@@
rouge
préci@@
antécédents
5.2).
pas.
bour@@
texte
ché
prév@@
continue
96/
Quelques
annu@@
disposition
condition
voul@@
respons@@
tra@@
législ@@
a-t-elle
Cl@@
Com@@
recev@@
calcul@@
bras
MS@@
7,@@
]
divis@@
compar@@
ail@@
ACR
AT
espèces
dique
(CHMP)
PRO@@
Tél@@
dine
repas
pompe
injection.
rant
/0@@
Pré@@
épa@@
atr@@
aign@@
opa@@
chirurgi@@
poser
manifest@@
neu@@
manque
sauv@@
ers@@
as,
bli@@
rénaux
annexe
vie.
veiller
Europe,
l'allaitement
permet@@
alfa
voire
L'effet
001
solv@@
char@@
pays,
voix
lour@@
comm@@
Pourtant,
devons
Notre
K
études,
opath@@
ml,
eures
l'adulte
6,@@
volontaires
4.8).
es),
nerveux
liaison
hypoglycémie
catégorie
aig@@
four@@
aï@@
69@@
physi@@
5.@@
10%
60@@
populations
d'im@@
AN
virale
uc@@
favor@@
dérivés
Enbrel
élevées
s’il
poi@@
{@@
inc@@
thé@@
jours,
soumis
pac@@
prescrit
Produ@@
clair@@
esp@@
paupi@@
Infection
Im@@
langue
médecin,
pers@@
remar@@
Poudre
Olanzapine
r.
prét@@
autor@@
certainement
Quant
négoci@@
citoy@@
entraîné
seuls
virologique
carcin@@
buvable
procéder
autour
mit@@
faibles
applic@@
surven@@
36
chu@@
33@@
RA@@
gèn@@
5/
*@@
sionn@@
fam@@
RO@@
Ber@@
chimi@@
AU@@
pourr@@
établie
tabl@@
réserv@@
séri@@
alph@@
29
Limited
coup@@
tex@@
chaîne
mom@@
l'Autorisation
projet
altern@@
accu@@
tions,
céré@@
serv@@
provenant
Ev@@
estimé
ira
euses.
maternel.
progressive
chacun
similaires
lar@@
exprim@@
oco@@
OS@@
pose
lit@@
comprim@@
2006.
scientifiques
acc@@
procédures
influence
idée
fais@@
qu’une
donnée
Av@@
évaluer
humaine.
sym@@
verre
exploit@@
fonctionne
étrang@@
spec@@
tent@@
devenir
Se@@
supprim@@
comb@@
grand@@
pays.
l'article
Nombre
agri@@
oubliez
Qu’@@
ation?
l'incidence
correspond
8%
appelée
(en
augmentée
I,
femmes,
gue,
My@@
accidents
IX
gradu@@
mes@@
enne.
aider
ici@@
blement
LU@@
n’ont
(3
quent
souches
tient
1000
tol@@
Comment
ure,
:@@
connus
vétérin@@
Dé@@
lor@@
c.
ins,
ent:
complications
particip@@
considération
Ri@@
Road
particulière
ter.
Am@@
résolution
adresse
fondament@@
rend@@
ah@@
principales
dic@@
èrent
dépenses
amendements
A/
84
ite.
cardia@@
vasculaires
(D@@
hér@@
actives
tive,
comparaison
détru@@
score
c,
résidus
crises
similaire
degré
créatinine
ern@@
multipli@@
ure.
aise
hypertension
fis@@
l'université
Cor@@
*,
enceint@@
re:
facilement
compét@@
mou@@
humains
enzyme
établi
Merck
jus@@
test@@
gens
exécu@@
soign@@
subst@@
z-vous
PROVENANT
encourag@@
Leur
européens
victimes
Troisièmement,
B,
rez
psych@@
étroite
6%
tive.
succès
signal@@
gas@@
aval@@
rép@@
32
l'int@@
placebo,
air
largement
otox@@
pat@@
sangu@@
appel@@
ège
représent@@
cad@@
conc@@
pir@@
atoire
cohér@@
g.
diminue
édu@@
s;
le.
0,
rée,
ci-dessou@@
50%
allant
acr@@
coagulation
Europe.
satis@@
noci@@
AG@@
contamin@@
demandes
technologie
conditionn@@
particulières
he@@
intéress@@
confi@@
land
diurétiques
rénale.
retard@@
ka
004
ACTI@@
grandes
pourquoi
saignements
travers
définition
buc@@
bili@@
ention
amide
insuffis@@
minimum
irritation
vertig@@
fum@@
tendance
inte
erb@@
chroni@@
1,5
prescription
MM@@
l'information
calcium
blanche
postes
assist@@
reconstitution
ANT
pharmacien
même,
ables,
empêcher
l'accès
cémi@@
tampons
pertin@@
noms
ran@@
cas.
étiquet@@
publique
Luxembourg
expérience
médecins
tée
l'année
amment
illes
préremplie
franç@@
uvre
capable
suite,
enrobés
èn@@
Rou@@
LIEU
juri@@
couv@@
aéri@@
metformine
hist@@
comparé
%@@
sanguins
entér@@
éruption
sanguine
allergiques
irrit@@
provoque
hépatique.
ra.
T-@@
point@@
46
importants
attendre
of@@
34
Rec@@
pneumon@@
jour)
160
l'interféron
peau,
métabolis@@
meilleur
métabol@@
(C@@
ide,
nom@@
ambi@@
sions,
Espagne
coopération
fait,
plaquette
cham@@
tiss@@
société
Por@@
taille
Lis@@
sit@@
boîtes
entraîn@@
coûts
bles,
27
ir,
Uni@@
ó@@
be@@
dilu@@
arri@@
gaz
simpl@@
législation
élément
européenne,
recommand@@
Suspension
année.
d'autr@@
est-ce
Objet:
médical
ci-@@
N-@@
inhal@@
ost@@
cis@@
l'ac@@
excessive
Non
polyarthrite
myél@@
nerv@@
d'E@@
arrêtez
immédiatement.
42
ments
l’œ
mm@@
thrombo@@
Val@@
ode
addi@@
8/
PegIntron
conduit
tax@@
récepteur
absorb@@
sept
cau@@
embry@@
tre,
fer
rier
mine
197@@
CE
(L@@
caractère
VIH.
formul@@
remettre
cris@@
ins.
000@@
n'en
compati@@
ms@@
approche
recher@@
sav@@
toxi@@
signe
appropriée.
osine
l'indi@@
sè@@
Italie
matériel
mée
édi@@
local
autorisé
cep@@
conn@@
équival@@
á
faire.
présentez
ons-@@
alimentaires
plutôt
autom@@
vein@@
2/
artéri@@
suivantes:
accident
il.
dépression
trou@@
opti@@
omes
série
31
suspect@@
4.
potentiellement
faiblesse
en-@@
ections
CYP2C@@
aison
4/
Per@@
fur@@
trom@@
eth@@
huit
porcs
ogèn@@
ellement,
trice
éliminé
NE
2002.
avantages
internation@@
contiennent
FR@@
vérifier
retirer
juin
far@@
milieu
isent
France,
pâ@@
europé@@
pol@@
servi@@
aque
destiné
Sou@@
sé.
003
conç@@
tonn@@
vement
ordre
program@@
brev@@
que?
sépa@@
NovoMix
analys@@
bouche
comportement
dy@@
mort@@
cs
étique
plan@@
proportionn@@
l)
presque
suivi@@
ST@@
relation
d'hypersensibilité
at.
élimin@@
exclu@@
fluor@@
conséquence
y,
récu@@
FOR@@
As@@
Fréqu@@
jeune
laiss@@
fabrication
effectué
d'emploi
eau,
çant
dig@@
matières
PV@@
instauré
résol@@
teurs
caractéris@@
réfl@@
com
oit
excipients
embl@@
appliqué
den@@
ck@@
ensemble
allem@@
conclu@@
Z
préven@@
Sol@@
inv@@
probl@@
milli@@
quelles
fra@@
connaît
entend@@
Rapport:
zi@@
u.
ets.
sévère.
relatif
9,@@
désign@@
hémorragie
événement
des,
be
VIH
n'ayant
fins
considérées
viande
CYP3A@@
lié
sérique
grâce
d'en@@
solid@@
hormone
distin@@
ez.
perman@@
isant
ole
ATI@@
arti@@
04/
suc@@
décr@@
IE@@
assu@@
octobre
mofétil
XX@@
aie
régul@@
l'él@@
Opti@@
Col@@
airement
Hé@@
reconstitu@@
sin@@
haut@@
santé.
l'ar@@
flacon.
clés
dégradation
simple
comprom@@
travail.
+35@@
fri@@
lin@@
jet
nuclé@@
libér@@
handicap@@
État@@
Pl@@
simplement
l'impact
vétérinaires
absence
oses
agi@@
secondaires
l'acide
ont@@
tra
Tre@@
seraient
tine
LS@@
plaquett@@
contrôlés
tre@@
min
débu@@
99/
Parkins@@
l'at@@
pré-@@
écu@@
dosage
vivo
OU@@
MISE
nausées,
Pi@@
hôpit@@
Br@@
prise.
idi@@
ception
dan@@
LIS@@
qu’elle
volont@@
demi-@@
examens
Gl@@
k.
veill@@
sommes
exi@@
d'absorption
(souche
atteint@@
commerci@@
cela,
poudre,
Pour@@
égale
laisser
travail,
compéti@@
l'égout
jets
sûr
clim@@
re?
savons
2-@@
retir@@
ton
rapporté
antéri@@
blancs
clusion
esthésie
fièvre
oly@@
compa@@
perform@@
maxim@@
l'organis@@
anor@@
biologique
concern@@
250
mg.
bout
cateur
onne
aggrav@@
mod@@
apparaît
one,
fort
lab@@
domaines
organisation
ATION
unités
effectuer
ma
alités
éth@@
d'h@@
−
fortement
terr@@
Mycophénolate
insulin@@
atteindre
obtenus
clon@@
prior@@
plaques
animaux.
n'auriez
totalement
constituti@@
Pharmaceuticals
investi@@
hormones
conséquence,
décisi@@
LOTS
emment
reti@@
ie@@
-,
éliminés
européenne.
travail@@
veut
peut-@@
loin
contre,
on?
fronti@@
!@@
circonstances
one.
ré,
culaire
cir@@
ème,
central
neuro@@
suicidaires
supérieurs
née
oration
pen@@
produits,
cine,
mois@@
(N@@
mentionn@@
inhib@@
insuline.
(n
classi@@
5.
cro@@
ultéri@@
attribu@@
toxiques
limpide
mas@@
TE@@
NOM
chin@@
générale
CPMP
othérap@@
prévisi@@
Inf@@
leucémie
lim@@
haute
Sé@@
cription
protég@@
lam@@
omati@@
acquise
orient@@
nég@@
euro@@
pertinence
Is@@
trouver
for
isson
titre
administration,
Lilly
rejet@@
agricul@@
ail
Nom
ts.
ois,
territ@@
président
approuvée
attend@@
s!
ement?
consultez
pulmonaire
médiane
tumeurs
contrôlées
induit
éni@@
4%
MO@@
l’A@@
49
l'élimination
ray@@
Trans@@
excl@@
thérapie
ines.
naïfs
évolution
FI@@
établi@@
ilis
l'ASC
azol@@
mélangé
d'am@@
lorsqu'il
l'animal
TE
til@@
coordination
erreur
L'
andes
qua@@
rendre
impossible
gam@@
diluer
professionnels
Itali@@
rési@@
nature
progressi@@
hydroxy@@
organes
organisations
aid@@
intolérance
ow@@
emballage
International
GlaxoSmithKline
Bu@@
l'immunodéficience
suiv@@
qualifi@@
cides
gne
FABRICATION
022/
dispositions
sements
retourn@@
propri@@
agne
appelé
ne.
ête
l’Union
achet@@
pén@@
ment,
parents
Commission,
bâti@@
L'un
S’@@
consommateur
hon@@
habit@@
l’Europe
gem@@
bronch@@
journalière
fol@@
particuli@@
fixe
Fi@@
cœ
poursuite
tandis
lique
venti@@
parten@@
d'hé@@
réductase
rit@@
oculaire
ecte
issue
confu@@
émie,
67
d'entretien
sclérose
(pour
TS
vs
ténofovir
congelé
UL@@
sont:
Bo@@
4.2).
emploi@@
oss@@
eil@@
épilep@@
détéri@@
iez
difficil@@
tif@@
fourni@@
rarement
aven@@
seringues
vomissements
util@@
té,
maintenant
consomm@@
6.6.
présentés
OÜ
CONSTA
prérempli
l'environnement.
éris@@
adress@@
bénéficier
stabil@@
compens@@
qu’ils
marché,
pag@@
temp@@
pollu@@
e".
ait-elle
zidovudine
nécessaires.
sympt@@
vasculaire
(R@@
l'ostéoporose
fractures
95%:
dés
ok@@
onie,
dor@@
3)
quels
fat@@
consci@@
l'as@@
ve,
lanc@@
normale
produite
RES@@
cule
semaine)
tif.
protéin@@
stitu@@
d'enfants
3-@@
67@@
endommagé
l'expérience
interaction
possibles
alo@@
dispositifs
os.
vert@@
cle
adapt@@
lig@@
contenus
masse
tempor@@
rythme
séqu@@
epti@@
rapidement.
d'obtenir
pes@@
vres
contraste
Li@@
aines
log@@
ète
Est@@
ü@@
Durée
Sharp
BI@@
di
déterminée
dériv@@
négatif
conseillé
Résumé
nettoyants)
bal@@
z-@@
menac@@
quoi
qu’un
étiquetage
Seul
."
pêche
constru@@
alisme
passé
avez-vous
Peut-être
vir
l'environnement
(IC
tolé@@
Un@@
nutrition
ulc@@
suicid@@
l'enf@@
const@@
champ
trembl@@
interrompre
st
moelle
clini@@
tuberculose
cho@@
mâ@@
génotype
former
synthèse
comprenant
rhinotrachéite
novembre
grossess@@
µ@@
irbésartan
intensi@@
sulf@@
capacités
cra@@
mauvais
directrices
on)
pharmaceutiques
l’aiguille
Aucune
w
renforc@@
recombin@@
diques
environnement@@
distribu@@
travaux
entreprise
extéri@@
sac@@
yr@@
flac@@
ana
rapporteur
habituellement
l'ob@@
commission
énergie
ple@@
l'emballage
tard
boissons
exemp@@
INFORMATION
'
cigar@@
pouv@@
pratique
UTILISÉ
Qu'est-ce
L'UE
ages,
z,
monde.
coû@@
fonds
ia
conven@@
et/ou
poursuivi
bro@@
46@@
losartan
(G@@
stimule
opéni@@
standard
injecté
8,@@
ase.
gan@@
dues
écr@@
perturb@@
ograph@@
tar@@
érat@@
trique
olys@@
entes.
insuline,
blanches
Informations
UE@@
indiquent
inqui@@
pharmaceuti@@
centre
froi@@
ne@@
ets,
si,
utilisateurs
eil
géné@@
Bi@@
jau@@
résultat@@
ités.
médical@@
entraînant
Tra@@
révision
dépu@@
égal@@
sch@@
Industri@@
affaires
bouton
info@@@
entrer
pist@@
seign@@
adul@@
SA
stru@@
atténué
Solo@@
jeu
(VIH@@
scientifi@@
Irbesartan
preuves
l'alcool
limitée
discu@@
endommag@@
soluti@@
RESPONSABLE
ourn@@
mess@@
financ@@
vérifi@@
quement,
cass@@
concerné@@
crimin@@
moi,
maintien
CH
randomisés
dessous
atoires
d'injection,
press@@
oci@@
ace
µg/
vomiss@@
cliniques.
semain@@
référ@@
syst@@
bovins
plasma
matern@@
top@@
ulcères
l'EMEA.
musculaire
èse
galact@@
dopa@@
2.@@
000/
d'anticorps
sant@@
oïde
mill@@
5)
calcitonine
avril
porté
technologies
travaillé
divers
Ab@@
blo@@
rog@@
vin@@
septembre
Hyper@@
progressivement
opénie
thyroïdi@@
d'animaux
interrompu
statistiques
trim@@
haus@@
infecti@@
ème.
mmol/
vont
thermoformée
dra@@
as.
transdermique
mail@@
tor
ING@@
d'effet
angl@@
l'application
oi
déli@@
EN
fournir
ture,
erez
ÉLIMINATION
réaliser
coles
Puis@@
non@@
dû:
chômage
entis
PI@@
tera
ment.
téri@@
saignement
emment,
corps.
surtout
P)
99@@
simvastatine
correspondant
accrue
gastro@@
respiratoire
tifs,
respectiv@@
méthotrexate
0,0@@
digit@@
ID@@
oz@@
intér@@
dési@@
LE@@
adhé@@
réalisés
approximativement
oxyde
gélule
bet@@
alyse
PA@@
oxi@@
significatif
opaque
um.
urie
oc
esc@@
ocul@@
des.
anémie
visant
directe
D-@@
sécheresse
épi@@
atta@@
ve.
mér@@
ary
Mix25
enci@@
ocl@@
eant
énergi@@
onnement
plastique
Dohme
merc@@
rapid@@
unité
tif,
respecter
baiss@@
63
yn
préfér@@
006
55
années,
République
endu@@
transfert
Slo@@
initiative
envisagée
u,
homme
écar@@
indiquée
Sand@@
énerg@@
ailleurs
PRECAUTIONS
Seu@@
avor@@
histoire
(débat)
Wil@@
lever
Tri@@
schéma
(4@@
quotidi@@
biologiques
hém@@
esthésie,
développé
simil@@
indésira@@
semaine,
post@@
reproduction
compli@@
route
sorti@@
sté@@
antivir@@
tration
ait,
erie
interactions
ativ@@
hum@@
décidé
sugg@@
d'infection
(4
Ag@@
d’injection
oral
d'al@@
gluc@@
mutation
ones
influ@@
l'aptitude
appro@@
Internet
réfrigérat@@
décol@@
l'industrie
industrie
ca
bov@@
Ad@@
chimiques
orphel@@
responsabilité
diges@@
couver@@
ris
analyses
euses,
(y
développement.
E.
bris@@
bur@@
ecteurs
méthodes
tric@@
dommages
d'hémoglobine
Dis@@
.com
lon@@
tats
télé@@
marque
sirop
allaitement
protec@@
On@@
vin
empl@@
omme
exempl@@
aî@@
conséqu@@
d-@@
jec@@
économique
l'es@@
démo@@
devr@@
PARTICULIÈRES
trouver@@
tout,
gouvern@@
es!
xi@@
indications
lamivudine
approprié
suivie
ances,
gau@@
marge
polyéthylène
és:
intervalles
gonfl@@
Imprida
ique,
ides
fréquente
plus@@
tox@@
interfér@@
cerve@@
migr@@
inflammat@@
petites
nausées
microgram@@
l'al@@
injec@@
faveur
dose,
ts,
veineux
évidence
révél@@
seu@@
180
fuite
veine
rougeur
ètres
eté
incidence
ReFacto
gli@@
1997
lorsqu'ils
éry@@
ci-dessous
disparaî@@
confér@@
généralis@@
ave@@
out@@
quelqu'un
suppression
affirm@@
envisager
avant@@
apporter
jac@@
T.
limin@@
probable
ophtalm@@
m.
injectables
ant:
frais
·
tourn@@
r,
n.
rés@@
grands
conscience
États-Unis
ampoules
té.
départ
Neupro
L’utilisation
vraiment
ager
UE
visibles
rouler
Sin@@
mê@@
stérile
dépass@@
L'UTILISATEUR
téléph@@
Sa
sû@@
cos@@
oyez
PRÉCAUTIONS
traditionn@@
j'ai
commiss@@
concurrence
j’@@
devoir
sh@@
gue.
zumab
agressi@@
déplac@@
(≥
TN@@
bét@@
T,
confir@@
clinique.
récente
osph@@
avir,
définie
erci@@
sujet@@
thérapeutiques
sérotoninergi@@
évoluti@@
actuel
fantaisie}
sauf
te-@@
que).
deven@@
Si@@
(M@@
AF
crois@@
cycles
tat
rare
2002
_@@
connaissance
médecine
lic@@
vag@@
importance
périphéri@@
sécurité,
Sal@@
nettoy@@
musculaires
faus@@
outre,
cancer@@
h,
l.
rester
plu@@
issez
agissant
150@@
désor@@
Ils
atteintes
tran@@
k,
lign@@
efficace.
Humalog
èr@@
continuer
l'exception
dang@@
alimentation
reconnaître
fen@@
gouvernement
poul@@
sc@@
aller
UTILISÉS
Tableau
budget
construction
déci@@
ais.
discrimin@@
figu@@
PARTICULIERES
argent
Madame
900
urgence
objet
courte
terme,
terminale
majeure
parlez-en
perfor@@
ml@@
n'apparaît
uré@@
ept@@
avé@@
(de
3,5
0,00@@
(une
poids.
auri@@
ub@@
accidentelle
hormon@@
au,
document@@
micro@@
ques)
(5
Grossesse
maladie.
CYP3A4
ergi@@
né
dém@@
7,5
ity
relev@@
nib
initial
Mix@@
famili@@
EMEA@@
ement:
analogues
phén@@
erre
lin
cab@@
(les
affection
infirmi@@
expos@@
’@@
étude.
da
exceptionn@@
spontan@@
orth@@
Gr@@
signalés
accroî@@
(B@@
abdomin@@
puisque
liss@@
tube
bactéries
Mix50
Portugal,
l'i@@
Après
accompl@@
37
confirm@@
vis-à-vis
recherch@@
org@@
pensez
na
Mon@@
arrière
chances
bouchon
décl@@
acqu@@
phénomène
mené
007
ë@@
η@@
Suède
bel@@
essentiel
échou@@
chauff@@
télévis@@
L'incidence
préc@@
Résul@@
UTILISES
missi@@
nav@@
condam@@
siè@@
sanc@@
assassin@@
L’Europe
aiguë@@
9%
prises.
mesu@@
difficulté
(avec
l'hypo@@
var@@
ans)
soigneusement
périodes
présentaient
(sous
1).
but
blessu@@
ide.
semaine.
simultanément
adaptée
osté@@
complè@@
neuf
Sur@@
microgrammes/
cardio@@
ances.
cin
atine
intrav@@
ycl@@
opé@@
quanti@@
gab@@
insuffisant
corporel
fonctions
diabéti@@
T)
recu@@
2003
cules
fièvre,
poids,
convul@@
vomissements,
Rom@@
2001
hydrogén@@
souche
tées
d'élimination
marqu@@
I).
survi@@
85
manipulation
ONS
Fin@@
préalable
Tur@@
circulation
animale
injectables.
ques:
écri@@
SID@@
fourni
professionnel
ampoule
Présid@@
tel@@
sirolimus
co-infectés
enceinte
annon@@
lien
recycl@@
005
42@@
sil@@
rés.
articles
va@@
au.
absolument
ordonn@@
S'IL
concr@@
dossi@@
efficace,
MARCH@@
contrôles
6.3.
l’on
choses
débat
mot
ité?
nous,
pivo@@
l'analyse
randomis@@
d'hy@@
eus@@
été,
ourdiss@@
hépat@@
U/
faibl@@
prémat@@
l'UE@@
positions
constater
ED@@
fos@@
suffisante
modifié
Tarceva
traitée
bêt@@
phényl@@
exac@@
l'échelle
onine
bilirub@@
vaccin.
tré@@
chimiothérapie
LM@@
active,
osseuse
réti@@
reproduc@@
basée
rhumatoïde
malades
graisses
95
RA
retar@@
diabétiques
retard
inconnu.
eu/.
esse,
lier
chaleur
fortes
bre
ml/
érythropoïétine
béb@@
4.4
4.3).
opération
secondaire
PGR
méthyl@@
armac@@
mascul@@
atri@@
ée:
érations
grossesse.
cartouche.
Pays-B@@
lumi@@
cent@@
pill@@
commun
sous-cutan@@
ocr@@
Park
za@@
q
Hol@@
stock@@
rhin@@
tenu
estations
souvent,
outre
établissement
dits
gardez
infirmière
l’UE
l'être
hydroxyde
chem@@
meilleurs
concernés
fie
dépl@@
d’informations
figure
financement
pouvait
simpli@@
istence
ter,
techni@@
opini@@
moi
frau@@
ent-elles
judici@@
fau@@
d'abord,
(utilisée
note
observations
machines.
pioglitazone
tn
l'estomac
séd@@
senti@@
sar@@
trophi@@
développement,
cès
épisodes
20,
Fer@@
nourrissons
contamination
glucose
domain@@
aite
graiss@@
logi@@
environnement
étés
atique
accessi@@
journée
présentées
énor@@
agerie
CYP@@
VH@@
indiquant
Sim@@
peginterféron
OR
enza
emi@@
pec@@
nov@@
éph@@
remise
NovoL@@
eilli@@
À
renouv@@
ire,
sexe
manifestations
cteurs
occupé
Ly@@
destinée
stockage
ry@@
née,
polysorbate
reç@@
Europ@@
internationale
P.
mentionnées
lentement
goutte
Syndrome
oût
disponibles.
tentatives
Belgique,
psychiatri@@
ocol@@
hypersensibilité
adapté
sens
reçoit
CON@@
diffus@@
décrit
Tel.:
unique.
effor@@
toux
rie
gsk@@
son@@
toucher
mobil@@
intérieur
ple
multiple
amp@@
européennes
poursuiv@@
importe
émissions
l’ex@@
formé@@
naturelles
opérat@@
c'@@
aar@@
Ru@@
l'intégralité
l'État
DÉCHETS
Sverige
propag@@
oign@@
dépistage
Rus@@
économ@@
Parce
DECHETS
million
pauvret@@
onni@@
Mais,
ler
we@@
granul@@
vod@@
perfusion.
circonst@@
ologique.
reprise
contactez
défini
eil,
ase,
apparaître
immédiat@@
EC@@
ajout
l'infl@@
V,
humain,
α
p=@@
se,
22@@
l'inst@@
EXUBERA
PRE@@
sériques
périphériques
provoqué
évaluées
principa@@
vitamines
panleucopénie
d'Alzheimer
pommade
dar@@
transitoire
10,
hydrochlorothiazide
récurr@@
0)
thiaz@@
actif@@
pseudo@@
rix
brûl@@
doc@@
émie.
per
conjonctiv@@
flux
éché@@
Viraferon
DepoCyte
Section
Pra@@
2008.
cancer.
ences.
o-
ies,
vois@@
pepti@@
pathologies
tâches
Instructions
l'octroi
maux
géni@@
machines
nés
ouff@@
on:
SOL@@
substitu@@
potassi@@
tion?
41
ément@@
détecter
Ltd
endroit
1,0
Hong@@
exclusivement
d'inform@@
occup@@
co-administration
ue,
cept@@
ac
souffrent
béné@@
congél@@
oxyd@@
ANCE
BIOLOGIQUE
étiquette
prud@@
ert
voyez
structur@@
ettre
80@@
suffit
Prévention
puis@@
contrain@@
parle
instituti@@
enqu@@
peine
L'information
autre.
μ@@
-t-@@
Vos
tonnes
catastroph@@
quot@@
dérog@@
plain@@
avons-nous
capa@@
véhicule
benz@@
anormale
candidose
osti@@
éventuellement
nécessiter
origine
indé@@
satisfais@@
manqu@@
affections
sir@@
acceptable
47
étap@@
inconnu@@
4)
nécessitant
crit@@
CYP2@@
opi@@
ith@@
contract@@
ng@@
D,
Protopy
ank@@
rappel@@
pathies
bénéfice/
Lev@@
tirer
nettement
class@@
RAP@@
suspension.
s'aggrav@@
ologie.
impliqu@@
dépres@@
univers@@
Medi@@
meill@@
l'enzyme
dioxyde
année,
yt@@
onie
VO@@
public@@
devait
sée.
tic@@
bles@@
occa@@
supéri@@
thrombo-emboliques
5.1).
confirmé
eu/
lots
grammes
ères@@
aires:
maîtr@@
Neu@@
ock@@
pous@@
pré-rempl@@
aly@@
utilisé.
mot@@
isée
hane
èm@@
gél@@
pipette
D'ORIGINE
vér@@
est,
réuni@@
mères
proc@@
l’autorisation
quez
intervention
fabric@@
tabac
parfaitement
enquête
ront
refu@@
citer
raison,
faut@@
vente
améric@@
coût
élè@@
auraient
œuvre
vill@@
48@@
tés.
hanche
ther@@
paraly@@
normalement
aut
jusqu'au
ocy@@
ur
viral
l'organisme
symptomatique
résistants
appel
TIN
agit@@
pancré@@
collabor@@
progr@@
phosphat@@
uk@@
(1@@
tyr@@
ste@@
terrain
l'ur@@
environn@@
tati@@
tacrolimus
somatropine
malgré
valsartan
n,
observation
apparaissent
mécanismes
bilité,
nomm@@
Ir@@
PAR@@
électr@@
ités,
doul@@
aisons
ophilie
eu.
oxine
averti@@
dépos@@
alisée
caoutchou@@
l'ét@@
infl@@
l'ent@@
ham@@
gestation
diarrhée
congestion
inique
sement
modérée.
prendr@@
chimique
UC@@
dées
ont,
tiques,
établir
malignes
antirétrovir@@
ρ@@
culture
gout@@
SA@@
Ten@@
................................@@
Eli
Gardez
inactiv@@
intention
KwikPen
envisagé
quar@@
RCP
hautement
transform@@
résultant
manipul@@
HEX@@
tour
fre@@
teneur
muni@@
hol@@
aujourd'hu@@
d'information
lit
différent
opportun@@
néglig@@
complémentaire
fentanyl
Po@@
Ma@@
indique
épo@@
appréci@@
connu.
soulign@@
oir,
rembour@@
programmes
parlé
article
donne
victi@@
Parl@@
Souv@@
compag@@
navires
e-t-@@
te?
ez-vou@@
affaire
écrit.
débit
rapportée
7)
pron@@
pneumo@@
exa
cardiaques
neutr@@
coxib
atiques
contracep@@
fertilité
dipl@@
pagne
expl@@
seringu@@
tp
fati@@
invasi@@
signification
superfici@@
anormal@@
humaine,
prévues
Gli@@
d'augmenter
hospit@@
érythème
efficaces
QU@@
entièrement
127/
fo@@
subi
sévère,
répétées
fois@@
SE
dysfonctionnement
calci@@
cuillère
sucr@@
exemple:
vési@@
ou,
-B@@
l'hôpit@@
tub@@
soph@@
anticoagul@@
ulation
cholestér@@
quotidienn@@
ant)
ôt
thme
rig@@
IntronA
tend@@
onique
ule
rup@@
exes
statut
obtenues
limitées
sour@@
comparti@@
Suè@@
Royaume-Uni,
II.
Mac@@
oeu@@
enfant,
appartient
filtre
(cellules
Mer@@
estion
Direc@@
.:
....@@
l'hist@@
Œ
ene@@
hydrox@@
ja
Österreich
attendu
transplantation
Pe@@
matéri@@
l'alimentation
/9@@
d'alcool
l’enfant
nuit
Yondelis
Plac@@
calicivirose
abol@@
ait.
producteurs
normes
inten@@
changer
recour@@
Mé@@
quin@@
procédu@@
ίου
contre-indiquée
moindre
êt
portée
aéropor@@
quali@@
ci.
coût@@
voulez
imagin@@
Six
Trait@@
pêch@@
loi
concurr@@
députés
Président,
Nos
seringue,
sach@@
38
administration.
cité.
découver@@
Raptiva
ic
tinib
cutanée,
extrê@@
sécrétion
tide
possi@@
cot@@
pronostic
étri@@
constituent
(6
croî@@
abatt@@
profon@@
l'intérieur
OM@@
thyroï@@
induction
ruption
normal
devaient
glu@@
ViraferonPeg
composé
sev@@
tab@@
a)
chat
négative
clu@@
disoprox@@
échec
physique
remis
ENTR@@
mondiale
EMEA
D'autres
inémie
ès.
Prise
chef
véri@@
jo@@
indre
microbi@@
élec@@
d'hypo@@
Augmentation
ènes
é)
juillet
clam@@
Danemark
régr@@
mulsion
fournies
dégra@@
sique
Rar@@
ès,
enzymatique
diarrhée,
élabor@@
pep@@
botu@@
ynam@@
septi@@
int
Irlande,
ards
rê@@
eu,
PL@@
m2
Tou@@
bénéfi@@
coagul@@
infectieuse
échang@@
372
Box
Belgique
j
offre
permettra
danger
ette.
Telzir
acét@@
solvant,
rend
Nob@@
vie,
s’est
ative.
méth@@
optimale
d’utiliser
sécu@@
Nouv@@
ale@@
Pen@@
FCV
alement,
phy@@
ples
relire.
extérieur
personnellement
née.
atu@@
nourrit@@
indispens@@
d'ar@@
ésité
recru@@
chiffres
titul@@
permettent
reconnaît
emploi
divers@@
flexi@@
Ni@@
issus
chiffre
source
constate
QU’EST-CE
parole
ceux-ci
il?
monn@@
cole
malheur@@
e-t-elle
Dan@@
recouv@@
ime
minutes.
sulfam@@
prazole
échelle
survenus
algie,
fir@@
abine
desc@@
ab
Pos@@
MP
globul@@
cept
gel
valid@@
yng@@
proxim@@
d'attente
M)
visuelle
contre-@@
pation
Tritanrix
(1,5
MUI
(la
af@@
adé@@
8-@@
anth@@
cultures
fél@@
-ci
yl
urinaire
cité,
entan
discussions
occasionn@@
dent
Sant@@
Er@@
ffice
interne
(1,@@
difficiles
l'instauration
reten@@
PRINCI@@
passi@@
ctu@@
jaune
aver@@
rément
NO@@
d'améliorer
levé
plant@@
résu@@
2007
pratiques
présentation
opénie,
erlo@@
expériment@@
gly@@
COM@@
agré@@
rétino@@
m,
b,
Europe@@
recommandées
contraception
ationn@@
sels
61
Wyeth
prérempl@@
ophi@@
Mise
55@@
doigt
ture.
te)
nécess@@
propres
augmentant
Ver@@
communautaire
stratégi@@
rinc@@
TH@@
ennent
autorisés
ajouter
comporte
origin@@
stricte
SER@@
orodispersi@@
injectable.
ú@@
lav@@
Gélule
elle-@@
hausse
convi@@
boire
correct@@
avanc@@
bomb@@
contenir
collè@@
tchè@@
loratadine
abilité.
régi@@
instr@@
inquiét@@
affaibli@@
fonctionnaires
appelle
(hypersensible)
aille
L'une
position,
mass@@
légi@@
construc@@
&#x02BC;@@
mari@@
prévoit
scand@@
investiss@@
agit-il
dic
floxacine
opa
multiples
azép@@
agon@@
FS@@
cale,
célé@@
pali@@
cancers
réversi@@
l'ad@@
89
psoriasique
nie,
bres
prévue
thrombine
devriez
d'activité
TA
choc
oprost
éruptions
l'évolution
lé
ménopau@@
identifiés
tropine
pédiatri@@
alcal@@
Humira
préexist@@
domin@@
céd@@
l'or@@
MB@@
de)
apa@@
numération
TV@@
d'interaction
fact@@
orale.
ath@@
absolue
brut@@
médic@@
D’@@
térat@@
inhibition
crétion
piration
transporteurs
enseign@@
labor@@
Be@@
pharmacologie
précoce
faç@@
déch@@
ign@@
TES
/96)
gramme
fatigue
mac@@
glucose-@@
relativement
D.
Réponse
corrig@@
ressources
possible.
échantillons
soupl@@
création
prés@@
souffr@@
isolats
bon@@
7.
mission
MIRCERA
JA@@
ym@@
systémi@@
monothérap@@
othérapie
administrées
associations
tifs.
absorption
rie,
soleil
montrent
marquage
--------------------------------@@
neutropénie
prolifér@@
diffusion
pagn@@
verse
équi@@
instaur@@
biais
accél@@
Diplôme
enceintes
INE
général,
ra,
thrombocyt@@
venez
projet@@
Comité
outi@@
ci,
exercice
susp@@
d'autre
Commission.
ge@@
export@@
particulier,
d'acidose
réseau
soul@@
monoclon@@
Hu@@
lus
érique
seuil
009
sorb@@
Flacon
Pol@@
ène.
personnes,
exper@@
astr@@
eure.
Allem@@
spécifiquement
VIS@@
Ram@@
peti@@
Pal@@
occu@@
agissent
d'abord
Information
étapes
vend@@
envoy@@
effectivement
accepter
mauvaise
n'étaient
l'Espagne
Main@@
Ma
mour@@
vingt
train
just@@
kilom@@
pollution
gagn@@
civil@@
dialo@@
s'
e-t-il
-t-elle
/99):
mark
interprét@@
Not@@
beso@@
comparable
d'anti@@
concomit@@
3).
F-@@
normale.
mg@@
dysph@@
mém@@
pathie,
d'exposition
(n=@@
oraux
aprè@@
l'excrétion
toxine
répondre
actionn@@
icité
pent@@
l'HMG-CoA
fera
obten@@
menées
l’EMEA
franch@@
onnées
CHAMPIX
érythr@@
MA
umab@@
25%
mique
matin
vitro,
1A@@
HepB
les@@
tec
aveugl@@
algi@@
Betafer@@
popul@@
cica@@
opid@@
important,
tombé,
donnant
photosensi@@
l’université
rése@@
eli@@
incl@@
indication
Autri@@
2).
soumis@@
Douleur
dent@@
né,
MAO@@
Pharmacovigilance
vigu@@
risque.
Neur@@
Der@@
Ul@@
-00@@
aller@@
présentations
ves.
bure@@
rées.
imput@@
effectués
olé@@
proposé
ner
65@@
proche
Nu@@
PRI@@
van
boî@@
antirétroviraux
vre.
Mil@@
suppléments
déclarations
d'entre@@
ki@@
urant
Vis@@
heure,
IL
ennes,
66
PRENDRE
aigu@@
locales.
abs@@
rétro@@
lie
ress@@
Grè@@
vigueur.
sous-cutanée.
équilibre
remplacement
Mét@@
opérationn@@
modifiée
respect
pl
sen@@
l'équ@@
L'injection
weg
océ@@
Cam@@
essay@@
Bayer
approvisionnement
communication
précisément
excrété
malade
constituer
sect@@
voyag@@
ètr@@
l'aven@@
Kar@@
délivré
membres.
participation
marchés
cach@@
ante-@@
pourront
voiture
Lorsqu'un
ordonnance,
QU'@@
marchandis@@
sold@@
violence
pesticides
religi@@
montant
passe-t-il
és?
Tlf:
TEN@@
aupar@@
(à
ation)
Prometax
pertes
allong@@
fœ
Me@@
substitutif
Ty@@
gen
réunions
yme
iture
électroni@@
ammation
cérébr@@
parti
sélectionn@@
somnolence,
formations
l'acuité
vildagliptine
gy@@
(<
riton@@
cen@@
44
débuter
L,
cible
20%
cure
TMZ
riche
je@@
gh@@
IN
laboratoire
Actrap@@
aliment
oxétine
récipi@@
Européenne
retrait
d'autorisation
tractus
institu@@
Luxembour@@
ences,
sociétés
convulsions
déliv@@
otte
nour@@
ajuster
commune
l'adul@@
grave.
macul@@
maison
extrém@@
muqu@@
struc@@
glom@@
outir
multiforme
neuropathie
vach@@
implique
oculaires
d'Humalog
jeun
modific@@
comprise
prélè@@
soud@@
gest@@
don
ellement.
Basal
eut@@
oi,
Inhibiteurs
nourr@@
répartition
styl@@
doucement
épargn@@
Doc@@
92
abdominale
améliore
propos
poche
viennent
épuis@@
ralenti@@
QUE@@
nouveau@@
ed,
motiv@@
conom@@
matique
TES@@
èrement
Cal@@
Sil@@
commencé
orig@@
nouv@@
Stre@@
sus.
médiaire
combien
fabricants
actuelle
l'ap@@
proposée
défenses
Utilis@@
maladies.
joue
ustr@@
010
utile
AIRES
Je@@
prescrit.
inféri@@
réunion
OC@@
rich@@
sort
nationale
carbone
tém@@
tiques.
rapp@@
mention
auront
consult@@
élarg@@
problèm@@
calend@@
contribuer
étaire
représentent
Outre
clair
ingrédients
semblent
coup
point,
commence
republika
L'impact
rencontr@@
Ou
débat@@
tez-@@
met
terroris@@
déten@@
demn@@
véritable
encore,
décharg@@
L’Union
guéri@@
instau@@
exerc@@
suivante
opin@@
explic@@
comparativement
tivité
estimée
(2,@@
au-@@
glycol@@
ophie
vascul@@
oedème
urinaire,
méning@@
actif.
démangeais@@
voriconazole
mesurer
tolér@@
Pri@@
augmentations
parine
leuco@@
gê@@
mus@@
30%
méthotrex@@
enfin
fax@@
ecti@@
avir.
fixation
Thy@@
dox@@
iso@@
prénavir
saquin@@
respiratoires,
J
additifs
équivalent
Ribavirine
ides,
lendem@@
pèsvirus
72
d'I@@
ophiles
synth@@
mouvements
animal
rosi@@
P-@@
pandé@@
________@@
britanni@@
6-@@
nécessite
nexe
ophob@@
83
sang@@
api@@
benzalkoni@@
lentilles
apport
paragraph@@
malad@@
Ris@@
este
squelettiques
ces.
sie.
atténu@@
aise,
montrant
inducteur
»).
3,0
Pers@@
régulière
oris@@
AVEC
Roy@@
Man@@
istr@@
major@@
Business
E-@@
Fax:
atrice
OL@@
Sy@@
l'air
re)
Poly@@
ition
tic
affecter
accumulation
52
d'ét@@
concernent
quit@@
isme,
déchet
Virus
OptiSet
Lam@@
résulte
doute
pê@@
ogènes
composés
adapter
pom@@
préoccup@@
résid@@
signifi@@
induire
disposi@@
minér@@
ι@@
FABRICANT
savez
ressenti@@
Prop@@
ailles
eb@@
sûr@@
histori@@
mand@@
arrive
libr@@
croissant
applique
prochaines
limitée.
s'avérer
s'ag@@
envelop@@
augmentent
population.
Posologie
Grèce,
devi@@
mées
particules.
Internation@@
dépasse
alidom@@
centres
répercussions
candid@@
S'agissant
finalement
terra@@
défendre
oirs
amen@@
eraient
s'en
conf@@
médias
Lire
promotion
prend@@
Quatre
Slovenská
ui
sûr,
voudr@@
aband@@
passe@@
pouvons
Mon
Personne
l'abacavir
tét@@
can
péremption
injectez
d'H@@
consécu@@
ajust@@
sus@@
pathologie
ologiques.
vagin@@
pel@@
come
respir@@
sensibil@@
dose-dépend@@
minu@@
formulation
rhumatisme
Effentora
OPTISON
minimiser
MD@@
thrombose
efforts
perfu@@
stable
impliquant
umab
citabine
mé
olanzapine
démontrée
injection,
EMEN@@
nourriss@@
vaccinés
INT@@
vira@@
sés
6)
FlexPen
tumorale
................................................................@@
ls
suggèrent
activation
Rap@@
oxic@@
espagn@@
grave,
impression
Dem@@
De@@
contest@@
s'ils
incidences
indétermin@@
leuc@@
sse
sées.
parentér@@
argu@@
nouveau-@@
uz@@
BASAL
mai
glut@@
conventionn@@
Naglazyme
duction
européen.
irréversi@@
s'impose
ermin@@
fermeture
dot@@
Fabricant
lut@@
corné@@
atif.
Royaume-Uni.
stra@@
aliste
doi@@
dén@@
ada
suivante:
pH@@
The
Stat@@
artifici@@
dation
pe,
(v@@
32@@
usag@@
effec@@
autorisée
l'ADN
devenu
crème
z.
fractu@@
favoris@@
réserve
oit@@
aires@@
chiff@@
dites
014
371/
372/
exactement
fémin@@
oir.
Espagn@@
Laboratoire
180@@
vre,
étudié.
préférence
man
substitution
d'énergie
résul@@
gravement
ède
minorité
dité
Insuffis@@
l’égout
op
moder@@
d'aliments
compréhensi@@
incid@@
hors
régl@@
écrit@@
fixé
tribun@@
déclaré
Leurs
langues
nive@@
România
Premi@@
amend@@
S’il
milliers
révol@@
ques?
obstac@@
honn@@
a-t-on
rai
Boehringer
Ingelheim
pharyng@@
emballage.
formule
Ziag@@
chim@@
(800
l'homme.
avir/
74
omi@@
suivis
thr@@
sanguin
que),
l'hormone
ator@@
tentative
morts
75@@
comparables
thorac@@
enz@@
τ@@
métabolisé
Tracleer
ulcère
molé@@
patients)
CS@@
ench@@
pénétr@@
µg
chac@@
complément
lait@@
ales)
précédant
let@@
thérapeu@@
sortie
alim@@
58
alfa@@
pédiatriques
embol@@
bêta-@@
adultes,
ast
l'inclusion
ek
aminés
docétaxel
profondes
LD@@
intolér@@
dyl@@
(environ
(12
inchang@@
décrits
simultanée
chromosom@@
vessi@@
saumon
préalablement
triglycérides
foie.
V.
longu@@
AF@@
écras@@
cytochrome
ATE
EMENT
intravein@@
asthénie,
locales
ecteur
directeur
profess@@
lutte
basé
Chez
omo@@
sugammadex
2000@@
démar@@
l'action
lun@@
MR@@
ostati@@
ue.
matiques
mun@@
DO@@
reporter
nécessit@@
45@@
périphérique
indésirables,
HM@@
mutagène
tê@@
vac@@
ômes
denti@@
des)
éventuelles
changez
eter@@
institutions
arch@@
l'embout
EE@@
Pres@@
microbiologique,
rus@@
nez
ex,
bord
évid@@
OT@@
flacon,
emball@@
cateurs
centralis@@
suspen@@
contre-indiqué
enregistré
scientifiques,
approprié.
ce-@@
ateur@@
dévelop@@
ROVANCE
Finlande,
suite.
certi@@
arité
règ@@
prévu
venant
ène,
008
Taux
shire
intramusculaire
hémodialy@@
rati@@
UN@@
],
eille
sécurité.
décider
truc@@
ément
établie.
thèse
figur@@
are
Α@@
registre
éliminer
dite
front@@
élevage
dé
avan@@
time
s'avère
tard,
comment@@
L'importance
Tel
s"
Rappel@@
frontali@@
dégâts
pétr@@
innov@@
est-elle
espér@@
euro
aujourd’@@
allég@@
travailler
patri@@
ant?
'es
ciprofloxacine
interrompu@@
rob@@
(comme
STELARA
qu'après
CVMP
nécessaires,
e-
favorable
41%
alie
stavudine
96
appelés
rét@@
céphalo@@
naissance
ement)
gluco@@
leu@@
Trevaclyn
pergill@@
positive
experts
approfon@@
aire)
buv@@
abolisme
PD@@
interagir
trouvent
allu@@
ologiques,
atteign@@
ateur.
fluoxétine
sépar@@
tubercul@@
bloqu@@
4,5
les.
ept
statistiquement
cardiovascul@@
péni@@
mesurée
comprennent
glycérol,
ecz@@
commenc@@
habituelle
kg@@
évalués
densité
0,3
titu@@
pran@@
compter
ément,
l'hyper@@
néphro@@
gel@@
lodipine
Zon@@
mach@@
RE
d'ap@@
contribue
proviennent
acquis
l'emploi
fragil@@
tachy@@
(ex.:
Servi@@
l'Uni@@
consul@@
connue.
poitr@@
log
rétini@@
bis@@
ressentez
diabète,
outils
cav@@
ambiante
l'hu@@
gram@@
commercialisation.
herp@@
VER@@
documentation
disponi@@
récidi@@
ature
européennes.
ek@@
Médicaments
Espagne,
clast@@
ram@@
ire.
refus@@
(200@@
les,
consist@@
sciences
Londr@@
diplôme
région@@
King@@
mouvement
Norv@@
Dou@@
Lé@@
oes@@
do
ister@@
l'immun@@
épidémi@@
D'un
UR@@
U.
+46
SARL
obi@@
Limit@@
jeté
bloque
(e)
l'épo@@
précau@@
installation
res.
120
BMS
ateur,
consacr@@
souti@@
ateurs.
transplant@@
individuelles,
prérempli,
respiratoire,
uments
Fréquence
011
373/
EU/1/07/@@
diverg@@
(%)
obl@@
monosodique
EXP
réalisé
AAAA}
ηλ@@
agin@@
laiteux.
sources
souffrez
ercice
inactivés
500@@
Litu@@
ange
imprim@@
faible,
erte
demandé
interdit@@
sés.
OptiSet.
modifiés
ent-@@
écl@@
conception
sex@@
automati@@
champ@@
orité
octroy@@
ument
Communaut@@
-on
fumer
trait
istes,
vingt-@@
l'impression
L'examen
OG@@
L'im@@
appareils
Lorsqu'il
dira
pire
Puh/Tel:
là,
Bel@@
dam@@
Ses
n’auriez
Union
venu
Voi@@
terre
profit@@
jouets
�
évi@@
déb@@
réalité
ain,
illég@@
(
elle?
avion
ées?
ofi@@
ours
pendant,
d'événements
arthrite
endron@@
d'acide
alté@@
d'administrer
intraveineuse.
pégylé
obtention
anxi@@
localis@@
fusion
transit@@
prurit
d'applic@@
ogéni@@
adjuv@@
'-@@
Starlix
es/
corticoïdes
excès
Karve@@
Vir@@
(3@@
pied
»)
SP@@
1997,
die
manu@@
avas@@
gorge
ès@@
VE@@
souris
l'espèce
Novo@@
négatifs
spon@@
quement.
macr@@
muscles
allergie
grippal@@
douleur,
graphie
(200
favirenz@@
tradi@@
oty@@
périodiques
solides
incolore.
subit
oû@@
50,
pharmaci@@
cherch@@
ot
giotensine
kali@@
destruction
yle
ORACEA
équilib@@
sacchar@@
nou@@
trices
ta
exposés
(tels
maternel,
rib@@
dép@@
abilité,
n°
utér@@
diffu@@
poussi@@
émission
gués
étiques
rhabdomy@@
présentes
propr@@
rigour@@
chien
ilibre
cours.
sy@@
alfa-2@@
We@@
Allemagne,
tubulaire
filgrastim
créatin@@
systémiques
1998.
+49
muscl@@
dexaméthasone
méd@@
disodique
CD@@
positif
étiqu@@
Bas@@
tures
Saint
français
dépassant
Candida
........................@@
chlorhydrique
conditionnement
+37@@
86
Ac@@
Infections
ants:
blanch@@
poumons
étudiés
lement,
Norge
Emballage
destinées
endroits
°
national
internationales
NovoRapid
placé
iste.
Tev@@
revi@@
matis@@
d'assurer
ado@@
Sev@@
ille.
Sebivo
prov@@
otype
ventions
mosph@@
variabilités
intég@@
co
hérédit@@
ht@@
LIBERATION
ZY@@
ros@@
vitez
chau@@
excipients,
entam@@
affich@@
précurseurs
économie
ade
Bul@@
lent
allaitez
recombinant
celles-ci
ats.
apparaiss@@
rappeler
situe
p.
celle-ci
chaînes
saurait
explique
fixer
PC
bless@@
constatez
rénale:
subi@@
re-@@
oh@@
isi@@
diff@@
restera
considère
âge,
soutenir
bouteille
paqu@@
tig@@
étudiés.
dre.
isme.
rév@@
réellement
etc.
Europé@@
Lib@@
L'introduction
passé,
combat@@
Belgi@@
effondr@@
Peu@@
laisse
Suomi/Finland
affi@@
bureaucrati@@
obti@@
ville
trafic
commerce
aides
milliards
voit
l'amendement
-elle
Parallèlement,
68
ay
tard.
même.
disposer
ider@@
précédemment
sang,
IC
GONAL-@@
opposition
contraceptifs
78@@
infil@@
SC@@
foie,
nouveau-nés
inflixim@@
gouttes
l'espace
chél@@
tatine
contex@@
β
spéciales
®
(2@@
sions.
taill@@
inférieurs
sensible
prophylaxie
gastro-@@
VEG@@
consti@@
transamin@@
induite
IV
affinité
démi@@
stand@@
ote
0,2
cill@@
analo@@
HPV
97
rô@@
sug@@
osin@@
99
Riprazo
eo
Tekturna
exag@@
écrasé,
Insul@@
dépôt
intrac@@
véhicul@@
act
détaill@@
MM
topotécan
Joh@@
Brux@@
C-@@
bonnes
TRE
compétentes
main
ades
registr@@
contacter
détection
”
DICC@@
appuyer
(utilisé
certific@@
ré
prennent
mineure
atte@@
possède
Plan
inci@@
Anti@@
adaptat@@
fév@@
(cf.
quinol@@
Communautés
contact@@
cales
n'importe
pouvaient
8.
tumor@@
fréquences
yeux,
2005,
Danemark,
ciclosporine
(qui
dégénér@@
fluctu@@
N,
sat@@
d'âge
provis@@
disponible.
européen,
peau.
install@@
succ@@
Hou@@
fs,
au-delà
chroniques
hydro@@
sodium.
d'arrêter
Lun@@
isom@@
Wat@@
suit@@
Cli@@
licenci@@
71
ribavir@@
PHAR@@
marqué
Lon@@
abond@@
kilo@@
New
ore
ministre
prérempli.
fréquents:
Prenez
LAS@@
+372
BRISTOL-MYERS
SQUIBB
oires.
tivement
lutter
l'hé@@
asse@@
aises
couche
solu@@
l'expression
Bruxelles
dge
L.
éter
endu
durer
maximales
deux@@
heures,
sum@@
jeter
ois.
concernées
Rapports
n'avez
Enfants
ptions
maladie,
térieur
guéris@@
propyl@@
364/
77
EU/1/08/46@@
EU/1/98/0@@
Gra@@
vêt@@
à-@@
isti@@
{MM/
paumes
intéri@@
F2@@
Gélules
Grande-Bret@@
allaitez.
poissons
psychiatriques
catégories
États-Un@@
naturellement
PM@@
qu'au
ève
l'Allemagne,
ize
signaler
ag
ateurs,
infanti@@
rale
fournit
passagers
celui-ci
produis@@
Lietu@@
regar@@
utilise
utri@@
d'éducation
scol@@
moins,
tés,
restrictions
sci@@
landais
ressor@@
deviennent
possibilités
équ@@
plans
informé@@
inflation
5-0@@
ettes.
pauv@@
Quel@@
Qu’est-ce
infra@@
faudrait
interrog@@
cteur
Ving@@
genre
l'internet
voient
vulnér@@
trag@@
cru@@
voitures
vote
propose
pesti@@
interdit
choix
habitants
amendement
Commiss@@
emprun@@
veulent
islam@@
(vote)
Prenons
Quatrièmement,
enhag@@
MMONAP@@
rénal@@
liberté
0%
S)
(6@@
Kiv@@
alopéci@@
échec@@
verté@@
col
P,
acétyl@@
sali@@
4,9
instable
l'homm@@
hebdomadaire
anaphylac@@
0,25
(10
réductions
som@@
éroïdes
dépressifs
disparaître
autre,
mine,
emboliques
al)
7-@@
rivastigmine
bit@@
posologies
d'intensité
ENO@@
M,
protéique
éma@@
strictement
tabagisme
g/@@
distance
HD@@
vascular@@
Pegasys
résumés
grippe
neutralis@@
étine
lap@@
résonance
magnétique
léger
lymphocytes
appliquée
calcémie
73
ories
MS
ovari@@
naiss@@
mur@@
LDL-@@
giv@@
l’insuline
magné@@
grip@@
olyse
caf@@
atives.
glucuron@@
Organisation
Ju@@
'e
rash
lingu@@
warfarine
défic@@
ñ@@
Sain@@
pharmaceutique
dois
coordin@@
installations
ac,
adoption
renvers@@
ménag@@
alco@@
eure,
Mo@@
(E17@@
vis
Au@@
démangeaisons
néanmoins
préal@@
dis
liné@@
paclit@@
recevront
réalisation
préserv@@
9.
mars
d'injection.
discussion
cirrhose
direction
glioblastome
complémentaires
issues
mener
physique,
contrib@@
serez
ministr@@
membrane
tampon
figurent
élimination
pos
greff@@
révis@@
l'exam@@
reprendre
tyl@@
adultes.
Cro@@
auto@@
81
Ελλάδα
Dose
UTION
visage,
malabsorption
1),
d’eau
potassium,
sel
Intern@@
secondes
bass@@
clo@@
estoni@@
rechercher
Elévation
être,
visage
γ@@
incin@@
Elles
liqu@@
effet,
alcool
persistent
vaccin,
insul@@
procédé
go
ième
considérablement
Etu@@
012
Tritace
SUBST@@
Ireland
es-vous
delt@@
FH@@
gard@@
ographie
slo@@
organisme
guer
nucléosidiques
évident
convain@@
faudra
Chil@@
rifi@@
Ret@@
Syn@@
United
proposi@@
demeur@@
alternative
stric@@
l'UE.
Suiv@@
proposés
structures
matériaux
répertori@@
intes
fal@@
MERI@@
défen@@
suppose
ode,
développez
tract@@
soit,
D'ELIMINATION
Conseil,
erran@@
incendi@@
là.
économi@@
agriculteurs
accid@@
sont-elles
réfugi@@
terroristes
guerre
parlement@@
référendu@@
vain@@
génétiquement
justice
Or
ait-on
ée?
Cop@@
sinus@@
graves.
implant@@
accorder
hypoglycémi@@
(ex@@
réagir
(8@@
IG@@
anom@@
358
avancé
vertébrale
2,0
α@@
elph@@
ratio
hésit@@
ai,
caillots
pulmonaire,
nécrose
d'équilibre
oiseaux
quelconque
disparaissent
aurez
jon@@
aconazole
angor
international
préventi@@
immédiate
trig@@
CEPRO@@
amino@@
l'utiliser
dépen@@
financier
organismes
communautaires
corticost@@
Programme
Kineret
76
6.
achi@@
BYETTA
antagon@@
vastati@@
Fas@@
ovir
cepti@@
rémission
compatible
résidu@@
Lond@@
transi@@
paus@@
d'hyper@@
d'as@@
fumarate
mut@@
64
mère.
out
P450
CPMP@@
jeunes.
chal@@
neurologiques
diverses
ke@@
Gi@@
ministère
ax
Mont@@
méthadone
Rev@@
sac
papi@@
générale,
entes,
isés
déficience
transdermiques
titane
Modi@@
sig@@
bulis@@
bleu@@
produits.
itol
congénit@@
corps,
noctur@@
sexuels
janvi@@
vall@@
immunosuppress@@
yst@@
nouvellement
l'inhibition
atifs.
empêch@@
rées,
infarctus
l'agence
étroitement
indépendante
risquent
bouffées
plani@@
olim@@
estin@@
Tel@@
cuillère-@@
chevaux
aiguille.
quées
l'oreille
enzy@@
dihydraté,
accompagnée
exe
l'In@@
ologie,
tourner
Gen@@
Expérience
rejoint
War@@
lén@@
GR-@@
ution.
l'ag@@
auxquels
alumini@@
destin@@
alli@@
vo
EF@@
réduisant
Né@@
passant
vendus
l'extr@@
Nespo
causés
l'allaitement.
soumises
adéquat
empêche
d'en
d'anomalies
d'O@@
calcul
arit@@
fonc@@
médecin@@
modèles
glitazone
unes
ents:
Madrid,
ri
stylos,
blis@@
pellicul@@
opérations
températ@@
omar@@
Excipients:
sulfate
accélé@@
Har@@
paci@@
zyme
LIBÉRATION
La@@
suspensi@@
actuelle,
devrez
(souches
431
réservé
doseuse
eux-@@
Ham@@
an-@@
.)
Gar@@
í
AC
végét@@
excrétée
sain
tern@@
Tem@@
prescr@@
ption.
isées
b.
Pologne,
suit
compétences
électronique
Iscover
(appelée
sérieuse
différente
observe
génération
L'analyse
rés,
jouer
comporter
constaté
plein@@
l'a
id
considérer
nies
oppos@@
procè@@
es»
lui-même
adopter
l'opération
dois@@
its,
L'État
foy@@
bien-@@
èle
élect@@
lang@@
plaî@@
père
force
Tant
suis
revient
décisions
Européens
polon@@
acheter
chréti@@
emplois
stocks
égalité
contradi@@
volonté
espr@@
chos@@
articl@@
accus@@
ent?
Ira@@
Conse@@
estini@@
condamn@@
dollar@@
arriver@@
1999)
eurs?
Non,
eh@@
DK@@
Novartis
après.
sang.
tubulure
obtenue
inclus@@
l'adolescent
ogéné@@
cert@@
lorsqu'une
tumeur
attendu@@
accom@@
équilibr@@
Hum@@
SPRYCE@@
engendr@@
Pelz@@
nicotinique
nouvel
cm
l'H@@
conjoint@@
antidiabétiques
inhalée
disponibilité
définis
prurit,
anes
rhée,
reli@@
LT@@
jours)
d'antibiotiques
restant
usu@@
gastri@@
ative,
LDL
visible
MAR@@
Kep@@
VHB
adolescents.
respiration
del@@
IONSY@@
exposées
actif,
terme.
agent
era.
l'éfavirenz
mol
complément@@
CY@@
sildénafil
jambes
d’insuline
grumeaux
MabThera
bos@@
glitaz@@
C),
fus@@
d'application
azole,
transfer@@
}@@
publications
mix@@
poste
aspects
Pharmac@@
Ef@@
ball@@
2000,
support@@
floxac@@
redi@@
trouble,
délivr@@
ADMINISTR@@
thi@@
proches
kaliémie
otoxi@@
décembre
antibioti@@
alk@@
sensations
vaccination.
l'anim@@
l'appéti@@
Paxene
cram@@
secrétariat
pharmacod@@
entrée
jamb@@
web
(hyper@@
millepertu@@
oxygèn@@
représentants
retrait@@
s/
commencer@@
appareil
ος
essentiels
veaux
d'habitude.
consultation
ße
……@@
omatique
(CE@@
envir@@
atment
l'utilis@@
Pre@@
Réaction
É
mam@@
ophar@@
rendu
sus
49@@
026
ia@@
Bal@@
trate
côtes
prost@@
évol@@
tien
Réactions
refl@@
terfénadine
IX@@
hépatique,
Chlamy@@
permanent
rue
égard
emps
conseils
observer
impér@@
opathie
provoquée
introduire
odique
ciméti@@
population,
identifier
maintenue
poetin
nes
contrôlé
013
thermoformées
Star
chaus@@
éthyl@@
anhydr@@
quer@@
créer
film@@
Fran@@
Gal@@
cruci@@
Génér@@
reçoivent
E)
anesthé@@
néfastes
Malta
KOGENATE
ik@@
soja
éradi@@
exposé
dess@@
édr@@
arom@@
stratégie
certain@@
(SIDA).
pop@@
ont.
n’y
recevez
l'Italie,
spir@@
margin@@
méthox@@
meu@@
moins.
considérable
souten@@
identification
Latvija
gouvernement@@
échange
ti
nutritionn@@
epoetin
mort.
animaux,
fas@@
l'Allem@@
Système
inaccept@@
L'évaluation
Malgré
sée,
Parfois,
ich
eur?
intérêts
án@@
lanti@@
Sh@@
vous-@@
pratiquement
raisonn@@
bien@@
pièces
rent@@
subventions
alistes
intellig@@
débar@@
économiques
croy@@
Ukraine
peupl@@
hectar@@
Afri@@
familles
penser
s".
explo@@
préoccu@@
obligation
OGM
jam@@
immigr@@
l'interdiction
pense@@
vaut
rapport,
appl@@
nous?
Permet@@
saign@@
suivez
tam@@
condi@@
évèn@@
parin@@
ner@@
transitoires
substituti@@
sévérité
yttri@@
répondu
indivi@@
tion)
ziconotide
simul@@
stér@@
tricitabine
passag@@
È@@
souv@@
eau@@
gment@@
sclér@@
ovigil@@
érythropoï@@
surviennent
ocytes
éventuelle
œil
ves,
dû@@
systématiquement
y.
................@@
ster@@
rh@@
endant
UTILIS@@
étrangers
ospor@@
Star@@
substr@@
s.@@
secteurs
gon@@
variant
bo
reg@@
seringues,
EU/1/0@@
és)
surfaces
exam@@
sili@@
verb@@
récol@@
élevé,
spor@@
résou@@
pace
maladi@@
paraî@@
oin
demment
êtres
mètres
scrupul@@
zéro
vide
sau@@
canc@@
résoluti@@
tunn@@
connaî@@
ont-elles
jeu@@
votes
empr@@
élève
preu@@
glucos@@
placebo@@
peg@@
analy@@
diarr@@
ologique,
prol@@
iméti@@
5).
tum@@
fs.
c’@@
cémie
axel
favirenz
gmentation
RC@@
afil
LO@@
épil@@
larg@@
arma
morra@@
allè@@
préco@@
oie
l'environn@@
chrom@@
surfac@@
č@@
à@@
bre@@
difficul@@
princi@@
hab@@
Cy@@
accr@@
éroï@@
asp@@
secon@@
bron@@
méno@@
pomm@@
secrét@@
accumul@@
lent@@
MÉ@@
erce
réduc@@
recomm@@
mutag@@
sodi@@
tubul@@
phar@@
tru@@
cuill@@
suff@@
gal@@
squelet@@
fa@@
W
kil@@
PER@@
d'Al@@
i-@@
λ@@
exact@@
'est
appuy@@
eme@@
défici@@
diarrh@@
=@@
adolesc@@
≤
-M@@
ensibilité
statisti@@
pédi@@
l'AD@@
xim@@
lande
commen@@
Rapid
dri@@
liber@@
l'adolesc@@
doig@@
udine
El@@
§
lax@@
Can@@
d'habitu@@
grastim
opor@@
onnes
blan@@
adap@@
élé@@
prè@@
procé@@
ourag@@
Trois@@
ressour@@
mauv@@
veu@@
chôm@@
CV@@
apparaî@@
muno@@
oed@@
ules
rhumat@@
peau@@
néph@@
ophtal@@
ciclospor@@
triglycéri@@
tard@@
sept@@
britan@@
ariat
minut@@
ostéoporose
évén@@
sa@@
Virafer@@
--------@@
phénom@@
mb@@
CC@@
HAR@@
hydraté,
cti@@
tech@@
nombr@@
Trou@@
gil@@
respirat@@
congel@@
trodu@@
Madri@@
nomin@@
rè@@
Sloven@@
ž
éro
excipi@@
possibil@@
sim@@
moi@@
trib@@
spé@@
renfor@@
excep@@
Finland
cus@@
ôme
thy@@
caract@@
excr@@
uité
clu
azole
aveu@@
établiss@@
TION
dist@@
oires,
Lt@@
poid@@
appéti@@
conti@@
MEN@@
č
Excipi@@
andé@@
périence
quettes
º
Auc@@
incolor@@
membr@@
restric@@
corp@@
entionn@@
curs@@
QU’@@
dég@@
tac@@
trang@@
vérit@@
éric@@
ł@@
zidov@@
espè@@
cortico@@
souh@@
candi@@
4.4@@
vitr@@
Tarc@@
cipro@@
DICAMEN@@
mécan@@
somnol@@
respec@@
antirétro@@
--@@
psy@@
sulin
gri@@
d'hu@@
médec@@
moglobine
ene
prophyl@@
ga@@
elis
Pen
statis@@
Peg@@
pend@@
Fact@@
fantaisie@@
bénéfice@@
chè@@
lamiv@@
Puh@@
d'Alzheim@@
sé,
défin@@
tâ@@
premi@@
judi@@
●
put@@
boute@@
Peut-@@
immédi@@
oS@@
stri@@
thor@@
partici@@
l'intégr@@
arthr@@
inergi@@
périodi@@
illet
‘
AIRE
otr@@
war@@
nausé@@
heim@@
fil
Gmb@@
estér@@
jusqu’@@
…
microgrammes@@
échantill@@
conjonc@@
gran@@
“@@
celui-@@
èrement,
moin@@
entez
journali@@
Pay@@
pneu@@
hire
ā@@
distrib@@
arc@@
demi@@
vrai@@
Δ@@
Ά@@
émis@@
encor@@
noc@@
Monsi@@
précé@@
Médi@@
metfor@@
intensité
zheim@@
sérot@@
trois@@
SC
_
pot@@
ÉR@@
hau@@
ativement
imin@@
EUR
université
utorisation
issons
Labor@@
artan
hyl@@
entan@@
paration
écra@@
ecter
ELIMINATION
rit
avantage
suffi@@
Polo@@
Nomb@@
Mad@@
Vo@@
piè@@
crati@@
ommag@@
èmement,
æ@@
réparti@@
chromos@@
ess
compara@@
clé@@
hebdomad@@
fertil@@
génit@@
9)
anrix
Médicam@@
estom@@
DÉ@@
fici@@
“
thème
sori@@
aér@@
trap@@
........@@
Prom@@
manif@@
agres@@
Gard@@
interrom@@
PG@@
inth@@
catég@@
correspon@@
impose
octroi
thérap@@
l'industri@@
Répon@@
proces@@
mili@@
ostéopor@@
nécr@@
corticoï@@
pourcent@@
lodip@@
produit@@
éma
dre,
poll@@
oblast@@
agliptine
ogé@@
emar@@
…@@
ef
Organ@@
ducation
vul@@
UB@@
nutri@@
nau@@
lem@@
ā
imit@@
euti@@
fran@@
absol@@
stituti@@
sont@@
stim
cles
introduction
empê@@
erc@@
Merc@@
conque
d'att@@
max
olimus
étro@@
élév@@
Protop@@
simultan@@
dose-@@
volu@@
éru@@
cirrh@@
panc@@
gin@@
fén@@
Fax@@
dip@@
Royaume-Uni@@
oct@@
LLES
SAR@@
tén@@
celle-@@
malign@@
-à-@@
ó
AA@@

curr@@
pre
ž@@
conjo@@
inhibit@@
oivent
choi@@
aîtr@@
naï@@
versi@@
Commis@@
pti@@
équiv@@
êts
bâ@@
eusement,
ø@@
enh@@
CONST@@
ots
stati@@
ême
AUTORIS@@
ÉS
l'EMEA@@
adol@@
HMG-CoA
pio@@
Intron@@
auc@@
acidose
étaxel
ologies
otide
eta@@
ère-@@
º@@
Eff@@
omiss@@
OLOGI@@
transdermi@@

ovi@@
allaitement.
PegIntr@@
mement
antibio@@
othiaz@@
ampou@@
ingrédi@@
sécur@@
chlorothiazide
consid@@
résum@@
farine
érieur
systémati@@
Pati@@
vel@@
chr@@
Tabl@@
ī@@
Latvi@@
essionn@@
Ukra@@
alf@@
appu@@
ame
avr@@
trafi@@
modè@@
récept@@
plasmati@@
random@@
opro@@
TORIS@@
calicivir@@
handi@@
pharmacocinéti@@
CHE@@
photos@@
brû@@
capu@@
usculaire
clér@@
étab@@
sep@@
cyto@@
fiè@@
memb@@
contras@@
Κ@@
oudre
sorbate
š@@
auv@@
CU@@
ez-en
ral@@
comparais@@
GR@@
los@@
⋅
Pharmaceuti@@
tiquement
affai@@
suppl@@
orie
sens@@
prén@@
(0@@
endro@@
itaz@@
diction
émati@@
nomb@@
l'Al@@
s'av@@
Suomi@@
riez
là@@
parfait@@
ait-@@
(EMEA@@
(n@@
néfas@@
licul@@
estomac
↔
ors
Hep@@
est-à-dire
(c@@
toute@@
http@@
âni@@
moglob@@
π@@
érap@@
ibu@@
dg@@
´@@
érance
fant@@
Viraferon@@
considé@@
vertébra@@
adine
ayer
compren@@
CV
ú
IB@@
ving@@
dispens@@
talie
agl@@
compréh@@
tribu@@
Toute@@
isten@@
mén@@
ceux-@@
cec@@
l'abac@@
EXUB@@
propor@@
thyro@@
mmol@@
cartou@@
UR
4.8@@
visag@@
mière
rm@@
pseu@@
tabag@@
----@@
tacr@@
nucléosi@@
ilib@@
stéri@@
Ó@@
3A@@
mouv@@
Wy@@
rhinotraché@@
§@@
ver
esthé@@
pip@@
ν@@
CHMP@@
éments
Í@@
ONS@@
minist@@
arate
tem@@
OptiS@@
Á@@
Sus@@
réf@@
ß@@
abri@@
apparti@@
érité
Liprolo@@
Shar@@
espèce
auriez
CHA@@
dif@@
particul@@
l'emb@@
Tit@@
resp@@
agne,
domm@@
beaucou@@
ont-@@
Pren@@
mule
gne,
BYET@@
rud@@
A).
sél@@
joint
enz
réduct@@
hypersensi@@
agli@@
intram@@
squel@@
----------------@@
ύ@@
cidi@@
UTI@@
FORM@@
ANS
Uni
inhi@@
glycér@@
–@@
asthé@@
persensi@@
Fl@@
Flex@@
dispara@@
Λ@@
exclusi@@
exc@@
juv@@
évent@@
dénomin@@
Bus@@
péné@@
sira@@
Q
reff@@
tôt
abilités
mini@@
décid@@
assass@@
chaî@@
a-t-@@
est-@@
Malheur@@
faudr@@
Parallè@@
ièmement,
méthad@@
Cir@@
ensité
FAB@@
étér@@
TM@@
calici@@
démange@@
____@@
atre
fficul@@
G-@@
glyc@@
/www@@
clit@@
dexaméthas@@
ilibr@@
poni@@
appara@@
endi@@
”@@
Syst@@
tug@@
octob@@
tens@@
nettoyant@@
thermoformé@@
κ@@
ο@@
ė
line
Lor@@
héré@@
dermi@@
Pax@@
Candi@@
irbé@@
hémodi@@
²
psoriasi@@
pertur@@
diver@@
ffici@@
orph@@
BAS@@
7/@@
Portug@@
munodéficience
dol@@
prér@@
préh@@
navi@@
tant,
rubri@@
sécher@@
approxim@@
caill@@
épis@@
dimin@@
ficac@@
cophénolate
suscepti@@
±@@
ôm@@
AVE@@
foi@@
TIT@@
aisse
dures
Kin@@
dépist@@
450
giotens@@
MIN@@
EU/@@
rand@@
FABRIC@@
énu@@
Tlf@@
fantais@@
âce
Gross@@
ã@@
ec
moiti@@
auration
ί@@
embre
ferr@@
Rib@@
fentan@@
séroton@@
β@@
leucopénie
bes@@
vitro@@
pulation
quet@@
lui-@@
elon
ints
itures
å@@
orisation
Pel@@
ète,
illez
promo@@
poss@@
réfu@@
distr@@
RIS@@
périm@@
cicl@@
contrô@@
conse@@
Comm@@
AUTORISATION
__@@
ospit@@
gio@@
CoA
ondr@@
idom@@
anaphyl@@
psori@@
ï
naus@@
š
nicoti@@
pension
Intr@@
sorption
Kiner@@
Aff@@
†
ská
chon
™
♦
ida
poten@@
disper@@
amines
μ
ε@@
σ@@
Τ@@
aspect@@
grou@@
réper@@
M.@@
celles-@@
ritan@@
im
atisme
ş@@
West@@
fron@@
conv@@
ă@@
périment@@
ù@@
Humi@@
olan@@
zap@@
HP@@
opéci@@
’
Raptiv@@
info@@
RISPERD@@
bioti@@
décis@@
etu@@
mph@@
EU
bouff@@
chlorhydri@@
adu@@
ή@@
Rapport@@
Grand@@
guli@@
ys
jonc@@
DepoCy@@
vil@@
eils
υ@@
tali@@
cali@@
GlaxoSmithK@@
douc@@
mécanis@@
est-à-@@
affin@@
ission
ux
Bru@@
gré
8/@@
nett@@
approvisi@@
signi@@
discus@@
fermet@@
d'abor@@
о@@
prophylax@@
cipi@@
²@@
γ
strat@@
MINATION
Whar@@
END@@
www@@
ofovir
(hypersensi@@
Trud@@
Enf@@
polyéthyl@@
ERA
ATIONS
VEN@@
traché@@
ect
diuré@@
otidi@@
sildén@@
±
Μ@@
Ε@@
Å@@
male
lande,
Š@@
Danemar@@
stac@@
Ø
esti
Î@@
statu@@
lorat@@
ament@@
Ripraz@@
chir@@
suppress@@
précurs@@
diab@@
lesqu@@
(CHMP@@
acon@@
somn@@
sence
gross@@
évation
chlorothiaz@@
ROV@@
θ@@
ð@@
prur@@
enrob@@
Fabri@@
PRÉ@@
>@@
antécéd@@
UTILISATEUR
Β
thrombo-@@
Ρ@@
contrac@@
tilis@@
praz@@
cins
Ê@@
étée
ī
sifs
eva
epertu@@
épar@@
Pfiz@@
resse
CONN@@
Ö@@
ο
Bret@@
Doh@@
PONS@@
ţ@@
ä
mange@@
issu@@
déj@@
étroit@@
saum@@
orge
kra@@
déri@@
ń@@
dégâ@@
gouver@@
ectar@@
débat)
Quatri@@
(A5@@
95%@@
oxac@@
MabTh@@
@@
TOR@@
µ
pégyl@@
UTILISER
©@@
sumé
Effentor@@
énol@@
médicam@@
½
TITUL@@
RESPONSAB@@
EU/1@@
Flac@@
MM/
ł
‡
mi
CHAMP@@
Yond@@
unaut@@
ormon@@
Nov@@
Σ@@
zapine
nico@@
diagn@@
céph@@
dispersi@@
è
Mab@@
ige
tionne
Kwik@@
STELAR@@
monos@@
CATION
istre
≤@@
Parm@@
ς
modi@@
cus,
bureau@@
ferry
&@@
chrome
ć
tuti@@
delà
comit@@
т@@
е@@
fondaparin@@
opoï@@
titan@@
énér@@
lenti@@
Inhibit@@
Irel@@
Dipl@@
hydri@@
voricon@@
δ
ω
ehring@@
Telz@@
actéri@@
cals
topoté@@
domy@@
(SID@@
pide
ω@@
odes
BC@@
emption
ă
∞@@
lamy@@
OPTI@@
SON@@
ORACE@@
celu@@
ß
Č@@
pro
andis@@
—@@
prolo@@
RES
Ä@@
Fabric@@
pès@@
ADMINIS@@
aum@@
rhum@@
ş
publika
zid@@
ercul@@
oricon@@
dagliptine
psychi@@
jan@@
aujour@@
ř@@
phéri@@
fav@@
ė@@
ôpit@@
l'Itali@@
ő@@
;@@
ǔ@@
ellig@@
/98@@
volon@@
scru@@
Lat@@
ý
jet:
с@@
τ
∝
core
sugammad@@
oté@@
stav@@
oro@@
pertu@@
calcit@@
®@@
anomali@@
xembour@@
étil
lend@@
Unis
Glax@@
/Tel:
respon@@
MIS@@
Trevacly@@
kins@@

Œ@@
ό@@
η
ring@@
Φ@@
Β@@
Ι@@
Š
ά@@
proli@@
particu@@
entraî@@
∞
DICA@@
réfrig@@
ņ@@
Trac@@
Tracle@@
Naglaz@@
perg@@
cortic@@
Néan@@
drome
▲
○
€@@
YCE@@
ę@@
Trit@@
Winth@@
EME@@
SUB@@
ACE@@
Lill@@
Т@@
ι
φ@@
О@@
iness
ffi@@
pyl@@
s-B@@
­@@
ô
ś@@
proph@@
répert@@
Ô@@
mons
bit
vétér@@
rédi@@
élévis@@
nér@@
l'amend@@
docu@@
в@@
ш@@
л@@
corti@@
↑
arctus
ReFact@@
eu/@@
zicon@@

égr@@
λλ@@
ό
FABRI@@
Gél@@
Č
→
≥@@
lixim@@
inéti@@
terfén@@
Pegas@@
UTIONS
Θ@@
ý@@
place@@
Υ
ń
ου

4H@@
©
Starli@@
entor@@
HMG-@@
ONSY@@
ř
coag@@
velop@@
pa.
sidé@@
l'hormon@@
$
ombin@@
ć@@
heb@@
ERS
Γ@@
δ@@
¹@@
reich
ocinéti@@
´
glycéri@@
ς@@
ę
ostic
EST-@@
ption
Enbre@@
tamp@@
habdomy@@
tigmine
ţ
↓
ble)
Α
Ε
Ingel@@
ả
otraché@@
eth
Zi@@
С@@
П@@
hée,
heim
net@@
isl@@
néan@@
umeaux
ň@@
bition
ź@@
Ó
domad@@
tun@@
oppor@@
Unit@@
ż@@
ą@@
concer@@
(A4@@
£
ч@@
а@@
н@@
и@@
ǔ
outch@@
wik@@

♣
ADMIN@@
éthas@@
examéthas@@
TOL@@
Ü@@
¾
thermo@@
sque
CHETS
ύ
ö
Fait@@
xib
GlaxoSmith@@
∗@@
aucou@@
Þ@@
þ@@
ð
χ@@
Η@@

ї
~@@
uctu@@

serin@@
½@@
∅
établ@@
rivas@@
mof@@
ë
#@@
l'inhi@@
†@@
χ
ż
ptine
échanti@@
soma@@
structions
ε
·@@
„
entifi@@
avein@@
besartan
Ġ@@
õ@@
ώ@@
9):
Ë
lles
Ø@@

ª
Sebi@@
έ@@
Ελλάδ@@
GON@@
ctus
ammat@@
∗
ª@@
pruri@@
LIB@@
SON
hibit@@
‡@@
Ň
otrex@@
Ş
ň
Ã@@
crit.
/Finland
Impr@@
Tektur@@
Γ
OLOGIQUE
ϑ
glucur@@
ATEUR
™@@
ή
Σ
Υ@@
Π@@
Ο@@
Τ
Р@@
И@@
Л@@
Е@@
Т
К@@
Н@@
А@@
ì@@
réqu@@
å
Ţ@@
ď@@
embour@@
Â@@
rop
ı@@
ő
vote)
¡@@
lf@@
Ő@@
ñ
mith@@
ǐ@@
pact
égét@@
égout
cul
ǎ@@
û
lusieurs
Tek@@
ò
améli@@
anté@@
ì
£@@
infir@@
³
onance
о
в
п@@
ķ@@
Ž@@
ü
lai
\@@
ά
ν
ψ@@
Д@@
б@@
р@@
е
д@@
ы
ь
у@@
к@@
й
а
з@@
ь@@
