<blank>
<s>
</s>
the
of
and
to
in
is
a
be
for
with
or
not
that
are
The
on
as
it
have
you
should
this
by
has
been
at
an
was
-
(@@
will
patients
from
which
If
use
may
your
,
were
can
.
A
if
other
must
any
-@@
In
these
there
one
also
than
more
used
no
they
It
all
What
European
treatment
ing
but
1
only
who
mg
dose
•
You
their
in@@
such
after
'@@
ed
)
its
do
s
into
when
s,
For
re@@
es
I
would
S@@
s.
risk
?
1/
blood
un@@
take
P@@
people
EU/
during
up
There
However,
2
effects
about
:
3
very
s@@
injection
/
time
section
we
doctor
out
C@@
(see
information
new
B@@
number
two
–
what
A@@
E@@
ation
report
those
L@@
Commission
being
product
This
F@@
e.
had
given
T@@
active
D@@
does
es,
b@@
first
before
clinical
).
e@@
es.
tablets
medicinal
M@@
over
10
some
products
G@@
e,
human
N@@
),
need
t@@
ed.
er
between
taken
IS
system
t
increase
same
ate
treated
without
5
g@@
y
so
where
then
solution
WHAT
recommended
increased
al@@
e
i@@
Do
children
could
H@@
insulin
o
c@@
per
ml
o@@
ed,
Why
R@@
n@@
cannot
on@@
4
;
6
an@@
years
following
less
FOR
because
p@@
2@@
k@@
We
K@@
able
taking
side
most
study
three
studies
One
When
y@@
Member
m@@
under
d@@
ar@@
4@@
made
5@@
them
All
at@@
en@@
even
Oral
important
case
er@@
V@@
ing,
EU
a@@
available
7
y,
including
against
example,
de@@
is@@
age
as@@
ing.
3@@
using
both
Europe
O@@
al
h@@
ated
least
data
administration
Union
women
f@@
ers
Patients
ation,
w@@
l@@
ation.
many
therapy
renal
st@@
reported
y.
order
therefore
's
severe
50
am@@
'
!
100
day
see
8
us
a,
health
within
06/
it@@
1@@
safety
further
possible
30
well
work
how
known
rate
7@@
AND
skin
administered
last
6@@
oral
di@@
@@
I@@
0@@
combination
u@@
adverse
symptoms
No
i
effect
every
through
disease
el@@
Mr
ations
t,
reactions
make
ic@@
way
weeks
much
patient
ic
levels
level
op@@
type
medicines
ac@@
x
contains
8@@
high
000
just
ti@@
result
cause
cases
mg/
or@@
+
associated
il@@
us@@
too
like
9@@
ine
es@@
whether
however,
once
ab@@
r@@
hepatic
le@@
days
ts
considered
v@@
be@@
pro@@
each
z@@
co@@
due
As
im@@
se@@
daily
IT
/@@
substance
12
20
9
Tel:
States
times
tell
he
ch@@
measures
water
ag@@
ly
body
long
million
lo@@
period
compared
k
end
red
ted
results
single
ro@@
U@@
necessary
change
ri@@
W@@
ol@@
development
m
15
ad@@
infusion
certain
specific
market
li@@
months
me@@
non-@@
dis@@
did
oc@@
ating
C
pre@@
ent
USED
doses
part
t.
ensure
get
different
ia
conditions
l
a.
response
os@@
serious
food
no@@
observed
reduced
events
year
total
s?
it.
‘@@
ting
problems
25
containing
om@@
reduction
set
medicine
40
based
already
site
g
er,
id@@
place
week
care
liver
<
means
th@@
20@@
OF
Z@@
treat
experience
until
d
put
become
working
another
group
hours
ex@@
control
en
few
To
S
impairment
four
le
animals
j@@
child
al,
ap@@
ent@@
small
tion
de
et@@
.@@
patients.
An
United
white
vial
medical
low
main
while
either
provided
good
Council
>
over@@
reduce
ec@@
disorders
point
ul@@
virus
country
substances
24
done
know
receiving
19@@
ant
d,
shown
please
er.
sp@@
J@@
Your
Marketing
potential
ates
D
In@@
ut@@
our
B
received
ur@@
%
needs
Medicines
ability
down
population
infection
form
14
Treatment
tion.
par@@
needle
right
greater
ed@@
0.@@
ir@@
treatment.
clear
g.
still
give
p
impact
start
significant
em@@
area
ter@@
s:
changes
support
ous
he@@
syringe
higher
Use
particularly
growth
second
d.
come
Al@@
vaccine
notice
plasma
lead
approximately
Therefore,
pain
ally
60
required
ine,
cells
often
Con@@
ia,
per@@
activity
THE
now
go
appropriate
s)
tr@@
since
lower
effective
But
related
al.
benefit
expected
production
con@@
pl@@
called
example
T
ra@@
prevent
ing@@
via
pre-filled
individual
major
ar
waste
e?
might
tic@@
Human
contact
similar
efficacy
L
found
immediately
special
seen
ask
mean
amount
tions
’s
carried
sugar
um@@
included
studied
help
stop
around
better
young
n
allergic
eye
breast
E
quality
back
pharmacist.
large
Y@@
Please
‘
10@@
te@@
public
caused
'.
tion,
local
always
current
sodium
use.
tic
ingredients
ha@@
listed
common
countries
ne@@
UK
continue
14@@
exposure
ph@@
terms
read
15@@
five
own
animal
ers,
allow
ant@@
cell
si@@
ter
Re@@
According
18
ity
h
monitoring
especially
Report
next
2.
200@@
end@@
leaflet
11
function
particular
in,
cancer
prior
present
e-@@
time.
ou@@
signs
x@@
ml)
and,
acid
weight
qu@@
EMEA
life
longer
ers.
"@@
yet
sh@@
ov@@
protein
years.
marketing
state
vi@@
Annex
Not
national
(e.
management
ver@@
authorisation
hepatitis
ot@@
chronic
areas
to@@
mis@@
Any
pe@@
300
Committee
heart
receive
b
%.
inter@@
Agency
and/
od@@
tive
ren@@
measure
drug
anc@@
pressure
out@@
scientific
powder
ment
package
They
far
third
them.
additional
pa@@
off
Only
rec@@
loss
Pro@@
protection
line
for@@
c
healthy
controlled
factor
veterinary
having
procedure
led
00
effectiveness
affect
day.
causes
P
provide
tablet
his
reports
anti-@@
trials
21
ly,
po@@
ations.
ence
include
ance
long-term
average
2.@@
17@@
13@@
pain,
These
(A4-0@@
account
ill@@
recent
16@@
limited
R
reaction
man@@
up@@
ma@@
Authorisation
responsible
in.
decision
king
ati@@
want
70
maximum
occur
infection,
according
whole
placebo
et
immune
80
ations,
est
bi@@
list
ation@@
think
men
la@@
sub@@
pen
diseases
dosage
is,
1.@@
ari@@
gets
str@@
on.
yl@@
general
4.@@
usually
currently
process
Where
se
199@@
time,
it,
question
am
ated.
ies
full
dec@@
ans
su@@
six
com@@
Kingdom
16
access
=
als
moderate
az@@
research
disposed
(P@@
car@@
du@@
min@@
difficult
avoid
cl@@
ine@@
situation
es?
00/
suspension
produced
Ar@@
recommended.
At
so@@
►
ten
(A5-0@@
act
normal
[@@
damage
absorption
So
basis
date
18@@
best
ob@@
pack
fact
serum
ate,
An@@
*
indicated
bone
13
fin@@
ca@@
assessment
tion@@
28@@
og@@
200
little
ell@@
RE@@
experienced
decrease
adult
standard
tests
below
hyper@@
Th@@
infected
1,
af@@
e:
Par@@
enough
é@@
s).
course
significantly
year.
tri@@
fe@@
term
How
(C@@
MEDICINAL
France
IN@@
anti@@
pregnancy
show
never
bleeding
3%
old
4.4).
28
ty
risks
allowed
3,
fl@@
limit
s;
ings
12@@
adults
75
rare
concentrations
kg
rates
groups
ase
%,
patients,
release
ity.
achieved
proposed
ted.
(A@@
iv@@
w
bo@@
ate.
likely
aid
instructions
above
able.
M
evidence
ep@@
IU
mixed
ial
subject
half
acute
test
ib@@
ative
ang@@
ru@@
ary
established
el
objective
among
ol
injection.
Mrs
ach@@
great
transport
if@@
recently
ure@@
ent.
-2@@
mon@@
der@@
ist
continued
my
ity,
position
clearly
YOU
e)
Ex@@
several
OR
ised
alcohol
rules
developing
needed
ast@@
r
um
cartridges
35@@
month
baseline
regard
subjects
cor@@
issues
obtained
and@@
adjustment
concentration
duration
antibodies
key
activities
ds
estimated
≥
serious,
values
5%
30@@
2.5
respiratory
ying
ide
ally,
on,
left
years,
London
decreased
overall
ass@@
therapeutic
ten@@
all@@
develop
remain
action
various
ak@@
s'
th
monitored
diabetes
X@@
ide@@
inhibitors
lack
itself
BEFORE
caution
56
leaflet,
failure
event
6.@@
excreted
carefully
an,
36@@
N
ER@@
analysis
increases
applied
solvent
re-@@
factors
5-@@
ins
infections
negative
Detailed
milk
vials
gen@@
Another
48
25@@
again
”
produce
free
gl@@
increasing
age.
z
comes
17
alone
together
demonstrated
pharmacokinetics
rather
influence
Medicinal
types
developed
syndrome
involved
one.
disease.
energy
used.
vis@@
37@@
50@@
agents
primary
breast-feeding
whose
twice
22
paediatric
appears
ants
light
ent,
vaccination
concomitant
fully
incidence
ine.
adequate
affected
milk.
av@@
ed?
EN@@
ste@@
points
makes
emea.
work@@
Liprolog
product,
’
EUR
ve@@
0
ribavirin
cr@@
cap
say
ks
ke
ritonavir
pharmacokinetic
sometimes
3.@@
interferon
material
enzyme
resulting
regulation
500
400
early
age,
addition
hard
Report:
us,
complete
Many
Tel.
subcutaneous
“
les
names
designed
General
film-coated
State
Euro@@
gastrointestinal
2,
http:
Ch@@
ted,
region
Winthrop
not,
Dr
accordance
mo@@
completely
ance.
ce@@
tions,
man
Holder
progress
needles
On
sure
O
months.
AL@@
showed
il
appear
ness
Un@@
you.
Eesti
mentioned
/2001)
close
ia.
evaluation
trans@@
%)
positive
ev@@
es)
St@@
ig@@
ents
ts,
therapy.
mild
2000
(a
mat@@
atic
form@@
products.
ch
war@@
ud@@
den@@
approved
re,
again.
Teva
initial
27@@
vitro
ion@@
assessed
authorities
Once
ts.
final
tre@@
lat@@
fall
relevant
rel@@
/www.
problem
tor@@
evaluated
Is
international
07/
going
iti@@
2%
clearance
are@@
fi@@
request
wor@@
AUTHORISATION
Co@@
held
Spain
concerned
countries.
res@@
method
visual
air
particles
6,
directly
described
"
poly@@
Germany
CHMP
out.
that,
doctor.
29@@
study,
ated,
itis,
pr@@
ho@@
improvement
prescribed
glucose
remains
history
sed
(A5-00@@
0.5
proportion
viral
intended
ise
pre-@@
Safety
From
household
starting
150
labelling
368/
apply
red.
application
reached
Name
ages
whom
volume
col@@
cre@@
shows
sk@@
land@@
protect
est@@
minutes
/97)
require
clinically
35
medicine.
drugs
addition,
therefore,
Comb
person
intravenous
air@@
Products
systemic
adolescents
es:
Ac@@
ta@@
tract
198@@
is.
IC@@
storage
ment.
previous
inject
way.
multiple
’.
1-@@
le,
600
ence,
USE
sec@@
s),
follow-up
performed
natural
(EMEA)
europa.
value
Internet
enc@@
questions
)@@
inf@@
AUC
dry
Parliament
/98)
days.
res
occurred
Canary
ters
Com@@
staff
IU/
immediately.
ement
we@@
website
Ireland
reconstituted
role
waste.
said
HIV
presence
+@@
short
extent
sha@@
available.
ical
throughout
Information
look
Hypersensitivity
them,
cases,
necessary.
hours.
range
Westferry
field
followed
feline
day,
sion
Very
placed
ci@@
wa@@
proposals
á@@
/0@@
AD@@
45
G
5.@@
treatment,
one,
ist@@
criteria
uc@@
S.
under@@
En@@
author@@
IF
costs
):
product.
contain
en,
le.
&
pen@@
generally
dose.
o,
E14
pregnant
ded
4,
off@@
23
University
pharmacist
ments
act@@
market.
Mar@@
Summary
gr@@
aware
',
y?
2-@@
te
stat@@
sc@@
inflammation
suffering
prevention
alfa-2b
reason
5,
ling
possibility
ve
gu@@
lin@@
system.
measured
inhibitor
Circus,
level.
TE@@
ion
forms
an.
antibiotics
RI@@
Ad@@
red,
CO@@
service
AR@@
past
sa@@
ities
Insuman
au@@
Insulin
training
oper@@
(S@@
Wharf,
AC@@
34@@
ence.
o-@@
she
death
Take
self-@@
Di@@
ment@@
food.
why
me
hi@@
hormone
Such
4HB,
ment,
bottle
ox@@
ran@@
vitamin
direct
the@@
impairment.
her
carry
drive
plus
ratio
Its
65
equal
der
muscle
mal@@
projects
potassium
essential
elec@@
32
keep
resistance
frequency
post@@
survival
surface
na@@
F
usual
cloudy
improve
3.
technical
Product
preparation
differences
Le@@
u
Renal
rise
land
39@@
26
y-@@
identified
aged
mechanism
introduced
ently
something
studies,
label
difficulty
testing
f
id
se.
(E@@
hypersensitivity
peripheral
dem@@
upper
Let
SPECIAL
ology
reasons
view
others
That
1)
discontinued
products,
26@@
10%
1%
ism
capsules
AN@@
as,
bul@@
Netherlands
attention
ris@@
No@@
target
III
cat@@
step
disease,
);
equivalent
stored
Pre@@
oil
ever
ann@@
find
7%
open
frequently
(for
EC@@
tissue
administration.
presented
33
X
therapy,
updated
Section
unknown.
DISPOSAL
WASTE
action.
elderly
authorised
Three
benefits
/2000)
status
ful@@
difference
measuring
AP@@
ess@@
her@@
Humalog
thus
ge@@
questions,
weeks.
(used
dosing
condition
defined
abnormal
%),
resistant
toxic
interaction
19
content
PRECAUTIONS
UNUSED
De@@
DE@@
reach
en.
systems
excessive
Even
hour
,@@
itis
our@@
ra
U
cal@@
fied
pass
hal@@
ding
hol@@
talk
3-@@
follow
sal@@
ory
a-@@
tions.
phase
38@@
ip@@
undergoing
cy@@
regards
ys@@
st
Mon@@
Portugal
gi@@
Limited
ant.
als,
k,
Of
t-@@
C.
combined
feel
kin@@
Ab@@
ited
fold
Invented
ge
Qu@@
submitted
monotherapy
...
feed
distribution
consider
ons
o.
work.
alternative
tiv@@
started
maintenance
divided
medicines,
surgery
(1
40@@
-f@@
programme
ard@@
contents
Because
ser@@
proposal
go@@
French
HOLDER
takes
crisis
political
can@@
medicines.
3/
or,
observed.
micrograms
ster@@
determined
co-@@
*@@
giving
seek
Working
except
requirements
fil@@
maintain
ban
closely
(including
Since
4%
Y
Based
pos@@
ite
dr@@
bro@@
let
kind
Pharma
soft
consumption
overdose
rash
ically
isation
exposed
creatinine
ice
although
internal
children.
referred
suffer
read@@
away
top
regular
biological
-1@@
ator@@
binding
phosphate
hands
existing
Ag@@
hy@@
tim@@
do@@
cop@@
iz@@
1000
flu@@
solutions
Question
ing?
ance,
8,
minimum
mg)
clo@@
MA@@
ens
check
fat
my@@
sign@@
har@@
Olanzapine
wastewater
involving
During
31
body.
dependent
infection.
sufficient
erg@@
store
Im@@
ality
impaired
inc@@
recommendations
consideration
ter,
inv@@
stage
States,
bl@@
issue
circumstances
previously
toxicity
disorder,
central
4.5).
skin,
interest
dogs
conducted
Per@@
ological
physical
concluded
PRODUCTS
dic@@
continu@@
New
os
ia@@
cleansing
head@@
es;
face
proper
H
determine
amine
ases
mainly
MP@@
ances
growing
50%
ar,
re
ther@@
Table
des@@
urinary
Some
Uncommon
um.
ill
hypo@@
27
AT@@
90
technology
gener@@
eg@@
outside
SE@@
immediate
sto@@
ess
reducing
International
minor
able,
ors
uniformly
multi@@
tis
advice
Dis@@
diagnosis
del@@
poor
96/
k.
Article
social
swelling
sion,
tumour
aemia
sive
el,
sion@@
withdrawal
injections
arg@@
ally.
relating
ses
recombinant
name
objec@@
here
sexual
Italy
quickly
fa@@
legal
ation?
actually
(A4-00@@
cover
A,
pulmonary
rapid
]
vo@@
ty@@
mit@@
por@@
kidney
arm@@
slightly
initiated
36
w,
injected
yl
sur@@
ef@@
of@@
operation
hom@@
granted
sil@@
document
particular,
Subject:
stri@@
leading
balance
replacement
relevance
ni@@
environment.
added
degree
int@@
hor@@
34
calcium
use,
VE@@
ust@@
tra@@
ish@@
return
deb@@
V
acceptable
mental
secondary
8%
ton@@
atory
é
possible,
VIII
70@@
sections
ering
men@@
Health
class
(M@@
pharmaceutical
in-@@
−
Sch@@
Ro@@
joint
capacity
decided
Then
plan
economic
Firstly,
24@@
84
effects.
Other
RISPERDAL
re.
oedema
(the
ded.
nurse
upon
Q@@
TA@@
cas@@
II
sing
,000
na
onset
pol@@
alisation
patch
Ser@@
making
bioavailability
L-@@
business
ani@@
da@@
water.
warning
matter
39
olog@@
placebo.
tional
equ@@
fewer
tal@@
ive
tu@@
bu@@
Val@@
across
one@@
ity@@
org@@
ear@@
ency
contraindicated
industry
progressive
temperature
supervision
Se@@
pens
ail@@
address
regarding
í@@
conf@@
car
excipients.
igh@@
simply
metabolites
CI@@
oph@@
cul@@
arthritis
ane
ath@@
break@@
list@@
vs
regul@@
rest
actions
EU@@
entire
someone
harm
cont@@
holder
29
ising
gre@@
INFORMATION
ry
Before
ate@@
system,
Europe@@
thing
Our
6%
ax@@
species
versus
global
children,
I.
doctor,
osis
day@@
confirmed
ub@@
micro@@
assistance
rapidly
9,
(CHMP)
vaccines
pigs
organ@@
steps
Ph@@
ly.
coated
ents.
ö@@
Manufacturer
ref@@
ure
cur@@
produc@@
Pfizer
EU/1/00/131/0@@
kept
ably
parts
/99)
tis@@
receptor
trac@@
independent
ide.
information.
almost
reg@@
male
(3
Nor@@
Common
98
cour@@
tics
bur@@
prolonged
materials
5.2).
marked
“@@
examined
me,
us.
soci@@
safe
speaking
AB
open@@
trial
all,
group.
possibly
lymph@@
extremely
ain@@
pic@@
ST@@
period.
CE@@
tin
every@@
00@@
stomach
eyes
adequately
providing
TI@@
feeling
OP@@
ish
ly@@
ely
healthcare
diseases.
goes
ack@@
Nevertheless,
separate
remove
%).
radi@@
ful
4.8).
ple@@
initiation
od
at,
damaged
correctly
summary
room
st.
formation
um,
GmbH
cent@@
majority
indicate
ile
abdominal
sor@@
ff@@
coun@@
fact@@
UN@@
liquid
ately
killed
42
acting
parameters
hip
7.@@
il.
mouth
fat@@
46
intake
considered.
CYP3A4
setting
percentage
up.
improved
RA@@
dos@@
vari@@
bio@@
month.
sol@@
pri@@
mar@@
urg@@
consequences
thyroid
br@@
financial
cap@@
year@@
Who
person@@
really
Read
price
amounts
ros@@
quite
reli@@
women,
els
SA@@
super@@
(F@@
AS@@
pharmac@@
well.
vivo
pay
ON
*,
potentially
correct
thought
non@@
wh@@
along
importance
ship
alfa
dangerous
drink
explo@@
K
purpose
antibody
sustained
9.@@
chemical
IT@@
corresponding
animals.
sit@@
S,
Cmax
Study
(N@@
brought
subsequent
nam@@
FROM
insufficiency
Therefore
advised
ities.
Community
becoming
ir
humans
rest@@
environmental
ded,
achieve
Luxembourg
Pol@@
ms
sw@@
Common:
principle
Ne@@
driving
family
ings.
consumers
perhaps
stopped
expiry
A.
doses.
ing:
star@@
imp@@
(5
Trudexa
ME@@
yn@@
ON@@
ning
enti@@
original
event@@
st,
tw@@
progression
path@@
strong
fo@@
MATERIALS
PRODUCTS,
nausea,
Be@@
Clinical
After
sun@@
(B@@
prescription
chloride,
hand@@
(0)
view,
provision
requirements.
low@@
him
powder,
EU/1/00/132/0@@
nation@@
exactly
but@@
way,
(4@@
loc@@
median
ture
ness,
top@@
medi@@
reference
solution.
de.
C,
DNA
Enbrel
DERIVED
SUCH
ves
CPMP
ie@@
37
log@@
ay@@
don@@
call
ban@@
word
Will
49
resulted
rac@@
mark@@
ml.
s/
high-@@
it's
concentrate
post-@@
vein
smoking
Ma@@
services
th,
ble@@
recovery
Me@@
disorder
mil@@
studied.
100@@
tion?
dri@@
ash@@
als.
022/
9%
discontinuation
outcome
ion.
oedema,
ds,
rheumatoid
reductase
(0.@@
mor@@
PegIntron
female
enzymes
cell@@
tip
ed;
ic,
supply
ber@@
derived
ities,
mofetil
pack@@
agre@@
members
old.
e;
ed:
used,
unused
tly
eng@@
live
real
/200@@
fracture
ants,
site.
8.@@
cattle
excluded
a)
g/
commonly
ear
s-@@
2006.
RO@@
ess,
Furthermore,
drop
resolution
done.
haemoglobin
Uncommon:
(0)@@
plastic
des
specifically
emp@@
highly
aim
this,
words
Merck
outer
guidelines
Within
successful
kg/
(95%
Gu@@
weight.
20%
prof@@
ire
diet
VI@@
cho@@
ual
d-@@
cent
year,
frozen
mod@@
1997
mut@@
ics
sen@@
Inter@@
profile
Car@@
yellow
works
process.
supplied
valu@@
October
Av@@
eri@@
Road
Consequently,
media
forget
things
Unfortunately,
(such
model
osteoporosis
leuk@@
birth
ga@@
respectively.
digital
passed
injections.
alis@@
Adverse
250
ech@@
metabolite
lip@@
160
strain@@
comp@@
mix
APPROPRIATE
oun@@
LE@@
AG@@
fac@@
drinking
se,
D-@@
June
struc@@
Wh@@
Tr@@
antiretroviral
difficulties
May
’,
tro@@
odi@@
power
obtain
Po@@
Although
told
else
world
.'
happens
Under
-related
nervous
toler@@
cer@@
rarely
deaths
800
however
fondaparinux
favour
deficiency
soon
unless
(as
T)
solid
structure
ship@@
raised
thir@@
suitable
Severe
2002.
chloride
propos@@
lam@@
ions
serv@@
France,
emerg@@
yourself
mu@@
fight
ton
Experience
Sweden
believe
son
che@@
course,
ble
any@@
this.
d?
38
high@@
ular
maintained
ine-@@
ACR
0.0@@
weekly
HMG-CoA
sensitive
cost
stable
los@@
injection,
et,
ties
1.5
cholesterol
tax@@
cartridge
occurs
removed
sterile
recognised
ium
ides
iting
ven@@
amp@@
Dose
ings,
Regulation
easily
bacterial
me.
60@@
+4@@
app@@
pan@@
provides
002
win@@
policy
nothing
money
ps
ders
SP@@
NovoMix
causing
relative
mortality
ously
oz@@
long@@
chest
frequent
peri@@
try
TH@@
antiviral
brain
levels.
Alzheimer's
2)
ies.
function.
pal@@
repeated
refers
red@@
rash,
eu@@
SI@@
ad
ric@@
age@@
herpes
agreed
ok@@
Tell
Sal@@
ch,
ure,
at.
representative
acc@@
sm@@
ard
stated
ous.
fail@@
ping
t?
A/
findings
needed.
half-life
1,@@
lung
tom@@
transient
relationship
ron@@
sy@@
fun@@
alised
suggest
(1@@
capsule
table
lact@@
wall
ones
cardiac
directive
physician
neuro@@
Mix25
w.
report,
inst@@
avi@@
ast
countries,
IN
tt@@
front
doing
probably
changed
Pen
happen@@
001
Instructions
themselves
opinion
comm@@
ending
commun@@
living
road
s!
case,
contained
ion,
post
ous@@
head
fever
HA@@
val@@
meat
elevated
viruses
Pharmacovigilance
4-@@
ue
laboratory
x,
port
blister
transdermal
applic@@
Mycophenolate
de,
Viraferon
til@@
Germany,
constitu@@
GlaxoSmithKline
41
tar@@
ere@@
heavy
ey@@
law
strict
valid
broken
pen,
sed.
plant
ants.
consumer
amendment
tain@@
My
Thirdly,
pi@@
groups.
3)
definition
N-@@
empty
behaviour
I,
seven
metabolism
ade
m,
treat@@
tuberculosis
ogen@@
90@@
amino
PE@@
stick
Prevention
bar@@
irrit@@
He
allows
documents
transfer
fic@@
users
mb@@
on-@@
up,
pe
ight
Using
mother
4.2).
German
tel@@
lif@@
uses
ents,
Rec@@
BATCH
RELEASE
organis@@
glass
coming
workers
certainly
employ@@
lowest
arm
develop@@
depression
inhibition
respon@@
metabolised
patients)
injec@@
-1
radiation
consistent
ocular
counts
ency,
m.
IV@@
cardiovascular
repeat
th.
ational
ys
compatible
eu/.
tin@@
worked
Party
or.
ists
confidence
Sol@@
meth@@
persons
SU@@
investigated
lic@@
Her@@
card
connec@@
com
sel@@
Cal@@
ds.
Factor
so,
MANUFACTURING
RESPONSIBLE
hel@@
ik@@
food,
alone,
text
employment
More
vaccin@@
(H@@
OR@@
lab@@
syndrome,
necessary,
ick@@
amide
l)
ter.
suspected
ket@@
30%
aff@@
cit@@
worse
While
eye,
urine
applications
opening
highest
excretion
are:
medication
Mic@@
Europe.
leukaemia
deal
’@@
demonstr@@
ws
chance
protec@@
ines
failure,
test@@
contrast
ligh@@
parties
trade
apparent
quantity
hydrox@@
Lilly
OÜ
lit@@
acts
vel@@
disposal
004
falling
ka
legislation
ans,
decide
looks
cha@@
die
harmful
and/or
fast
posi@@
study.
round
nec@@
47
dose-@@
responses
58@@
allow@@
discontinue
ments.
-0@@
25%
i,
min
week@@
inhibits
studies.
Ribavirin
For@@
activ@@
ped
November
mid@@
6-@@
fer@@
efavirenz
phot@@
rat@@
exc@@
hospital
pig@@
Mil@@
September
reduces
Package
less@@
route
dist@@
fre@@
bacteria
salt
gra@@
SA
night
CONSTA
El@@
ty.
amendments
cancer.
04/
fish
functioning
happen
approach
consum@@
a?
idea
treating
tics,
speak
lesions
simvastatin
ant,
02@@
follow@@
conditions,
(n=@@
es).
achiev@@
exist@@
Tarceva
exercise
titration
serotonin
yr@@
acquired
dul@@
Parkinson's
took
indic@@
63
int
well-@@
With
dys@@
Cy@@
emb@@
ies,
shall
onto
swabs)
Avoid
ACTIVE
Sverige
euro@@
bas@@
competition
issu@@
requires
vehicles
agricultural
bel@@
so-called
vote
noted
metformin
Veterinary
concentr@@
suicide
sites
converted
complic@@
weakness
termin@@
ation)
opened
osis,
inadequate
Cl@@
persistent
body,
centre
control@@
tor
effect.
raz@@
P-@@
2001
block@@
ini@@
whereas
adap@@
transl@@
syringes
population.
ness.
health@@
gene
numbers
web
art@@
milk,
lactic
back@@
tablet@@
published
ner
ution
lu@@
diluted
Sharp
tive,
Pharmaceuticals
tab@@
ian
everything
Or@@
es'
hop@@
(H-0@@
/99):
comparable
occur@@
suicidal
nor
percent
sion.
comple@@
hear@@
diabetes,
harmon@@
ay
diarrhoea
vision,
none
AN
inhibit
ol.
(4
inside
rati@@
i.
finding
irbesartan
low.
{@@
ty,
inspec@@
companies
lik@@
Cor@@
Increased
strain
thro@@
passes
bru@@
company
turn@@
spread
Skin
house
Man@@
ide,
accompanied
ore
increased.
count
Mix50
arch@@
size
contain@@
fast@@
ce
procedure.
ampoule
result,
ery
Members
Important
continues
recogn@@
USER
respect
environment
e!
And
cases.
zidovudine
tive.
excess
nit@@
CI:
situations
painful
5)
44
ell
bir@@
leg@@
69@@
ators
elimination
cells.
(range
len@@
frag@@
67
adi@@
mus@@
regimen
eight
bottom
iron
sul@@
April
et.
occur.
vomiting,
Taking
flo@@
Stat@@
dioxide
ties.
tub@@
Su@@
gradually
port@@
organic
Mal@@
psychiatric
As@@
ors.
6.6.
bal@@
Characteristics,
swelling,
.,
Rom@@
problems,
pen.
pH
demonstrate
Gen@@
ement.
Authorisations
Irbesartan
system@@
dra@@
MARKETING
bring
ments,
immunodeficiency
future
education
6.3.
dead@@
market,
trials.
les@@
woman
Studies
later
AB@@
deep
inten@@
milestone
mg.
careful
II@@
weigh@@
minim@@
180
rit@@
eth@@
part@@
public@@
197@@
granting
4.3).
L)
cycle
anaemia
agreement
bodies
cartridge.
Basal
Italy,
nature
Pregnancy
lob@@
methyl@@
fication
break
ili@@
Hepatic
fur@@
B.
mothers
resources
human@@
professional
rap@@
procedures
hope
Commission's
govern@@
(debate)
times.
control.
ed)
%@@
initi@@
ose
reproductive
1).
comparison
IX
speci@@
minimisation)
ving
plan@@
ism@@
dur@@
33@@
avir
permanent
infants
RMP
11@@
ways
meal
EXUBERA
language
medicin@@
reconstitution
Li@@
MR@@
black
tak@@
conditions.
Pa@@
2007
T.
precautions
competi@@
p.
ole@@
5.1).
Chinese
Ber@@
Wor@@
econom@@
liber@@
normally
Dohme
ver
need@@
/00@@
identi@@
dose,
003
Powder
manufacturer
established.
spoon
inform
demand
leads
ality.
security
consult
required.
vertebral
stric@@
vir@@
Protopy
ens@@
]@@
extension
framework
week.
fixed
nausea
AL
Plan
unknown
S)
separ@@
76
mg@@
LU@@
exp@@
lar@@
relation
basic
breathing
individuals
µ@@
LDL
delay
hydro@@
include:
ement,
post-marketing
attack@@
adopted
colour@@
4.4
pres@@
asthma
accoun@@
ure.
sions
involves
consider@@
}
linked
reaction,
ased
turn
pain@@
water,
vaccine.
chain
lines
effects,
as.
006
consist@@
He@@
abil@@
child@@
visible
Their
Both
pul@@
citizens
vot@@
votes
group,
righ@@
le-@@
h,
depres@@
hypoglycaemia
hour@@
(≥
uri@@
ma
inhaled
(pharmacovigilance
ended
norm@@
reactions.
ne
ViraferonPeg
depend@@
ain
includes
mg/@@
recorded
ster
ReFacto
Among
complications
id.
characteristics
55
ation:
advis@@
Efficacy
ke@@
force
detected
extra
meeting
sector
aring
Fin@@
vial.
rol@@
AIDS
ved
ences
Tra@@
excipients
ana
ous,
offic@@
persist
operating
syrup
ign@@
question@@
foot@@
interpre@@
covered
direc@@
parents
viol@@
farm@@
people,
rights
accidents
α
disp@@
appeared
platelet
stand@@
point@@
randomised
chlor@@
time@@
origin
smok@@
itation
hospit@@
sho@@
nine
My@@
imaging
cardi@@
I).
month@@
metabol@@
vaccinated
95
absorbed
appl@@
-M@@
ture@@
Gre@@
known.
induced
agent
implementation
rib@@
oid
MAH
Hol@@
Side
Tran@@
symptomatic
Blood
tion:
scre@@
enter@@
running
T,
Each
p,
ism,
tur@@
sts
sale
row@@
diseases,
sett@@
concerns
product@@
bed
collec@@
market@@
ch.
own@@
objectives
choose
introduction
Look
danger
nuclear
ben@@
Fer@@
ring
treatments
terminal
trials,
ator
methotrexate
score
ID@@
delayed
receptors
reduc@@
EMEA.
formed
begin
ei@@
PRO@@
tem@@
Most
co-administered
mono@@
ened
2003
ates,
manag@@
ras@@
ut
Mo@@
ises
eas@@
arly
DI@@
il,
down@@
DepoCyte
lowering
user
canc@@
integr@@
defin@@
assess
adults.
States.
Ap@@
/9@@
President
disorders:
function,
cru@@
aw@@
tube
infectious
concern
paid
bon@@
pat@@
create
British
impairment:
dam@@
fied.
there@@
reserv@@
Europe,
decis@@
sort
Perhaps
Treaty
Everything
900
Over@@
Raptiva
immuno@@
0%
regularly
usion
decreases
fertility
optimal
T-@@
respond
vol@@
parti@@
paren@@
7,
tis,
minimisation
revealed
mi@@
ization
peginterferon
000@@
icity
bladder
teen
ointment
optim@@
device
IntronA
ency.
PRODUCT
oul@@
cooperation
idi@@
competent
sensitivity
July
al-@@
rubber
ked
ó@@
65@@
S-@@
Commun@@
sti@@
women.
Bas@@
-like
wide
development.
Tel@@
increased,
diff@@
expenditure
ü@@
whilst
Bar@@
Österreich
Box
fu@@
accidentally
push
source
last@@
transmission
industrial
Are
care@@
ently,
official
ned
Is@@
risk.
Just
ars
sound
cut
indeed
country,
President,
Str@@
Pl@@
note
attached
exercised
22@@
losartan
interactions
patient@@
you@@
targ@@
polyethylene
disturb@@
nerve
predominantly
site,
plas@@
Acute
undesirable
Vir@@
tical
performance
Lam@@
rup@@
NE@@
interact
ing)
placebo-controlled
MIU
nor@@
vit@@
lost
magnetic
sed,
leakage
World
(1.@@
ulation
are,
eyelid
ml/
appropriate.
board
unit
nasal
results.
unlikely
diver@@
mmol/
review
tac@@
forward
We@@
met
organisations
Park
ale
Food
Belgium
mer@@
wat@@
box
ug@@
depending
standards
House
equipment
stem
ore@@
indication
tion)
ole
restrictions
concerning
lives
ess.
lan@@
Commission,
that.
recognise
plans
Can
job
alism
cu@@
gia,
thromb@@
oma
reported.
(G@@
intervals
peak
ized
1.
ulcers
(another
Bo@@
virus,
days,
ocyt@@
ions.
vomiting
4)
(9@@
aries
lac@@
Following
clar@@
um-@@
ric
repe@@
getting
virus@@
y;
abnormalities
calcitonin
ine)
ility
machines.
table@@
shel@@
helps
inal
medic@@
NAME
und@@
Am@@
ates.
slowly
2008.
attempts
Des@@
problem@@
ase,
induce
proof
ol,
Belgium,
ination
res,
ia),
chil@@
Vi@@
wear
avoided.
uting
judg@@
eliminated
aut@@
cros@@
Telzir
tablets,
diseas@@
ize
examination
White
closed
button
harm@@
budget
broad@@
mention
understand
over-@@
seems
annual
commit@@
Questions
lead@@
ism.
which,
obvious
death.
informed
complain@@
figure
respec@@
came
Denmark
90%
dat@@
adjust@@
44@@
haem@@
irritation
lim@@
weeks,
adding
10-@@
years)
tics.
3.5
older
haemorrhage,
99@@
osis.
EF@@
7-@@
load
g,
standing
ids
Humira
men,
fasting
bra@@
generation
hasn't
UL@@
m2
Preparation
ba@@
ur
microbiological
BE@@
v
amin@@
hand
quantities
corneal
units
ml,
leave
ate)
improv@@
expert
Characteristics
Special
double
85
fungal
pon@@
glob@@
drug@@
chang@@
Public
LI@@
grow@@
Injection
requirement
Bre@@
Pri@@
gently
clear@@
hormon@@
swe@@
NG@@
information,
E.
Res@@
joined
thereby
reverse
clos@@
Neupro
amended
Co-administration
ace
que
007
fir@@
pipette
sulph@@
people.
Suspension
def@@
Pe@@
debate
Response
sign
adv@@
basis.
intervention
Russi@@
amb@@
happened
buy
negoti@@
though
polic@@
work,
machines
partial
mg,
insul@@
short-term
non
(6
ark@@
os,
l.
topical
induction
acuity
accidental
popul@@
las@@
ongoing
naïve
(1.5
pur@@
manner
occurring
went
one-@@
hum@@
radio@@
surrounding
e).
worsening
affecting
ret@@
AF
despite
/1@@
absolute
el.
aliz@@
ic.
component
transpor@@
spir@@
research@@
ach
glo@@
light.
SPC
ä@@
Bi@@
diarrhoea,
ening
shoul@@
conventional
led.
haemat@@
den
Lev@@
project
Leaflet
Fax:
limits
conver@@
appointed
cancer,
enlargement
OS@@
should:
OL@@
n,
Children
ice,
energ@@
coloured
contribute
radioactive
ampoules
Czech
expres@@
limit@@
Yondelis
ats
applying
rotated
building
led,
Col@@
step.
methods
ground
acy
invest@@
instance,
e'
Amendment
Tlf:
lamivudine
abacavir
stop@@
calculated
haemophilia
emia
CE
GF@@
ort
ist.
response.
surveillance
insufficient
compar@@
dosing.
(with
determin@@
20,
in)
minimise
interval
fr@@
altern@@
an-@@
ST
populations
diabetic
thromboembolic
ith@@
excluded.
ability.
sclerosis
fol@@
5/
Rap@@
L.
q@@
C)
flu
ture.
spec@@
ised.
properties
ional
hair
teach@@
breast-feeding.
ker@@
polysorbate
49@@
greatly
isation.
lation
eyel@@
carcinogenic
transplant
today
Trans@@
becomes
Number
sum@@
uk@@
labelled
Pr@@
period,
pay@@
Eli
ions,
ound@@
ing;
................................................................@@
all.
allowing
”.
future,
disappear
carbon
born
discussed
adop@@
vic@@
BIOLOGICAL
mir@@
hold
activity.
groun@@
tic.
lear@@
Ver@@
threat@@
understand@@
scale
gro@@
design@@
impression
(hypersensitive)
answer
violence
statistics
purpos@@
citizen@@
fact,
2/
larger
severe,
virological
(I@@
achieving
advanced
phas@@
y)
lot
ed-@@
bre@@
inhal@@
MS@@
yt@@
fluid
ties,
15%
PRE@@
55@@
concurrently
concomitantly
mic@@
(<
4/
(O@@
mother@@
blood@@
(D@@
stud@@
tenofovir
slight
plic@@
mixture
untreated
y:
animals,
ase.
uc
fever,
difficul@@
uro@@
useful
ker
Office
coordination
kill@@
75@@
weak@@
phosph@@
clin@@
isol@@
malignant
corticosteroids
dysfunction
ise,
Lo@@
bus@@
ports
packs
r.
py@@
avoided
increas@@
ranging
extr@@
package.
Portugal,
Finland
US
repor@@
id,
Administration
EL@@
oxygen@@
eds
primarily
candi@@
people@@
mel@@
expression
materi@@
ere
only.
Ba@@
waiting
By
cream
mixing
tot@@
issued
correc@@
KwikPen
common:
la
Over
feeding.
eral
flex@@
others.
pap@@
hormones
der.
area,
ingly
Greece,
tically
differen@@
om
victims
immigr@@
capit@@
68
evalu@@
(e.g.
74
2.0
ene
OPTISON
beta@@
circulating
multi-@@
(3@@
invasive
reductions
build
som@@
fatal

aemia,
weight,
progres@@
died
order@@
morning
flow
genotype
7/
au
Tritanrix
(n
unstable
V,
with@@
rhinotracheitis
ogenic
purposes
10,
observ@@
dropped,
_@@
palms
ulcer@@
headache,
Thir@@
angiotensin
EE@@
alcohol@@
detection
unit@@
2).
Stre@@
ta
efficient
agree
Br@@
cri@@
defec@@
res.
All@@
lor@@
below.
characterised
dom@@
reliable
71
ash
Direc@@
è@@
ER
sen
colour
tigh@@
after@@
gas
agu@@
states
controls
towards
handling
ters.
Ri@@
stag@@
005
gen
ver,
ú@@
Mer@@
á
chair@@
(L@@
ends
erythropoietin
considerable
mobil@@
fentanyl
represent@@
ly:
Tri@@
urgent
appropri@@
disast@@
burden
place,
hon@@
mom@@
play@@
euro
illegal
y!
Every
Without
B,
indications
bronch@@
given.
circumstances.
react
95%
(800
(6@@
binds
stimulates
ists,
50,
respectively,
charg@@
oste@@
food@@
(2@@
marrow
Specification,
cessation
restric@@
60%
ward
blocking
70%
ALT
lo
Additional
CM@@
returned
macro@@
cross-@@
formul@@
subsequently
ters,
hydrochlorothiazide
observation
Further
sides
2002
occas@@
Free
surpris@@
CL@@
alert
involvement
advantages
tumours
EX@@
approach@@
Management
ures
Pulmonary
-00@@
Min@@
clotting
discussion
ella
rip@@
evaluate
isolates
tasks
instruc@@
med@@
party
inform@@
pir@@
istic
Ra@@
Dosage
eff@@
-up
les,
areas.
qual@@
Ltd
sin@@
moving
tal
Ge@@
professionals
nar@@
clean@@
sirolimus
manufacturer@@
vaccine,
n.
MANUFACTURER
administer
initiative
items
conce@@
Belgi@@
Cam@@
antigens
administrative
vessels
Presid@@
wish
exist
mutagenic
sent
pow@@
tex@@
seriously
mechanisms
health.
school
programmes
mistak@@
place.
traditional
government
tax
sold
s’
democrac@@
fishing
Yet
low-@@
(2.@@
-treated
patient's
accident
modification
vag@@
CT@@
withdrawn
89
orphan
Ti@@
sufficiently
looked
ingredient
Gr@@
life.
finally
beta-@@
adults,
vehicle
adolescents.
d:
chemotherapy
ative,
1.0
LO@@
neutr@@
recurrent
pharmacovigilance
Irish
PAR@@
permitted
toxic@@
detec@@
effectively
particip@@
Rare
2006
face,
MIRCERA
seiz@@
t)
bind
ental
liver.
affected.
HO@@
hypertension.
bil@@
att@@
addres@@
failure.
platelets
metabolic
infections,
rent
breath
thing,
Kingdom.
require@@
ily
rep@@
container
t:
ple
changes.
372
em
condition@@
ary,
Brussels
Attenuated
sudden
commercial
ator.
zer@@
present,
life,
temporary
batch
resid@@
water@@
sing@@
practic@@
prescription.
abor@@
nur@@
Ru@@
plac@@
former
knowledge
St
Commission@@
health,
Je@@
-based
proportion@@
move
labour
practice.
forced
ty-@@
gives
accept
achieved,
production.
anything
fish@@
concerned,
saying
unemployment
run@@
justified
Ingelheim
normal.
Note
requiring
evid@@
protease
wit@@
methadone
Risk
missing
rever@@
neck
enrolled
Quality
ability,
insulin.
sleep@@
PD@@
-free
completed
mediated
glucuron@@
exhib@@
sup@@
HepB
acid,
L,
III@@
mov@@
ome@@
incid@@
73
experiencing
directed
pumps
irritation,
Organ@@
motor
positions
employed
4.
responsibility
availability
spontaneous
ths
ished
ram@@
ensu@@
closure
slow
minutes.
mas@@
syn@@
ina
certific@@
procedural
clean
Botulinum
appe@@
showing
investig@@
conven@@
opath@@
net
pas@@
undertaken
van
alise
Sec@@
carton
ry@@
Pharmac@@
Business
IR@@
72
seconds
mini@@
general,
fall@@
stra@@
rejec@@
cle@@
ised,
beta
areas,
streng@@
doub@@
120
substances,
communic@@
interven@@
properly
says
monoclonal
ching
ams
solvent,
bs
check@@
dg@@
SUBSTANCE
ors,
roc@@
Metabolism
ar.
Bayer
connection
eating
opportunity
speed
Ste@@
regime
success
ans.
got
whe@@
colon@@
foun@@
projec@@
ick
sense
interest@@
industri@@
police
farmers
traffic
Europeans
coast@@
?@@
funds
job@@
ity?
Boehringer
Healthcare
eness
tly.
CVMP
vision
fractures
rout@@
pneumonia,
pup@@
ness@@
reactions,
U/
1.0@@
II,
swollen
reac@@
f,
HB@@
inhibitors.
propose
PI@@
zo@@
CHAMPIX
statistically
defici@@
younger
pre-existing
day)
neg@@
milli@@
disoproxil
atr@@
Board
BYETTA
stages
heat
regulatory
2000@@
od.
baby.
diagnosed
Reg@@
child's
gli@@
cere@@
ideation
gh@@
inated
pegylated
premature
leuc@@
Serious
Director@@
tissues
ves.
establish
filter
mouth,
rim@@
Naglazyme
ia)
out,
conjunction
infec@@
places
La@@
ber
alist
80@@
Tel.:
AID@@
anaesthesia
travel
position,
marketed
foreign
elling
],
Sa@@
vary
orally
proved
copy
problem,
co-infected
Tritace
benefit@@
Fe@@
nic@@
then@@
ush@@
nutrition
guarantee
Bel@@
IB@@
ext@@
mess@@
let@@
compromis@@
Kar@@
regions
compe@@
abol@@
fig@@
amend@@
figures
hun@@
tain
tun@@
run
private
emissions
sea
rul@@
conc@@
law@@
true
mak@@
period@@
Assessment
vascular
stry
41%
group@@
chromosome
addressed
fore@@
hepat@@
enlarg@@
satis@@
antagon@@
administration,
dip@@
producing
(called
ym@@
dep@@
endpoint
52
erythema
sib@@
i.e.
bacter@@
LD@@
erc@@
confir@@
Tox@@
laid
thrombotic
gone
steady
cars
tacrolimus
GM@@
eration
somewhat
0)
John's
syndrome@@
................................@@
analogues
blisters
involved.
you,
C-@@
lum@@
guidance
daily.
pot@@
opathy
7.
developments
f.
macular
ame@@
lactation.
Dan@@
cycles
ml@@
awa@@
dro@@
eyes,
wards
eu/
ches
3.0
eat
revision
residues
cod@@
1998.
hydroxy@@
doctors
ision
not@@
tolerance
horses
belongs
diuretics,
substitutes
ogen
mean@@
nat@@
machin@@
distrib@@
is:
Gal@@
ass
share
stopping
inverted
gel
gradu@@
calcul@@
ADROVANCE
responsibil@@
paragraph
ert
protective
identify
ept@@
appear@@
009
371/
372/
373/
EU/1/99/127/0@@
(%)
spo@@
clear,
hydrochloric
life@@
Feline
capable
heal@@
Slovenská
elements
Decision
insi@@
implemented
accepted
stock
opportun@@
ju@@
lies
recommendation
be.
innov@@
book@@
by-@@
world.
category
educ@@
tic,
short@@
possible.
remember
freezer
inde@@
huge
prices
tonnes
credit
quot@@
fair
it?
/96)
use@@
Orphan
three-@@
operate
CH@@
tivity
dysp@@
g.,
Hy@@
recommend@@
vastatin
absc@@
contraceptive
months,
ures,
week,
indicating
modified
potent
favourable
wn@@
4.5
sub-@@
disorders,
oxide
PO@@
protein@@
97
eme@@
effec@@
FlexPen
bit@@
ost@@
wn
convul@@
Official
Pharmaceutical
error
ING
retinal
log
ses.
thoroughly
83
emulsion
UR@@
severely
association
hearing
secret@@
officials
congestion,
qui@@
Periodic
PV@@
Wat@@
:@@
Denmark,
Spain,
voriconazole
white,
ture,
aver@@
Wyeth
stor@@
CON@@
Qualified
cris@@
absor@@
supplements
build@@
humans.
intramuscular
packaging
a:
tou@@
Tre@@
nel@@
ting,
ures.
activity,
now@@
....
blocks
effici@@
OptiSet
kil@@
Pack
duc@@
office
tablets.
NovoRapid
medium
pac@@
removal
enter
HBV
BMS
seem
acidosis
On@@
Americ@@
thing.
cut@@
mag@@
problems.
rig@@
G1
prim@@
contr@@
play
minority
border
divi@@
oblig@@
competitive
sl@@
announc@@
contract
mind
budget@@
ank@@
wrong
matters
contamination
ers'
traffic@@
BSE
Directive
moment
IL@@
occurs,
infusion.
ae
7)
anim@@
64
discharge
oid@@
x.
Effects
dex@@
overweight
VA@@
0.25
fos@@
solution,
tissue.
Pi@@
activi@@
stit@@
neurological
2,@@
trop@@
-to-@@
58
CYP2C@@
amprenavir
supporting
rod
synthesis
arc@@
PE
analysis.
8-@@
neuropathy
e),
Six
sco@@
metres
TMZ
somatropin
erated
bin@@
notic@@
intensi@@
crushed
TRE@@
approval
9-@@
lungs
topotecan
substr@@
hypertension
evaluated.
ORACEA
edi@@
ater
bag@@
Dosing
anticoagul@@
adjust
symptoms,
particles.
suppli@@
Em@@
tend@@
Dysp@@
bor@@
pressure.
TR@@
sep@@
subcutaneously
Gastrointestinal
cough,
P.
ious
nursing
consequ@@
warnings
common.
mal
Rapid
H,
German@@
blue
®
Bud@@
abine
ergic
Doc@@
net@@
bet@@
ential
Disorders
AS
otherwise
pregnancy.
Candida
ency@@
Sub@@
gland
changing
sible
risk@@
(HIV@@
holding
became
collap@@
attack
ately,
suspension.
style
method@@
regulated
hereditary
dre@@
land.
wine
dihydrogen
EXP
resuspend
lef@@
mit
Inactivated
origin@@
republika
arrang@@
provis@@
detect
Some@@
suspen@@
+35@@
shared
Union,
here.
by@@
simpli@@
defend
ice.
char@@
histor@@
san@@
four@@
stand
big
hours,
jobs
dram@@
Council@@
ago
Nos
(T@@
STELARA
eline
examination.
advisable
placebo-treated
trial,
uric
absence
sed@@
Ly@@
sis
clots
haemorrhage
arr@@
though@@
selective
consci@@
disorders.
aud@@
life-threatening
liver,
extreme
attacks
myel@@
EM@@
measure@@
electronic
ED@@
inflammatory
paper
VAN@@
affects
92
prophylaxis
home
25,
itching,
10.@@
ipr@@
week)
strictly
7.5
NA@@
performed.
Op@@
(one
imag@@
inity
retro@@
salmon
D3
estimate
gest@@
relap@@
AF@@
courses
NovoLet
ade@@
Events
add
impair
rin@@
asthenia,
dizziness,
ich@@
posts
and.
Research
specialised
before.
angina
recovery.
allerg@@
began
86
thin@@
Tur@@
administr@@
sampl@@
deep@@
formulations
ham@@
December
deleg@@
elled
See
openia,
aggrav@@
poisoning
Ty@@
block
multiforme
oxib
Urinary
frequ@@
site:
Ireland,
Men@@
tools
transi@@
wort
Hyper@@
breath@@
voice
even@@
osi@@
nucleoside
ously.
ush
dop@@
sector@@
vial@@
ks,
cycl@@
ality,
Bur@@
CCID50
acids
complex
additives
1998
endogenous
patient.
ely.
case.
ition
studi@@
(R@@
limited.
pens,
ici@@
surgical
appli@@
mix@@
valsartan
-C@@
beginning
ring@@
Lu@@
Always
Ham@@
ow@@
preferably
ato@@
bodi@@
planning
trying
survey
pit@@
miss
anyone
act.
genic
Or
recognises
forgotten
Patient
ched
accid@@
hed
off-white
import@@
mar
Whether
Rapporteur
discus@@
sizes
fed
increasingly
Scot@@
spe@@
society
military
thousands
Commissioner
fire
fuel
sav@@
peac@@
sou@@
s'.
politic@@
(
Would
there.
patent@@
day:
(vote)
ler
53
capac@@
358
monitored.
routine
sleep
bleeding,
awareness
care.
gastric
episodes
Tracleer
slaugh@@
PR@@
nephro@@
AM@@
infus@@
HIV-1
bound
ys,
emergency
subjects.
alkaline
μ
step@@
venous
daily,
take,
D,
idal
panleucopenia
alising
pra@@
Ig@@
(200
TIC@@
volunteers
gain
infant
Venous
l,
sac@@
prepar@@
rix
lon
yp@@
tested
Er@@
Te@@
organisation
principles
ting.
Ret@@
doc@@
chol@@
Disease
Ox@@
Cent@@
mol@@
Starlix
Anti@@
FO@@
met@@
Moreover,
table.
openia
ET@@
made.
request@@
presid@@
pec@@
RT
ption
induc@@
numb@@
carri@@
Sustained
delays
Interaction
membrane
2005,
ro
Netherlands,
V.
CR@@
CP
investigation
turning
discard
nigh@@
disodium
vess@@
PL@@
known:
moder@@
arms
pruritus,
+372
SQUIBB
Nov@@
+46
TS
movement
production,
elev@@
database
tan@@
stimul@@
System
cup
committee
Sebivo
big@@
straight
expect@@
4.2
exception
manufacturer(s)
specific@@
potenti@@
arity
variability,
minimal
Industri@@
diet.
008
364/
train@@
view@@
kers
long-@@
Go@@
Sloven@@
easy
pris@@
Bulg@@
Method
pover@@
23@@
compens@@
Holder.
er's
down.
Memb@@
plants
funding
scope
situ@@
end.
impossible
gam@@
injury
carrying
expensive
link
fri@@
thern
less.
expen@@
guarante@@
Could
war
univer@@
rely
answ@@
unemploy@@
inflation
motor@@
school@@
ations?
96
syringe,
carton.
blood.
tran@@
Ziagen
pivotal
.)
cyt@@
fallen
ines.
Suc@@
GONAL-f
ign
mening@@
rat
A-@@
symptoms.
nicotinic
Neuro@@
cm
ference
ays
rough
thrombosis
hormonal
siz@@
ranged
3).
readily
seizures
infection@@
class@@
otitis
rivastigmine
6/
ulcer
glyc@@
glu@@
redness
scores
density
HD@@
classi@@
(12
good@@
a;
SS
practical
ciclosporin
D)
clusion
mellitus
(U@@
6)
amlodipine
movements
appearance.
Inno@@
MabThera
taste
latest
atin
activation
ax
Evaluation
Spanish
susceptibility
immunity
Also,
77
version
degrad@@
bar
slow@@
iro@@
tability
receiv@@
agon@@
eti@@
fel@@
rang@@
assess@@
dealt
rhabdomyolys@@
documentation
underlying
attemp@@
ours
62
Cha@@
persi@@
surgery.
pressure,
amongst
export
pump
21@@
avir@@
occasionally
●
alpha
onic
OM@@
spon@@
present@@
son@@
glycoprotein
aem@@
behind
stro@@
bot@@
s):
WITH
ough@@
Fri@@
Don@@
…
Ter@@
Preparing
Ha@@
transferred
them@@
sn@@
fing@@
BRISTOL-MYERS
inhibit@@
zz@@
Sw@@
Pos@@
exten@@
sulf@@
centralised
ories
opaque
ature
liqu@@
focus
omyc@@
sa
dog@@
carefully.
specified
Women
core
gar@@
referral
hot
014
010
pack.
med
rh@@
film@@
milky.
a's
ie
microgram
ock@@
middle
UC@@
NO@@
cam@@
asked
ides,
der,
simple
beneficial
od,
Can@@
Finland,
Poland,
extended
ich
tas@@
disc@@
incen@@
Elderly
tobacco
instead
favour@@
Reference
tors
legislative
payments
country.
second@@
bri@@
România
Now
5-0@@
ij@@
provisions
pollut@@
shop@@
pesticides
Union.
y'
Mc@@
journe@@
namely
cultural
Afric@@
billion
pollution
ers?
ago.
speak@@
interests
ve?
re?
Commissioner,
this?
(A4-04@@
minute
Leuk@@
arter@@
groups,
stavudine
discontinu@@
Unit
Symptoms
agonist
loss,
tide
regardless
carc@@
µg
birds
severity
flushing
mp@@
lex@@
Type
(5@@
Effentora
tox@@
maternal
migr@@
micrograms/
throat
illness
extensively
pop@@
length
Kineret
4.4@@
stimulating
MA
12.@@
Phase
eded
common@@
mg/day)
functional
mul@@
docetaxel
retur@@
(V@@
erythro@@
myc@@
two-@@
IV
parent
pharmacological
grap@@
resuspended.
clumps
smaller
P450
9.
cells,
discussions
depression,
audi@@
spa@@
ñ@@
pel@@
Scientific
coordin@@
Rev@@
Haem@@
epilep@@
minut@@
disease)
y's
intest@@
ts@@
development,
influenz@@
prevent@@
ement@@
tolerated
°C
benzalkonium
pression
examin@@
seal
switched
eding
am.
encies
lp
eu
experim@@
tail
syndrome.
suppres@@
anticipated
vers
Pot@@
ak
thes@@
warm@@
skin.
iness
cold
ary.
noise
intolerance,
malabsorption
veget@@
San@@
gue
resul@@
recon@@
dizziness
da
remain@@
.com
66
Due
artificial
muscle.
Nespo
assessing
stituted
affinity
economy
more,
ther.
acet@@
ral
fle@@
communication
transparency
Sil@@
stabil@@
touch
d;
phenomen@@
occurrence
rit
grounds
carbohydrate
SOL@@
ries
toc@@
excipients,
ffici@@
Fab@@
asc@@
Sy@@
500@@
Ho@@
..@@
languages
stre@@
Puh/Tel:
watch
Malta
F2
preserv@@
ond@@
times,
contraceptives
wid@@
accordingly.
road@@
false
reflect
exemp@@
accumulation
half-@@
hur@@
ative.
repa@@
jo@@
Iscover
bec@@
occup@@
Mark@@
Franc@@
offer
measures,
discre@@
particul@@
stic@@
Austria,
tail@@
succe@@
Mix@@
regarded
promis@@
putting
mg/24
Remember
fear
ANY
some@@
ought
expect
addi@@
suffered
ese
Does
ciprofloxacin
inclusion
benzodiazep@@
medicine,
circul@@
myocardial
ural
arthritis,
Trevaclyn
psoriatic
action@@
avoid@@
CS@@
ements
vildagliptin
6.
HCV@@
Sh@@
threshold
0.2
Vis@@
decreasing
put@@
vitamins
y).
PA@@
marrow.
≤
rop@@
alan@@
hem@@
91
fy
cytochrome
unlikely.
transfer@@
xim@@
ves@@
acted
tation
dehydrogenase
sia,
supplement@@
designated
Tal@@
Joint
ute
suppression
hydr@@
(approximately
agents.
prepared
vaccination.
aller@@
dust
detailed
far@@
ELISA
effect,
glioblastoma
thoughts
Specific
ited.
Single
sens@@
tig@@
CD@@
men.
examinations
exam@@
incorpor@@
eu.
woman.
cholesterol,
ene.
Council,
clon@@
dissolved
+49
charge
KE@@
d)
epidermal
Keep
ide)
dihydrate,
ets,
Fr@@
ist,
moist@@
ust
Total
thousand
OX@@
Pan@@
Pal@@
worth
represent
SARL
Co-@@
TRI@@
mur@@
shar@@
lad@@
Met@@
Nic@@
Norge
vial,
deriv@@
scal@@
Rue
bag
lock
treatment@@
brand
operation.
shor@@
instructed
substantial
alter
syringes,
Mac@@
ound
itary
wal@@
TIONS
solvent)
011
hydroxide,
zi@@
opposite
Vol@@
ord@@
Fondaparinux
film
lap@@
atic@@
í
hap@@
Suomi/Finland
ler@@
unborn
itor@@
eradic@@
resc@@
regulations
practice
(AIDS).
seri@@
understanding
obesity
promotion
hot@@
LV@@
term@@
aspect
absolutely
relatively
ude
Clopidogrel
ARE
believed
soil
conserv@@
boar@@
ished.
again,
meet
decision.
meant
other@@
Air@@
tained
built
processed
mass
actual
alloc@@
say,
flight
damaging
environment@@
forc@@
President@@
travelling
however.
decisions
beg@@
profit@@
income
banned
where.
employe@@
pollu@@
penal@@
goods
ship.
now,
edly
clim@@
/1999)
do?
(A5-04@@
Novartis
rate.
VICH
contribu@@
R)
margin
intraven@@
techniqu@@
tol@@
continuous
er)
foetal
breathing,
sensi@@
carcinogenicity
rats
ame
HIV-@@
measurement
destroyed
1%)
51
Rel@@
body@@
idation
interested
(i.
CEPROTIN
process,
oma,
alidomide
p=0.00@@
utes
tap@@
headache
reaction.
QU@@
methotrexate.
components
atin@@
micrograms/@@
tests,
perform@@
ins,
surviv@@
essentially
experienc@@
respectivel@@
0.3
paclitaxel
resonance
EVRA
20-@@
levels,
6-month
incidences
defer@@
ophthalm@@
restricted
ologically
thi@@
....@@
1996
Therap@@
phen@@
Development
Group
titanium
patches
act,
punc@@
succ@@
oesophag@@
66@@
ADMINISTRATION
oxy@@
preventing
well@@
introduc@@
professional.
dysfunction,
anaemia.
ack
infarc@@
data.
High@@
glucos@@
prote@@
registered
swab@@
ted@@
secre@@
Changes
AZ@@
EU,
needle.
bovine
mark
disorder@@
irreversible
ff
Mean
GI@@
physicians
ographic
wise
loy@@
Rare:
gel@@
Madrid
mission
Du@@
ls
immunisation
E,
Sp@@
dest@@
@@@
blister@@
monitor
ired
Grou@@
Republic,
counterfe@@
transp@@
les.
Pen@@
stops
inactive
mm@@
disrup@@
compartment
consul@@
replac@@
insec@@
Neoclarityn
damage.
hand,
manufacturers
breast@@
keeping
potassium-sparing
ile@@
adjustments
fundamental
North
146/
08@@
369/
375/
377/
42@@
spra@@
off.
b.
Kent
ley
haemodialysis
U.
provi@@
Put
English
eb@@
opo@@
los
ix@@
Ital@@
feeding
released
FR@@
obstruc@@
animal@@
reason@@
session
morning.
equipped
execu@@
varies
profession@@
saf@@
sequ@@
Hungary,
crucial
record
travel@@
De
intention
Bu@@
replaced
Bri@@
context
bad@@
picture
pro-@@
discrimin@@
appreci@@
distance
autom@@
draft
ety
zero
challeng@@
stress
cost@@
declar@@
regi@@
ort@@
unwanted
Follow
hard@@
ough
programm@@
prior@@
Turk@@
stitution
then,
ically,
payment
ing'
identity
electricity
everyone
power@@
existence
prison@@
dol@@
forest@@
world@@
alism.
leav@@
tradi@@
priv@@
bit
ts?
bad
fisher@@
aircraft
!@@
occur,
decreas@@
Environ@@
GL@@
ready
compon@@
pioglitazone
randomized
avir/
s'@@
izumab
hypertension,
tility
dy@@
contracep@@
fying
pooled
fract@@
formulation
12-@@
2),
events,
lide
implemented.
otic
discomfor@@
Contro@@
responded
scan@@
spent
fix@@
dic
er:
5).
olys@@
blin@@
Pegasys
periodic
looking
fro@@
herpesvirus
ies@@
Peripheral
poli@@
ograp@@
SE
six@@
µg/
nee@@
dar@@
hypertensive
oti@@
67@@
frosted
colourless.
displa@@
declared
March
tendency
tempor@@
initiatives
ns
Mag@@
Up@@
det@@
caus@@
abnorm@@
illness,
redness,
chamber
sug@@
surfac@@
proc@@
Non-@@
bones
rou@@
proper@@
chemic@@
ch-@@
Ear
MS
erythema,
nia
ses,
Ob@@
Injury,
97@@
Doses
Concomitant
tolerated.
Paxene
shock,
yel@@
med.
dl
implic@@
collected
transmitted
sume
Sud@@
sick@@
interrup@@
meetings
experts
spot@@
idine
factor@@
Del@@
establish@@
swallowing
glycerol,
genetic
supplements,
document@@
Cer@@
thereafter.
ats,
acqu@@
ham
Ep@@
solv@@
aggreg@@
finger
ms@@
TAKE
dementia
ky
productive
vomiting.
ands
advice.
vein.
scheme
assessment.
opin@@
drop@@
IONSYS
once.
condi@@
refer
ve.
Should
widely
hence
synthetic
gradual
ther,
press
radic@@
376/
97/
ient
SoloStar
sun
year}
Subjects
180°
P,
know@@
Oy
Four@@
ink
meet@@
Simp@@
KOGENATE
Committe@@
anding
contraception
oxidase
tly,
to.
periodically
idity
mention@@
fruit
personal
near
Cur@@
e's
exchange
who@@
ght
olig@@
illing
loratadine
CO2
choice
written
rejection
pointing
later.
happening
entr@@
Latvija
consult@@
rubb@@
exceed
ing-@@
luc@@
methoxy
ships
gn@@
American
excep@@
television
iry
prospec@@
change,
motiv@@
late
parliam@@
First,
accep@@
Interne@@
intellig@@
th-@@
langu@@
evi@@
financ@@
prison
duty
million.
not.
subsidi@@
principle@@
?'
know,
levodopa
Viani
shock
titr@@
82@@
is)
am,
meas@@
Prometax
encephal@@
intestinal
grade
offspring
Star@@
body's
4.6
cid@@
β
adhes@@
efforts
gemcitabine
dermati@@
bos@@
8)
confusion,
interfere
ologic
fluoxetine
12,
(50
accumul@@
pill@@
EV@@
LT@@
ography
CYP2@@
estr@@
IU/@@
99
Novo@@
esti@@
Equilis
eye.
thre@@
emtricit@@
ovarian
mice
't
double-blind
coll@@
influenza
covering
ATION
_
ually
rapporteur@@
faec@@
tumour@@
experience.
Conference
compan@@
registration
prove
ely,
Sk@@
ating.
sugammadex
appearance
(E17@@
Centre
metabolit@@
59
etary
oro@@
Ukraine
congenital
trend
spinal
angi@@
program
18.@@
alys@@
Post-marketing
Head@@
conduct
symptom@@
triglycerides
Adequate
rab@@
1,000
Consi@@
CP@@
P)
reas@@
liv@@
431
web@@
filgrastim
relates
criter@@
Care
programme,
forwar@@
aris@@
ital
Continu@@
selec@@
0.2@@
Industrial
acid@@
flow@@
so.
qualific@@
remaining
research,
ve,
cough
hundred
ef
Ve@@
Saint
entering
chro@@
tile
procedu@@
MP
ja
GE
@merck.
adul@@
nose
ages,
simplex,
Treat@@
ris
Elimination
pose
libr@@
combin@@
omet@@
Har@@
s/@@
Commission.
continued.
maintain@@
attention.
quickly.
tered
Aprovel
life-@@
infants,
α@@
Hu@@
claim
of-@@
gain@@
network
past@@
ets
ç@@
child,
ori@@
(10
012
103
ken
virus.
Romania
complet@@
150@@
aqu@@
Cap@@
able@@
Z
Glustin
Hydrochlorothiazide
categories
eted
ali@@
distingu@@
serious@@
a).
urely
continue/
made,
emission
Econom@@
protected
institutions
Chin@@
side.
Swed@@
im
pleas@@
bes@@
justifi@@
fal@@
space
Key
concerned.
Lietuva
gram@@
accept@@
vital
claims
11.
sitting
wn,
agg@@
Ta@@
Vaccines
Dem@@
gol@@
rule
itsel@@
prov@@
wast@@
created
efficiency
deficit
man,
sch@@
MATERIALS,
won@@
fru@@
ibility
argum@@
promo@@
resourc@@
deser@@
problem.
producers
cultiv@@
abuse
Dutch
civil@@
allotted
saw
passengers
passp@@
tionally
es!
today,
ented
democracy
bomb@@
arri@@
be?
pull
AMMONAPS
infection)
manife@@
Part
sus
peg@@
latter
blood,
oxid@@
older.
population,
stomach@@
immunological
sarcom@@
secretion
perfor@@
prolong@@
ting@@
ct
va@@
couple
esis
produces
oly@@
fem@@
Karvea
(p
10,000
Blo@@
Ca@@
sid@@
atively
indicated,
desired
prop@@
ULN@@
140
resol@@
administered.
Az@@
visits
ther
postmenopausal
AST
dox@@
dogs.
avir.
pharmacology
Cub@@
uptake
NRTI@@
apol@@
electro@@
benefit/
itching
fumarate
ides.
SUTENT
dine
rosis,
iso@@
exact
CPMP@@
renew@@
February
refriger@@
samples
Le
1995
Berlin
Post@@
Ben@@
practices
Head
sell@@
ath
aria
diox@@
pink
Time
sucro@@
54@@
coli
ner@@
provided.
Place
antigen@@
Na@@
tec@@
gia
centr@@
concurrent
altered
nose,
yiel@@
oxygen
cellul@@
licen@@
electric
enzy@@
ral@@
distributed
pes
fresh
mentation
”).
statistical
Ελλάδα
MSD
61
dium
digoxin
els,
platel@@
(blood
ugh@@
din@@
Mast@@
................@@
TO
Maintenance
bling
schedule
culture
Hydro@@
light,
aggressive
stuff@@
sex
marks
pneumon@@
spas@@
weak
elected
adine
chann@@
authorities.
Chlamydophila

enhanced
dispos@@
member
enforc@@
agency
pregnant,
NOT
sure.
neutropenia
AR
measurements
ages.
operational
cau@@
gir@@
ye@@
hid@@
Avonex
dering
IX@@
IU@@
box@@
aging
Hou@@
Intravenous
fertil@@
Pent@@
sectors
strong@@
ible
ly-@@
whatever
Hist@@
ive.
reven@@
(FCV
identified,
chickens
origin.
text.
Sometimes
exists
grams
solutions.
to,
nevertheless
accurate
processing
lev@@
gender
comb@@
Few
foreign'and
warfarin
suggests
pati@@
design
significance
fif@@
applies
summ@@
fair@@
goal
gri@@
oe@@
comply
appro@@
extensive
largely
Six@@
dead
imprint
Ukra@@
get@@
enormous
Which
ta,
glycol-epoetin
markets
Those
thinking
cosme@@
+47
totally
kno@@
PVC
án@@
litre
wish@@
Everyone
Vfend
prohib@@
too,
crops
quanti@@
criminal
poverty
merely
families
millions
compensation
derog@@
han@@
agenda
imagine
buildings
words,
legally
investment
enable
do,
itable
de?
Fourthly,
1/2001)
(A4-02@@
preparations
buil@@
glycaemic
D.
osteopo@@
hazard
altered.
wording
irudin
-B@@
thyro@@
regional
B-@@
78@@
old@@
reason,
sible.
alone.
0.00@@
placebo,
fine
proportional
MD@@
tent
see@@
software
load@@
yro@@
worsen@@
ify
uz@@
35%
elevations
basel@@
image
border@@
ales
Results
Interferon
loxac@@
take.
itch@@
aden@@
adjusted
microgram@@
V)
ankylosing
reduced.
baby
satisfactory
retin@@
muscles
-24
sensitiv@@
famil@@
hydrolys@@
carcinogen@@
bilirub@@
predic@@
involve
Gi@@
lec@@
industry,
1999
ocon@@
maraviroc
micro-@@
precipit@@
less,
potassi@@
Ur@@
uron@@
Gener@@
Hal@@
SAR@@
portion
organised
lenses.
finished
trig@@
Virus
A.,
exceptional
hypokal@@
epi@@
companies.
manufacture
diagnosed,
meaning
asth@@
controlled,
situation.
Muscle
Hypo@@
ations:
Long-term
BSE@@
COM@@
ology,
ja@@
gloves
BASAL
du
inspection
glutam@@
precautionary
representatives
missible
consultation
level@@
fus@@
recip@@
irregular
Animal
need,
93
substanc@@
FOR@@
orph@@
IM@@
calves
vas@@
a),
glucose-galactose
chem@@
Pas@@
output
arm.
ols
Mus@@
O.
acceptable.
eful@@
eliminate
026
č@@
TIV@@
ils
infections.
periods
sick
optic
2800
discarded
topic
peptide
business@@
Spec@@
sex@@
aled
Opinion
b)
talking
coagulation
self
ible,
GA
hospital.
cat
tives
conclus@@
(E
Street
Uxbridge
els.
interfer@@
draw
ements.
variant
alization
recycling
Mart@@
150/
EU/1/0@@
276/
435/
death@@
damaged.
soya
aluminium
ingredi@@
sheep
d'@@
Aldurazyme
Thyrogen
al?
Mixtard
000,
aling
injection@@
inciner@@
erup@@
re:
Gar@@
tra-@@
Lou@@
ou
structural
addic@@
dimin@@
solution@@
sumed
tubular
O-@@
ES@@
credi@@
tives.
sal
ans@@
dialysis
ried
priority
ble.
floor
Bro@@
Austria
ony
hr@@
2005.
enterpris@@
carries
hu@@
follows:
meals
fron@@
precisely
bus
ration
Fo@@
ership
Almost
individu@@
thrown
psychological
thigh@@
cab@@
Bal@@
ish,
mes@@
carrier
obviously
area.
defences)
Several
be,
ung@@
alism,
fra@@
sent@@
ances.
vulnerable
First
capital
policies
151/
one's
regist@@
Author@@
city
call@@
Iraq@@
Polish
cred@@
suff@@
Constitu@@
perfec@@
His
screening
entail@@
obstac@@
journal@@
toys
escap@@
dign@@
ing!
contradic@@
citiz@@
tru@@
hypocris@@
Maybe
Engl@@
claim@@
revolu@@
though,
!'
absur@@
sanc@@
/2002)
gem@@
X-@@
patent
guid@@
stations
unusual
indin@@
dispose
followed,
numbness
FA@@
attempt
(and
ing).
Exforge
staff@@
gal@@
6).
noea
BMD
Pelzont
toxin
1.4
chel@@
ation).
pent@@
van@@
concept
uncertain@@
77@@
54
point.
RA
selected
l-@@
Vel@@
patient-@@
(100
MI@@
reversible
1A@@
histamine
DV@@
avian
87@@
OT@@
Betaferon
alter@@
antidiabetic
genoty@@
MB@@
meaningful
2004
subjects,
mmol
examined.
74@@
thiaz@@
suit@@
WHO@@
Department
1990
Luxembourg,
Pap@@
nal
H.
Dec@@
nail
feel@@
Wa@@
familiar
January
ress
spi@@
ril
ROUTE(S)
formal
Jap@@
deterioration
GFR@@
ffic@@
supplementary
ger
sustain@@
fit
visit
ger@@
ix
e-
embryos
orthopaedic
ambrisentan
limiting
line,
exceeding
Pharmacokinetic
legs
bat@@
dark@@
too.
(200@@
EXJADE
intensity.
hyp@@
acetyl@@
..
ific@@
RAP@@
eable
alized
oedema@@
Pradaxa
pancre@@
fields
bottle.
computer
science
sci@@
PL
interim
ilit@@
Char@@
amin
reconstitu@@
eye@@
atul@@
performed,
gall@@
rous
eder@@
SK@@
insuffici@@
children@@
oth@@
tooth
stil@@
Less
ling,
ston@@
therap@@
reflec@@
upset
terfenadine
gens
strain)@@
........................@@
ospor@@
és
strength@@
establishment
moved
phenyl@@
ke.
outcom@@
physician.
set@@
pum@@
categor@@
burn@@
withdrawn.
plunger
maintaining
Peg@@
level,
Rob@@
BeneFIX
consump@@
pathy
atively,
asis
mission@@
Hel@@
Via
E-@@
013
046/
door
Republic
Excipients:
dig@@
state,
South
Laboratoire
Data
requested
TESLASCAN
j
MU/
ver.
solu@@
elements:
battery
iel@@
wood
accelerated
divide
Pioglitazone
wing
essenti@@
financing
anded
ins.
ously,
increase,
guar@@
bearing
linear
together.
Second@@
necessarily
ones.
ards
qualified
rich
emphas@@
drinks
wav@@
ox
shape
ding.
analys@@
er-@@
memb@@
piece
main@@
measures.
margin@@
hous@@
systems.
loading
secure
row
forecast@@
warn@@
breed@@
Accidental
raw
justi@@
arrest@@
dates
desc@@
connected
campaign@@
report.
else@@
unacceptable
side,
dish@@
".
line.
ades
scheme.
weakened
Tor@@
isc@@
provided,
domin@@
CT13
9NJ
faul@@
bom@@
arti@@
threat
replace
uniform
West@@
famili@@
turned
Nor
ession
vod@@
checked
atmosph@@
ation'
heard
brut@@
punish@@
voted
Sad@@
HIV/@@
him@@
climate
message
condem@@
discrimination
scand@@
destin@@
presidency
perspec@@
disabled
imprison@@
genetically
worst
ent?
er?
+45
Ms
69
HI@@
event,
HC@@
filled
non-
IF@@
included.
].
ets.
will@@
aspir@@
leb@@
Kivexa
anxiety,
placebo@@
uncommonly
suic@@
mic
postnatal
sites.
exposure.
hypoglycaem@@
Syndrome
amma@@
6.1
4.3
ES
earlier
Atripla
75%
controls.
proximal
physi@@
ical@@
8/
(AL@@
actions.
82
dopamine
pursu@@
ULN
Fasturtec
ate-@@
ab.
National
remission
EP@@
104
wom@@
cles.
Prequenza
1.7
aminotransferase
tum@@
squ@@
hair@@
rum@@
embry@@
exposu@@
ED
F,
Penfill
Thromboembolic
rosiglitazone
litres
ole,
otoxic
DATE
otide
modi@@
NAME}
foc@@
biliary
ician
assistant
Mont@@
eric@@
aspects
Technical
1997,
etravirine
Sup@@
facilities
statement
MI
destruction
est,
assay
passive
immun@@
tongue,
technique
ng@@
e/
ia/
MAO@@
LE
proteins
consciousness,
behaviour@@
hypotension
HCV
calc@@
environment,
COVERSYL
applicable
ACT@@
ograph@@
routes
neurotoxin
43
erlotinib
swallow@@
30-@@
transferase
To@@
infect
(at
ticul@@
sis,
vascul@@
MM@@
comprehensive
ply.
EU.
hic@@
Caution
undertak@@
aria,
surance
associ@@
appetite
antipsychotic
acter@@
apart
CAR@@
adjuv@@
atics
(which
dexamethasone
amine,
ATE
faster
hydrochloride
Units)
arma
pressed
vial)
osis)
prompt
writing
ada
ever@@
Yor@@
ex.
colourless
nas@@
DNA@@
aps
adjustment)
guidel@@
Buc@@
W
pil@@
enia
kes
urticaria
opa@@
usal
Thi@@
UN
push@@
marketed.
manufacturing
bott@@
arrangements
ucle@@
che
larg@@
Pres@@
Never
manner.
benz@@
ek
assist@@
gad@@
dict@@
ino@@
prescri@@
cimetidine
newbor@@
sions,
concep@@
labell@@
Greece
end-@@
selectively
64@@
MT@@
ab
027
metal
BA@@
stream
than@@
015
021
028
016
orodispersible
(2
81
unnecessary
deliver@@
anhydrous,
anda
ause
ica
contaminated
comprising
phys@@
fill
enhance
trained
pin@@
comprim@@
billi@@
nes@@
Ren@@
orange
ino
astro@@
TIW)
pregnant.
budgetary
inducing
engine@@
impair@@
killing
ession@@
hazardous
Vic@@
psych@@
tren@@
eph@@
amoun@@
assessments
caught
g/@@
sum
poison@@
OptiSet.
trou@@
SoloStar,
700
misleading
Yes,
info@@
begin@@
ity-@@
Jo@@
bid
onin
diuretics
approv@@
presents
more.
series
ified
Sel@@
ately.
opinion,
all-@@
wi@@
heav@@
proven@@
permit
external
black@@
lawy@@
nutritional
teaching'the
anced
managed
consumption.
substances.
enab@@
voc@@
ange
complaints
sad@@
Alzheimer@@
placing
accur@@
Porte
giv@@
at-@@
promote
polici@@
legisl@@
Haarlem
constantly
Union@@
trad@@
Bos@@
knows
cust@@
Sen@@
illnesses
there,
excessively
nutri@@
countr@@
virtually
Christi@@
chemicals
neighbour@@
judic@@
truth@@
sustainable
flag
relig@@
victim@@
quota
beyond
batt@@
here,
suffe@@
ier
jum@@
bann@@
me?
inno@@
colleagu@@
bank
slaughter
igu@@
beings
scienti@@
game
massac@@
imposed
Pakist@@
GMOs
abandon@@
biofu@@
it!
Wednes@@
6-0@@
entis
ys.
overed.
discontinued,
%;
to-@@
iness,
shorter
ation),
achieved.
alysis,
lansoprazole
abat@@
medicine)
4.9
were:
fatigue,
Posaconazole
exposures
yoursel@@
era
Cetrotide
firm
transpa@@
Financial
reporting
1.25
candidiasis,
depressive
escal@@
umab
is-@@
orrhoe@@
DR@@
CYP3A@@
aemic
(Cmax
community
kg/week
compound
VF@@
capsul@@
allo@@
regim@@
ane@@
myalgia,
felis
episod@@
function@@
unchanged
Kno@@
allergy
=@@
fractures.
ine/
slaughtered
capsu@@
exagg@@
cro@@
dil@@
SPRYCEL
reproduction
strength
data,
duloxetine
ase-@@
BI@@
TION@@
acetate
bridg@@
covers
Paediatric
present.
its.
oty@@
senior
STATEMENT
aemia.
Alcohol
80,
ily.
acne,
Equ@@
feas@@
alle@@
emotional
TNF
ists.
otoxic@@
sweating,
2005
rod@@
gres@@
vent@@
ones,
splen@@
septic
committe@@
contrac@@
dyspep@@
13.@@
wound
investigations
es),
Handling
opathic
intr@@
titrated
offered
heart,
targets
urtic@@
points.
Professor
pregnancies
Objective
ne,
woun@@
J.
Deutschland
Bec@@
Protection
youn@@
in-line
inu@@
signific@@
surgeon
governmental
sy
sparing
Minist@@
E-mail:
…………@@
publish@@
coc@@
advantage
abdom@@
aci@@
epidemic
other,
deposit
Keppra
arsen@@
granu@@
dise@@
Abnormal
Sodium
Estonia
Ban@@
II.
tis.
atten@@
sensation
ements,
region@@
ai
Limited,
acul@@
rapporteur
She
es-@@
lose
inactivated
udine
rub@@
oured
approved?
quality,
sample
enhancing
deterior@@
doubt
union
NovoSeven
PM@@
compoun@@
tetrac@@
fung@@
breast-feed.
prin@@
fen@@
recommend
accounts
precau@@
Tit@@
og
Erbitux
rosis
Sev@@
nitro@@
017
EU/1/06/357@@
358/
Initi@@
mucos@@
cartridge,
Inspec@@
yl-@@
)-@@
lamivud@@
transplantation
Route
asse
penetr@@
FCV
weg
Articles
Programme
ured
aph@@
speech
ná
equival@@
resolve
Slovenija
epoetin
fiel@@
intoler@@
served
Nobilis
SME@@
och@@
adver@@
degenerative
articles
metre
first-@@
monoamine
images
infants.
transported
tives,
prevented
Four
explains
differ
mam@@
transplant@@
malignanc@@
lives.
wild
TAN@@
Change
pric@@
comfor@@
ek@@
OptiSet,
asse@@
fas@@
apparently
ardis@@
sets
sumption
ouris@@
ord
differenti@@
ics,
date.
unable
smoke
reaching
centres
Asi@@
construction
nal@@
continuation
exceeded
relevant.
team
likelihood
identification
adoption
welcom@@
man.
forese@@
overe@@
Ven@@
(2)
sat@@
answers
Pure@@
statements
aimed
wait
Africa
pla@@
t;
ders.
end,
Court
MERIAL
consideration.
dealing
Wel@@
flavour@@
effective.
easier
Mor@@
gave
exper@@
Parkinson@@
raise
Ramsgate
orders
studies?
enough.
embryo
sty
enough@@
Romani@@
think@@
Russian
sources
Αγίου
Δημητρίου
democratic
cross-border
statis@@
where,
children's
technologies
compulsory
directive.
ots
Mu@@
Europe's
contamin@@
z,
combat
ake
happ@@
people's
alleg@@
zone
civil
welcome
Braz@@
sters
unfortun@@
phrase
where@@
ince
EU's
wind
process@@
desper@@
ians
ideas
later,
rer@@
arth@@
question,
ł@@
employees
No,
(H-04@@
3/2001)
2/2001)
88
these,
ules
io@@
9/
in:
follic@@
gastroenteritis,
aesthesia,
neur@@
ischaem@@
varic@@
Circ@@
colitis
pre-
displac@@
lymph
comparator
iro
constant
Hum@@
substitution
F-@@
moderate,
tra
weeks)
bow@@
infliximab
joints
trace
compare
pravastatin
bringing
fatty
inhalation
MED@@
reach@@
mmH@@
al)
ing),
17%
grad@@
techniques
transamin@@
improving
UG@@
Sur@@
heart@@
icin
cisplatin
ation;
Survival
mmol@@
additive
yclin@@
9)
response,
excell@@
seizure
EMEND
Remicade
dose)
lymphocytes
vaccinated.
ulin
uria
efavirenz,
abine,
(N=@@
triglycer@@
antihypertensive
leng@@
tolcapone
sildenafil
toxicity.
rence
fib@@
omatous
wash@@
literature
reports,
CYP@@
details
offici@@
EMEA@@
extend
anorex@@
mala@@
examples
Mun@@
ology.
BS@@
Ministry
networks
stres@@
smo@@
atide
breakdown
vinyl
PC@@
Au@@
1),
MRLs
advise
sweating
m)
Porc@@
expertise
µg/@@
ible.
plication
leafle@@
cir@@
etr@@
set.
icidal
labyrinth
tel
poll@@
resistance.
extrem@@
lactation
ORENCIA
cirrhosis
SEN@@
diges@@
embolism
cutaneous
intrac@@
extrac@@
new@@
ma.
confirm
blind
trim@@
skeletal
(or
events.
dog
atine
parame@@
hamster
saquin@@
retinopathy,
onaz@@
util@@
bronchitis,
personnel
label/
dail@@
cholesterol@@
ines,
Radi@@
atur@@
characteristic
lasting
hypersensitive
de-@@
aft
refractory
tongue
steroid@@
sore
TION
stiff@@
figh@@
College
tification
Lim@@
Docetaxel
Medical
lingu@@
mTc@@
aking
rial
Weight
sten@@
operative
MAN@@
kilogram
UK@@
ny
ING@@
di
tell@@
parenteral
action,
exer@@
oring
least@@
GY@@
tee
Services
vaginal
want@@
dizz@@
Fungal
musculoskeletal
spots
shot
marg@@
ensi@@
Inf@@
antibodies.
bios@@
reaches
pyr@@
indicators
mer
EU-@@
authorisations
features
Bon@@
Germany.
affair@@
Chair@@
ices
alpha@@
investigated.
flushed
hydration
uted.
(hyperglycaem@@
intolerance
appropriate,
dispen@@
chances
J
ford
UB@@
kill
Remove
excipi@@
formed.
isot@@
consequence
clude
Hold
magnitude
Need@@
orrhea,
oud
Jos@@
Set@@
agents,
independ@@
fundament@@
laws
thresh@@
IU)
tubes
EU/1/00/132@@
134/
152/
XXX
415/
cle
/2@@
yed
temperatures
cep@@
ethan@@
bic@@
30,
rid@@
windo@@
Wilzin
indicator
lon@@
wards.
Lis@@
Actraphane
Form@@
cats
degradation
East
cann@@
lied
equally
ria
mos@@
ders,
printed
Christian
aim@@
Medi@@
educational
rot@@
glut@@
ex
derivatives
rem@@
avir,
cli@@
emul@@
justify
IB
chap@@
letter
Protaphane
Fun@@
window
regularly.
(HIV-1),
t's
host
location
TRISENOX
differently
hes@@
REACH
10.
distribution.
planned
(MAOI@@
solely
future.
Janssen-Cilag
thanks
oh@@
guil@@
est.
dered
ya
composed
5%,
liter@@
sors
shoc@@
counted
ong@@
contrib@@
eptic@@
rings
mobile
versions
gence
wn.
authority
rates.
mou@@
tific@@
sales
react@@
reimbur@@
deter@@
safely
finger@@
hero@@
tial
Concerned
ai@@
sell
compu@@
Where@@
encourag@@
raising
lie
ADDRESS
ini
critic@@
ming
retard@@
town
Prac-tic
myself
GIVEN
ently.
If,
father
instruments
arise
imper@@
seas@@
programme.
soldi@@
diversity
contracts
murdered
stocks
Sou@@
example.
responsib@@
Kosov@@
welfare
playing
hardly
killed.
believ@@
dialogue
centuri@@
champ@@
civili@@
court
sentence
justice
pestic@@
election
reality
other.
ago,
Fren@@
cheap@@
injure@@
Amendments
Presidency
spoke
writ@@
bear
redund@@
supposed
ted?
ly?
ities?
square
(A5-03@@
Swedish
impl@@
HbA1c
inhibitor@@
formula
ng/
rotic
3000
hygiene
Close
FSH
ility,
ritis,
neuropathy,
transf@@
H)
necrosis
rats,
allergy,
metabolite.
zed
RNA
acept
joints,
inflamm@@
7%)
(un@@
met.
injuries
Glivec
memantine
AT
residue
iloprost
remained
tam@@
detectable
months)
22%
completely.
osph@@
individuals.
carbox@@
contraindic@@
581
tubercul@@
improvements
bron@@
days)
olanzapine
adren@@
media,
59@@
(1,000/1,200
classified
consolid@@
bilirubin
’).
days@@
Sim@@
BR@@
Rebetol
C/
1,200
perit@@
ira
spondylitis
Si@@
ithromyc@@
fibrosis
(MRI@@
atazanavir
Zometa
dropped
chromosomal
Viet@@
ating,
calci@@
hypercalcaem@@
background
mellitus,
responding
Actr@@
(VTE)
mob@@
entan
maxim@@
mask
date,
Dar@@
Date
SION
Jul@@
Virological
tingling
field,
photosensitivity
disappear.
industry.
Brussel@@
practition@@
France.
Coun@@
/E@@
Secret@@
rences
Good
diarrhoea.
discol@@
neuromuscular
ods
metric
electrical
nerv@@
discharge,
write
obal@@
geal
Agency’s
breaking
numer@@
tetanus
meningiti@@
advance
phosphor@@
syndrome)
investigate
Kal@@
intrav@@
ly).
autoimmune
ho
urine.
ification
radiolab@@
desirable
2%)
Immuno@@
arial
creation
pneumonia
draf@@
range.
Vascular
voluntary
Appro@@
cattle.
results,
ml).
ics.
neon@@
http://www.@@
------------@@
iver@@
diabetes.
low,
sible,
invol@@
diagno@@
dental
Parliament,
nel
pension@@
lithium
resolved
install@@
ia).
therapies
Fort
Optisulin
ops
System@@
strategic
properly.
ancy
atitis
didanosine
dream@@
Reduction
dermal
dam
alfa-2@@
q
Usu@@
meals.
blo@@
eigh@@
insulin)
compliance
show@@
mature
Polysorbate
Recommend@@
Tallinn
ading
Roche
transporters
vastatin,
Flu@@
ry,
ADRs
scar@@
depos@@
layer
breaks
multipack
or)
ALT@@
Pre-filled
Spain.
spectrum
identical
concentrations.
arthral@@
EMADINE
Active
hazards
va
Bor@@
stration
aus@@
USA
inadequate.
bacteri@@
zal@@
assistance.
type@@
suspected,
organs
enza
Viread
compatibility
administering
serve
operation,
Gem@@
convinc@@
LIST@@
esc@@
available,
label@@
cleare@@
(particularly
pet@@
amlodip@@
HEXAL
propylene
ero@@
(0.2%
blu@@
Sar@@
Madrid,
refer@@
Soliris
armac@@
Coordination
mus
inserted
cumulative
dipl@@
urea
EU/1/00/131@@
/003
018
019
024
025
108
07@@
01@@
ZYPREXA
box.
transferring
Phys@@
effectiven@@
deltoid
assi@@
yester@@
his@@
fla@@
ocytic
Py@@
avenue
ft
below:
Wilson@@
Oedema
avir)
mach@@
Som@@
Puh/
(EEC)
ves,
breast-
thrombocytopen@@
metal@@
ov
Fre@@
km
Unless
ta.
base
Calicivirosis
-2-@@
shaken
Institute
August
possib@@
fails
worl@@
Temodal
worthy
flexible
rising
switch
ish.
obes@@
Tevagrastim
G,
ten,
eties
benef@@
Child-Pugh
processes
quo@@
tap
Intervet
injured
influ@@
But@@
Having
wer
coli.
ied
SO@@
(0.9%)
infra@@
40%
human.
implement
with,
800@@
San
systems,
cloudy.
ease
ano@@
extre@@
opinions
historical
gent@@
entry
20.
encourage
precur@@
dru@@
acidosis,
implementing
eous
Anti-@@
lyophil@@
quarter
ogenous
reasons.
session@@
Riv@@
located
Security
vehic@@
Sit@@
code
integration
sive.
ze
dres@@
guard
small@@
NutropinAq
disper@@
destroy
understood
Christ@@
distinc@@
alities
bond
Commission’s
enjo@@
countri@@
capsules,
salmon@@
wage
neither
restaur@@
Alpes
pa
ull
cons@@
rates,
ks.
land,
opportunities
roun@@
symbol
faced
nu@@
alternatives
Out
Sandwich
Brit@@
catch
ko
intend
schem@@
out?
charges
num@@
destroy@@
spend
care,
hat@@
green
paragraph@@
disabil@@
Western
track
GR-174
Άλιμος
30-210
terroris@@
trag@@
dying
calls
consumers.
subsidies
prac@@
earth@@
convic@@
terrorist@@
iliation
banks
mountain@@
dang@@
trace@@
ague
funded
ed!
weapons
subsid@@
Zimbab@@
legitim@@
elapsed,
replied
represents
stipul@@
newspaper
agriculture
rers
tonn@@
obligation
patri@@
fate
hec@@
flood@@
catastroph@@
al'
Indi@@
stig@@
ship,
infring@@
inven@@
dangers
Islam@@
monopol@@
competitiv@@
atis@@
peoples
Israeli
Tues@@
Mad@@
flag@@
ment?
Nonetheless,
ate?
compromise
(A4-03@@
03
mox@@
ifloxacin
Trizivir
initiated.
happens,
c)
IS@@
fell
knee
response@@
Philadelphia
osition
-4@@
circumstances,
growth,
palpit@@
hos@@
Imprida
cycle@@
arly,
ardi@@
Oc@@
open-label
helping
test.
(under
Tredaptive
max
gain.
defence
venti@@
analy@@
old,
thrombin
tho@@
haemorrhagic
insulin,
inadver@@
(90Y)
lop@@
amphotericin
fluvastatin
’)
pharyng@@
ison
in).
falls
24-@@
ES,
gy@@
(mean
ained
behavioural
reaction@@
obese
depressed
109/
Son@@
I-@@
treatment-@@
encephalopathy
phenylbut@@
ine;
prec@@
cogn@@
fluoro@@
indicated.
kg@@
double-@@
yclines
Week
mL
rated
OSSE@@
8).
eggs
recover@@
quantit@@
MAR@@
itidine
transitional
y),
abr@@
abapentin
artan@@
pramipexole
limb
MIRAPEXIN
aly@@
intracellular
paraesthesia,
pseudoephedrine
RENEWAL
al:
complex@@
technological
critical
Johnson
Publications
Rome
chemotherapy.
releas@@
5.
EURO@@
governing
Simil@@
lactate
confus@@
Gl@@
constitute
thin
stear@@
designation
passing
moderately
conjug@@
epilepsy
warned
cou@@
harmonised
assa@@
whit@@
impaired,
terro@@
ostatic
thyroidis@@
ul
tar
VR
lig@@
membran@@
heparin
lovastatin
Reduc@@
glomer@@
immunosuppres@@
antiepileptic
conduc@@
Aranesp
encies.
ally-@@
Excessive
Inflammation
somnolence
dissemin@@
AE@@
albumin
experiments
humans,
organ
phthal@@
specialist
infiltrates,
ng
ride
warr@@
obser@@
inner
anaphy@@
Levemir
yme
Admini@@
CV
salts
lessness
isation,
thesia,
weakness,
volunteers.
dose).
vitro@@
Vomiting
aten
Gmb@@
ρ@@
TAC@@
Indinavir
Placebo
pt@@
hydrochlor@@
facilit@@
corpor@@
Science
(300
Produc@@
onom@@
Guideline
Warszawa
acu@@
limbs
back,
ón
title
Ger@@
Organisation
ano
initis
sympathomime@@
Tim@@
bath@@
Shelf
Thromb@@
loose
uth
lined
mot@@
+37@@
c.
,5
š@@
pot
anaesthes@@
haz@@
effects:
facial
uncommon
Cere@@
itchy
asis,
pain.
lessness,
Viral
more@@
candidiasis
procedure,
diure@@
endocrine
alizumab
Mos@@
composite
ad,
Excipi@@
(PLI
graft
Regi@@
nom@@
technology,
FU@@
transcriptase
greatest
agencies
Harmonisation
education.
point,
Combination
therm@@
uxim@@
ares
discarded.
gastro-intestinal
displayed
sunlight
Nervous
aticall@@
Sav@@
quinol@@
antibiotic@@
delivered
manufactured
pancreatic
continuing
50-@@
CC@@
Cast@@
ac
emis@@
Age
With@@
delayed.
ylation
discharg@@
32@@
r-@@
dela@@
rhinotracheitis,
ril@@
Median
CV@@
harmonisation
VII
teratogenic
/002
020
022
023
/3@@
tablets)
366/
EU/1/07/425@@
EU/1/08/484@@
ace@@
Neu@@
sorbitol
ose,
{month/
broached,
Vial
06
AND@@
Dublin
herbal
riton@@
region.
prevents
Bus@@
yn
ercent
(HDPE)
collection
ining
arian@@
Capsule,
City
Icel@@
occ@@
consists
organizač
zlož
ME
thri@@
erythropoiesis
VISTIDE
newborn
neuropath@@
ong
strain):
HEXAVAC
promoting
etc.
proposal.
Saf@@
Sant@@
tice
naturally
reno@@
shaped
hex@@
form.
arterial
and-@@
history,
hour.
207
rea
pieces
bab@@
definit@@
contin@@
mg/ml
ark
esom@@
pressu@@
prime
17,
cloudy,
rele@@
Lap@@
Stockholm
chi@@
r.@@
57
defects
mad@@
mm
mun@@
army
opi@@
lep@@
astern
plays
6.2
Nobivac
ifi@@
mg/l
foods
intim@@
ical,
sor
calici@@
800,000
demands
chains
horiz@@
wed
tric@@
Bet@@
oxone
preced@@
elimin@@
women@@
gover@@
antibiotics.
anticip@@
instrument
single-@@
worldwide
ba
Sha@@
ss
revis@@
ration@@
simil@@
guaranteed
grow
Len@@
expec@@
drin@@
offers
path
fiv@@
cohe@@
Ros@@
tured
Cre@@
containers
thetic
gap
scenari@@
implement@@
burden@@
pu@@
purch@@
quality.
servic@@
glycosidic
explan@@
laun@@
ap
Austri@@
l'Avi@@
om,
allocated
yours.
PC
METHOD
custom@@
ann
b,
Pat@@
withdraw
Turkey
ANO@@
technolog@@
pitting
Egyp@@
ethnic
tures
Soci@@
comment
2008
exclus@@
companies,
Barro@@
wife
of,
suddenly
page
costs.
inqu@@
batter@@
ud
(cells
effective,
rog@@
disput@@
arrested
ust,
freedom
alarm@@
mercury
them?
powers
felt
trading
construc@@
tank@@
drivers
ethical
sport@@
famous
perfectly
cigarett@@
operators
Air
flights
voting
-friend@@
accident.
lands
dictator@@
denied
currency
writing.
answered
dialogu@@
holid@@
Balk@@
conflic@@
basis,
negotiations
uranium
cast
Have
es’
island
comments
export@@
Palestinian
ishing
Indones@@
pip@@
erger
friend@@
us?
abduc@@
Be
money@@
6/98)
ø@@
pharyngitis
Combivir
zidovud@@
delay.
(8@@
age-@@
WHO
abov@@
6%)
ogenetic
(18@@
recor@@
mph@@
NSAID
pruritus
tle
(15
analysis,
17.@@
acetylsalicylic
INO@@
O,
intensity
QT
Agency's
immunoglobulin
anaphylactic
plase
0.8@@
5%)
arm,
Program@@
×
(N
rashes
ratios
somnolence,
together,
letters
clott@@
130
amen@@
models
pation
alfa.
LY@@
CYP2D@@
saquinavir
ritonavir,
nM@@
exacerbation
restriction
great@@
inary
kg/week)
itive
penicill@@
estim@@
glycer@@
111
HBe@@
adefovir
fibrozil
intermedi@@
CN@@
intravitreal
Lucentis
comparing
3%)
320
promotes
2.6
azol@@
disease-modifying
azole
enzym@@
e/@@
delay@@
Sprimeo
ded@@
two-year
granul@@
sted
LDL-@@
ic/
15.@@
ard)
FIRST
ility.
defic@@
blurred
hypotension.
degrees
Italian
Dru@@
Pharmacology
chemistr@@
vide@@
vec@@
anxi@@
(by
High
atitis,
conjunctivitis,
azep@@
CI)
tively
Eudra@@
fire@@
(3.@@
mineral
values.
valid@@
°@@
C).
castor
-resistant
reservo@@
subst@@
emphasis
pneumonitis,
etic
ribavir@@
inhibitors,
away.
sinus
sants
Rules
vul@@
permit@@
loaded
ron
soun@@
emergence
supported
cow@@
Fos@@
ary@@
pharmacodynamic
reveal
Zen@@
troph@@
adolescent@@
injectable

135
conside@@
2001.
VA
microspheres
proteinuria
analysed
ese,
posing
rists
Sinus@@
rash)
liferative
dissemination
atives
edema@@
pares@@
sist@@
aggres@@
glas@@
separated
Suomi/
op
before@@
Dep@@
lock@@
fold.
DG
appetite,
Diacomit
Stev@@
night,
glycine,
hypoten@@
deple@@
lowing
lips
idence
oil,
(9
potassium-containing
substit@@
oil@@
allergies
vice
......
Amster@@
rob@@
techneti@@
en)
ain,
La
Chi@@
Inhibitors
humanitarian
rifamp@@
storage,
unc@@
ivi@@
neumon@@
Improvement
attach@@
4).
improves
monohydrate,
(E4@@
Α@@
Holdings
är@@
SARL,
3A@@
dark
breath,
ina,
text@@
sigh@@
thickening
ise.
abolic
ma,
memor@@
seeing
Cat@@
abs@@
Increase
shire,
irrig@@
thrombin@@
dihydro@@
pandemic
Regul@@
rich@@
dimen@@
with:
Janu@@
combinations
ez@@
Lond@@
alcohol,
chloro@@
ula
immedi@@
molecules
suspic@@
compounds
Metalyse
Intr@@
paras@@
Systems
HIV@@
glin@@
enth
expose
facing
schedu@@
protein.
coronary
artery
line@@
locked
hil@@
contrast@@
go.
cure
25-@@
blocker
for.
enz@@
Neutro@@
atel@@
progenitor
ó
Vacc@@
F.
Yttriga
PAC@@
var@@
/001
137/
ept
broad
revised
events/
worsen,
content.
>@@
zinc
precise
decom@@
pens@@
chur@@
expl@@
GM
Turn
shire
Ath@@
Copenhagen
Manufacturer:
Filgrastim
Sing@@
bags
Tél@@
mostly
conditions:
remov@@
400@@
shell
l'@@
Well@@
alised.
Cardoreg
oxib.
mann
loxacin
iliary
applied,
Ibra@@
doctor@@
gained
that@@
Tacrolimus
first@@
Parliament's
Parliament@@
kidneys
removing
prefer@@
preparing
asses
antifungal
Aspergill@@
wounds
disappear@@
ambient
operations
ived
TP
Lithuania,
1990@@
dispenser
novel@@
automatic
cautiously
za
holders
OTHER
diame@@
galactose
protein)
Ultratard
WI@@
extending
Ongoing
tyros@@
alk@@
transparent
[N
Ciprofloxacin
bac@@
creating
darbepoetin
tural
rapid@@
Meth@@
sts,
acceptable,
iling
relief
natur@@
soluble
transfus@@
part,
task
Tas@@
40-@@
breeding
claimed
factory
Ranexa
Ombuds@@
US@@
cyclo@@
Zyrtec
mechan@@
ave
isers
noti@@
ocr@@
traum@@
reve@@
conclusions
Shire
Long
confidenti@@
Tenofovir
e-mail
shell@@
Report@@
errors
send
legislation.
mand@@
packaging.
ania,
effectively.
report@@
sever@@
transition
demand.
largest
cancers
cum@@
fail
throw
rememb@@
options
altogether
hibition
rail@@
regulation.
consequences.
secu@@
sourc@@
closing
spor@@
six-@@
substanti@@
uff@@
surveys
aj@@
Mari@@
plat@@
admitted
ask@@
proven
missed
000.
commis@@
house@@
is?
remind
ain.
Atlantic
perfect
falsi@@
happen,
hand.
follow.
crim@@
unanim@@
ean
supplies
explain@@
alling
Twenty-@@
checks
Natur@@
weap@@
tried
soldiers
town@@
peace
So,
opposed
tragic
domestic
stock@@
ground@@
fraud
exec@@
moun@@
es'.
terrorists
Terro@@
Mediterranean
Hungarian
ambi@@
dump@@
People
ning.
Albani@@
Sum@@
beef
ter?
girls
train
Anyone
important.
whereby
cast@@
year-old
opt-@@
book
freed@@
GDP
China
summer
adox@@
controversi@@
deliber@@
traged@@
protection@@
terrorist
fisheries
imports
touris@@
Convention
farmer
now.
referendu@@
confid@@
nick@@
forest
-in-@@
genuine
assass@@
undertake
discipl@@
fraud@@
foodstuffs
petro@@
accused
selling
speaker
Chamb@@
Category
remark@@
will,
thers
MEP@@
criminals
appoint@@
Iran@@
kilome@@
red?
ement?
agus
speaking,
(A5-02@@
Danmark
48@@
Bir@@
DK-2@@
postpon@@
(glucose)
ray
malnutrition
'(@@
aesthesia
CNS
metast@@
diagnostic
(in
trex@@
celecoxib
ills
represented
ellul@@
eves
interval@@
cyto@@
Privigen
Ari@@
foot
ICH
Guidelines
molec@@
cutting
hin@@
ling.
aryngeal
vir
actively
accounting
tigo,
hallucin@@
MRI
olol
swell@@
min,
omas@@
ated)
adalimumab
umab,
ziconotide
Os.
rasburic@@
IV,
CYP1A2,
HT@@
chron@@
unknown,
atory,
mg/day),
51@@
microgram/@@
releasing
evident
indicates
institution
eczema,
random@@
h/
ids,
intolerant
anthrac@@
Cancer
beta-1@@
sclerosis,
alendron@@
Lum@@
Te
alin
leak@@
-derived
hist@@
single-dose
ugrel
Tarcev@@
Liver
adiol
morph@@
attributed
olic
110
Insul@@
sweet@@
(CYP@@
inspections
thick@@
pseud@@
contributes
fertilit@@
biotechnology
discolour@@
insom@@
Kaposi's
fist@@
graduate
Dublin.
Mis@@
Vien@@
1993
Chem@@
ferenc@@
↔
NSAID@@
Need
Sm@@
weakness@@
reduced,
muscular
irrespective
handed
pressing
Applications
electroly@@
bate
sant
ribos@@
Por@@
partners
ura
submitted:
methyl
discolour
dilu@@
aplastic
orrha@@
Post
reduction,
Der@@
fur
sugges@@
Significant
Packs
haematomas
Chronic
cervical
seg@@
thrombocytopenia
purpur@@
chaired
committees
applicant
sy.
Bio@@
flushing,
exen@@
mid-@@
Repe@@
toxicity,
sof@@
er;
4%)
side-effects
Ir@@
wheez@@
well,
ton.
enhanc@@
adversely
sper@@
contribution
adalafil
Infectious
fibrill@@
weighed
ably.
dex
iod@@
War@@
Fuzeon
ster,
ulcer,
omyel@@
fatality,
Interactions
Aclasta
acin
bowel
borderline
immunosuppressive
ashes
ote
fluo@@
-term
eutic@@
shop
15,
Crohn@@
fibr@@
Dodge
radioactivity
Tan@@
Two
withdraw@@
Update
iving
knowledg@@
IA
MU@@
resist@@
valpro@@
vet@@
fit@@
Compared
ways,
tness
osis@@
regression
Royal
ons.
veterin@@
fec@@
dn@@
entation
Estate
tos
torate
(13@@
progest@@
Musculoskeletal
°C)
region,
Director
BO@@
choler@@
Neulasta
prefilled
facil@@
bottle@@
Duration
Like
rhin@@
scale,
egg
dural
SA.
Portu@@
6676
Baltic
+370
atan
inflammation,
uria,
al/
glioma
med,
ovary
n't
ater@@
thiazide
lic
IX.
stay
recept@@
cephal@@
ester@@
tor.
affec@@
'and
neuri@@
puber@@
(44-20)
mail@@
Strasse
requests
sector.
manual
Swit@@
mepi@@
characteris@@
junc@@
Metformin
incretin
atroph@@
reaction).
insert
certain@@
short-@@
Pop@@
FOSA@@
suppor@@
scheduled
tioned
important,
of<
expected.
goals
recommen@@
usage,
need.
pepti@@
curren@@
—
imatin@@
220
itis)
§,
Diskus
NT
+351
shiel@@
fructose
ultras@@
zonisamide
recur
LA@@
dicul@@
thumb
specific,
uncontrolled
metastatic
denafil
tising
EU/0/00/000/000
/004
Tablet@@
(S)
EU/1/08/464@@
EU/1/08/465@@
98/
lay@@
freez@@
exists.
{MM/
S.@@
Bla@@
rightly
sulphonam@@
ps.
Fendrix
entan@@
Mat@@
88@@
Flex@@
Fol@@
Operation
Rapporteur@@
Latvi@@
calib@@
ā@@
Jean-@@
REYATAZ
maybe
-8@@
ered.
ž
____________________@@
genes
arel@@
fill@@
Vice-@@
At@@
e-mail@@
imesulide
viv@@
variable
risk-benefit
prohibited
second-@@
element
Alert
theore@@
direction
Altern@@
barrier
bud@@
insufficiency.
carers
forward.
Of@@
but,
magnes@@
justification
Infanrix
tane@@
chamb@@
ome
toral
Kingdom@@
himself
chicken@@
Sep@@
usual.
DE
quick@@
CELSENTRI
Yttrium
west
cen@@
ok
Do@@
rose
KG
Vit@@
2000,
review@@
EEIG
stin@@
necessity
conversion
inevit@@
interrupted
massive
characteristics.
degraded
Caucas@@
ables
spac@@
subject@@
ir,
Ul@@
ers;
dan@@
innovative
omin@@
ared
established,
fatten@@
Proce@@
actor
weaker
views
corresponds
wanted
sing.
criteri@@
serotype
Fra@@
Labelling
obtaining
option
institu@@
appeal
neglig@@
Mas@@
Pierre
anese
Ze@@
committed
known,
piec@@
Adult
gest
sodium,
whenever
coffe@@
Sug@@
the-@@
surg@@
ope
ined
emed
ported
HIV,
ites
worth@@
itors
infrastructure
state.
bonds
eting
hung@@
Slovak
expendit@@
news
lifestyle
discuss
FC@@
operator
substance(s)
world,
Super@@
missions
race
wishes
evol@@
term,
skills
Spot-on
mine
ASE@@
attenuated
o?
HUMALOG
desir@@
atives.
ania
nearly
Otherwise,
while,
ners
organiz@@
2010
ning,
abortion
closer
ety.
scrap@@
balanc@@
with.
story
simpl@@
territor@@
earli@@
houses
safeguar@@
another.
igno@@
hundreds
refuge@@
dies
tonnes.
mere
disaster
haul@@
tack@@
impres@@
gious
'S@@
pun@@
sport
over,
cover@@
devast@@
vation
disappoint@@
Parliament.
Votes
leaders
businesses
interesting
bureaucracy.
opposition
jeop@@
democ@@
passeng@@
privileg@@
safe,
sions.
advertising
commerci@@
are.
dies@@
passenger
driver
wonder
taken,
And@@
manip@@
NATO
victim
grand@@
dom
crop@@
Wine
inhabitants
weather
ECU
issue.
instrum@@
losses
entitled
distor@@
ion?
Hung@@
crimin@@
teen@@
cost-@@
livestock
collapse
secut@@
landfill
grac@@
aims
homosex@@
Gaz@@
customs
director@@
negotiating
sman
-and-@@
newspap@@
ated?
proposing
major@@
Despite
strateg@@
Eor@@
place@@
le?
report?
ded?
(A4-016@@
adrenaline
recently,
yourself.
sulfon@@
dietary
pertussis
arthri@@
56%
VE
HER@@
alendronate
2%,
Cyanok@@
thigh
rosis.
37.@@
arrhyth@@
ender
alopecia,
fatal.
cytarabine
5'-@@
infiltr@@
steroid
(AC@@
Kaplan-Meier
Figure
TN@@
27.@@
excretion.
Fron@@
secon@@
tremor,
ard.
⋅
atio
partnership
hepar@@
Otherwise
concern.
plasma,
overdose,
specially
aminogly@@
yc@@
encies,
corticosteroids.
kidne@@
amino@@
11.@@
5.3).
depart@@
INVE@@
adal@@
erec@@
embol@@
tended
latent
ocardi@@
CYP2C19,
Rey@@
5;
AUC)
neumococcal
Form
esis,
catabolism
(‘
Cmin
HPV-@@
dipivox@@
lipoprotein
lipo@@
DMAR@@
IMP@@
FIRMAGON
disability
suggestive
chemotherapy,
lung@@
cough@@
paralysis
Eye
application,
GANFORT
pregnanc@@
air.
hoc
volunte@@
))
cyste@@
184@@
selection
complement@@
AUC0@@
meal.
Rasilez
Riprazo
nilotinib
Seven
(DV@@
juvenile
phal@@
mouth.
bed.
aphane)
crushed,
agen
undergoes
um)
attributable
SUR@@
atinib
__@@
anaemia,
Cour@@
Between
Heal@@
1985
epidemi@@
cellular
Laboratory
Irel@@
multin@@
rap
monitor@@
Thus
ten.
post-operative
TW@@
ard,
reversal
volu@@
tiredness
ousness
through@@
ep
eli@@
ior
ophobia,
conjunctival
bisphosphon@@
fluor@@
0.9
Warfarin
erythem@@
Ery@@
Vari@@
injury,
ab,
antic@@
myelo@@
limit.
documents.
penetrate
ways.
Losartan
conclusion
respectively
hydrogen@@
anth@@
pression,
Win@@
pancyt@@
fain@@
cope
orth@@
virologic
Ras@@
orig@@
gut
haemarthro@@
donors
begun
CMV
conclude
cholest@@
tening
Decre@@
rate,
TEL@@
39%
asone
Exper@@
mes
Pac@@
mutagen@@
TRAVATAN
complications.
Subsequ@@
alfa-2b,
pens.
Cle@@
emea.@@
----------------@@
s.@@
Emselex
Cel@@
fati@@
taken.
cluding
AV@@
workload
considering
jec@@
aphy@@
neutropenic
Respon@@
take:
Signs
anxiety
ered
EMEA/@@
Κ@@
facilitate
he/
temperature.
12.
interruption
congestion
counts,
Gra@@
London.
Univer@@
2004.
cartridges.
depri@@
Docum@@
inet@@
Phil@@
info@@@
qualification
Authorisation(s)
Netherlands.
ody
spoon@@
micrograms,
Dou@@
constipation,
Fa@@
tho
Mel@@
pain)
Urine
x1
HE@@
Mono@@
administered,
DuoTrav
Shelf-life
ecological
kines@@
rexia,
gastro@@
bol@@
m-cresol,
isomer@@
Effect
shortness
menstrual
ying,
Bl@@
surface,
tests.
sh
(shock)
H).
eye:
Pharmacodynamic
FORSTE@@
an's
VII@@
ABILIFY
Hungary
Guid@@
acchar@@
vej
incineration
4.8.
receptors,
ote@@
Sor@@
ruption
os.
oestro@@
opening.
ordin@@
SCH@@
WE@@
Resistance
79@@
len
doses)
lights
ativ@@
ercept
Silapo
wiped
stopped,
supervision.
CRIXIV@@
accompanying
typical
suspended
notify
ons,
ne.
entecavir
HAAR@@
Cardiac
InductOs
removed.
stopper.
2007,
endor@@
carb@@
pare
plement@@
changed.
vehicles.
ulin@@
ls,
converting
channel
preserved
ene,
phenothiaz@@
Att@@
ling@@
blisters)
426/
95/
protoc@@
surge@@
ps,
bubbles
carefully,
ha
carbon@@
vaccine@@
Alc@@
Lane
Hav@@
ve:
focused
exercising
NEVER
bottle,
ki
syringe.
bottles
anti-
Pregn@@
clothing
sty@@
rue
Activel@@
asthen@@
aes@@
metabolism,
°C.
Green
White,
coma,
info@gsk@@
elig@@
newly
integrated
concern@@
gon@@
analogue
pointed
lus@@
ses@@
structur@@
starts
4-91
Association
Tylvalosin
Secretariat
HIV.
issues,
pack,
labor@@
clospor@@
lit
cleared
Xeom@@
arabine
Vectibix
measure.
failed
ators.
etan@@
consen@@
molecule
mandate
substitute
donor
5-fold
sulfate
INC@@
Immun@@
Infec@@
Escherichia
Infusion
Vimpat
Aerius
1%).
haemodi@@
changed,
cov@@
TE
val
nica
duoden@@
Á@@
Italia
materials.
Ris@@
inser@@
Absolute
otox@@
potential.
laugh@@
shado@@
meti@@
l/
often,
Plus
exceeds
Tun@@
metabolism.
compl@@
(The
smoking,
tamper@@
expan@@
je
hydroxy-@@
inib
Simultaneous
improvement.
weighing
fourth
cigarettes
sheep@@
interpretation
automatically
gas@@
cub@@
Annex@@
lys@@
rolling
135@@
principal
reform
regulator
was@@
substitutions
standardis@@
inhibitors)
quarters
wed@@
cyanide
aberration
risk/
Rotigotine
vig@@
Mann@@
VIRACEPT
Sand@@
reviewed
ames
driven
tionary
cigarette
ury.
entirely
risen
dynam@@
Dy@@
aked
rif@@
Recon@@
pedi@@
stage.
institutions.
ruled
("@@
art
being,
151
enveloped
introducing
thinks
themselves,
(3)
tory
elder@@
apply.
blistered
belong
diab@@
divis@@
updat@@
arom@@
fied,
F-69800
hibi@@
dangerous.
ck@@
Ku@@
incorrect
sla@@
handled
analyse
remin@@
added.
recycl@@
alls
African
bid@@
ith
6/@@
tanks
Hampshire
docum@@
diagnos@@
table,
grant@@
notification
ful.
Synagis
ensuring
afraid
valued
Regulations
done,
worse,
better.
woman,
holiday
mits
decline
Effective
references
define
participants
tool
Let.
feeding@@
nobody
print
Tηλ.:
summit@@
ury
doz@@
compreh@@
consequenc@@
advertis@@
tend
flame
bureauc@@
symb@@
sentenced
taxes
celebr@@
cock@@
temp@@
describe
found@@
kilometres
exceptions
workplace
decl@@
look@@
USD
coast
barbar@@
conflict
murde@@
ani
urban
schools
territ@@
Tobacco
doct@@
feder@@
Nap@@
stands
crime
arrive
iff
reply
spok@@
hotel
sive,
hectares
that?
honour@@
imported
treaty
prisoner
regar@@
sports
trium@@
philosoph@@
bank@@
OEC@@
olive
requis@@
secret
fighting
hab@@
Austrian
rural
ultimately
cloning
Iran
jour@@
lement
wrong@@
immigrants
expor@@
asbe@@
gentle@@
unfortunate
directive,
right.
wants
oks
trust
provoc@@
infl@@
Iraq
wron@@
condemned
ongside
Islamic
dangerous,
plain@@
illeg@@
proposal,
minor@@
WTO
others,
question.
forces
say:
whis@@
detention
come,
er!
then?
impose
that!
Strasbourg
-year-old
ski
ither
tive?
advant@@
preliminary
What@@
year?
Any@@
augh@@
94
Wil@@
DK@@
disinfect@@
diphther@@
implanted
CVMP@@
hypox@@
entered
mg).
etc@@
joint@@
alte@@
dehydration,
situations.
ated@@
mig@@
Helicobacter
synthes@@
Prof@@
alopec@@
complete,
proteins,
dasatinib
brady@@
malignancies
fibrin@@
zap@@
insomnia,
enoxaparin
Norm@@
GIST
otoxicity
survived
brain,
rency,
irac@@
small,
aptanib
0.9@@
H-@@
128
infusion@@
significantly.
album@@
filtr@@
drowsiness,
add-on
field.
16%
patient-years
venlafaxine
program@@
ulceration
11.1%
OPTR@@
propor@@
bodyweight
consti@@
phosphatase
pioglitazone.
ophthal@@
randomiz@@
antibiotic
cholinergic
carbam@@
ylase
subset
600@@
530
Scale
anaesthe@@
kg)
HPV-16
TORISE@@
0.6
85@@
ipo@@
37/
CD
Ka@@
iser
Tasign@@
relapses
47%
Betafer@@
steady-@@
glucocorticoid@@
VTE
circulation
form,
mercur@@
below).
Xol@@
0.5@@
sity,
rheumatic
eosinophil@@
intranasal
aspart@@
Invir@@
consecutive
fat,
a/
SIFRO@@
vo
79
Diffe@@
relax@@
(to
450
pandem@@
AUC@@
variation
AU@@
........@@
20/
burning
arily
gender,
inducers
CYP3A4,
}@@
turi@@
Servic@@
Hospit@@
1987,
director
join@@
éné@@
consultant
VER@@
rocuronium
ade.
tigmine
lymphoblastic
zan@@
submission
Meeting
Ask
2002,
1,7@@
tes
collect
elap@@
played
trib@@
breast-fe@@
REF@@
polysaccharide
itol
hyperglycaemia
collabor@@
induces
intern@@
Summaries
ts:
glucagon
inase
anti-cancer
Ny@@
nervousness,
Swine
intra@@
TNF@@
diffuse
p-value
imit@@
pigment@@
aber@@
farm
relev@@
tes@@
blood-@@
Elev@@
abnormal@@
agranulocyt@@
iac
OB@@
Diarrhoe@@
Abdominal
PRCA
fluoroquinol@@
Fern@@
K)
TY@@
sim@@
pronounced
Multiple
thal@@
probable
incontinence,
Ble@@
hyperuric@@
glyco@@
agen@@
rodents
foet@@
HM@@
vid@@
sitagliptin
8.
metabolite,
tubing
determination
phosphat@@
omy@@
Infections
Intron@@
simultaneous
----------------------------------------------------------------@@
---
Sweden,
passage
preservative
Dam@@
ographical
'(a
10)
oedema.
consistency
approach.
ion-@@
Propos@@
Driving
Application
Careful
Photosensitivity
lesion
Cros@@
rats.
stent
oproliferative
Myel@@
caution.
transmit@@
(s)
itic
Monitoring
Discard
Genzyme
Lt@@
SHARP
Str.
radiolabelling
Dr@@
muscle@@
assembly
motion
R.
aprepit@@
Gly@@
flav@@
sia
EID@@
anaem@@
neutrophil@@
PhD
unde@@
UK.
Barcelona
omas
46@@
Corpor@@
del
ska
ativity
alfa@@
List
tering
mouthpiece
noea,
epistaxis,
Poly@@
Mé@@
selective,
trav@@
Upon
unique
patches.
variations
ums
Gy@@
ols,
perversion
opharyng@@
maculopapular
(r@@
Test@@
Global
Chang@@
runny
Park@@
alli@@
Efex@@
Ant@@
om.
paroxetine
brovascular
trouble
eczema
specifi@@
cles,
eing
legs,
exhaust@@
butt@@
bleed@@
(Seen
(itchy
fragile
Kon@@
ink@@
genicity
(EPAR).
Hepat@@
Reproductive
failure@@
sugar,
(905
FeLV
pharmacovigil@@
Infection
aux@@
stimulate
rises
cataly@@
highlighted
experiences
about.
pregnancy,
presentations
conform@@
Immunodeficiency
Greec@@
argument
initiate
kg.
Vildagliptin
long-acting
prothrombin
antidote
develops
pylori
Transferring
plenty
spite
challenge
suggesting
saline
antacids
resolved.
Bond@@
resto@@
decision-@@
hypoglycaemic
grant
EX
doses,
Child@@
suffici@@
breastfeeding
lymp@@
Extavia
sement
gonadotroph@@
The@@
intra-@@
Sik@@
ß@@
tained.
Fed@@
Gliolan
matrix
heparin)
compromised
Epivir
relieve
drawn
ureth@@
light-@@
burning,
Placebo@@
estimates
harvest@@
atives,
oxide,
atal
subcutane@@
post-menopausal
apone
photosensi@@
0/
/005
101
386/
EU/1/98/069/00@@
EU/1/98/070/00@@
X/
XX/
XXX/
Cri@@
Cardiovascular
dehydr@@
stretch
band@@
patients:
preferred
e.,
hydrate
6.1.
Oste@@
enced
F-9@@
da.
CHM@@
indicator.
Cartridges
(Pro@@
deliver
Investigations
transplan@@
ratioph@@
premis@@
Wal@@
Staff
risk,
Lithuania
ona
TRO@@
FIN-0@@
Eckenheimer
60318
femal@@
Heart
hepatomegal@@
Nas@@
Rh@@
disturbance
Smoking
neutral
cyclic
atislava
lets
CYSTAGON
BC
pathway
ity:
BV
blast
void
renc@@
rand@@
lots
peti@@
haemorrha@@
cot@@
wool
Government
(FHV
Lda
Mid@@
dysphonia,
pep@@
nationally
components.
Eur@@
Health@@
Belgian
brief@@
today.
Mit@@
belonging
dementia.
antigen)
borne
blocked
promp@@
SINGULAIR
emerge.
disproportion@@
above.
manage
receives
ophy@@
feed.
Not@@
benefici@@
special@@
antibiotics,
cetirizine
lay
avail@@
habit@@
modifications
Latvia,
Norway,
gras@@
Community,
challenges
West
Inc@@
Optim@@
TV
hospital,
Eating
(23
markedly
matter.
ANCE
+386
fluids
ú
ket
adapted
Ga@@
burg
Ol@@
computer@@
enclosed
Farmacê@@
contract@@
Sus@@
summarises
Cas@@
VIR@@
(International
Tam@@
equip@@
electron@@
Norvir
typically
express
implants
aug@@
ute.
chosen
/dexamethasone
seroton@@
accessible
initially
teleph@@
rooms
whole,
distal
pend@@
Analysis
well-known
Pir@@
individually
ad.
successfully
80%
questions.
specul@@
depth
depend
damaged,
relate
architec@@
amectin
pes@@
Orfadin
word@@
yme@@
effort
B)
puri@@
ot
{Name
{fa@@
Reconcile
Bou@@
chocol@@
deeply
encouraging
accession
twenty
silic@@
lying
puts
recruited
launched
alf@@
s’.
illness@@
ateral
(FR)
sts.
TM@@
systematically
")
volati@@
So@@
50.
ounds
irs
differenc@@
directions
mechanical
respective
OVIST
-off
Frequencies
she@@
sely
propag@@
virtu@@
coverage
safety,
coordinated
ordinary
itted
fulfil
doctor’s
commod@@
É@@
stitute
relatives
generate
Looking
roughly
clinic
fifth
equipment,
safe.
GB@@
scrutin@@
agend@@
poorly
Pen.
Poland
dou@@
observe
Cher@@
Mol@@
Ram@@
ée
Waarderweg
Lyon
Mex@@
part-@@
simple@@
down,
save
subjected
Lisbon
OPAT@@
ori
reserve
thy
Espoo/Esbo
DOSA@@
iter@@
kne@@
bread
definitive
instructions.
intensive
possibil@@
successful,
nel.
zones
family,
eless
May@@
scientific@@
andel@@
tence
Soviet
Belar@@
(alu)
tious
example:
alisation.
bever@@
Union's
traordinary
commodity.
ches,
'?
registr@@
sulphur
retire@@
tonnes,
sidi@@
prices.
successes
mium
p.m.
century
driver@@
cohes@@
ill-@@
modern
agenda.
genu@@
standard@@
agreements
involved,
pers
bought
Afghanist@@
refugees
cheap
marri@@
-one
smil@@
whatso@@
Bis@@
facts
inhabit@@
tobacc@@
fish,
sole
country@@
women's
envisaged
Britain
Muslim@@
volcan@@
sit
Nothing
Greek
home.
ticle
attitude
comprehen@@
olds
cloned
ake,
roads
t!
sentenc@@
autum@@
Has
blame
million,
cadmium
carro@@
ext?
smuggl@@
deal@@
refin@@
said@@
Liber@@
concrete
sense.
barome@@
Cro@@
India
ember,
again@@
Coc@@
murder
a'
seat
envis@@
kidnapp@@
who,
scapego@@
work?
suggest@@
earth
premi@@
paying
result?
profits
strategy
foreign@@
ever-@@
bh@@
ding@@
opol@@
ence?
Did
not?
in?
ments?
ency?
aeroplan@@
age?
tions?
introduce
aircraf@@
4-0@@
market?
(A4-@@
1/98)
/2001):
3/98)
5/2001)
(1)
102
swa@@
gran@@
instead@@
discontinued.
abrup@@
lopinavir/
stopped.
required,
restart
cerebrovascular
3/@@
arms.
anomal@@
stead@@
convulsions,
correspond
(SD)
levetiracetam
pilot
cess@@
ZI@@
circum@@
Luver@@
mem@@
root
(CNS)
opathy,
arotene
rectal
aggression,
58%
event.
enfuvir@@
nodes
des.
Copalia
varying
renic@@
static
Liv@@
durable
long.
homocy@@
sufficient.
3.3
(from
past.
skin).
neonates
MS,
'that
babies
Myozyme
surveill@@
ycin
management,
shock@@
ofo@@
attaches
disab@@
0.02@@
2.5@@
bortezomib
myeloma
zoster
follow-@@
transferases
ZO@@
123
agitation,
omal@@
partially
methotrex@@
501
aspergillosis
baseline.
twelve
metfor@@
NeoRecormon
extravas@@
damage,
(5.@@
(total
intrathecal
ison@@
montelukast
insulin-@@
oV@@
years),
ovascul@@
exacerbations
afungin
understood.
clus@@
Scandin@@
C/@@
dl,
(0@@
monthly
calicivirus
-day
our,
drops
2001,
8%)
documented
(p=@@
(MM@@
profiles
PT@@
-containing
icy@@
1.3
min)
44%
calorie
1,0@@
-fat
Enbrel@@
populations.
aliskiren
Tekturna
arcinogen@@
gate
murine
amine.
antibody.
R-@@
6),
ceftriax@@
conaz@@
inactive.
inhibiting
orlistat
Rem@@
Hypericum
perforat@@
AUTHORISATION@@
learning
plasma.
advances
mechanism@@
Agener@@
Ken@@
ologist
Brussels,
relations
bladder,
sessions
predictable
(up
PRI@@
gol
oration
epith@@
5.2
baby,
provider
oesopha@@
reflu@@
lun@@
predicted
Internet.
Haemophilus
Neisseria
dis
ilis
stream@@
Strauss
trial.
modul@@
ould,
tract.
r,
Labor@@
rency.
lessen
ellular
hepatitis,
upri@@
map@@
Herpes
foli@@
ae,
generalised
adjunc@@
closu@@
presentation
mucous
biotechnolog@@
thrombocyt@@
e.g.
cler@@
nephrotic
SSRI@@
's.
epileptic
ity)
mycophenolate
new-@@
asymptom@@
G-@@
/4@@
ventricular
contacts
newly-diagnosed
or-@@
attempting
vastat@@
randomised,
aer@@
n=@@
valdec@@
paralys@@
jaun@@
cramp@@
adol@@
atic,
icon@@
lipid
medications
exercise,
ria,
conducted.
Long@@
CYP2C9
micronucle@@
foetus.
atrial
lysis
devices
buprenorphine
ascular
ribavirin,
Virafer@@
--------@@
YYYY}
org
Benz@@
ulcerative
ifen@@
diseases)
myopathy,
ocyte
observations
naive
ACE@@
volum@@
syring@@
fluctuations
kidneys.
Macu@@
format
mandatory
hiv@@
disorders),
Gad@@
pale
letharg@@
papil@@
ire@@
oglobin@@
GIST@@
acid.
tired
Houtenlaan
1381
proxim@@
gle
blephar@@
Progres@@
SS)
DOHME
GMBH
4561
2612
Infocenter@msd.
nucle@@
(these
participate
adopt
Tw@@
Emp@@
VI
gricul@@
decreased,
ysis,
Ef@@
tricit@@
SE)
ands,
below@@
dabig@@
transport@@
heartbe@@
attention,
sucrase-isomaltase
University.
over.
pharmaceuticals
TIVE
Potassium
Tél:
Dox@@
02
ARS
Therapeutic
COMM@@
(EC)
oestrogen
alleviate
cirrhosis,
cramps
indop@@
March@@
ane,
stone
TIN@@
Minister
drops,
oprost
ids.
phenyto@@
correct.
Dynastat
rhinitis,
34-@@
ECALTA
farms
Educ@@
Fil@@
Ó@@
182
estonia@gsk.com
667
11-@@
401
hepatic,
interest,
sta@@
Ceplene
tear
tenecte@@
shift
Thrombo@@
elimination.
cium
PV
pox
tissues.
thel@@
Let@@
sidase
childhood
exerc@@
mill@@
mild,
analges@@
wild@@
structures
eudra@@
ires
ach,
berg
heads
acknowledged
exclusively
projects.
Technolog@@
follow-up@@
ecit@@
gluc@@
11%
drugs,
encouraged
rinse
Transfer
epo@@
resolv@@
Panretin
necess@@
scler@@
datab@@
{INVENTED
mothers.
diuretic@@
CA@@
Creat@@
unt
corrected
RIX
DP@@
otropic
Ensure
ally@@
barrels
column
support,
formed,
simplex
explain
intoxic@@
YMDD
follitropin
spreading
calicivirosis
acids,
firmly
Prime
rex@@
caem@@
relapsing-remitting
Aden@@
filgrastim@@
pt
Km
f-@@
inappropriate
7%),
otor
CRF
foref@@
fluctu@@
OD@@
029
341/
NUMB@@
EU/1/99/1@@
ultr@@
tight
Fl@@
phosphok@@
Too
olu@@
trometam@@
histid@@
Examples
compensated
itrac@@
Martin
1995.
ra,
fracture.
Es@@
oud@@
Catal@@
ton,
Bol@@
SUBSTANCE(S)
300@@
ror
per.
Rhinotracheitis
104.9
strains)@@
emo@@
restim@@
attach
Fle@@
handle
burg.
MAC@@
compres@@
Holland
Lat@@
Slovakia
Landstraße
Frankfurt
lactat@@
injection-site
desire
vent
Psychiatric
card.
feet
Hard
gold
green@@
saliv@@
nature.
Enter@@
sulphonylurea
stimulation
utropin
cultures
wind@@
-fe@@
Pet@@
ham,
uro
proceedings
restructuring
blister.
Intrav@@
Journal
England
Growth
kal@@
ifene
ind@@
division
atom
growth.
considers
Subst@@
hyperstimulation
3),
reminded
remembered
Card
Telmisartan
receptor.
ute@@
Cholestag@@
etoric@@
casting
Stand@@
CIALIS
adequ@@
atically
plen@@
visually
crises
fever@@
swallow
suc@@
Gaul@@
breathe
probenecid
5.0
sevoflurane
plasma-derived
disappears.
Estonia,
fibrin
babies.
position.
Sirolimus
Patients)
ermin
irregular@@
Repeatedly
tender@@
Nause@@
iodine
allergies.
John@@
Integr@@
INSTRUC@@
neph@@
Last
Ljubljana
suscepti@@
biom@@
nominal
(0)8
+39
iche@@
AB,
deli@@
regulation,
dedicated
boost@@
vac@@
ski@@
desloratadine
Produtos
utic@@
ylated
hypoc@@
Individual
veness
search
meaning@@
PHARMA
nitrogen
phase.
distribution,
pathogens
resus@@
Nplate
clarified.
alcoholic
azosin
depends
notably
Rit@@
leader
Gam@@
–@@
12%
hr
Leave
solvents
Tritazide
rus
widespread
death,
weigh
prophylactic
ney
medium-sized
donated
preventive
enrich@@
institutional
strug@@
antimicrobial
involv@@
arbit@@
crisis,
Osi@@
helped
Protop@@
requ@@
Slovakia,
labels
lip
aving
ī@@
Latvijā
discovered
restrict
Characteristic,
Neurontin
dure
supervisory
successful@@
ellite
support.
incident
help.
reinforced
Protec@@
males
(7.5
institution@@
iqu@@
arbitr@@
subjec@@
40,
schizophren@@
compart@@
poultry
procedures.
OptiClik.
termed
records
pattern@@
powered
Waste
shortcom@@
maiz@@
sight
jug@@
necessitate
TIN
oked
consumers,
started.
functions
84@@
Malignant
icious
sers
lists
suggested
Psori@@
Twenty
reasonable
marine
spread@@
Vil@@
UK,
rese@@
content,
disturb
learn
account.
dle
íne@@
Israel
vessel
drink@@
PB
generic
However
profil@@
Jer@@
product),
preval@@
frame@@
Thus,
must,
tors.
ran
gul@@
rs,
Il@@
358-@@
squeeze
shi@@
reasons,
home@@
recru@@
authorization
esp@@
Strada
otype
stas@@
street
traces
Stal@@
abroad@@
entally
hn@@
sexually
have,
don
gases
Sander@@
leaving
person,
swine
eck@@
honey
specif@@
relation@@
past,
fitted
(first
plant@@
urity.
sought
crossing
do.
training.
You@@
powerful
erro@@
websites
justic@@
reject
somewhere
lux@@
Nig@@
defe@@
summit
banning
ometer
minerals
solidar@@
club@@
steel
Statistics
fish.
wine-@@
services.
entrepre@@
recycle@@
attacked
technically
ommunic@@
wood@@
him.
lives,
mentioned.
reci@@
pornograph@@
impos@@
discour@@
risks,
cool@@
money.
expectancy
deaths.
barg@@
constrain@@
referendum
methane
packaging,
armed
try,
enthusias@@
disadvant@@
occu@@
nets
aid,
weal@@
hood.
realis@@
writing@@
tach@@
oj@@
technology.
produced.
parliamentary
right,
keep@@
decisions.
Os
acks
Amne@@
alists
tual
year-@@
surve@@
'the
tit@@
drough@@
door@@
fan@@
xenophob@@
said,
terrib@@
tion!
Inde@@
nonethel@@
asylum
directives
university
pesticide
explanation
politically
Shar@@
a!
counter-@@
hang@@
catches
prud@@
metals
independence
success@@
magaz@@
record@@
criticism
Obes@@
tuna
rad@@
tackle
ala
mist@@
able?
Chechny@@
yourselves
wrec@@
Finnish
prev@@
borrow@@
debt
vor@@
seats
yet,
rail
resign@@
kets
listen
ause,
kind.
beautiful
assu@@
Unfortun@@
signat@@
whom?
bio-@@
meat,
talked
en?
sovereign@@
Or,
tomor@@
hear
Nobody
airport
deci@@
nex@@
important@@
Why,
mean?
(A5@@
(A5-020@@
8/2001)
5/97)
sanofi-av@@
sinusitis,
purposes,
pressure@@
two.
alu@@
CONST@@
seve@@
chemi@@
tremors,
virapine
ival@@
agul@@
glycol@@
tissu@@
secretion.
character@@
mann@@
tom
tender
surroun@@
FS@@
treated.
pig
pimec@@
questionna@@
diarrhoe@@
galact@@
tigecycline
safety.
receptors.
recovered
respir@@
regimen@@
urac@@
verte@@
HAR@@
rams
retina
sperm
tipran@@
trough
walk@@
substantially
triglycerides,
prandial
lastic
ring.
vals@@
rimonab@@
temperat@@
tachycardi@@
pic
Offic@@
shops
glucose-@@
blur@@
sion)
ancer
resource
tg@@
dissol@@
polyox@@
off-@@
orient@@
sta
stitial
phy@@
DO@@
includ@@
Dos@@
haemophil@@
recur@@
otrig@@
testing.
peridone
polymer@@
phosphate,
ra.
inium
themsel@@
viable
useful@@
omer@@
skelet@@
--------------------------------@@
rhythm
vacu@@
untary
Hepati@@
oler@@
otechnolog@@
time-@@
aneous
signal
gram
website.
sert
spar@@
Fac@@
fumar@@
solve
een
outcomes.
ecu@@
refrigerator
ussions
treatment:
stom@@
reat@@
Q
alogue
Λ@@
estonia@gsk@@
@merc@@
works.
Ci@@
ts)
thrombocy@@
oglobin
INE
raf
activated
menopa@@
switching
feed@@
orm@@
UTE@@
Intro@@
ticular
antly.
enh@@
permanently
previ@@
onc@@
intramus@@
vom@@
apar@@
residual
osing
Applic@@
prescribing
Consequ@@
bridge
public.
”,
reflected
ib
ovul@@
transpl@@
incre@@
mitting
undergo
rel
oxetine
p)
vasculitis
similar@@
Bot@@
stell@@
ID
working.
ská
ι@@
ret
vägen
NG
select
atropin
realistic
term.
mac@@
locyt@@
Ten@@
Pfi@@
ung
publications
prescrip@@
standardisation
teeth
ë@@
recruit@@
when,
chick@@
ques
anted
survive
Fran@@
acknowledg@@
thrombo@@
tacrolim@@
ply
prescrib@@
accel@@
simul@@
bility
respect.
omen@@
opraz@@
oth
sodium@@
ild
stake@@
vely
ery@@
telephone
subsc@@
reddening
ín
retroviral
sevent@@
scap@@
än@@
Sain@@
prodrug
chec@@
kilog@@
same.
support@@
uste@@
degre@@
ped.
values,
stronger
semi@@
sively
uncertain
counter@@
priorities
ā
proceed
verse
safe@@
psoriasis
Jun@@
Clin@@
bis@@
injuri@@
severe@@
satisfactor@@
sities
propyl@@
yst@@
paraffin
ying.
stage,
rently
circ@@
progress.
ptoc@@
struction
munic@@
Objec@@
´s
speech@@
supervised
specialists
programme@@
reconstruction
vax
synerg@@
tened
radio
resist
uth@@
}>
somebody
suspect
ufacturing
properly,
taining
uble
bub@@
strö@@
percep@@
ward@@
zation
rigorous
phylaxis
trains
Exc@@
ş@@
ti
ă@@
ift
track@@
systematic
suffers
this:
Aug@@
willing@@
strategies
destro@@
youth
worker
worrying
time?
t'
s',
view.
stringent
renewable
vill@@
sold.
rs
shir@@
streets
symbol@@
textile
purchas@@
workers,
quote
remot@@
suppos@@
wning
agricul@@
tion'
prevention,
reperc@@
perpetr@@
transportation
waste@@
stems
udge
said.
obvi@@
scho@@
ty?
fortun@@
suffer@@
se!
search@@
£@@
becom@@
impro@@
viewed
tonne
success.
property
cig@@
peaceful
pure
watching
restrain@@
thered
storm@@
protest@@
rain
vehicles,
village
ties?
saving
scientists
scop@@
voters
æ@@
Ce@@
antipsycho@@
poten@@
metr@@
TA
agit@@
lox@@
sinus@@
ocor@@
sligh@@
opro@@
fam@@
apo
ki@@
alog@@
mater@@
kg/@@
Concer@@
”@@
Medic@@
ment:
ram
conjunctivi@@
BM@@
mon
Hep@@
Lab@@
Haemophil@@
cos@@
corticosteroid@@
inflixim@@
http:/@@
rhyth@@
Pax@@
cef@@
til
icill@@
inuria
Syn@@
calcit@@
(hyper@@
EXUB@@
esp
Í@@
Indu@@
ocial
Colleg@@
arian
straße
tech@@
SS@@
SPECI@@
º@@
surger@@
Eston@@
w.@@
Common@@
ringing
pass@@
azide
creatin@@
quin@@
descri@@
levod@@
Unit@@
Cont@@
Wy@@
partner@@
omat@@
enol@@
netic
biv@@
essive
partic@@
ulo@@
Tru@@
-filled
Associ@@
ximately
Sever@@
lymphocyt@@
NU@@
cents
ld
Tem@@
deliv@@
Alb@@
Gli@@
§
etro@@
β@@
anu@@
sym@@
Combin@@
ild@@
ior@@
ampren@@
RELE@@
THER
ORI@@
cirrh@@
psycho@@
iber@@
fum@@
uring
pub@@
mation
pharmacokine@@
phr@@
ushed
zon@@
thum@@
ycline
mati@@
compul@@
i.@@
180@@
when@@
inj@@
acter
volun@@
tention
supervis@@
GD@@
mass@@
uni@@
compli@@
pers@@
ount
mortal@@
devic@@
tively.
utri@@
--@@
ost
ich,
acces@@
quar@@
forgot@@
Cz@@
Lithu@@
orts
Counc@@
stoc@@
foodstuff@@
fut@@
oms
Palest@@
lav@@
OVI@@
ipraz@@
catt@@
resuspen@@
olan@@
UF@@
AVA@@
ofovir
elecoxib
inic
genit@@
dementi@@
sity
atedly
hepatic@@
auc@@
±@@
Mixt@@
isation@@
f-life
Further@@
inactiv@@
ordination
CCID@@
wise,
submit@@
Tc@@
Post-@@
xi@@
Tev@@
seud@@
ingu@@
glycaem@@
sodi@@
Peri@@
compati@@
proce@@
suspec@@
Agency@@
mail
pren@@
ody@@
ech
π@@
anosine
fficul@@
Dub@@
OptiC@@
…@@
Los@@
à
rine
VAT@@
ococc@@
alum@@
Ε@@
Hamp@@
assemb@@
Kwik@@
concomit@@
rist@@
adj@@
rolim@@
immunoglob@@
ocol@@
include@@
Pul@@
sympath@@
packag@@
oint@@
open-@@
ampou@@
†
Care@@
yethylene
omal
ν@@
386
VANCE
rash@@
reti@@
ž@@
utro@@
AST@@
→
nia,
S).
exact@@
ophil@@
solid@@
wea@@
fent@@
Dev@@
free@@
regular@@
conges@@
Pugh
siglitazone
atard
ffe@@
adily
č
racetam
σ@@
ciclospor@@
ferti@@
entit@@
refrig@@
idom@@
milk@@
scr@@
posed
Sta@@
'-@@
clu@@
supple@@
tivi@@
plung@@
benecid
etal
ulative
add@@
pran@@
manufacture@@
susp@@
ety,
There@@
agement
Luxembour@@
Pu@@
stem@@
Span@@
tern@@
concer@@
logical
REAC@@
enorm@@
proceed@@
answe@@
enty-@@
poul@@
hecta@@
eth
exces@@
exce@@
detail@@
campa@@
a.@@
telev@@
ellit@@
Boe@@
industr@@
mone@@
Israel@@
Octob@@
wo@@
tetan@@
ock
gast@@
rolimus
gastroenter@@
utr@@
9%)
egg@@
inflam@@
p=@@
aconazole
CY@@
wered
sess@@
NAME@@
genital
resi@@
rants
ascul@@
econ@@
degener@@
Af@@
04@@
XX@@
Atri@@
asal
Trac@@
Prepar@@
ύ@@
your@@
anos@@
neutropen@@
endoc@@
lax@@
Potassi@@
cular
Ple@@
urit@@
wel@@
aven@@
45@@
sle@@
valosin
osinophil@@
odium
vigil@@
Β
OG@@
bum@@
headach@@
iris
haemorrhag@@
rough@@
swit@@
Opin@@
Tracle@@
ren
defenc@@
regres@@
PT
Pati@@
Stra@@
ê@@
lin
♦
INVENTED
gene@@
arcom@@
patch@@
malign@@
zapine
odynam@@
ific
rece@@
inclu@@
Effentor@@
entary
ib.
itate
clud@@
grav@@
tival
angu@@
bal
inver@@
fer
Med@@
solvent@@
distur@@
lish
Acl@@
sorbit@@
sam@@
egal@@
typ@@
ī
squeez@@
leth@@
oled
excre@@
princip@@
anaes@@
ond
plate
pril
mab
dish
scheme@@
Rus@@
cel@@
preci@@
ė
Harmon@@
hood
stead
ven
uniform@@
withdra@@
First@@
semin@@
beli@@
vest@@
tivel@@
exha@@
vulner@@
Mediterran@@
antic
necessar@@
mber
legis@@
mend@@
fundam@@
attit@@
Infl@@
ially
Palestini@@
Sept@@
promot@@
dings
Ombud@@
sump@@
preh@@
thly,
prob@@
oS@@
Org@@
Imp@@
(EMEA@@
Trizi@@
initis,
oci@@
BYET@@
cytar@@
percent@@
phylax@@
emplo@@
monteluk@@
tim
lopin@@
placebo-@@
antibodi@@
summar@@
herpes@@
Kep@@
has@@
γ
Leafle@@
YYYY@@
Aran@@
parenter@@
perid@@
Incre@@
europa@@
menopausal
exclu@@
REYAT@@
painf@@
incontin@@
psori@@
lansopraz@@
Sci@@
aviren@@
noe@@
lin.
orr@@
²
TRA@@
esopha@@
iness@@
Ρ@@
VIRACE@@
usu@@
phylactic
Solo@@
adoles@@
tid@@
munolog@@
NR@@
misartan
achi@@
½
Kine@@
lifer@@
barrel@@
ilep@@
poetin
º
crush@@
citabine
20)
adjustment@@
ή@@
Tηλ@@
Pack@@
SUBSTANCE@@
ï@@
Mul@@
myal@@
sudden@@
PHAR@@
flush@@
tog@@
SY@@
cyan@@
pathogen@@
ariat
vacc@@
rastim
methox@@
bral
AI@@
°
udin
efaviren@@
je@@
Sc@@
uv@@
acavir
ί@@
traindic@@
etine
alidom@@
dulox@@
roph@@
barri@@
idov@@
ife@@
epide@@
Pel@@
feat@@
residu@@
eva
Zi@@
ife
artan
correspon@@
iconotide
Denmark@@
/Tel:
fore,
sz@@
froz@@
forg@@
spring
Joh@@
agon
vel
Τ@@
antly
alogu@@
widespre@@
incin@@
udg@@
gun
survi@@
controver@@
stak@@
LIF@@
princi@@
refu@@
NAT@@
conv@@
migrants
inev@@
annel
eful
ag
refe@@
ided.
agrap@@
compani@@
Every@@
Third@@
о@@
wik@@
omi@@
Tac@@
adin
whil@@
perpe@@
ventric@@
Trudex@@
polys@@
(1,000@@
Luc@@
idog@@
inyl
tast@@
Anim@@
≤@@
laz@@
graph@@
AUTHORI@@
otec@@
cispl@@
exacer@@
interv@@
INI@@
(HD@@
erythropoie@@
glycaemia
tigec@@
ww@@
pram@@
oglob@@
exacerb@@
hyperten@@
ulinum
menstr@@
Barcel@@
Recom@@
aryng@@
cartridg@@
stim@@
ïve
agulation
Ano@@
Ques@@
SL@@
corne@@
vast@@
Eg@@
Asp@@
oter@@
ameth@@
ether
RISPERD@@
neutro@@
monit@@
cortico@@
yeth@@
Gastro@@
bour@@
15/
ents:
onazole
{month@@
ο@@
HOL@@
eve
Cardi@@
antimic@@
icul@@
Espo@@
Frequ@@
EMENT
muc@@
ye
˚
inadequ@@
ges@@
Depart@@
imumab
Swe@@
oside
accord@@
Candi@@
Neverthel@@
understo@@
atric
ococcal
Karve@@
(MAO@@
STR@@
mysel@@
ã@@
š
lotinib
opa
cholester@@
Ade@@
predomin@@
osin@@
hazard@@
accharide
ancyt@@
espec@@
amination
aspec@@
urity
lafaxine
Febru@@
Å@@
udi@@
enrol@@
avo@@
pyl@@
anhydro@@
Oper@@
Portug@@
sus@@
Beta@@
ata
wip@@
distribu@@
Republic@@
Main@@
st-@@
69800
Ø
ite,
vitamin@@
Sandw@@
laan
TERI@@
Subjec@@
colum@@
tish
Frank@@
fare
ross
oric@@
hygi@@
risk-@@
hund@@
Govern@@
belong@@
;@@
awaren@@
â@@
ury,
debate)
à@@
resp@@
lf@@
consi@@
stret@@
vie@@
preven@@
chos@@
techn@@
howe@@
may@@
lantic
poor@@
Dut@@
Amend@@
Accor@@
Isra@@
(A4@@
cis@@
natal
impai@@
trium
marro@@
idis@@
Induct@@
rite
UMA@@
ERA
stitu@@
Prot@@

________________@@
dial
essor
iden@@
ICAL
ification,
stav@@
TING
chemo@@
aglip@@
Develop@@
EXJ@@
omegal@@
onary
litaxel
eding.
alkonium
ectin
spondyli@@
ος
oclon@@
Syndro@@
micron@@
Strasbour@@
dated
W)
thereaf@@
ocy@@
Thro@@
istax@@
ped,
Μ@@
Stock@@
tase
tiva
otinic
physici@@
Opti@@
analogu@@
forec@@
cic@@
vomit@@
dicated
Nob@@
Viraferon@@
lix
ording
anium
eletal
forme@@
nolog@@
----@@
ampoul@@
estro@@
η@@
Alduraz@@
Calici@@
PE)
tite
prurit@@
YO@@
NA
tus@@
hepati@@
Neo@@
pation,
pha@@
terat@@
HAT
STI@@
epis@@
Kiv@@
monary
BeneF@@
Injec@@
SPRYCE@@
monito@@
cholin@@
å@@
Tob@@
19,
func@@
blad@@
Frankfur@@
ς
triax@@
flur@@
modifying
fovir
Slo@@
gue,
γ@@
ority
Prac@@
Adul@@
Phot@@
logic
rency
-on
tron@@
Ultr@@
beha@@
nex
bon
cimeti@@
did@@
ylene
dun@@
Num@@
τ@@
precis@@
bod@@
lithi@@
ammadex
ateg@@
itreal
circumst@@
flec@@
Malign@@
ycl@@
ć
Prim@@
ERS
trache@@
double@@
ο
Characteris@@
side-@@
suring
danger@@
Slovak@@
tting
ey
Roy@@
bov@@
circumstanc@@
EUR@@
Bul@@
wee@@
ively
element@@
kid@@
example@@
invas@@
ults
bureaucrac@@
highligh@@
ophob@@
hou@@
ultim@@
leagu@@
itiz@@
neverthel@@
stly
sity.
uly
HO
tably
Merc@@
this@@
alia
ego@@
/98@@
decid@@
Amon@@
scen@@
igh
ephal@@
Effec@@
STELAR@@
duct@@
e.@@
ledg@@
AMMONAP@@
consecu@@
sche@@
TRISENO@@
(CN@@
Exta@@
____@@
Other@@
Statis@@
ADE
Remic@@
pheny@@
Improv@@
Whar@@
MIR@@
mellit@@
alyse
epistax@@
-site
edema
ambris@@
Simul@@
ogn@@
lish@@
dexameth@@
hydrate,
imin@@
Farmac@@
……@@
aryn@@
Ran@@
GR-@@
irub@@
Scal@@
Econ@@
Α
ffec@@
ousness,
conjunc@@
calcaem@@
ited,
Tab@@
phil@@
omime@@
MINI@@
ents)
broach@@
κ@@
θ@@
lyn
Import@@
HV
YP@@
uctu@@
tec
ė@@
Copenha@@
candidi@@
Repub@@
Kap@@
Plac@@
·
Chole@@
brel@@
Diacom@@
arthro@@
(90@@
const@@
antibio@@
edrine
terfen@@
remitting
teluk@@
ocardial
sulphon@@
ercul@@
s)@@
duce
ditional
cloud@@
ε@@
CRI@@
technolo@@
Liet@@
erythropo@@
uration
arch
CA
zem@@
oephedrine
flurane
tigotine
litax@@
clum@@
heum@@
sulphonyl@@
glucocortic@@
das@@
spectr@@
usi@@
imesul@@
entec@@
Mab@@
Synag@@
Vimp@@
ô@@
(VTE@@
Thyro@@
ethn@@
encour@@
perat@@
Individu@@
afil
Luxemb@@
allevi@@
eutical
adone
contra@@
stac@@
MERI@@
vil
\@@
@msd.
dispens@@
redden@@
Bay@@
DER
Ö@@
Sebiv@@
Doh@@
ricul@@
Cho@@
VER
ELI@@
p.@@
RESPON@@
÷
Š@@
go,
ä
iterran@@
EMA@@
opha@@
ionally
flic@@
fore.
miner@@
neigh@@
Iris@@
inth
antine
techno@@
behin@@
cyc@@
ferry
fications
what@@
discar@@
amph@@
careful@@
&@@
simp@@
restructur@@
vely,
valuation
artific@@
ń@@
thous@@
Avi@@
environ@@
concre@@
iring
sel
livest@@
Rou@@
democr@@
nil@@
osk@@
т@@
е@@
leveti@@
ropin
aspergill@@
matory
pioglitaz@@
lorat@@
MabTher@@
somno@@
Levem@@
rein@@
disoprox@@
More@@
intrathec@@
papular
GANFOR@@
behavi@@
Investig@@
yli@@
NutropinA@@
perman@@
Multi@@
substitu@@
ternal
mouth@@
digo@@
Tu@@
diabet@@
CH
LI
Epi@@
Σ@@
Ε
lodip@@
ormone
(hypersensitiv@@
Nerv@@
xin
King@@
XA
CCI@@
stered
carbo@@
©@@
EMEN@@
MIRAPEX@@
TRAVAT@@
ADRO@@
remembe@@
Inte@@
Nether@@
ples
mail:
Psych@@
onance
δ@@
hring@@
Chlamy@@
Fir@@
alu)
film-@@
™
Fax@@
ecte@@
Capsu@@
Č
race@@
Hand@@
anal@@
hia
inistry
Produ@@
Rese@@
embolic
CIAL@@
otes
ASC@@
esul@@
exa
ABILIF@@
suscep@@
Sign@@
ł
ASE
Depo@@
φ@@
λ@@
GlaxoSmithK@@
Emsel@@
bepoetin
fibroz@@
∞@@
olab@@
siglit@@
®@@
Prome@@
illed
auto@@
Resist@@
lafax@@
vented
panleuc@@
lamy@@
Yondel@@
Temod@@
posite
IONSY@@
legi@@
cophenol@@
CHAMP@@
sucr@@
drow@@
diag@@
microsphe@@
known@@
aline
antico@@
plasma@@
OptiClik@@
strum@@
Winthro@@
·@@
oeph@@
Land@@
listat
phylac@@
Nut@@
esti
loo@@
bo
Nag@@
Rib@@
elines
REN@@
disinfec@@
Sin@@
brou@@
lika
INFORMA@@
357@@
amus@@
phther@@
cial
zer
Ο@@
itarian
cad@@
Jour@@
Afgh@@
bably
supp@@
Peop@@
maj@@
peop@@
å
cil
espre@@
commer@@
vention
sory
aband@@
gh
demon@@
veter@@
orge
rying
firm@@
poe@@
­@@
ő@@
gn
Aust@@
juven@@
inn
Fig@@
Deutsch@@
newly-@@
experti@@
Gover@@
comit@@
damag@@
bey@@
om?
attribut@@
ý
sust@@
smug@@
Techn@@
с@@
RIST@@
molecu@@
erythropoies@@
~@@
toge@@
≥@@
belo@@
mol
ALTA
________@@
immunolog@@
gastro-@@
p-@@
maculo@@
Experi@@
oped
Peg
Intron
bli@@
etax@@
ORENCI@@
Puh@@
topotec@@
Prad@@
eczem@@
oden@@

SINGUL@@
amples
Φ@@
Ι@@
Υ
Tall@@
Vom@@
ider@@
gly@@
Laborato@@
fractory
DuoTra@@
SPE@@
VEN
perc@@
Scienti@@
pim@@
arcel@@
DRE@@
STE@@
echan@@
EU/1/06/@@
EU/1/07@@
EU/1/99/127@@
{MM@@
ße
MANUFACTURE@@
ń
OptiS@@
inc
ð@@
CYP1A@@
lixim@@
ERD@@
Glax@@
otroph@@
Meier
tez@@
pertus@@
Public@@
viron@@
benec@@
travir@@
travirine
tolcap@@
isations
Telz@@
vet
Pelzon@@
Tredap@@
Trevac@@
m-@@
antid@@
oblast@@
(AID@@
atazan@@
30-2@@
cles
USE@@
kiren
transcrip@@
uss
Jans@@
Š
Ripraz@@
Sprime@@
prenorphine
ronic
ified.
sevo@@
orrhe@@
sized
Cyan@@
brea@@
afung@@
Leu@@
35/
Disk@@
Preg@@
overy
rivas@@
uric@@
tezomib
dispersible
milest@@
ediatric
pronounc@@
Stud@@
ood
aviroc
ourc@@
ADR@@
asy@@
uated
∞
tam
oclonal
e(s)
CELSEN@@
erv@@
ugre@@
nause@@
HEX@@
brad@@
syndro@@
okinetic
salicylic
Apro@@
ß
fav@@
calori@@
ω
@gsk@@
-av@@
fibro@@
Lipro@@
sulin
neum@@
174
Mix
dema@@
@ms@@
Ä@@
Den@@
hoe@@
▲
○
υ@@
atoid
ę@@
ible@@
MATERIAL@@
VED
Commit@@
Pub@@
KE
CEL@@
AIR
napp@@
affin
ţ@@
9N@@
ems
zlo@@
gies
tres
ηλ@@
heim@@
subsequ@@
Inj@@
abap@@
ι
ribed
exac@@
accum@@
estic
rimon@@
MAG@@
bles
Ν@@
beauti@@
ř@@
redi@@
oking
risti@@
adel@@
aur@@
stering
afra@@
tition@@
recy@@
ounc@@
ted:
illy
fric@@
rigo@@
ysel@@
ige
attri@@
ś@@
envel@@
arle@@
ques@@
goti@@
/199@@
asper@@
offe@@
amps
effectiv@@
lot@@
Categ@@
requi@@
Zim@@
absolut@@
dless
в@@
ш@@
л@@
bA1@@
Yttrig@@
Transfer@@
alog
HPV@@

IG
tremor@@
FIN@@
tachy@@
ingent
inhib@@
MRL@@
heimer
inogen@@
GONAL@@
Tlf@@
allucin@@
Wed@@
taneous
Ü@@
gsk@@
xen@@
cluded
gal
glit@@
Fastur@@
Combi@@
cipi@@
Netherland@@
Prequ@@
ext
EU/1/98/069@@
EU/1/98/070@@
categ@@
pipet@@
λλ@@
ύ
û@@
ö
MANUFACTU@@
RING
‡
‡@@
overed
CYST@@
él@@
repub@@
Ã@@
lobin@@
ulocyt@@
chromos@@
bloc@@
ADMINIST@@
CEPRO@@
′
phosphon@@
pregn@@
†@@
`
DISP@@
Symptom@@
tico@@
OD
riz@@
odynamic
magnit@@
ý@@
±
ONAL@@
otrex@@
endron@@
HMG-Co@@
(90Y@@
agliptin
ņ@@
HUMA@@
Cetro@@
Eff@@
Authorisation@@
hol
ORACE@@
fruc@@
otinib
NSA@@
glycol-@@
Naglaz@@
zonis@@
ř
medium-@@
Cepl@@
oriconazole
1,000@@
likely.
Fast@@
MEDIC@@
ozyme
tose
ticles
isomaltase
diffe@@
Ñ@@
intran@@
enous
fuvir@@
enox@@
alysis
eez@@
Sloveni@@
odiazep@@
plement
orphine
elet@@
SUB@@
Neoc@@
idogrel
TORI@@
disease-@@
yrinth
ylac@@
euticals
VISTI@@
Isc@@
aesthes@@
AZ
Pradax@@
odic@@
mary
Inflam@@
SON
ofi-av@@
ς@@
Π@@
ę
Parkin@@
tol
FIR@@
ş
Zyr@@
ieve
ägen
µ
ţ
Accid@@
Ljublj@@
organiza@@
epider@@
Cop@@
aste
Ingel@@
TED
Stockhol@@
Nonethel@@
transcri@@
Haarle@@
otene
ό@@
ω@@
Τ
vents
Glob@@
otine
enthusi@@
eon
atislav@@
prime@@
pha
decre@@
EC)
rison@@
intel@@
era@@
vival
periodic@@
ć@@
riving
utsch@@
twel@@
heim
Kos@@
pron@@
manufact@@
vote)
ň@@
én@@
Madri@@
indu@@
Ther@@
philos@@
dab@@
reg
ź@@
Ó
ë
elop@@
Alco@@
onia@@
€@@
asyl@@
sovere@@
None@@
strate@@
ż@@
ą@@
inux
threatening
#@@
auti@@
tric
rheum@@
Wom@@
pro
/99@@
è
chall@@
thusi@@
œ@@
Bene@@
Seri@@
ree
referen@@
accompani@@
Finn@@
ingly.
Qual@@
/13@@
cauti@@
utin@@
entor@@
Absol@@
onium
ч@@
а@@
н@@
и@@
BAT@@
oglitaz@@
ataz@@
`@@
THORI@@
pared
Assess@@
TENT
rocur@@
ogly@@
http:@@
/ww@@
angiot@@
bA1c
Sver@@
psy@@
chole@@
tenance
Uk@@
honia,
cresol,
estonia@@
ABI@@
Elim@@
ipexole
«
»
Philadelph@@
HMG-@@
sud@@
sing-remitting
EU/0@@
FORMA@@
ϖ
ό
tte
GlaxoSmith@@
forme
alluc@@
Inhib@@
shock)
chlo@@
Pegas@@
Fung@@
∗@@
OL-MYERS
Þ@@
þ@@
ð
sen-Cilag
ustin
ε
Χ@@
ά@@
ergill@@
gonad@@
lospor@@
(CHM@@
viro@@
,200
DepoCy@@
PROD@@
Fuz@@
wel
∅
buric@@

abdomy@@
cetiriz@@
recombin@@
Latvij@@
ņ
δ
ophila
Yt@@
membe@@
oblastic
anyl
anrix
χ
ovascular
Dynast@@
Erbit@@
Vectibi@@
Lj@@
ż
progenit@@
metab@@
@@
YET@@
Psy@@
²@@
TESLASC@@
Smo@@
delto@@
swol@@
so-@@
Atripl@@
awa
rhabdomy@@
neti@@
„@@
Lietuv@@
Indin@@
comitant
ux
Ġ@@
Č@@
õ@@
Ljub@@
apt@@
WAL
AUTHORISA@@
culosk@@
#
FORE
YY@@
↑
@
Novar@@
Ø@@
³
-1),
ocortic@@
FeL@@
έ@@
Β@@
Polys@@
Ê@@
Ελλάδ@@
Αγ@@
wder
entin
ource
tibi@@
MATERI@@
Neul@@
Tevag@@
SIBLE
RY@@
OPTI@@
OLOG@@
BH
Photosensi@@
·
Vec@@
Ş@@
ă
ň
REY@@
izophren@@
fficacy
drowsin@@
somnol@@
CYSTAG@@
appetit@@
♦@@
MIRC@@
zin
sphe@@
(glucos@@
acco
itec@@
sbo
o/Esbo
throm@@
Impri@@
§@@
hringer
reich
ovigil@@
Trit@@
OLOGICAL
ANCE@@
athec@@
ZYP@@
tware
Signific@@
(EPAR@@
È@@
™@@
entre@@
asta
WIT@@
Θ@@
Γ@@
μ@@
Σ
Ι
Υ@@
RISP@@
Suspen@@
stren@@
ì@@
Sust@@
Star,
lotted
chrome
Chechn@@
ureauc@@
Neis@@
conj@@
inte@@
ember
¹@@
Ţ@@
ď@@
STAT@@
dema
alop@@
posit
BAS@@
porno@@
accompan@@
electr@@
318
ő
acom@@
comput@@
¡@@
Grow@@
Inv@@
î@@
Ő@@
mith@@
ǐ@@
eep
ï
Ô@@
Ï
Fro@@
olan
ǎ@@
spap@@
Sovi@@
CHA@@
irc@@
forge
Tek@@
ould
otrop@@
Suomi@@
absol@@
Summ@@
fres@@
hys@@
civ@@
$
1):
iltr@@
ò
dund@@
Rep@@
sol,
crimination
Alzheim@@
Afghan@@
hered@@
ì
recomm@@
metam@@
$@@
extrav@@
phan
ò@@
ù@@
pendit@@
Lith@@
cile
lj@@
procedur@@
structions
ffic
€
parently
isms
fore
okine@@
porte@@
О@@
о
в
п@@
lens@@
portun@@
STRUC@@
ķ@@
liam@@
Ž@@
syru@@
very@@
fic
Pak@@
ü
Д@@
б@@
р@@
е
д@@
Т@@
ы
ь
у@@
к@@
й
а
з@@
ь@@
minimis@@
