<blank>
<s>
</s>
de
la
et
les
des
le
à
en
du
est
une
que
dans
un
pas
ou
par
pour
a
être
ne
sur
au
été
qui
sont
vous
ce
plus
(@@
avec
chez
patients
-
d'@@
ont
Les
Le
il
doit
aux
peut
ces
Si
er
se
traitement
l'@@
votre
si
,
La
Une
l’@@
.
é
cette
cas
e,
d'une
e.
d’@@
Un
in@@
comme
Pour
On
y
ée
1
n'est
mg
après
d'un
ent
-@@
doivent
és
mais
Vous
•
dose
S@@
L'@@
deux
1/
ant
moins
on
ez
EU/
es,
également
)
leur
?
es.
taux
fois
"@@
Par
même
e
ation
avant
ées
médicaments
Il
non
peuvent
risque
s
fait
2
tout
:
s@@
effets
es
T@@
était
elle
avez
pendant
nombre
3
soit
M@@
sans
B@@
P@@
n'a
utilisé
son
t@@
entre
médecin
européenne
e@@
système
d'autres
re@@
comprimés
faire
d@@
10
g@@
aussi
ré@@
sous
%
D@@
rapport
/
Commission
autre
o@@
solution
b@@
dé@@
Rapport
mise
(voir
médicament
Dans
très
cours
A@@
indésirables
R@@
C@@
o
c@@
rubrique
@@
cela
G@@
F@@
5
Toutefois,
bien
donc
s,
sera
).
marché
pays
contre
études
produit
N@@
é@@
personnes
prendre
er@@
En
produits
al@@
4
l@@
dont
ement
autres
L@@
n@@
ti@@
i@@
jour
t
orale
traités
tous
DE
6
A
di@@
ait
en@@
h@@
ons
on@@
E@@
V@@
v@@
r@@
qu'il
m@@
niveau
ch@@
s.
H@@
p@@
avoir
),
Des
f@@
at@@
Pourquoi
données
er.
Ne
ayant
ainsi
que,
s'@@
2@@
K@@
;
trois
type
5@@
enfants
ses
augmentation
ine
or@@
te
am@@
ation,
k@@
temps
Nous
é.
i
ans
Tout
afin
toute
présentant
4@@
is@@
000
3@@
Voie
I@@
ag@@
ar@@
exemple,
lors
!
«@@
elles
é,
groupe
travail
ils
50
as@@
al
ad@@
ml
femmes
ée.
où
»
maladie
nous
7
im@@
a@@
mesures
ation.
age
mois
an@@
étaient
n'@@
certains
informations
os@@
ET
y@@
és.
er,
chaque
je
conséquent,
symptômes
ri@@
forme
atteints
site
«
eur
L’@@
prise
alors
Que
étude
ations
peu
sa
1@@
toutes
06/
effet
que.
8
100
mg/
it@@
ac@@
6@@
7@@
ants
nécessaire
santé
encore
par@@
devrait
association
sécurité
8@@
30
tr@@
doses
pourrait
e?
voie
Mais
es@@
utiliser
fonction
om@@
tant
ée,
l'Union
e)
réponse
z@@
raison
l'utilisation
ceux
ex@@
an
contient
faut
op@@
u@@
virus
jusqu'à
semaines
première
pris
in
membres
manière
eurs
d
/@@
co@@
leurs
période
O@@
êtes
États
20
ol@@
eux
point
vi@@
jours
+
ent@@
a,
ap@@
base
aucun
résultats
era
9
administré
ale
hépatique
troubles
concernant
si@@
tes
15
aucune
ques
12
aires
n'ont
Selon
és,
problèmes
aire
–
aient
ni
exemple
patient
important
ou@@
li@@
car
toujours
el@@
question
flacon
terme
contrôle
millions
00/
heures
compris
qu@@
ab@@
ées.
développement
Tel:
9@@
l'un
x
mesure
25
l'
devez
CAS
rénale
déjà
st@@
seulement
maladies
on.
ite
conditions
ante
compte
ère
us
con@@
ci@@
Tous
ement,
ét@@
J@@
lorsque
DANS
ques,
substances
et,
pré@@
perfusion
re
tels
40
insuffisance
étant
il@@
façon
anti@@
.@@
d'
vos
diminution
tu@@
M.
el
animaux
g
ra@@
eu
et@@
long
réduction
EST-IL
bi@@
durée
contenant
cliniques
trop
S
ité
me
seront
e:
possible
partie
devra
ni@@
ine,
ér@@
U@@
C
pr@@
r
ement.
QUEL
cas,
clinique
lait
QUE
mi@@
l
0@@
recommandé
l'on
Sur
d’une
Lorsque
tel
Quelles
j@@
sur@@
réactions
24
ent.
production
ver@@
fi@@
ant@@
montré
depuis
surveillance
d’un
De
pa@@
quatre
active
voir
Conseil
ir@@
quel
per@@
vie
européen
ques.
DES
recommandée
u
cellules
besoin
notice
n’est
car@@
au@@
faible
ements
c'est
pouvez
réduire
mis
QU'EST-CE
"
Quel
nouvelle
on,
dis@@
infection
risques
av@@
n
qu'@@
pl@@
stylo
l'administration
population
ance
20@@
notamment
immédiatement
su@@
particulier
ales
E
semaine
injectable
certaines
place
selon
us@@
ie
B
pi@@
peau
aire,
administration
ot@@
pro@@
w@@
personne
ées,
n'y
inter@@
s'il
telle
celle
aire.
disponibles
ell@@
14
qu'une
s?
UTILISE
fin
mé@@
Z@@
ers
T
facteur
able
nouveau
ine.
l'in@@
ents
poids
m
procédure
présente
substance
cadre
avait
10@@
syndrome
tri@@
concerne
jamais
qualité
60
end@@
gu@@
questions
usage
s'est
injection
h
principe
seul
soient
plusieurs
al,
croissance
13@@
groupes
protection
W@@
lieu
traiter
vaccin
is
eur@@
min@@
a.
0,@@
pharmacien.
ur@@
s’@@
telles
humaine
traitement.
posologie
ables
l'efficacité
al.
reçu
tique
ent,
moyenne
actif
cet
celui
lui
mettre
sang
souvent
événements
douleur
recherche
Toutes
utilisation
è@@
vue
suspension
matière
Votre
qu'elle
ph@@
formation
e-@@
réaction
grand
ant,
em@@
ul@@
cl@@
f
for@@
te,
concentrations
az@@
x@@
sujets
ens
d'A@@
te@@
ans,
ill@@
quantité
reste
".
pouvant
rapportés
ro@@
ans.
id@@
mon@@
2.
parce
cour@@
e),
quelques
charge
décision
c
importante
pression
environ
th@@
seringue
ant.
ate
moyen
suivi
e).
tion,
signes
ale,
18
vers
cr@@
perte
cu@@
<
ale.
oc@@
ite,
œ
ec@@
mar@@
tion
iss@@
serait
pouvoir
problème
cinq
un@@
donné
able.
L'utilisation
savoir
particulièrement
ts
Par@@
sé@@
l'objet
=
ser@@
demande
ob@@
qu'un
In@@
l'étude
enti@@
300
mo@@
».
ines
sévère
es?
es)
essais
utilisés
de@@
du@@
t,
d’autres
entraîner
valeurs
19@@
com@@
d'insuline
15@@
200
quand
14@@
ence
ique
te.
én@@
jour.
existe
11
présence
seule
nouveaux
bon
oi@@
bl@@
anticorps
mois.
contenu
fl@@
cou@@
laquelle
eur,
ais
ter
nouvelles
sein
70
médecin.
durant
Al@@
jeunes
eur.
ml)
humain
cancer
qu'ils
200@@
%.
gi@@
all@@
liste
%)
début
aires,
yl@@
-il
isation
ten@@
beaucoup
res
ente
EN@@
enfant
(A4-0@@
trans@@
17@@
ai@@
Peu
date
n’@@
LES
l'UE
at
âgés
d'ex@@
total
16@@
adultes
els
actuellement
programme
gr@@
(A5-0@@
valeur
ité.
P
éviter
l'aide
efficace
partir
tion.
el,
ati@@
Y@@
poudre
80
>
and@@
prenez
fer@@
patients.
consommation
onn@@
caractéristiques
mieux
traitements
ations,
(par
suite
ères
uniquement
199@@
région
Qu'est
placebo
graves
notice,
activités
fin@@
Néanmoins,
1,
antes
termes
lu@@
Troubles
va
indiqué
unique
Lors
ins
certain
instructions
R
UI
l'autorisation
Europe
00
moment
concentration
six
mes
modification
nombreux
premier
tolérance
processus
AN@@
plan
3,
composants
té
1,@@
o-@@
bonne
port@@
utilisée
anti-@@
évaluation
É@@
comprimé
ons-nous
et/
phase
concomitante
points
IN@@
l'Agence
information
um@@
sait
ir
vo@@
RE@@
%,
hyper@@
se@@
aux.
tests
augmenter
k
ach@@
val@@
I
administrée
boîte
devient
l'A@@
qu’il
généralement
gestion
eau
dès
ensuite
contact
75
e;
observés
trait@@
cause
Re@@
):
domaine
D
t.
eurs,
pos@@
ence,
es:
sou@@
-ce
hy@@
responsable
déchets
Veuillez
ase
position
os
*
permettre
Mme
facteurs
indésirable
erait
Parmi
16
principal
as
possibilité
res@@
règlement
ez-vous
d'utiliser
né@@
comité
éri@@
cré@@
eu@@
él@@
28
en,
cor@@
aires.
prises
ons,
INFORMATIONS
nécessaire.
hypo@@
21
élevé
tions
hé@@
situation
Plus
N
traité
pu@@
infections
différents
ages
um
zone
,@@
am
suivant
Royaume-Uni
la@@
France
est@@
présenté
donner
ants,
avaient
M
ue
ation@@
remarquez
)@@
rapidement
int@@
is,
ance.
che
[@@
hommes
Qu@@
mal@@
sol@@
Quelle
/2001)
méthode
in,
d'administration
lis@@
fu@@
18@@
hi@@
recevant
grave
tin@@
euses
l'ex@@
ol
enne
ov@@
pharmacocinétique
rares
ante.
changement
rée
ose
ter@@
ations.
Effets
peut-être
rôle
ants.
spécifique
form@@
2,
ve
X@@
dernière
convient
12@@
dit
avons
VI@@
capacité
observée
d'évaluation
insuline
ég@@
plupart
cul@@
critères
volume
permet
flacons
transport
l'enfant
soins
col@@
alis@@
inhibiteurs
ins@@
35@@
années
cal@@
puis
régime
ités
one
Ch@@
règles
attention
A,
jour,
action
chronique
ani@@
zones
autorités
présent
37@@
trouble
souffrant
4.4).
corps
aux,
sous-@@
2,@@
ité,
ais@@
aide
chlorure
particules
ribavirine
b
internet
its
enn@@
dernier
rapide
no@@
mentionné
30@@
28@@
parlez
quelque
is.
age.
por@@
AL@@
ateur
recevoir
po@@
l'é@@
Très
Toute
tiques
pourra
O
trouve
eux,
el.
sub@@
my@@
ons.
ic@@
Monsieur
comment
dème
modifier
actu@@
gl@@
ru@@
détaillées
produit,
importantes
appar@@
conduire
provoquer
vol@@
activité
n’a
Mar@@
pourraient
ven@@
ble
Titulaire
ailleurs,
supérieure
bu@@
significative
13
ateurs
clairement
ment
poly@@
véhicules
des@@
mal
référence
conséquences
systèmes
d'informations
AVANT
",
able,
50@@
ali@@
iv@@
sion
br@@
pour@@
d'insuffisance
ari@@
dés@@
bles
fication
ing@@
cartouches
veuillez
lire
signifie
voies
atteint
-2@@
utilis@@
ris@@
dou@@
str@@
titulaire
elle,
â@@
age,
ass@@
QUELLES
25@@
initiale
état
(E@@
cit@@
membre
année
eux.
fréquemment
contrôl@@
plus,
SONT
e!
ies
deuxième
fréquence
AR@@
prévention
2,5
libération
personnel
susceptibles
relatives
due
(P@@
ligne
conformément
ère.
0
l'état
parfois
réduit
allergique
TI@@
nécessaires
LE
médicament,
Con@@
d'injection
administr@@
inhibiteur
kg
quelle
e/
pas@@
ance,
récemment
Quand
face
critère
ie,
elle.
ess@@
ra
tés
dispositif
S'il
projets
aut@@
en.
+@@
test
ca@@
douleurs
bo@@
eurs.
potentiel
56
ment@@
alité
CONNAITRE
Or,
totale
ox@@
médicament.
cin@@
ence.
métabolisme
bou@@
qu'en
►
dû
http:
rou@@
s:
ar
droit
ve@@
AS@@
pharmacocinétiques
ats
protéine
modifications
disponible
solvant
Patients
lo@@
demandez
der@@
observé
od@@
cas@@
limite
mor@@
pu
augment@@
bénéfice
uni@@
ig@@
Y
in.
prolongée
parti@@
UI/
cé@@
ce@@
Pas
Winthrop
Trois
Son
0,5
spécifiques
400
médi@@
passage
LA
ang@@
ak@@
eront
L'administration
a-t-il
liés
présentent
rés
an.
22
Parlement
passer
of
solutions
Eesti
raisons
/97)
p
parler
placebo.
plasmatiques
d'in@@
délai
ori@@
emea.
euse
import@@
celles
AC@@
(S@@
isme
liées
ances
ge
rec@@
l'effet
chi@@
48
l'arrêt
parmi
s-@@
abl@@
sodium
contr@@
Pendant
éléments
N'@@
vaccination
développer
général
non-@@
'@@
500
»,
immunitaire
it,
analyse
our@@
l'insuline
semble
autorisation
femme
devront
prix
Où
nécessité
it
ren@@
ev@@
surface
ME@@
soutien
me@@
Teva
quant
Comb
soci@@
ritonavir
maximale
(A@@
me,
l'activité
cent
rel@@
vis@@
directement
fonctionn@@
gar@@
L'objectif
survenue
oph@@
ise
cependant
A.
600
d'efficacité
mécanisme
CHMP
propositions
Qu'@@
associées
27@@
difficultés
UK
man@@
l'ensemble
Ré@@
4,
ement@@
rapports
/www.
attentivement
résultat
préparation
demand@@
Insuffisance
dernières
Même
recommandée.
types
4.@@
réalisée
es).
parties
CA@@
étudié
s)
...
devraient
36@@
17
G
accept@@
complète
supplémentaires
ain@@
L
principalement
préparations
34@@
elles,
ère,
alisation
prudence
demander
minutes
formes
ER@@
radi@@
it.
associé
TR@@
CH@@
résumé
température
entr@@
o,
aiguille
Traitement
(A5-00@@
patients,
vari@@
lesquels
ets
Su@@
thérapeutique
ité@@
crise
ay@@
368/
grande
/98)
or
l'hépatite
service
(1
amélioration
dos@@
suffisamment
nom
150
obtenir
dire
jou@@
lésions
CI@@
ann@@
abilité
tif
ose,
augmente
troisième
le@@
S.
grossesse
blanc
pe@@
avis
vit@@
Dr
patientes
d'entre
haut
déc@@
qu'à
quer
n'existe
ES@@
oculaire,
scientifique
Liprolog
quement
informer
ables.
sucre
surdosage
65
gra@@
rapport@@
ves
prenant
tions.
ed@@
faites
accès
aiguilles
toutefois
d'être
45
ble.
5%
re,
survie
ma@@
nu@@
L'AUTORISATION
ements,
actions
pelliculés
ini@@
An@@
07/
respectivement
Di@@
complètement
ales.
europa.
technique
part
paramètres
produire
suivants:
ax@@
baisse
ist@@
présenter
génér@@
démontré
elles.
can@@
do@@
nation@@
Hypersensibilité
sévères
ide
globules
lymph@@
ues
inflammation
Tel.
liquide
microgrammes
dus
men@@
ellement
dehors
puisse
associés
présent@@
anomalies
publi@@
fabricant
propre
monde
L'Union
vaccins
3%
mg,
vétérinaire
semaines.
meilleure
diabète
compt@@
aci@@
alimentaire
conserver
ard@@
OU
progrès
POUR
Pr@@
preuve
inform@@
Affections
réglementation
juste
est-il
MP@@
résistance
Canary
récepteurs
d'environ
C,
lesquelles
rées
dr@@
(EMEA)
personn@@
proposition
fon@@
ordures
tive
clairance
9,
activ@@
vir@@
différentes
progression
passe
og@@
cartouche
iste
marché.
utilisées
souhait@@
ois@@
et.
davantage
entraîne
l'im@@
utilisant
-en
oli@@
foie
l'exposition
Westferry
38@@
3,@@
continu@@
agents
propos@@
sensation
amin@@
entes
ô@@
vers@@
d'origine
politique
l'Europe
an,
objectifs
réduite
pharmacovigilance
emb@@
CO@@
diagnostic
garde
fréquent
pense
not@@
es;
kg/
quotidienne
uti@@
tis@@
E14
ens@@
≥
35
hépatiques
administrer
40@@
prévenir
á@@
estime
ménagères.
maintenir
significativement
examen
Co@@
adi@@
besoins
supplémentaire
fréquents
réalis@@
6,
bas@@
ss@@
obtenu
ç@@
iques
soi@@
198@@
sie
aine
l'eau
cher
légère
rem@@
90
fr@@
conservation
difficile
exist@@
heures.
rac@@
ène
Circus,
fournie
connu
prim@@
avi@@
correctement
montre
tent
err@@
Human
qui,
sorte
L'Europe
hépatite
de,
x,
-1@@
sites
premières
Wharf,
U
rien
Mi@@
mét@@
DU
donn@@
X
DI@@
suivre
questions,
t-@@
jours.
sal@@
régulièrement
associée
4HB,
ales,
DE@@
permis
élevée
ut@@
cardiaque
fic@@
cri@@
impact
moyens
26@@
ceci
diminuer
nor@@
alfa-2b
so@@
23
aspect
d'utilisation
Allemagne
ologie
ES
premiers
sions
fois,
protéger
connaître
ö@@
l'annexe
—
mode
viol@@
D'UTILISER
jetés
AD@@
initi@@
vision
IS@@
augmenté
proportion
vitro
asi@@
recommandations
mises
2000
contrôler
OP@@
oni@@
5-@@
04@@
Portugal
&
Elle
att@@
intraveineuse
adolescents
air@@
portant
ajustement
me.
té@@
ques@@
ml.
3.
fréquent:
directive
dix
L'in@@
NON
2%
modèle
ct@@
C.
accru
gen@@
ez,
via
paragraphe
ON@@
fs
effectuée
l'évaluation
relative
ette
protéines
semaines,
%),
Vi@@
éti@@
distribution
État
de.
différence
29@@
ates
ites
ir.
éch@@
petite
isé
carte
CE@@
AT@@
respiratoires
prot@@
exigences
aff@@
nos
esse
arrê@@
rédu@@
traitement,
nourriture
survenir
ure
autoris@@
gén@@
termin@@
tiv@@
ème
11@@
poursuivre
longue
anc@@
bio@@
lement
d'avoir
tor@@
ett@@
aurait
TITULAIRE
ban@@
MEDICAMENTS
Insuman
Pharma
7%
métabolites
réponses
cliniquement
seconde
l'association
destinés
chirurgie
l'infection
5,
vitamine
petit
év@@
connue
administrés
documents
d,
cap@@
glycémie
Fréquent:
Utilisation
d'eau
131/
notre
ing
heure
4,@@
techniques
Q@@
lequel
majorité
cat@@
sous-cutanée
4.5).
représente
mat@@
lé@@
déf@@
03@@
EL@@
vient
fond@@
tre
amélior@@
í@@
inf@@
/99)
l'augmentation
tissus
pe
00@@
chiens
monothérapie
yeux
lignes
euse.
tenir
maternel
aura
hu@@
ili@@
1)
os,
médicaments.
ce,
ome
suivants
Pro@@
gonflement
dispose
antes.
rempl@@
III
déficit
fil@@
antibiotiques
d'é@@
che,
LI@@
to
l'aiguille
côté
CES
public
forte
tiers
politiques
radio@@
le,
toxicité
fracture
inclus
phosphate
issement
(un
permettant
sign@@
ologiques
restent
nie
ed
eaux
z
probablement
Quels
là
assez
L'expérience
V
24@@
supérieur
ie.
exposition
normal@@
Cmax
dét@@
fonctionnement
);
L-@@
observées
n'était
décès
évalué
double
c'est-à-dire
MÉDICAMENTS
o.
gn@@
prend
mélanger
Insulin
n'
Plusieurs
l'homme
ï@@
versus
a-@@
Ex@@
ais,
plaquettes
conduite
fond
lég@@
limit@@
re.
132/
Qui
/2000)
d'effets
tre.
H
cy@@
suffis@@
conséquent
extr@@
arrêter
porter
minimisation
Ce
régions
devant
l'une
flu@@
structure
sanguines
généraux
ens,
ante,
précaution
Ar@@
l’utilisation
longtemps
âgées
istes
qu'on
principaux
âg@@
loc@@
ble,
London
métabolite
mains
tension
idé@@
26
19
artérielle
susceptible
gélules
patient.
examin@@
mu@@
cher@@
conseil
précautions
famille
arm@@
c’est
(A4-00@@
possible,
âge
els.
glob@@
différ@@
assistance
tique,
cer@@
ères.
ois
ez-@@
l'injection
derniers
organis@@
biodisponibilité
L'efficacité
(0)
Pfizer
s'agit
Seuls
Nor@@
consulter
bles.
sie,
niveaux
II
l'am@@
AB@@
doute,
ative
mortalité
féline
tion@@
Pays-Bas
pan@@
précis@@
arg@@
chang@@
direc@@
acide
charg@@
urg@@
oire.
ents.
années.
santé,
Sans
Malheureusement,
sion@@
pourriez
nécessaire,
cycle
libre
agit
l'EMEA
injections
tissu
lat@@
ion
infectés
potassium
stylos
mort
services
classe
l'étiquetage
repas.
ê@@
/00@@
humain.
conserv@@
s'assurer
faire,
qu'
considérés
dro@@
principale
S,
extrêmement
proté@@
d'études
légèrement
dose.
MI@@
{Nom
observ@@
inférieur
pt@@
qu’@@
and
sensibilité
ers,
autorisations
objec@@
essi@@
para@@
ain
sérieux
ouv@@
adaptation
ib@@
bas
RISPERDAL
1%
osi@@
l'I@@
plasmatique
98
fondaparinux
inférieure
ements.
associ@@
plac@@
i,
tou@@
sor@@
faite
qués
enfants.
lumière
autant
bénéfices
limites
tes.
droits
pas,
aujourd'hui
vitesse
cutanées
plus.
oire,
l'autre
audi@@
8,
l'en@@
adop@@
actifs
incluant
pou@@
mati@@
aiguë
cholestérol
menée
eill@@
modérée
fait@@
mani@@
confiance
ne,
cam@@
Le@@
dénominations
chose
parl@@
no
certaine
Ser@@
posologique
3/
alement
globale
5,@@
sti@@
cutanée
mainten@@
auprès
F
rest@@
l'E@@
90@@
mère
uniformément
SUR
changements
jusqu’à
l'O@@
médicaments,
gé@@
présidence
erg@@
(0)@@
couleur
utilisation.
garantir
oy@@
us.
déterminer
d'au
que)
traitées
conservé
commencer
l'absence
mélange
conclu
atif
tes,
commercialisation
pes
entreprises
document
excipients.
dit@@
pris@@
impos@@
font
L'étude
injecter
étude,
contrôlée
court
l'âge
transmission
situations
ard
vaccin@@
bri@@
rubriques
mag@@
évalu@@
33
indi@@
For@@
tifs
interféron
oï@@
tableau
thromb@@
secteur
pé@@
Sch@@
nombreuses
différences
membres,
capuchon
l'objectif
jet@@
der
er?
citoyens
travailleurs
médicale
réalisées
800
tête
temps.
ane
s).
révélé
rénale,
VIII
essentiellement
évaluée
tot@@
ans@@
hor@@
considéré
ém@@
suivantes
TA@@
l'h@@
élevés
priv@@
aliments
justifi@@
Faites
puissent
près
L'ex@@
Voilà
compr@@
mois,
limiter
C)
rapportées
appropriée
tradu@@
ras@@
70@@
étape
caus@@
enregistr@@
sodium,
ente,
ect@@
rais@@
enzymes
sion.
GmbH
tenant
lè@@
d'ab@@
lors@@
aux@@
d.
ep@@
i.
mes,
aill@@
mentionnés
agir
moitié
consiste
étudiée
insuffisants
mis@@
issent
j'@@
Rien
SE@@
quantités
OR@@
cliniques,
idées
l'origine
ouvert
SI@@
1.@@
concentr@@
l'ordre
Trudexa
mg)
employ@@
efficacité
enfants,
allait@@
hydr@@
section
principes
recours
ber@@
expérimenté
antes,
consommateurs
qu'elles
large
ains
conçu
élev@@
commun@@
Premièrement,
Str@@
arrêté
d'action
els,
%).
din@@
modifi@@
Gu@@
s),
ocyt@@
fé@@
seul@@
isol@@
supérieures
d'éviter
39@@
vu
ents,
limité
super@@
considérée
l'absorption
centr@@
han@@
rouges
responsables
ologi@@
il,
RI@@
pon@@
que@@
ex.
représentant
e"
AB
assurer
demi-vie
profil
application
sains
ences
qué
dée
dur@@
B.
»@@
liée
euse,
march@@
érer
ines,
stade
CP@@
l'apparition
ch
fois.
lact@@
produit.
aire@@
hom@@
AP@@
lan@@
reconstitué
Préparation
the
l’un
002
art@@
arriv@@
sujet
constitue
systémique
pourcentage
Lu@@
petits
étudiées
altération
(T@@
atten@@
maximum
1-@@
améliorer
che.
émi@@
minim@@
prati@@
mid@@
En@@
ères,
enf@@
tez
propriétés
ER
arr@@
causes
issant
nationales
excessi@@
ef@@
rouge
eff@@
(s)
antécédents
5.2).
pas.
land@@
prom@@
industri@@
texte
+4@@
cycl@@
continue
96/
ente.
Quelques
disposition
condition
respons@@
législ@@
voy@@
a-t-elle
pér@@
calcul@@
bras
7,@@
oxy@@
ET@@
]
..
ACR
2)
espèces
ond@@
compos@@
bactéri@@
(CHMP)
esti@@
repas
tives
pompe
trouv@@
sembl@@
poser
manifest@@
manque
rénaux
@@@
annexe
vie.
veiller
Europe,
l'allaitement
permet@@
alfa
voire
L'effet
001
sk@@
char@@
pays,
m'@@
voix
Pourtant,
devons
ait-il
Notre
ures
études,
ml,
tir@@
l'adulte
6,@@
volontaires
4.8).
es),
nerveux
liaison
catégorie
four@@
aï@@
PR@@
post-@@
5.@@
10%
populations
virale
dérivés
élevées
s’il
commercialis@@
act@@
tres
jours,
soumis
prescrit
Infection
qui@@
jug@@
langue
médecin,
transport@@
Poudre
Olanzapine
oire
r.
certainement
Quant
entraîné
seuls
émie
virologique
buvable
procéder
autour
cation
faibles
36
33@@
mon
RA@@
lib@@
coll@@
us,
*@@
que:
Ph@@
enc@@
établie
es-@@
tabl@@
pren@@
séri@@
constitu@@
29
ture
Limited
100@@
chaîne
ff@@
l'Autorisation
projet
accor@@
pres@@
tions,
(I@@
bil@@
provenant
cellul@@
estimé
ira
euses.
off@@
hal@@
maternel.
progressive
chacun
ens.
similaires
lar@@
exprim@@
02@@
comprim@@
2006.
scientifiques
procédures
influence
qu’une
donnée
version
ä@@
défini@@
assur@@
cal
mêmes
évaluer
IV@@
humaine.
St@@
verre
pay@@
fonctionne
tur@@
pri@@
cli@@
devenir
iter
Ne@@
ON
Se@@
pays.
l'article
Nombre
Qu’@@
démocrati@@
ation?
39
l'incidence
correspond
8%
ce.
amine
appelée
bé@@
rar@@
(en
rom@@
augmentée
I,
femmes,
mes@@
enne.
ennes
aider
LU@@
n’ont
(3
souches
atteinte
1000
Comment
ajou@@
:@@
connus
dél@@
co-@@
itu@@
quée
Dé@@
réglement@@
ad
pli@@
6.@@
ju@@
ent:
humain@@
complications
Tr@@
Ou@@
considération
Ri@@
Road
particulière
ter.
tro@@
gènes
résolution
adresse
fondament@@
respect@@
Car@@
aur@@
ah@@
principales
èrent
présid@@
considér@@
dépenses
amendements
ont-ils
A/
84
envisag@@
compl@@
posi@@
(D@@
hér@@
actives
comparaison
x.
détru@@
résidus
crises
intr@@
plas@@
l'an@@
similaire
és@@
degré
créatinine
pal@@
multipli@@
ation:
l'université
Cor@@
re:
apport@@
condu@@
facilement
mou@@
humains
enzyme
établi
dev@@
sem@@
Merck
don@@
test@@
gens
exécu@@
utilisez
PROVENANT
Leur
européens
victimes
/200@@
Troisièmement,
B,
ouver@@
étroite
succès
signal@@
heur@@
32
placebo,
air
largement
représent@@
pir@@
diminue
multi@@
s;
le.
50%
allant
constat@@
cô@@
coagulation
bar@@
contamin@@
demandes
spéci@@
cop@@
conditionn@@
particulières
he@@
intéress@@
journ@@
diurétiques
ches
sexu@@
ération
rénale.
No@@
natur@@
ka
004
objectif
grandes
pourquoi
Or@@
saignements
travers
définition
péri@@
situ@@
oti@@
cid@@
minimum
irritation
(0,@@
tendance
appliquer
1,5
prescription
ance@@
ine)
l'information
calcium
blanche
postes
teur
reconstitution
ly@@
pharmacien
même,
ables,
empêcher
l'accès
dys@@
tampons
pertin@@
noms
cas.
publique
Luxembourg
médecins
l'année
préremplie
sp@@
entre@@
uvre
capable
enrobés
LIEU
metformine
pass@@
comparé
%@@
immun@@
sanguins
éruption
rén@@
sanguine
sélec@@
allergiques
provoque
hépatique.
ra.
T-@@
point@@
46
importants
34
jour)
160
l'interféron
peau,
meilleur
sion,
(C@@
ide,
D'@@
ambi@@
Espagne
coopération
fait,
plaquette
société
taille
gène
résist@@
boîtes
évit@@
coûts
bles,
27
ir,
aus@@
gaz
législation
élément
européenne,
Suspension
porte
ici
alité.
est-ce
Objet:
médical
cess@@
voi@@
atives
opér@@
N-@@
inhal@@
58@@
l'ac@@
excessive
Non
polyarthrite
nerv@@
d'E@@
immédiatement.
met@@
42
l’œ
Val@@
q@@
PegIntron
conduit
tat@@
récepteur
sept
tre,
fer
197@@
trop@@
CE
Ro@@
(L@@
um,
caractère
VIH.
remettre
ins.
n'en
approche
signe
appropriée.
oul@@
Irlande
bru@@
matériel
mée
local
autorisé
individu@@
conn@@
mesur@@
faire.
présentez
alimentaires
plutôt
ille
anim@@
suivantes:
il.
at,
dépression
trou@@
1.
série
31
patient@@
suspect@@
potentiellement
faiblesse
visi@@
anné@@
fix@@
cons@@
ate,
CYP2C@@
PO@@
Her@@
Per@@
ologique
fur@@
huit
porcs
phot@@
ellement,
insp@@
bor@@
éliminé
2002.
avantages
her@@
internation@@
contiennent
vérifier
rée.
Mal@@
retirer
juin
persist@@
milieu
France,
pâ@@
tour@@
destiné
mer@@
Sou@@
sé.
mer
003
atis@@
ent-ils
que?
NovoMix
essai
bouche
comportement
mort@@
CT@@
l)
développ@@
prof@@
presque
relation
d'hypersensibilité
at.
élimin@@
conséquence
eri@@
y,
d'ac@@
déclar@@
apparition
spécialis@@
ai
jeune
fabrication
effectué
cité
d'emploi
matières
instauré
teurs
habitu@@
mes.
com
excipients
ogène
prolong@@
appliqué
ré.
ez@@
fier
vent
mondi@@
milli@@
ers.
quelles
abor@@
connaît
Rapport:
sévère.
relatif
ds
9,@@
enne,
hémorragie
événement
des,
VIH
dura@@
n'ayant
vas@@
fins
considérées
viande
lié
étudi@@
sérique
grâce
d'en@@
communaut@@
dépend@@
acides
I.
hormone
é?
ez.
anci@@
isant
produ@@
04/
suc@@
f.
assu@@
détermin@@
har@@
octobre
mofétil
élévation
adéquate
haut@@
color@@
bul@@
santé.
l'ar@@
flacon.
clés
utilisation,
dégradation
simple
équip@@
travail.
lin@@
ire
handicap@@
Pl@@
simplement
l'impact
vétérinaires
pathie
agi@@
allergi@@
secondaires
l'acide
ont@@
tra
seraient
ami@@
aggravation
Th@@
contrôlés
min
99/
éré
urin@@
l'at@@
pré-@@
dosage
vivo
MISE
nausées,
éc@@
tal@@
prise.
iser
dul@@
accord
oir
qu’elle
demi-@@
examens
ud@@
ty@@
.,
veill@@
sommes
asse
d'absorption
(souche
éli@@
cela,
poudre,
Pour@@
égale
laisser
travail,
compéti@@
l'égout
ablement
sûr
rait
article
clim@@
re?
(H-0@@
savons
2-@@
ton
rapporté
blancs
circul@@
fièvre
anor@@
biologique
250
mg.
bout
mg/@@
évo@@
apparaît
one,
fort
ol,
EX@@
domaines
Pa@@
tement
organisation
sér@@
organ@@
ma
alités
−
fortement
tionn@@
Mycophénolate
diagnosti@@
bilité
insulin@@
atteindre
obtenus
inhibe
micr@@
path@@
plaques
animaux.
n'auriez
inst@@
totalement
Pharmaceuticals
hormones
conséquence,
faisant
LOTS
emp@@
PE@@
ie@@
part@@
-,
éliminés
européenne.
exig@@
veut
loin
contre,
on?
sec@@
circonstances
lev@@
ré,
44@@
culaire
central
suicidaires
supérieurs
née
pen@@
produits,
étu@@
(N@@
neur@@
mentionn@@
(n
classi@@
ges@@
attribu@@
toxiques
limpide
mas@@
TE@@
indu@@
générale
CPMP
leucémie
lim@@
haute
lam@@
acquise
nég@@
port
pertinence
trouver
for
titre
Lilly
rejet@@
-t-il
Nom
ts.
président
approuvée
eusement
bénéfici@@
êt@@
meur@@
s!
ement?
K
consultez
pulmonaire
group@@
médiane
tomb@@
chol@@
tumeurs
contrôlées
induit
éni@@
4%
49
l'élimination
ray@@
Trans@@
thérapie
ines.
AN
naïfs
évolution
viv@@
établi@@
inclu@@
Enbrel
l'ASC
uri@@
mélangé
d'am@@
lorsqu'il
mélang@@
l'animal
eux@@
til@@
coordination
erreur
conten@@
L'
facil@@
rendre
impossible
diluer
identifi@@
ction
expli@@
professionnels
nature
progressi@@
hydroxy@@
organes
organisations
ow@@
emballage
endra
International
GlaxoSmithKline
tex@@
Bu@@
chois@@
l'immunodéficience
FABRICATION
022/
dispositions
appelé
ne.
ête
l’Union
achet@@
pén@@
ment,
parents
Commission,
L'un
interdiction
consommateur
l’Europe
journalière
particuli@@
fixe
intestin@@
cœ
poursuite
tandis
lique
fai@@
réductase
rit@@
oculaire
touch@@
67
d'entretien
sclérose
(pour
TS
vs
ténofovir
RO@@
congelé
UL@@
sont:
Bo@@
inc@@
4.2).
alcool@@
oss@@
Lors@@
tif@@
fourni@@
rarement
seringues
vomissements
maintenant
oires
consomm@@
6.6.
présentés
OÜ
CONSTA
ché
Im@@
prérempli
l'environnement.
adress@@
bénéficier
bat@@
qu’ils
marché,
temp@@
danger@@
capit@@
e".
zidovudine
nécessaires.
vasculaire
(R@@
l'ostéoporose
fractures
95%:
dés
dor@@
3)
quels
consci@@
Com@@
tique.
ve,
lanc@@
normale
produite
AV@@
fréqu@@
semaine)
tif.
d'enfants
tient
3-@@
ouverture
endommagé
l'expérience
interaction
prépar@@
blanc@@
possibles
dispositifs
phosph@@
réserv@@
contenus
masse
rythme
rapidement.
d'obtenir
contraste
Li@@
hémat@@
log@@
ète
ü@@
Durée
Sharp
BI@@
déterminée
négatif
Résumé
sais@@
nettoyants)
bal@@
menac@@
cont@@
quoi
qu’un
Seul
."
pêche
alisme
passé
Peut-être
Cl@@
accu@@
l'environnement
diminu@@
(IC
serv@@
pur@@
champ
modé@@
accidents
indiqu@@
st
signific@@
temps,
moelle
montr@@
tuberculose
génotype
former
sul@@
synthèse
comprenant
rhinotrachéite
novembre
µ@@
intensi@@
réc@@
sulf@@
capacités
cra@@
chev@@
mauvais
directrices
pharmaceutiques
l’aiguille
Aucune
w
requ@@
ins,
environnement@@
distribu@@
travaux
entreprise
européenn@@
ana
human@@
coup@@
habituellement
commission
l'emballage
prét@@
boissons
INFORMATION
pratique
oubli@@
œu@@
UTILISÉ
Qu'est-ce
oubliez
L'UE
ages,
z,
monde.
?@@
fonds
ia
et/ou
(H@@
poursuivi
46@@
évènements
losartan
(G@@
stimule
ence@@
grav@@
standard
ail@@
]@@
II@@
injecté
8,@@
Fr@@
ase.
gan@@
dues
écr@@
détect@@
maj@@
second@@
é:
-0@@
l'ab@@
précéd@@
entes.
arrêt
ern@@
blanches
Informations
/0@@
indiquent
inqui@@
hypertension
centre
chlor@@
froi@@
ne@@
thé@@
ets,
utilisateurs
*,
Bi@@
neu@@
ités.
ises
entraînant
révision
affaires
bouton
rage
info@@@
entrer
aliment@@
SA
atténué
jeu
Irbesartan
preuves
l'alcool
potenti@@
limitée
RESPONSABLE
clair@@
Eur@@
financ@@
quement,
d'im@@
concerné@@
ignor@@
réus@@
travaill@@
crimin@@
moi,
maintien
6%
randomisés
dessous
atoires
d'injection,
céphal@@
ite.
syn@@
press@@
oci@@
µg/
cliniques.
score
UI@@
bovins
plasma
matern@@
l'EMEA.
musculaire
dom@@
My@@
2.@@
000/
connaiss@@
rée,
d'anticorps
sant@@
mill@@
5)
calcitonine
sionn@@
avril
porté
technologies
travaillé
divers
Ab@@
essenti@@
AG@@
vin@@
septembre
Hyper@@
progressivement
approuv@@
d'animaux
interrompu
statistiques
trim@@
mmol/
engag@@
vont
diss@@
thermoformée
dra@@
bour@@
transdermique
tor
d'effet
isse
l'application
soign@@
san@@
EN
fournir
pouss@@
vou@@
erez
réaliser
dû:
chômage
PI@@
tera
ment.
saignement
avir@@
corps.
surtout
simvastatine
correspondant
accrue
tive,
respiratoire
tifs,
kin@@
méthotrexate
0,0@@
ID@@
dési@@
LE@@
trac@@
EV@@
réalisés
EP@@
cad@@
fum@@
approximativement
d'inter@@
oxyde
gélule
mol@@
significatif
g/
agn@@
opaque
um.
effectu@@
assist@@
vé@@
cur@@
des.
fais@@
anémie
visant
directe
D-@@
sécheresse
ve.
ast@@
Mix25
eant
expérience
alité,
onnement
plastique
of@@
Dohme
c.
Am@@
tif,
respecter
vention
63
006
55
années,
République
transfert
envisagée
pens@@
homme
écar@@
grand@@
indiquée
PRECAUTIONS
autr@@
histoire
(débat)
schéma
(4@@
7/
biologiques
f,
développé
simil@@
semaine,
reproduction
compli@@
route
mit@@
ait,
erie
interactions
hum@@
décidé
cale
écou@@
intérêt
trav@@
intervalle
cohér@@
6/
d'infection
(4
jour@@
d’injection
oral
MM@@
mutation
g.
ones
influ@@
l'aptitude
ure,
Internet
irrit@@
l'industrie
Es@@
ca
Ad@@
chimiques
Europe.
impli@@
acc@@
glycémie.
assi@@
responsabilité
diges@@
analyses
euses,
(y
développement.
compét@@
E.
appropri@@
méthodes
dommages
mil@@
d'hémoglobine
60@@
mang@@
technologie
rev@@
télé@@
marque
pac@@
sirop
allaitement
suite,
psych@@
vin
mom@@
confi@@
entraîn@@
remplac@@
d-@@
croiss@@
mont@@
î@@
économique
supprim@@
PARTICULIÈRES
citoy@@
gouvern@@
es!
indications
lamivudine
approprié
suivie
tive.
marge
polyéthylène
és:
intervalles
Imprida
ique,
fréquente
interfér@@
endre
l'inter@@
petites
nausées
puiss@@
injec@@
faveur
dose,
carb@@
ts,
veineux
évidence
révél@@
poli@@
180
fuite
veine
rougeur
métabolis@@
ReFacto
1997
lorsqu'ils
noti@@
ci-dessous
généralis@@
atr@@
ong@@
yn@@
quelqu'un
suppression
affirm@@
envisager
apporter
T.
probable
000@@
m.
hydrat@@
injectables
ant:
atifs
frais
·
tourn@@
r,
gue
dilu@@
arri@@
grands
conscience
Italie
jus@@
tent@@
États-Unis
ampoules
té.
altern@@
départ
Neupro
L’utilisation
vraiment
visibles
rouler
étrang@@
mê@@
stérile
L'UTILISATEUR
Sa
PRÉCAUTIONS
traditionn@@
j'ai
concurrence
sépa@@
dem@@
appliqu@@
aéri@@
devoir
MS@@
gue.
ys@@
ose.
Bar@@
déplac@@
(≥
T,
confir@@
recev@@
clinique.
amide
proportionn@@
IX
récente
répon@@
définie
erci@@
thérapeutiques
plan@@
actuel
fantaisie}
sauf
0,
Si@@
(M@@
AF
trom@@
cycles
acr@@
rare
2002
connaissance
médecine
sécurité,
Sal@@
nettoy@@
sit@@
ran@@
corpor@@
musculaires
outre,
h,
rester
auto-@@
nas@@
plu@@
issez
amment
agissant
pol@@
Ils
nom@@
atteintes
tran@@
k,
efficace.
Humalog
tan@@
continuer
trice
l'exception
alimentation
reconnaître
{@@
eng@@
gouvernement
contribu@@
aller
UTILISÉS
Tableau
budget
construction
tra@@
ais.
peu@@
PARTICULIERES
négoci@@
Madame
900
courte
terme,
terminale
majeure
suivant@@
parlez-en
sain@@
n'apparaît
ept@@
(de
3,5
(une
poids.
ub@@
accidentelle
hormon@@
AT
-1
document@@
ques)
(5
Grossesse
maladie.
-9@@
CYP3A4
cine
7,5
adéqu@@
PRO@@
ity
relev@@
initial
cations
injection.
rant
ement:
analogues
ure.
infect@@
cab@@
(les
affection
quel@@
exceptionn@@
Gr@@
pul@@
signalés
(B@@
Av@@
puisque
inject@@
aval@@
tube
bactéries
sensi@@
Mix50
Portugal,
l'i@@
Après
électri@@
37
vis-à-vis
recherch@@
org@@
Uni@@
pensez
techn@@
na
Mon@@
souff@@
omb@@
ck@@
chances
bouchon
acqu@@
phénomène
rend@@
mené
007
Suède
franç@@
essentiel
échou@@
L'incidence
entend@@
UTILISES
État@@
assassin@@
L’Europe
analys@@
9%
accident
ost@@
surveill@@
comport@@
difficulté
(avec
sup@@
ans)
soigneusement
périodes
présentaient
(sous
1).
doulour@@
but
ide.
semaine.
simultanément
adaptée
sid@@
osté@@
complè@@
rag@@
neuf
Sur@@
microgrammes/
itaire
visu@@
main@@
quanti@@
estim@@
corporel
fonctions
diabéti@@
T)
2003
fièvre,
poids,
vomissements,
Rom@@
2001
souche
tées
cris@@
d'élimination
marqu@@
I).
survi@@
85
manipulation
}
préalable
circulation
animale
injectables.
airement
ques:
fourni
professionnel
ampoule
ci
satis@@
sirolimus
rép@@
co-infectés
enceinte
lien
005
èn@@
sil@@
rés.
Rou@@
Sol@@
articles
dic@@
as,
moy@@
absolument
S'IL
année.
fra@@
efficace,
contrôles
6.3.
l’on
choses
débat
euros
mot
ité?
nous,
u.
eures
l'analyse
d'hy@@
hépat@@
cs
faibl@@
omes
constater
ED@@
fos@@
suffisante
modifié
Tarceva
traitée
l'échelle
vaccin.
AI@@
chimiothérapie
active,
osseuse
reproduc@@
omy@@
basée
rhumatoïde
malades
graisses
95
diabétiques
fem@@
retard
cau@@
tol@@
glycémi@@
lit@@
inconnu.
offici@@
eu/.
esse,
lier
conseill@@
prob@@
NE
be
chaleur
fortes
ml/
érythropoïétine
4.4
4.3).
opération
secondaire
idée
PGR
méthyl@@
ép@@
atri@@
formul@@
ole
grossesse.
cartouche.
contin@@
caractéris@@
commun
osine
Park
stock@@
tenu
estations
souvent,
exi@@
MA@@
outre
commerci@@
infirmière
l’UE
l'être
retard@@
hydroxyde
ó@@
équival@@
meilleurs
sév@@
concernés
simpl@@
+35@@
encourag@@
d’informations
figure
prouv@@
financement
pouvait
simpli@@
ter,
techni@@
ent-elles
judici@@
fau@@
d'abord,
alu@@
(utilisée
note
observations
machines.
pioglitazone
tn
l'estomac
développement,
épisodes
20,
Fer@@
nourrissons
attendre
contamination
glucose
graiss@@
environnement
atique
journée
présentées
entér@@
fac@@
maxim@@
indiquant
Sim@@
peginterféron
ection
eth@@
nov@@
remise
À
sexe
manifestations
occupé
Ly@@
destinée
stockage
née,
polysorbate
reç@@
Europ@@
internationale
Por@@
P.
mentionnées
lentement
goutte
Syndrome
disponibles.
çant
tentatives
sauv@@
prior@@
Belgique,
intégr@@
ocol@@
hypersensibilité
adapté
sens
protég@@
reçoit
CON@@
pati@@
décrit
Tel.:
gastro-intestin@@
unique.
be@@
toux
exploit@@
son@@
toucher
règl@@
mobil@@
intérieur
multiple
ensemble
européennes
poursuiv@@
importe
émissions
l’ex@@
étiquet@@
naturelles
opérat@@
pourr@@
Ru@@
l'intégralité
á
ons-@@
l'État
ordre
DÉCHETS
Sverige
ordin@@
dépistage
Rus@@
N’@@
Parce
DECHETS
million
Mais,
ler
we@@
granul@@
perfusion.
2/
reprise
contactez
défini
ase,
vastatine
apparaître
immédiat@@
EC@@
articul@@
v
V,
l'int@@
humain,
α
22@@
EXUBERA
sériques
périphériques
atoire
provoqué
évaluées
principa@@
vitamines
5/
panleucopénie
d'Alzheimer
pommade
jeun@@
transitoire
10,
rix
brûl@@
doc@@
Br@@
per
conjonctiv@@
flux
d'h@@
éché@@
Viraferon
médicament@@
chimi@@
DepoCyte
Section
2008.
cancer.
ences.
vois@@
pepti@@
pathologies
tâches
Instructions
l'octroi
maux
géni@@
machines
nés
on:
ande
tion?
41
somm@@
détecter
Ltd
spécifi@@
concern@@
èg@@
endroit
1,0
exclusivement
co-administration
ue,
souffrent
BIOLOGIQUE
comp@@
prud@@
land
ail
voyez
structur@@
subst@@
80@@
comb@@
suffit
Prévention
puis@@
contrain@@
parle
instituti@@
peine
L'information
attend@@
Vos
pai@@
tonnes
rir
véhicule
vasculaires
antéri@@
anormale
candidose
neuro@@
éventuellement
nécessiter
origine
satisfais@@
manqu@@
affections
pat@@
arrêtez
tine
acceptable
47
4)
nécessitant
crit@@
opi@@
fluor@@
D,
Protopy
rappel@@
bénéfice/
tirer
nettement
class@@
suspension.
ologie.
cutan@@
impliqu@@
l'enzyme
dioxyde
année,
mod@@
onie
public@@
iez
devait
sée.
bles@@
supéri@@
isent
orient@@
thrombo-emboliques
5.1).
confirmé
eu/
euro@@
lots
provo@@
toxi@@
grammes
ères@@
servi@@
FR@@
utilisé.
Z
isée
se.
pipette
D'ORIGINE
vér@@
est,
réuni@@
mères
justi@@
l’autorisation
quez
S'@@
vement
intervention
tabac
addi@@
parfaitement
enquête
ront
citer
raison,
vente
améric@@
coût
auraient
œuvre
habit@@
graph@@
tés.
opath@@
hist@@
hanche
one.
ther@@
normalement
jusqu'au
ur
l'organisme
symptomatique
résistants
MO@@
appel
agit@@
ments
pulmon@@
(1@@
terrain
l'ur@@
tacrolimus
somatropine
malgré
valsartan
n,
observation
TE
apparaissent
mécanismes
arti@@
réguli@@
Inf@@
opa@@
ités,
eu.
FI@@
alisée
l'ét@@
Lis@@
introdu@@
gestation
diarrhée
XX@@
congestion
modérée.
ers@@
chimique
intern@@
dées
immuno@@
ont,
tiques,
établir
malignes
culture
gout@@
OU@@
SA@@
Ten@@
sin@@
dre
Eli
oir@@
Gardez
intention
KwikPen
envisagé
gradu@@
RCP
hautement
œ@@
résultant
manipul@@
cel@@
tour
fre@@
Pi@@
teneur
d'information
différent
opportun@@
néglig@@
complémentaire
fentanyl
Po@@
inte
indique
épo@@
reven@@
appréci@@
connu.
oir,
programmes
ettes
parlé
donne
pollu@@
navires
te?
affaire
écrit.
débit
rapportée
7)
pneumo@@
cardiaques
bili@@
atiques
pil@@
fertilité
dipl@@
tp
ok@@
signification
humaine,
prévues
d'augmenter
transpar@@
en-@@
érythème
efficaces
conc@@
insuline.
aison
entièrement
glyco@@
127/
thrombo@@
fo@@
subi
sévère,
exclu@@
aggrav@@
répétées
azol@@
fois@@
dysfonctionnement
calci@@
nat@@
cuillère
sucr@@
odi@@
exemple:
ou,
-B@@
prévisi@@
identi@@
effectuer
fications
soph@@
95@@
insuffis@@
efficac@@
connu@@
adapt@@
IntronA
û@@
onique
ule
nique
ll@@
communi@@
statut
obtenues
limitées
omati@@
sour@@
Royaume-Uni,
II.
Mac@@
enfant,
appartient
filtre
(cellules
Mer@@
Direc@@
Œ
reconstitu@@
Hy@@
Österreich
attendu
transplantation
produc@@
Pe@@
di
matéri@@
l'alimentation
/9@@
d'alcool
l’enfant
nuit
Yondelis
calicivirose
ait.
producteurs
fri@@
vr@@
normes
stabil@@
suiv@@
tre@@
préven@@
budg@@
changer
contre-indiquée
oblig@@
moindre
libér@@
portée
garanti@@
quali@@
coût@@
voulez
imagin@@
Six
Trait@@
loi
concurr@@
députés
Président,
Nos
seringue,
sach@@
38
cité.
Raptiva
ic
rap@@
cutanée,
extrê@@
sécrétion
suicid@@
pronostic
étique
constituent
oly@@
roug@@
(6
abatt@@
cine,
l'intérieur
OM@@
normal
devaient
glu@@
ViraferonPeg
composé
tab@@
a)
chat
négative
cro@@
clu@@
échec
physique
remis
mondiale
D'autres
ès.
Prise
chef
pharmaceuti@@
onc@@
élec@@
alo@@
d'hypo@@
Augmentation
ènes
unités
é)
juillet
Danemark
démontr@@
éth@@
fournies
dégra@@
cription
dan@@
sique
ès,
enzymatique
lig@@
far@@
diarrhée,
septi@@
int
aines
indépend@@
rê@@
PL@@
m2
coagul@@
infectieuse
372
Est@@
Box
Belgique
offre
permettra
danger
Telzir
solvant,
rend
vie,
s’est
ative.
optimale
d’utiliser
ale@@
compens@@
our
FCV
alement,
relire.
extérieur
personnellement
d'ar@@
recru@@
chiffres
permettent
reconnaît
pouv@@
emploi
flexi@@
Ni@@
issus
chiffre
source
constate
QU’EST-CE
parole
ceux-ci
il?
e-t-elle
recouv@@
ime
minutes.
prazole
échelle
survenus
algie,
affect@@
fir@@
const@@
myél@@
Pos@@
syst@@
MP
gel
financi@@
d'attente
M)
visuelle
contre-@@
pation
Tritanrix
(1,5
MUI
(la
af@@
adé@@
ze
cultures
hémorragi@@
-ci
yl
urinaire
cité,
supplément@@
discussions
tin
interne
(1,@@
difficiles
l'instauration
reten@@
passi@@
mie
jaune
NO@@
d'améliorer
terr@@
hépati@@
cardi@@
plant@@
2007
gèn@@
pratiques
présentation
opénie,
expériment@@
COM@@
agré@@
m,
verti@@
recommandées
contraception
médical@@
ationn@@
particip@@
sels
61
Wyeth
fér@@
Mise
55@@
doigt
tempor@@
te)
nécess@@
propres
augmentant
Ver@@
communautaire
EU@@
scientifi@@
stratégi@@
issue
conseillé
décisi@@
TH@@
ennent
autorisés
ajouter
comporte
origin@@
discu@@
stricte
cides
injectable.
endommag@@
ú@@
nutrition
Gélule
prescri@@
abil@@
hausse
convi@@
boire
avanc@@
qualifi@@
bomb@@
endr@@
Pu@@
contenir
titude
reti@@
ait@@
abilité.
régi@@
inquiét@@
affaibli@@
té,
fonctionnaires
appelle
(hypersensible)
aille
L'une
agricul@@
position,
légi@@
construc@@
&#x02BC;@@
mari@@
prévoit
ait-elle
dic
floxacine
multiples
FS@@
ème,
pali@@
Fi@@
cancers
l'ad@@
89
psoriasique
nie,
prévue
devriez
d'activité
TA
choc
absence
éruptions
zon@@
l'évolution
ici@@
lé
identifiés
pédiatri@@
alcal@@
Humira
l'or@@
débu@@
de)
apa@@
numération
TV@@
d'interaction
fact@@
orale.
ath@@
absolue
brut@@
inhibition
crétion
UE@@
pau@@
mine
transporteurs
hôpit@@
enseign@@
Be@@
chin@@
pharmacologie
précoce
faç@@
déch@@
TES
/96)
fatigue
relativement
D.
Réponse
corrig@@
ressources
possible.
échantillons
création
souffr@@
isolats
bon@@
oses
mission
MIRCERA
administrées
associations
tifs.
absorption
dopa@@
haus@@
soleil
montrent
marquage
Tra@@
résol@@
neutropénie
prolifér@@
diffusion
biais
fru@@
Diplôme
enceintes
général,
ra,
projet@@
Comité
ci,
exercice
accident@@
d'autre
Commission.
ge@@
export@@
particulier,
d'acidose
réseau
Hu@@
lus
érique
seuil
7,
009
Flacon
Pol@@
personnes,
ulaire
exper@@
eure.
spécifiquement
u,
peti@@
Pal@@
gne
agissent
d'abord
inv@@
Information
étapes
vend@@
envoy@@
effectivement
ets.
préfér@@
accepter
mauvaise
n'étaient
professionn@@
l'Espagne
Ma
mour@@
vingt
cigar@@
train
just@@
pollution
gagn@@
civil@@
s'
e-t-il
-t-elle
avez-vous
/99):
bronch@@
beso@@
comparable
d'anti@@
concomit@@
3).
F-@@
normale.
olo@@
cis@@
onie,
pathie,
d'exposition
compar@@
(n=@@
oraux
combin@@
l'excrétion
toxine
répond@@
répondre
l'HMG-CoA
fera
obten@@
menées
l’EMEA
franch@@
CHAMPIX
érythr@@
MA
25%
matin
semain@@
cule
vitro,
ode
HepB
les@@
ate.
popul@@
important,
tombé,
donnant
l’université
eli@@
indication
ATION
rég@@
2).
Douleur
dent@@
si,
Pharmacovigilance
risque.
-00@@
aller@@
présentations
ves.
opéni@@
rées.
volont@@
correc@@
ex
effectués
clon@@
infecti@@
olé@@
proposé
ner
tric@@
proche
PRI@@
van
extéri@@
antirétroviraux
sac@@
vre.
Mil@@
suppléments
déclarations
d'entre@@
ki@@
Vis@@
heure,
ennes,
66
PRENDRE
pose
den@@
locales.
rapporteur
fabri@@
abs@@
rétro@@
lie
vigueur.
sous-cutanée.
équilibre
remplacement
cep@@
modifiée
respect
pl
sen@@
itaires
L'injection
weg
Cam@@
Bayer
approvisionnement
communication
vérifi@@
précisément
excrété
malade
constituer
sect@@
voyag@@
app@@
Kar@@
délivré
membres.
ession
participation
marchés
cach@@
annu@@
pourront
voiture
Lorsqu'un
ordonnance,
QU'@@
tout,
violence
pesticides
religi@@
montant
passe-t-il
és?
Tlf:
(à
ation)
Prometax
pertes
fœ
Me@@
69@@
substitutif
gen
l'as@@
réunions
cérébr@@
parti
bra@@
sélectionn@@
somnolence,
l'acuité
vildagliptine
mâ@@
(<
cen@@
44
débuter
protéin@@
cible
20%
TMZ
riche
gh@@
laboratoire
aliment
Européenne
retrait
d'autorisation
tractus
ences,
sociétés
As@@
décol@@
convulsions
otte
nour@@
commune
grave.
°@@
couver@@
macul@@
maison
extrém@@
multiforme
cell@@
recommandé@@
neuropathie
diques
epti@@
implique
oculaires
d'Humalog
jeun
modific@@
comprise
soud@@
don
ellement.
Basal
Inhibiteurs
répartition
ution
ophil@@
doucement
92
Hé@@
ATI@@
abdominale
aid@@
Sé@@
OS@@
éventu@@
améliore
propos
tar@@
poche
viennent
angl@@
motiv@@
mono@@
Col@@
Cal@@
commencé
conclu@@
protec@@
combien
fabricants
actuelle
rési@@
proposée
défenses
maladies.
joue
010
empl@@
Itali@@
exempl@@
prescrit.
inféri@@
réunion
blement
rich@@
sort
nationale
carbone
tiques.
ois,
'
onne
comprom@@
proch@@
téléph@@
mention
initiative
auront
consult@@
sû@@
contribuer
représentent
Outre
dispar@@
clair
ingrédients
program@@
semblent
coup
pag@@
point,
commence
republika
L'impact
rencontr@@
PV@@
Ou
débat@@
met
coû@@
déten@@
constru@@
véritable
encore,
décharg@@
L’Union
guéri@@
exerc@@
suivante
derni@@
sh@@
comparativement
tivité
estimée
(2,@@
quotidi@@
vascul@@
oedème
urinaire,
actif.
voriconazole
mesurer
sorti@@
Pri@@
tration
augmentations
référ@@
c,
sangu@@
top@@
émie,
30%
enfin
avir.
fixation
dox@@
cho@@
oz@@
respiratoires,
5.
additifs
équivalent
Ribavirine
ides,
avir
72
d'I@@
d'al@@
synth@@
mouvements
omm@@
animal
P-@@
britanni@@
6-@@
noci@@
nécessite
83
andes
sang@@
vag@@
lentilles
apport
harmon@@
eil
solid@@
este
thyroïdi@@
squelettiques
ces.
ère@@
sie.
aise,
montrant
inducteur
alph@@
»).
lac@@
3,0
régulière
venir
oris@@
AVEC
He@@
Man@@
istr@@
major@@
Business
zi@@
Fax:
atrice
OL@@
blo@@
l'air
re)
affecter
accumulation
52
d'ét@@
concernent
isme,
déchet
Virus
OptiSet
Lam@@
résulte
doute
renforc@@
pê@@
lon@@
composés
pom@@
préoccup@@
NOM
esc@@
résid@@
induire
disposi@@
minér@@
FABRICANT
savez
omme
Prop@@
ailles
eb@@
sûr@@
z-@@
arrive
libr@@
croissant
prochaines
limitée.
s'avérer
s'ag@@
augmentent
population.
Posologie
Grèce,
devi@@
mées
particules.
dépasse
centres
répercussions
candid@@
S'agissant
finalement
util@@
terra@@
défendre
amen@@
eraient
s'en
médias
Lire
promotion
prend@@
Quatre
Slovenská
sûr,
voul@@
passe@@
fis@@
!@@
pouvons
Mon
Personne
l'abacavir
can
péremption
injectez
d'H@@
consécu@@
ajust@@
sus@@
pathologie
ologiques.
ensi@@
vagin@@
pel@@
hypoglycémie
respir@@
dose-dépend@@
bét@@
formulation
rhumatisme
OPTISON
minimiser
ances,
thrombose
efforts
perfu@@
stable
P)
èse
impliquant
plus@@
mé
démontrée
évoluti@@
trique
Ag@@
oxi@@
vaccinés
INT@@
sés
6)
fam@@
FlexPen
tumorale
................................................................@@
suggèrent
activation
Rap@@
industrie
espagn@@
grave,
ès
AU@@
impression
ocul@@
De@@
alt@@
s'ils
incidences
opénie
épi@@
plaquett@@
eté
sées.
chirurgi@@
parentér@@
résultat@@
argu@@
BASAL
mai
conventionn@@
Naglazyme
duction
européen.
s'impose
fermeture
dot@@
Fabricant
accompagn@@
corné@@
atif.
Royaume-Uni.
aliste
_@@
ada
suivante:
The
Stat@@
artifici@@
dation
agressi@@
dér@@
pe,
(v@@
aise
intolérance
32@@
usag@@
effec@@
autorisée
l'ADN
devenu
crème
z.
cide
fractu@@
favoris@@
réserve
lign@@
aires@@
chiff@@
Ber@@
dites
014
371/
372/
exactement
fémin@@
oir.
Laboratoire
vre,
étudié.
préférence
man
tonn@@
substitution
spec@@
d'énergie
résul@@
gravement
ède
as.
minorité
dité
z-vous
l’égout
d'aliments
compréhensi@@
incid@@
hors
étiquetage
fixé
lour@@
déclaré
Leurs
langues
România
S’il
milliers
ques?
honn@@
a-t-on
Boehringer
Ingelheim
pharyng@@
formule
(800
l'homme.
74
tolé@@
suivis
sanguin
que),
l'hormone
thè@@
ator@@
tentative
morts
75@@
comparables
enz@@
métabolisé
sté@@
Tracleer
ulcère
patients)
téri@@
CS@@
µg
complément
précédant
thérapeu@@
sortie
58
pédiatriques
homm@@
embol@@
bêta-@@
adultes,
inhib@@
long@@
l'inclusion
né
pneumon@@
ek
dessus
aminés
docétaxel
profondes
LD@@
(environ
(12
que).
oïde
inchang@@
décrits
simultanée
saumon
préalablement
triglycérides
foie.
cancér@@
V.
AF@@
67@@
famili@@
cytochrome
Pré@@
intravein@@
asthénie,
locales
ecteur
directeur
lutte
gie
basé
Chez
sugammadex
2000@@
démar@@
l'action
avant@@
MR@@
ue.
matiques
atin@@
DO@@
reporter
atta@@
nécessit@@
45@@
périphérique
indésirables,
HM@@
mutagène
ème.
vac@@
accompl@@
énergi@@
Is@@
changez
institutions
abdomin@@
arch@@
l'embout
vre
EE@@
Pres@@
microbiologique,
rus@@
nez
difficil@@
arrière
bord
évid@@
OT@@
flacon,
atteint@@
perturb@@
centralis@@
contre-indiqué
enregistré
scientifiques,
approprié.
ateur@@
èmes
Finlande,
suite.
remar@@
arité
prévu
ène,
On@@
008
Taux
intramusculaire
hémodialy@@
rati@@
UN@@
],
eille
sécurité.
décider
sc@@
ément
établie.
are
rapid@@
dite
xi@@
dé
time
l'es@@
s'avère
tard,
comment@@
L'importance
conséqu@@
dispos@@
devr@@
Tel
s"
Rappel@@
dégâts
autor@@
condam@@
innov@@
est-elle
espér@@
euro
travailler
patri@@
ant?
'es
ciprofloxacine
(comme
STELARA
qu'après
CVMP
nécessaires,
e-
favorable
41%
stavudine
96
appelés
ases
fat@@
naissance
ement)
gluco@@
leu@@
Trevaclyn
trembl@@
positive
experts
aire)
PD@@
interagir
l'al@@
trouvent
ologiques,
ateur.
sugg@@
fluoxétine
sépar@@
tubercul@@
bloqu@@
4,5
les.
statistiquement
dique
mesurée
comprennent
glycérol,
habituelle
évalués
respectiv@@
densité
0,3
tax@@
titu@@
compter
ément,
l'hyper@@
insuffisant
retar@@
néphro@@
gel@@
dine
post@@
mach@@
RE
d'ap@@
contribue
proviennent
acquis
l'emploi
fragil@@
(ex.:
l'Uni@@
consul@@
urie
connue.
ANT
log
rétini@@
AL
ressentez
diabète,
outils
cav@@
ambiante
périphéri@@
gram@@
Du@@
commercialisation.
géné@@
documentation
disponi@@
récidi@@
ature
européennes.
ek@@
faus@@
py@@
Médicaments
Espagne,
clast@@
refus@@
(200@@
les,
consist@@
sciences
diplôme
région@@
mouvement
do
ister@@
épidémi@@
D'un
UR@@
U.
+46
SARL
SU@@
jeté
bloque
consommat@@
infirmi@@
(e)
res.
120
BMS
ateur,
consacr@@
souti@@
ateurs.
transplant@@
individuelles,
prérempli,
respiratoire,
Fréquence
011
373/
(%)
obl@@
monosodique
EXP
réalisé
AAAA}
agin@@
laiteux.
sources
souffrez
inactivés
500@@
ange
imprim@@
réti@@
faible,
mm@@
poul@@
déli@@
aî@@
demandé
interdit@@
sés.
OptiSet.
ectu@@
modifiés
ent-@@
oi
conception
au,
automati@@
orité
octroy@@
retrouv@@
-on
fumer
trait
travail@@
istes,
vingt-@@
l'impression
L'examen
OG@@
L'im@@
appareils
Lorsqu'il
dira
appel@@
pire
Puh/Tel:
là,
Bel@@
dam@@
S’@@
Ses
n’auriez
appro@@
Union
venu
terre
profit@@
jouets
�
déb@@
réalité
ain,
illég@@
(
elle?
avion
ées?
Wil@@
VIH@@
ours
d'événements
d'acide
d'administrer
intraveineuse.
zumab
pégylé
cyt@@
gastro@@
localis@@
fusion
l'enf@@
transit@@
prurit
d'applic@@
Starlix
es/
corticoïdes
ous
excès
g,
Vir@@
(3@@
pied
»)
SP@@
1997,
gorge
physi@@
avir,
sujet@@
VE@@
ograph@@
souris
l'espèce
cin
quent
fol@@
négatifs
quement.
macr@@
muscles
allergie
douleur,
graphie
(200
tradi@@
oty@@
périodiques
solides
incolore.
subit
50,
ire,
ulcères
pharmaci@@
cherch@@
ot
destruction
ORACEA
équilib@@
sacchar@@
nou@@
trices
ta
exposés
(tels
expos@@
maternel,
idi@@
lever
abilité,
n°
utér@@
émission
gués
étiques
présentes
propr@@
rigour@@
chien
cours.
bov@@
sy@@
We@@
enci@@
ecteurs
Allemagne,
tubulaire
filgrastim
deven@@
systémiques
Inter@@
uré@@
1998.
tée
+49
uc@@
Tur@@
dexaméthasone
Industri@@
disodique
CD@@
Dis@@
positif
Bas@@
ace
tures
Saint
français
dépassant
tat
pist@@
Candida
chlorhydrique
conditionnement
86
Ac@@
adul@@
Infections
ants:
mascul@@
blanch@@
poumons
étudiés
lement,
Norge
recombin@@
Emballage
destinées
endroits
(VIH@@
national
internationales
NovoRapid
placé
iste.
revi@@
d'assurer
ado@@
tel@@
ille.
Sebivo
variabilités
intég@@
co
ht@@
LIBERATION
appli@@
ros@@
sements
chau@@
excipients,
entam@@
affich@@
précurseurs
économie
ade
allaitez
recombinant
dériv@@
celles-ci
pers@@
ats.
rappeler
situe
p.
celle-ci
chaînes
saurait
explique
fixer
PC
bless@@
constatez
rénale:
re-@@
oh@@
diff@@
restera
considère
âge,
chauff@@
soutenir
bouteille
discrimin@@
tig@@
étudiés.
dre.
isme.
réellement
etc.
Lib@@
L'introduction
passé,
tard
Belgi@@
comm@@
laisse
Suomi/Finland
bureaucrati@@
obti@@
ville
trafic
commerce
aides
milliards
voit
l'amendement
-elle
Parallèlement,
Ce@@
68
ay
tard.
même.
disposer
99@@
carcin@@
précédemment
sang,
IC
trophi@@
opposition
contraceptifs
78@@
SC@@
foie,
nouveau-nés
l'espace
d'hé@@
chél@@
otox@@
β
spéciales
®
(2@@
surven@@
sions.
taill@@
inférieurs
chu@@
accessi@@
sensible
prophylaxie
gastro-@@
induite
IV
affinité
démi@@
stand@@
ote
0,2
se,
HPV
97
rô@@
perman@@
99
Riprazo
eo
Tekturna
écrasé,
dépôt
véhicul@@
act
détaill@@
topotécan
Brux@@
C-@@
bonnes
TRE
compétentes
main
contacter
détection
”
appuyer
(utilisé
out@@
ré
prennent
mineure
possède
Plan
inci@@
(cf.
Communautés
contact@@
cales
n'importe
pouvaient
8.
tumor@@
fréquences
yeux,
2005,
Danemark,
ciclosporine
(qui
N,
d'âge
provis@@
cent@@
disponible.
européen,
peau.
install@@
succ@@
Hou@@
fs,
au-delà
chroniques
hydro@@
sodium.
d'arrêter
illes
Lun@@
Wat@@
suit@@
potassi@@
licenci@@
-je
71
ribavir@@
PHAR@@
marqué
abond@@
CH
New
ore
ministre
prérempli.
fréquents:
Prenez
+372
BRISTOL-MYERS
SQUIBB
oires.
tivement
lutter
l'hé@@
asse@@
aises
couche
solu@@
l'expression
Bruxelles
ège
L.
éter
durer
maximales
occup@@
édi@@
deux@@
heures,
répét@@
jeter
ois.
concernées
prév@@
Rapports
n'avez
Enfants
ptions
maladie,
da
UE
364/
77
Gra@@
aig@@
isti@@
{MM/
oco@@
paumes
intéri@@
F2@@
Gélules
ert
allaitez.
poissons
psychiatriques
catégories
naturellement
PM@@
confirm@@
qu'au
l'Allemagne,
ize
signaler
ÉLIMINATION
alyse
ateurs,
migr@@
ètre
fournit
passagers
celui-ci
produis@@
utilise
sav@@
d'éducation
scol@@
moins,
restrictions
sci@@
landais
ressor@@
deviennent
possibilités
plans
informé@@
inflation
5-0@@
ettes.
Quel@@
Qu’est-ce
infra@@
faudrait
non@@
interrog@@
genre
l'internet
voient
vulnér@@
cru@@
voitures
vote
propose
interdit
choix
habitants
amendement
emprun@@
veulent
dépu@@
islam@@
(vote)
Prenons
Quatrièmement,
liberté
0%
S)
(6@@
eus@@
esthésie,
opti@@
échec@@
col
P,
4,9
tox@@
instable
hebdomadaire
anaphylac@@
0,25
(10
réductions
domain@@
som@@
ST@@
dépressifs
disparaître
autre,
al)
7-@@
rivastigmine
bit@@
posologies
microgram@@
d'intensité
M,
protéique
strictement
tabagisme
g/@@
distance
HD@@
vascular@@
Pegasys
résumés
LM@@
grippe
étine
lap@@
résonance
magnétique
léger
métabol@@
lymphocytes
incidence
appliquée
calcémie
73
MS
naiss@@
mur@@
LDL-@@
l’insuline
grip@@
atives.
glucuron@@
pharmac@@
Ju@@
'e
ergi@@
rash
warfarine
ñ@@
pharmaceutique
dois
coordin@@
installations
aign@@
ac,
ménag@@
eure,
Mo@@
lor@@
(E17@@
Au@@
démangeaisons
néanmoins
dis
recevront
réalisation
préserv@@
9.
mars
d'injection.
discussion
cirrhose
direction
glioblastome
ies,
complémentaires
issues
mener
atine
physique,
séqu@@
serez
ministr@@
membrane
tampon
figurent
révis@@
reprendre
tyl@@
crois@@
adultes.
auto@@
81
Ελλάδα
Dose
diffus@@
cardia@@
visage,
malabsorption
1),
d’eau
potassium,
sel
Intern@@
oit
q
secondes
bass@@
ING@@
rie
adhé@@
clo@@
rechercher
rés@@
Elévation
être,
visage
ris
incin@@
Elles
liqu@@
effet,
alcool
persistent
èr@@
vaccin,
insul@@
procédé
go
considérablement
èm@@
012
Tritace
Ireland
sch@@
lic@@
es-vous
delt@@
gard@@
FOR@@
ographie
slo@@
organisme
erre
guer
nucléosidiques
évident
faudra
exemp@@
Chil@@
univers@@
Ret@@
jec@@
United
proposi@@
demeur@@
alternative
l'UE.
Suiv@@
bet@@
proposés
structures
matériaux
suppose
développez
préc@@
tract@@
soit,
D'ELIMINATION
Conseil,
incendi@@
là.
économi@@
agriculteurs
accid@@
sont-elles
terroristes
vill@@
guerre
parlement@@
référendu@@
vain@@
économ@@
génétiquement
justice
Or
ait-on
ée?
sinus@@
graves.
implant@@
accorder
hypoglycémi@@
ologique.
réagir
(8@@
IG@@
358
avancé
vertébrale
2,0
α@@
ratio
Un@@
ai,
caillots
pulmonaire,
nécrose
correspond@@
d'équilibre
oiseaux
vomiss@@
quelconque
disparaissent
aurez
angor
international
préventi@@
interrompre
immédiate
amino@@
l'utiliser
financier
organismes
communautaires
Programme
osph@@
Kineret
l'inst@@
stimul@@
76
6.
achi@@
BYETTA
seu@@
ances.
vastati@@
été,
cepti@@
PA@@
rémission
compatible
résidu@@
ètres
d'hyper@@
d'as@@
fumarate
mut@@
64
mère.
out
P450
CPMP@@
jeunes.
cules
chal@@
neurologiques
diverses
ke@@
Gi@@
ministère
ax
lin
Mont@@
vétérin@@
méthadone
Rev@@
sac
papi@@
générale,
entes,
isés
transdermiques
titane
sig@@
bleu@@
produits.
os.
congénit@@
corps,
noctur@@
sexuels
pla@@
vall@@
yst@@
nouvellement
l'inhibition
atifs.
empêch@@
rées,
infarctus
l'agence
Fin@@
étroitement
indépendante
risquent
désign@@
bouffées
psychiatri@@
Tel@@
chevaux
quées
l'oreille
enzy@@
dihydraté,
accompagnée
l'In@@
ologie,
tourner
Expérience
rejoint
Hol@@
ution.
l'ag@@
rhin@@
auxquels
alumini@@
destin@@
alli@@
EF@@
réduisant
Né@@
passant
vendus
Nespo
causés
l'allaitement.
soumises
adéquat
phényl@@
empêche
d'en
d'anomalies
d'O@@
calcul
fonc@@
médecin@@
modèles
Madrid,
régul@@
stylos,
blis@@
42@@
opérations
Excipients:
sulfate
Har@@
LIBÉRATION
La@@
actuelle,
devrez
fibr@@
(souches
431
réservé
Ham@@
.)
Gar@@
í
stru@@
végét@@
excrétée
sain
mess@@
ager
isées
b.
Pologne,
compétences
électronique
Iscover
(appelée
sérieuse
différente
observe
génération
L'analyse
rés,
déci@@
jouer
comporter
constaté
l'a
id
considérer
oppos@@
es»
lui-même
adopter
l'opération
its,
L'État
ave@@
élect@@
lang@@
d'autr@@
père
force
Tant
suis
revient
décisions
Européens
polon@@
acheter
chréti@@
emplois
stocks
égalité
contradi@@
volonté
refu@@
chos@@
accus@@
ent?
Ira@@
Conse@@
condamn@@
arriver@@
eurs?
Non,
eh@@
Novartis
après.
sang.
tubulure
obtenue
l'adolescent
lorsqu'une
tumeur
attendu@@
gonfl@@
ml@@
Hum@@
engendr@@
nicotinique
nouvel
cm
l'H@@
antidiabétiques
inhalée
ativ@@
disponibilité
mois@@
clini@@
définis
prurit,
anes
énor@@
reli@@
LT@@
jours)
d'antibiotiques
restant
ocar@@
gastri@@
ative,
LDL
visible
MAR@@
OR
VHB
adolescents.
respiration
del@@
exposées
actif,
terme.
agent
era.
l'éfavirenz
complément@@
irbésartan
sildénafil
jambes
d’insuline
grumeaux
MabThera
bos@@
C),
fus@@
d'application
azole,
transfer@@
publications
mix@@
poste
aspects
Pharmac@@
Ef@@
ball@@
2000,
support@@
rog@@
floxac@@
trouble,
délivr@@
actif@@
thi@@
proches
eau.
eau,
kaliémie
otoxi@@
décembre
tend@@
antibioti@@
esp@@
ary
sensations
vaccination.
Paxene
secrétariat
entrée
jamb@@
web
(hyper@@
ry@@
représentants
retrait@@
s/
commencer@@
appareil
ms@@
essentiels
veaux
d'habitude.
consultation
chroni@@
Ir@@
l'utilis@@
Pre@@
Réaction
jac@@
mam@@
rendu
sus
................................@@
49@@
026
ia@@
Bal@@
côtes
prost@@
tien
Réactions
refl@@
terfénadine
IX@@
hépatique,
permanent
rue
égard
unité
conseils
pous@@
observer
impér@@
opathie
provoquée
introduire
population,
identifier
mot@@
maintenue
nes
contrôlé
013
thermoformées
chaus@@
éthyl@@
quer@@
créer
film@@
UC@@
Gal@@
cruci@@
Génér@@
reçoivent
néfastes
Malta
KOGENATE
ik@@
soja
distin@@
exposé
dess@@
au.
stratégie
certain@@
(SIDA).
pop@@
fen@@
ont.
n’y
recevez
l'Italie,
margin@@
dépl@@
moins.
considérable
souten@@
identification
Latvija
gouvernement@@
échange
fourn@@
soulign@@
ti
nutritionn@@
mort.
énergie
animaux,
fas@@
Système
ailleurs
L'évaluation
Malgré
sée,
Parfois,
recour@@
eur?
intérêts
án@@
lanti@@
Sh@@
pratiquement
raisonn@@
bien@@
argent
pièces
rent@@
subventions
alistes
intellig@@
débar@@
économiques
croy@@
Ukraine
peupl@@
dérog@@
hectar@@
familles
penser
s".
explo@@
j’@@
plain@@
obligation
OGM
jam@@
immigr@@
l'interdiction
vaut
rapport,
Copenhag@@
saign@@
l'emballage.
suivez
comprendre
l’objet
tam@@
osseuses
condi@@
9/
C).
prises.
parin@@
déshydrat@@
GONAL-f
senti@@
ner@@
indésira@@
transitoires
aut
sévérité
copi@@
ocy@@
l'UE,
auricul@@
superfici@@
pondér@@
hémorragiques
eure
graduée
concept
répondu
digitaux
Données
étés
perdu
injectable,
tion)
ections
LSN
ziconotide
gau@@
II,
CYP2@@
4/
ard,
d'entraîner
randomis@@
clinique,
lipo@@
lendemain
ste@@
images
d'étude
Londres
grossesses
l'em@@
tricitabine
insuline,
dar@@
gli@@
récurr@@
mie,
passag@@
ellul@@
pic
È@@
nommé
d'at@@
chimiothérap@@
l'angiotensine
76@@
eau@@
coul@@
aisons
sclér@@
connues.
détérioration
cellulaire
réception
tiss@@
(V@@
part,
inflamm@@
rig@@
isation.
antiviraux
mul@@
d'insuline,
diagnostiqué
élabor@@
idine
l'irbésartan
gastro-intestinales
erlotinib
surviennent
démontrer
embryons
lipi@@
ocytes
éventuelle
Chin@@
œil
minimale
med@@
diminuée
repos
lumi@@
isation,
plantes
entrepris@@
ves,
l.
(des)
dépos@@
d'apparition
E,
décou@@
dû@@
abaiss@@
Rec@@
onine
Dys@@
chute
artérielle.
SOLUTION
systématiquement
y.
................@@
....@@
ster@@
physiques
musculo-
faci@@
rh@@
AS
endant
UTILIS@@
goût
Mu@@
gsk.
merck.
aire:
repos@@
étrangers
euse@@
de:
ospor@@
finale
s.@@
L)
Op@@
cancer@@
secteurs
bêta
l'eau.
compartiment
CE,
dec@@
prochain
nouve@@
Aprovel
Neoclarityn
ac
l'énergie
liss@@
2007,
gon@@
lactique
béb@@
variant
informé
reg@@
locale
seringues,
015
016
021
146/
EU/1/0@@
gélul@@
és)
08@@
369/
375/
377/
X/
SoloStar
Evitez
surfaces
NU@@
exam@@
ci-dessous.
ouverture,
récol@@
chem@@
ANCE
Bulgar@@
divis@@
jet
harmonisation
Hel@@
élevé,
copie
attaque
lit
remplacer
spor@@
fruits
continuent
erb@@
lectu@@
manger
cass@@
Mé@@
rejets
lyophil@@
oin
L'âge
comprend
programm@@
istes.
êtres
Sand@@
code
mètres
Mode
zéro
vide
l'ES@@
erreurs
cos@@
annonc@@
sau@@
es"
actes
allemand@@
entrav@@
baiss@@
atteint,
N’utilisez
renouvel@@
autre.
peut-@@
ë@@
+47
MARCHE
embar@@
Près
Regardez
cancéri@@
agricol@@
quinze
élè@@
résoluti@@
tunn@@
connaî@@
autres,
opinion
identité
rages
ont-elles
juridi@@
prisonni@@
espoir
jeu@@
armes
votes
catastroph@@
euros.
élève
pourtant
monnaie
attend
absur@@
preu@@
ations?
Qu'avons-nous
+45
Orphan
Trizi@@
lévodopa
Leu@@
glucos@@
attentive
découver@@
évènement
rapportés.
hém@@
gué
lésion
placebo@@
abcès
maintenu
hommes.
expl@@
H,
TNF@@
ron@@
sous@@
Karvea
(p
articulations
expositions
blessures
GIS@@
l'organisme.
4.
grade
analy@@
osseuse.
VIH-1
p=0,00@@
diarrhé@@
plaquettaire
ologique,
significatives
prol@@
galact@@
inadéquate
sensibles
otite
ith@@
5).
éduc@@
consolid@@
cét@@
bilirubine
sevrage
favor@@
Parkinson,
d'AD@@
pathies
récupér@@
affectant
probabilité
tati@@
molécule
dirig@@
orale,
1/@@
EMEA
ret@@
dent
69
inducteurs
tum@@
disparaî@@
microbi@@
d’abor@@
conseiller
meilleures
perfor@@
pourrez
patient,
éry@@
épa@@
feu
anticancér@@
cob@@
III@@
recu@@
fs.
causer
décrites
ci-dessus
émulsion
c’@@
ane,
Prot@@
importance
micro@@
l'huile
Dès
Min@@
favirenz
vaccinale
transparence
d'augmentation
RC@@
esp
bilité.
bloc@@
ues.
nasale,
l'hydrochlorothiazide
rat
l’é@@
sains.
bumine
vies
PVC
bur@@
Pays-Bas,
AZ@@
réguliers
LO@@
transcriptase
indre
Barcel@@
aires:
déséqu@@
bouch@@
Glob@@
d'interrompre
substituts
San@@
...@@
doiv@@
PL
larg@@
arma
puissance
150@@
reconstituti@@
bénéfi@@
ulation
effor@@
tubes
bénéficiant
..@@
contract@@
centrale
res,
-vous
SoloStar@@
souffre
Év@@
Etats
faits
organisé
attach@@
donnez
compatibilité
ADROVANCE
l'indication
VH@@
astique
prévoir
perspec@@
formé@@
préco@@
transform@@
indéterminée:
Neu@@
027
Nouv@@
collect@@
solvant)
017
018
024
376/
97/
ette.
retourner
gue,
FHV
impl@@
rot@@
muni@@
oie
anie
le-@@
emment
etc@@
Oy
gros
jo@@
cite
ture,
Lou@@
chrom@@
propriét@@
dépass@@
oxydase
1998
matin.
oublier
progr@@
cer
ologues
tap@@
occasion
Interactions
č@@
Ma@@
CO2
détérior@@
d'aucune
céder
à@@
d’être
suppos@@
directives
Sub@@
imputables
concr@@
courant
cat
territoire
L’objectif
bre@@
dépasser
Lietuva
définitif
déclaration
Neurontin
urgence
reprises
paiement
méthoxy
glycol-epoetin
reconnaiss@@
conclusions
salari@@
dossi@@
L’un
plais@@
princi@@
lou@@
mail@@
faut-il
tari@@
a?
aider@@
victime
Sous
arrach@@
concili@@
pêch@@
crédits
mots
publicité
collec@@
end
brevet@@
bateau
franc@@
hab@@
voit@@
dangereux
Assembl@@
48@@
couv@@
rez
GL@@
uns
anomalie
vide.
capables
conju@@
accr@@
possi@@
ement).
sains,
éroï@@
l’étude
Pelzont
digit@@
insom@@
fatigue,
agences
évaluations
l'homme,
parten@@
performances
anormal@@
surcharge
insuffisante
CEPROTIN
l'inflammation
aite
valid@@
logici@@
plasma@@
ques).
A-@@
proxim@@
cumul@@
PRE@@
(50
rats
céphalées
bron@@
osti@@
gemcitabine
cardiovasculaires
8-@@
l,
initié
graves,
Ta@@
base,
ALAT
ventre
poumon@@
favorise
mercure
ménopaus@@
udin@@
absorb@@
pomm@@
Mix@@
givré.
ions
térat@@
lab@@
probable.
duloxétine
ATION@@
vérification
Mat@@
professeur
retiré
accumul@@
lent@@
biliaire
PAR@@
inconnue.
électrique
grippal,
fini@@
inscri@@
fourniss@@
d'hémophilie
convulsi@@
myélo@@
préexist@@
pril
MÉ@@
aliser
l'étude.
°C
paclitaxel
tricul@@
bilité,
réduc@@
chromosomiques
vres,
d'agents
hémophiles
rupture
recomm@@
sions,
aiss@@
l'injection.
mutag@@
sodi@@
tubul@@
ocl@@
bris@@
Centre
(utilisés
rai@@
phar@@
tru@@
cuillère-mesure
cuill@@
contraire
9-@@
suff@@
neutr@@
torat
ester
gal@@
épargneurs
Mari@@
squelet@@
mille
Mes@@
SID@@
bol@@
change
4-@@
alimentaire.
vité
ple
aiguill@@
fa@@
W
inactiv@@
kil@@
Bor@@
baisser
compromis
réfrigérateur.
persister
inhibant
d'alcool@@
rénal
rare:
Vol@@
héréditaires
ultr@@
développent
30,
PER@@
0/
028
023
boîte.
âch@@
yn
ène.
Kent
l'étiquette
Grèce
Pent@@
Lett@@
0.@@
Slova@@
nul@@
être.
dévers@@
At@@
tie
Ig@@
achev@@
pauvre
d'Al@@
urines
prescrire
issait
croî@@
crédi@@
valide
global
(IMAO@@
procédu@@
Toujours
Présid@@
i-@@
active.
propag@@
.»
retrouve
travaillent
annon@@
quar@@
mar
contrat
paquet
exact@@
l'heure
adopté
ores
figurant
recommandation
conçues
directiv@@
désormais
obligations
num@@
Tri@@
réfléch@@
oeu@@
inten@@
utilisent
qu’elles
lai@@
étape.
Rue
d'y
ces,
L'insuline
Isra@@
règlements
période,
allez
parvenir
S’IL
exemples
entendu@@
anium
investissements
exploitation
dém@@
recycl@@
aujourd'hui,
e»
quot@@
confront@@
commissaire
police
vol
commiss@@
denrées
écoles
cultiv@@
qu’on
message
arriver
dign@@
frau@@
e",
pétrole
d'ici
disposons
compag@@
ence?
1/2001)
th
aiguë@@
appuy@@
vir
tétan@@
recevrez
place.
97@@
].
séd@@
égales.
eme@@
l'hypoglycémie.
professionnelle
pied@@
descend@@
var@@
aigu
disparu
défici@@
abat@@
requis
réversi@@
viral
jonction
antivir@@
statin@@
fabriqués
spécialement
pent@@
CYP3A4,
médicamenteuses
sert
acte
omat@@
=@@
clé
confusion,
(au
53
indésirables.
(et
pointe
109/
70%
19,
iniques
adolesc@@
moyennes
IR@@
indiqué.
l'amélioration
aveugle,
répétée
2%)
zumab@@
céd@@
TEL@@
ci-dessou@@
Betaferon
ultéri@@
patch
MB@@
≤
méthotrexate.
transférase
disoproxil
démie
-M@@
0)
ol.
T),
ogène.
ASC
ERE
initiatives
vertiges,
ker
Sant@@
Luxembourg,
statisti@@
pédi@@
l'hôpital
laborat@@
sué@@
réseaux
d'essais
EUR@@
coloration
pit@@
récupération
nébulis@@
cutanées,
l’A@@
d’entre
’@@
ative@@
Réuni@@
identifié
gamme
dra
n'avait
vigueur
lomb@@
ça
enceinte.
poussées
cle
Dernière
chronique.
édu@@
K)
l'AD@@
dyspep@@
botulinique
drogues
cémie,
résistantes
xim@@
pes@@
détermination
io@@
2006
lande
mais,
dl
officielles
ard.
inverse
ogèn@@
commen@@
l'él@@
surpoids
oles
Rapid
MSD
oxygén@@
luttent
glucose-galactose
Londres.
dri@@
n.
préremplis
straße
auton@@
l'histoire
liber@@
corporel.
Dy@@
....
ja
doig@@
d'intérêt
désor@@
cher,
vomissements.
udine
Pau@@
diminuant
Limited,
El@@
2800
radioactif
Chlamydophila
dérivé
aux-@@
l'unité
ouverte
grossesse,
qu’en
d'inform@@
question.
soin
invers@@
massi@@
substanti@@
4.2
parallè@@
b,
l'anti@@
Plac@@
prépa@@
abol@@
§
Retirez
lax@@
Can@@
marché:
unidose
othérapie
c'@@
film
production.
ressentir
Informez
fécon@@
MU/
opor@@
ank@@
mental
stu@@
tre-@@
Angl@@
susp@@
portent
disparaît
sexuelle
adap@@
alimentaire,
retour
l'encontre
pro-@@
démontrent
exclure
risqu@@
s’agit
autorité
intoxications
naturel
justifie
biom@@
demi
qualité,
valable
conversion
champs
domin@@
prêt
eilli@@
noy@@
expression
gaz@@
pleinement
")
s'ét@@
fut
Mani@@
tront
berg@@
figu@@
mur
nucléaire
prè@@
télévision
invent@@
procé@@
lues
offrir
consommateurs.
conver@@
istence
ch,
rembour@@
ignore
dépassé
télévis@@
ports
-t-@@
m’@@
poisson
Si,
s'y
fait.
Vfend
frapp@@
soldats
vivre
ressour@@
moi
pauvreté
Mc@@
mauv@@
veu@@
siècl@@
confl@@
l'idée
abandonn@@
Europe@@
chôm@@
d'ailleurs
espoi@@
bonn@@
ra-t-il
acteurs
scand@@
cole
!"
sera-t-il
aire?
aient-ils
Oui,
Pens@@
isk@@
conven@@
Not@@
CV@@
effets.
cardiaque.
apparaî@@
gauche
groupes.
cir@@
vein@@
buccale,
suicide
qu'avec
ary@@
observée.
célécoxib
lanso@@
ules
varie
démangeaisons,
6).
aspir@@
ier
1,4
diminué
alité@@
électroni@@
corporelle
HB@@
aiguë,
ation).
surveillée
indiqué,
profon@@
11,@@
traités.
diarrhées
chacune
collaboration
exclus
males
partiellement
malformations
91
25,
indic@@
fréquentes
tropine
phosphatases
thromboemboliques
ophtal@@
histam@@
démence
capsu@@
87@@
te-@@
colonne
toux,
traces
Equilis
observés.
fibrose
ciclospor@@
graphique
trouvé
intra-@@
EVRA
morph@@
triglycéri@@
hyperten@@
mmol
SUTENT
couch@@
bres
atinib
ats,
tard@@
olid@@
um)
Zonegran
encer
d'interactions
récipient
vési@@
linguis@@
{NOM
britannique
l'o@@
Dubl@@
travirine
maraviroc
émie.
inclure
ign@@
litre
électr@@
déshydrogénase
1%).
chambre
minut@@
vesti@@
conclusion
avertiss@@
(autre
l'hypo@@
efficacement
laissez
onat@@
n'ait
ostéoporose
anticoagul@@
dissou@@
difficilement
prenne
vous,
suivent
anth@@
d'élévation
.000
érant
ctions
ham@@
2005.
7.
induction
COVERSYL
systémi@@
recombinante
aven@@
éventuel
gliome
invasive
O.
évén@@
oxygène
sa@@
ophtalmologiques
gants
survenant
CE.
--------@@
potentielles
lors,
A)
phénom@@
bilan
mb@@
député
carri@@
65@@
sym@@
amine,
douleurs,
transmet@@
volontaire
CC@@
antirétrovir@@
Deutschland
HAR@@
enter@@
l'enfant.
rav@@
dig@@
réfl@@
régression
d'intolérance
reconnu
estion
perd@@
RA
oug@@
recherche,
eu,
cti@@
urie,
sèche,
crampes
Ger@@
62
cha@@
itaire.
nombr@@
Durant
d’administration
Proc@@
atives,
deux.
estonia@@@
pot
TIV@@
respirat@@
écoul@@
ralenti@@
somb@@
potentiels
nouveau.
porcine
by
congel@@
DICC50
CYP3A4.
Viani
aqu@@
alimentaires.
Caractéristiques
aise.
recommandé.
rincer
PAS
sympt@@
ci-@@
envisagée.
enza
cimétidine
IS
Uxbridge
sus.
B)
l'intermédiaire
ouvrir
revan@@
HEXAL
ures,
Vas@@
montrer
table
HC@@
020
022
150/
SERING@@
276/
54
EU/1/07/435@@
l'équilibre
l'aspect
méth@@
aliments.
Espagne.
on-@@
TESLASCAN
Mixtard
G1@@
nomin@@
rè@@
ourn@@
etten
ž
Jean-@@
Franç@@
astr@@
spécial
O)
vice-@@
Met@@
hol@@
j
excipi@@
Gau@@
rage.
l'intervention
vivo@@
possibil@@
l'élarg@@
lav@@
Temodal
obligatoire
atif,
autrement
dit,
qualité.
sim@@
l'importance
indiquer
ages.
nocuité
coli.
l'op@@
hépatique:
l’aide
moi@@
(dose
Franc@@
main-@@
drogue
ettre
nie.
Pir@@
essentielle
trib@@
exes
PN@@
tchèque,
étude.
bitr@@
élarg@@
renfor@@
(Unités
rassembl@@
L'augmentation
probl@@
obs@@
émis
garantie
océ@@
ci.
venti@@
excep@@
gratu@@
instruments
l'Allemagne
tomber
intégration
MERIAL
Alpes
esse.
l'intention
Lisez
cosmé@@
l'abatt@@
tués
sanitaires
Mor@@
répar@@
bre
151/
Résultats
ise.
endrait
fié
INAIRES
Puisque
»?
Finland
oui,
unanim@@
éor@@
vivant
l'accord
ain.
revenus
diversité
interdire
politique.
es".
farines
île
réclam@@
content@@
falsi@@
norme
privil@@
imparti@@
négociations
occu@@
comman@@
accordée
ale?
essay@@
tions?
peuples
Commissaire,
?"
(A4-04@@
3/2001)
/2002)
88
Healthcare
veineuse
d'urgence
sulfam@@
VICH
inhabitu@@
ng/
éd
lieux
l’absence
thromboses
(incluant
palpit@@
bouche,
thy@@
perforation
menés
rat,
dy@@
AIN@@
arth@@
s'accompagn@@
Exforge
contraceptif
converti@@
égi@@
U/
thoracique
vital
caract@@
l'ef@@
étrie
ral
esses
sol
SPRYCEL
médiateur
l'ajout
aprè@@
vertébr@@
0,00@@
(5@@
infliximab
d'Effentora
(«
pravastatine
adhésion
yme
yng@@
affecte
micro-@@
supplémentaires.
140
réag@@
animales
15%
interruption
10,@@
UG@@
exacerb@@
débuté
érat@@
cérébra@@
exclu
Fasturtec
fond,
cardio@@
terminé
tine,
femme,
Prequenza
paralysie
ger@@
fall@@
2001,
1,7
azole
saine
D3
glucose.
analogue
embry@@
générales
éph@@
F,
ENTR@@
ine@@
CYP@@
ologiquement
DATE
1996
inémie
dépression,
pp@@
chargé
Gre@@
e/@@
hôpital
olog@@
établiss@@
gramme
alcool,
TION
emploi.
chirurgicale
l'adulte.
hydrogén@@
Sécurité
risque,
caoutchouc
alisé
l'administration.
ôt
osité,
Pra@@
hypotension
fiés
och@@
cutanés
résumé:
urée
développements
irradi@@
absorbée
IE@@
ELISA
sous-jac@@
aboutir
dirigés
comités
sélective
pyr@@
augmentée.
atténuer
répondent
paupi@@
champi@@
considérables
vres
compati@@
sommet
(2
Suè@@
post-ménopau@@
couramment
Men@@
fluctuations
cancer,
poign@@
dist@@
urtic@@
uration
onnel
oires,
thme
transfu@@
visites
mettant
isez
résistant
DG
Em@@
appéti@@
toni@@
oniques
(infection
fongique
écoulement
glandes
fœ@@
College
yr@@
Industrial
uk@@
dl.
Indi@@
conti@@
MEN@@
bler
gonflement,
musculo-@@
Treatment
A.,
Char@@
estre
cémie.
adulte
č
enfant@@
oxéti@@
évolu@@
moyenne,
QUE@@
Excipi@@
l'extrémité
cellules.
iront
gence
enregistrement
maîtr@@
Président
l'inform@@
fourniture
facile
ser.
repas,
précédente
sui@@
averti@@
s'aggravent,
d'expérience
l'OM@@
hydroxyl@@
rosiglitazone
alise
recyclage
piston
guérison
estimation
çons
capital
Utilisez
50.
duquel
acétate
sulfon@@
quettes
gues
Avonex
béné@@
VO@@
HA@@
actuelles
obligat@@
019
025
4/@@
4/00@@
6/@@
06
046/
cept@@
comportant
incolor@@
collées
parois,
anhydre,
tré@@
plication
Lev@@
Pen@@
180°
ez:
l'indicateur
issons,
exion
phy@@
membr@@
tremblements,
accél@@
dos
iner
sorb@@
to@@
rétino@@
andel@@
los
ki
hypertendus
SIDA
travaillant
dé.
décel@@
admis
suivi@@
prescrite
adéquat@@
(VIH-1),
abine
d'eau.
provoquent
proc@@
prime
bas.
utile
fonctionner
douloureuse
Hongrie,
Lésions,
Internationales)
anesthésie
subs@@
desloratadine
tier
ella
est:
l'avis
700
restric@@
ajout
fabric@@
agement
applic@@
répétez
cultu@@
1er
saisine
Autri@@
outi@@
zo@@
recommand@@
calendrier
combinaison
escompt@@
fie
viti@@
découl@@
atér@@
si.
dres
monde,
2010@@
péd@@
enquêtes
va@@
entionn@@
cong@@
prochaine
soulev@@
l'attention
sidi@@
l'existence
coloni@@
restaur@@
bâtiments
défense
Tor@@
Main@@
L'O@@
Bri@@
ADRESSE
choisir
indispens@@
Air@@
D’ÉLIMINATION
indé@@
has@@
Quatre-@@
et?
Dan@@
QU’@@
dég@@
Sinon,
Parl@@
campagne
Soyez
tac@@
avort@@
limitation
retrouver
sols
"?
proposées
croissement
hou@@
encourager
symbo@@
prosp@@
discours
vérit@@
vieux
plein
crédit
Euro@@
musul@@
communauté
dictat@@
collecte
démocr@@
clonage
prê@@
énergétique
dénon@@
humanité
honor@@
géograph@@
biocarbur@@
aéropor@@
j’ai
doit@@
attent@@
e-t-on
estimations,
ł@@
applaudiss@@
expul@@
Trop
LL@@
sanofi-aventis
Cer@@
désinfect@@
zidov@@
interrompue
prendra
glycémique
artéri@@
coron@@
95%
espè@@
FS
urique
iste,
identiques
sarcome
cuisse
intestinale
comportements
picot@@
mous
menace
dysp@@
indépendant
cortico@@
l'insuffisance
aques
Rel@@
conjointement
l’année
injectée
dépend
issement.
ion@@
souh@@
pénétrer
intens@@
d'ulcères
8)
relatifs
candi@@
lettres
douze
60%
581
ecti@@
82
utilisées.
exclu.
additionn@@
(O@@
cogni@@
NV@@
ation;
FL@@
4.4@@
dialyse
adéfovir
vitr@@
hémorragies
its.
hommes,
2,6
2004
affecté
l'amlodipine
ement),
médicaux
recueilli@@
(0,9@@
d'expiration
administrations
s'aggrav@@
complex@@
céphalées,
John@@
Saint-@@
dépar@@
hospitali@@
on)
Medicines
grave@@
l’EMEA@@
vidé@@
Sem@@
curar@@
position.
stades
défaill@@
osité
mac@@
cipro@@
échapp@@
QUES
Fréqu@@
ponctu@@
délivrée
eil.
emi@@
oxine
DICAMEN@@
hoc
épilepsie
ambul@@
exerce
souples.
final
soumise
Lorsqu'une
impac@@
pharmacovigil@@
igne
anou@@
femmes.
ée@@
tic@@
janvier
Soliris
allong@@
muqu@@
accroître
transmis
struc@@
glomér@@
EXJADE
rouill@@
presse
mécan@@
dépres@@
plaie
ton.
respec@@
iso@@
Ox@@
gly@@
génétique
utilité
conges@@
mort,
l'étiquet@@
Italie,
réside
l’augmentation
variable
l'examen
cardio-@@
erç@@
recherches
paresthésie,
cé.
T).
virales
Stev@@
ρ@@
93
RAP@@
S-@@
oi,
gri@@
cutané
digoxine
vaiss@@
ur,
servent
raid@@
maîtrise
stitut
d'hu@@
allergies
Norvèg@@
Produ@@
Doc@@
médec@@
auri@@
oo@@
Ziagen
Hémorragie
Yor@@
immunité
Trouble
selles
San
-91
ococ@@
métacrésol,
SK@@
Services
Roche
Prévenez
fongique,
ene
monothérap@@
ecté@@
estr@@
quit@@
cath@@
ga@@
kaliémie,
appropriés
spectre
ress@@
pandé@@
Pen
Temps
spécialisé
transfé@@
d'avis
totalité
alpha
antiacides
tétracycl@@
ultérieure
importante,
d'ajuster
conformité
statistique
origine.
Street
Peg@@
Sil@@
de-@@
pend@@
clari@@
prévenez
favorables
opérationnel
l'administration,
quotidienn@@
Via
soulager
fine
Sar@@
pain
Ter@@
couvre
stylo,
PREREMPLI@@
pelliculé
l'av@@
ël
Eviter
ES)
chè@@
chlorhydrate
lamiv@@
aar@@
Fab@@
Cr@@
S.@@
algie
fenêtre
direct
Thyrogen
chats
journal
quie
Fréquents:
Rar@@
vert@@
née.
créé
IP@@
gues.
douloureux
intégrer
nuclé@@
toxicom@@
d'Alzheim@@
èrement
radiomar@@
lettre
l'usage
ting
fiable
stimulation
table.
s’assurer
vouloir
au-dessus
obésité
sé,
garder
décrite
antigènes
forces
Blo@@
sin
figurer
monoamine
d’utilisation
rément
Aucun
L'exposition
vétérinaires.
ètr@@
subir
Janssen-Cilag
ell
fédér@@
tyr@@
vise
longtemps,
également.
laiss@@
gy@@
tolérée
dangereuse
défin@@
dossier
âtre
tâ@@
otine
image
11.
versions
régl@@
approuvées
retarder
couverture
premi@@
perdu@@
européennes,
cens@@
●
Chris@@
ferm@@
ophtalmologique
oirs
put@@
hô@@
l'anémie.
seules
existent
itali@@
soluti@@
command@@
incit@@
L'intervalle
style
objet
lourds
Poly@@
bourg
agricoles
Modification
Haarlem
N’arrêtez
souven@@
Objec@@
rendez-vous
parent@@
mass@@
attitude
teau
boute@@
publié
Ti@@
page
transportent
Suite
remarqu@@
appell@@
uniforme
communic@@
autoriser
trouverez
problèm@@
l'É@@
transfrontali@@
procès
citoyen
dangereuses
ère?
révol@@
équit@@
paiements
fraude
mérit@@
kilomètres
prison
frontière
dialogue
évidemment
vivent
c'était
pauvret@@
contro@@
L'étiquetage
clandestin@@
te!
alisme.
cultur@@
investiss@@
sida
d’euros
concrè@@
l'argent
usine
malheur@@
riez-vous
d'autres.
t?
serait-il
avions
dirait
6-0@@
Peut-@@
Récemment,
(A4-02@@
Seule
Voici
mark
90%
alternatives
AMMONAPS
immédiat
oS@@
explicative
cependant,
dèmes
sous-groupe
clusion
entérite,
ophie
stri@@
paraly@@
colite
rect@@
effectuées
tide
ganglions
carcinogénicité
répan@@
récent
thor@@
TNF
amm@@
fibrin@@
consac@@
Type
acétylsalicy@@
51
perform@@
Glivec
appropriées
Cetrotide
partici@@
l'intégr@@
appelées
microgrammes.
arthr@@
suivi.
situent
perturber
thyroïde
Vel@@
déterminé
atteignant
hospit@@
3.@@
mg@@
QU@@
LY@@
mique
acept
saquinavir
carbam@@
scores
Health
jour),
dée.
kg)
C/
lip@@
L,
intermédi@@
périodi@@
applications
nourriss@@
multipl@@
sée
d’environ
pharmacologique
tolcapone
tal
identique
ajouté
NovoLet
second
illet
ation/
‘
occasionn@@
bilirub@@
PRODUI@@
phén@@
gastro-intestinal
institu@@
ffice
ae
toxic@@
nos@@
satisfaisant
relations
myocarde
profond@@
PC@@
logi@@
héli@@
main,
ée)
orphel@@
acné,
erais
VOIE(S)
AIRE
hydratation
avertis
l'intern@@
GFR@@
cholestérol@@
contest@@
quotidiennement
soy@@
malad@@
cémi@@
Ul@@
Ur@@
ée:
février
extension
otr@@
war@@
rhabdomyolys@@
commercialisées.
'œ
épilep@@
d’éviter
Grou@@
déconseill@@
situation.
vertigin@@
suivies
uniques
produisent
carcinogène
orthopédique
ml).
gastro-
spécifiques.
Irlande,
produire.
appropriées.
LIS@@
retards
rite
fil
précip@@
J.
l'injection,
asth@@
Gmb@@
discipl@@
estér@@
adaptateur
jusqu’@@
dinavir
didan@@
alan@@
jus
nasale
bruit
acul@@
ches.
organe
Tél.:
E-mail:
…
99mTc@@
coc@@
MAC@@
6.1
INE
stro@@
progest@@
m)
IN
Jac@@
's
OX@@
ouverture.
reconstitué,
microgrammes@@
conservation,
Keppra
thrombocyt@@
Agu@@
échang@@
échantill@@
bactérie
All@@
VIRACEP@@
ash@@
d'évènements
malin
infec@@
1000)
thyroï@@
spontan@@
paupières,
endocrini@@
conjonc@@
étranger
gran@@
éro@@
oire@@
accidentellement
felis
accroît
écu@@
Voir
d'informations.
chinois
transfér@@
thrombine
paroi
algi@@
regroup@@
boite
“@@
flacon@@
demandé@@
dits
celui-@@
muscle.
partag@@
London,
ogènes
infection.
d'arrêt
traumatis@@
délicat@@
auquel
s'attendre
recher@@
envisagez
l'ob@@
tension,
fiée
VIH,
Risque
interven@@
données,
dangers
atmosph@@
métaboli@@
signifi@@
herpès
l'ap@@
report@@
remplir
liv@@
positions
stéril@@
Erbitux
ustr@@
bag@@
photosensi@@
solv@@
ONS
357/
358/
ZYPREXA
divergences
nar@@
èrement,
monop@@
Tél:
personnes.
de?
Fréquent
féli@@
abilité@@
moin@@
ration
endront
eck
retirée
orang@@
ov
ards
plat@@
Glustin
COX@@
enceinte,
années-@@
pani@@
elle-@@
jau@@
annuel
monoclonal
belg@@
pH
avant.
nourriture.
omie
longs
entez
introduite
essions
journali@@
problème,
tém@@
procur@@
TRISENOX
prélèvement
ole.
alement.
Vac@@
maïs
LV@@
irréversi@@
Insuffisants
durée.
za
l'aven@@
386
puissant
pneu@@
moder@@
Ren@@
collègues
Kingdom
fabricant(s)
ng@@
20.
déjeun@@
cham@@
équi@@
agrég@@
transmis@@
ettez
Parkins@@
différenci@@
entreprises.
incluse
apporté
spécul@@
d'incidence
correcte
compte-gouttes
licit@@
ā@@
ba
intervenir
distrib@@
arc@@
écrit@@
décision.
prononc@@
étaire
Bou@@
introduit
tiers.
demi@@
échanges
voyage
autom@@
chant@@
êtr@@
numéri@@
l'Irlande,
ante-@@
propagation
ajoutée
conf@@
rent
bons
vrai@@
l'Autriche,
traite
investi@@
Européen
Porte
69800
advi@@
imes
buvez
dress@@
paragraph@@
Prés@@
Ramsgate
Prendre
maladies,
décider@@
Puis
Qu'en
pages
porte@@
tir
Bos@@
Se
moment,
juridique
histori@@
avortement
que"
Vingt-@@
endre,
Αγίου
Δημητρίου
GR-174
Άλιμος
30-210
affir@@
bâti@@
sont-ils
drapeau
allou@@
électricité
persécu@@
brev@@
autres.
commis@@
tragédi@@
transports
émis@@
dirige@@
peuple
métaux
meurent
guerr@@
étonn@@
vols
aujourd’hui
l'an
encor@@
pensi@@
circons@@
libéralisation
e-t-@@
occident@@
fronti@@
Parlement.
terri@@
offensi@@
servir
ai-je
parven@@
rions
démocratie
bois
me?
dollars
l'intérêt
entendu
danger.
terror@@
irait
ra-t-@@
noc@@
ens?
procès-verb@@
connaissez
erons
/1999)
Souvent,
Ferr@@
Bir@@
enlever
précé@@
canal
coquelu@@
82@@
randomisée,
avir/
giène
benzodiazépines
omi@@
agoniste
agon@@
CG@@
sommeil,
avaler
mie.
SN@@
méning@@
sévères,
sensibilisation
brady@@
contrôle.
respectivement,
l'infl@@
DMO
gamm@@
évacu@@
2),
comparée
préparer
sées,
manuel
(non
h.
MD@@
onu@@
yttrium
tripla
amid@@
migration
iloprost
(pharmacovigilance
gastro-intestinaux
doses.
Médi@@
(IR@@
restre@@
intensité
(100
(AS@@
osseu@@
bêt@@
l'inhal@@
l'amprénavir
VHC
important@@
cardiovasculaires,
néo@@
fungine
zheim@@
sérotonine
olys@@
gastrique
l'anesthésie
persistante
parcour@@
,5
h/
excell@@
SO@@
on;
féline.
es/@@
l'organisme,
retrouvé
cica@@
quam@@
IONSYS
trois@@
azanavir
pec@@
SE
profils
vessie
apparue
optim@@
croisée
pran@@
Sprim@@
plasi@@
utions
aveugle
SC
support
litres
détail@@
PREMI@@
érythème,
biotechn@@
déficits
euph@@
ford
4.3
employé
Er@@
1987,
Berlin
bovine
licence
omo@@
autorisées
lymphoïde
médicamenteuse
pot@@
doul@@
bébé.
(F@@
électroly@@
évoqué
phosphat@@
renforcer
produites
sections
examiner
présents
d'Am@@
pression,
l'asthme
Rare:
contu@@
émergence
altérations
informations.
parine
ecchym@@
ym@@
grasse
internes
prélimin@@
yra@@
cerveau
nez,
continence
d'hypoglycémie
ites.
humaines
ativement
hamster
initiales
dex
vétérinaire.
nouveau-@@
bronchite,
occasionnellement
benzalkonium,
âge.
gam@@
humi@@
protéinurie
s'impos@@
génique
ast
ômes
psycho@@
ocu@@
ony@@
Animal
CP
d'éventuelles
Diacomit
épilepti@@
cœur
batt@@
qué.
Veterinary
EUR
d'association
dernier,
université
automatique
l’administration
actionn@@
flacon)
oesoph@@
cou
abdom@@
impéri@@
Douleurs
issons
ón
Agence
aw@@
élevé.
EI@@
hydrox@@
oprost
Produit
nag@@
administration,
Dyn@@
neumon@@
cus
pH)
disparition
.com
Tallinn
tic
fili@@
cot@@
glande
cès
tons
rapides
virale,
simplex,
flam@@
activité,
l'agricul@@
complexe
Opti@@
yeux.
bibliothè@@
indicateurs
bac@@
approuvé?
suspen@@
2006,
gardez
artan
ostati@@
auto-injection
issage
anti
précau@@
Viread
lumière.
éris@@
touche
spécifiques,
BeneFIX
collabor@@
certi@@
isot@@
expliquer
règle
Kr@@
fabrique
Envir@@
combiné
médian
filtr@@
dén@@
ocr@@
risques.
motifs
benz@@
huile
ourdiss@@
Etude
134/
152/
103
XXX
415/
orodispersibles)
/05@@
températures
solution.
entour@@
couvrir
effort
hyl@@
ls
stabilité
mout@@
Pas@@
PRINCIPE
ACTIF
annonciateurs
Wilzin
complet
entan@@
l'ouverture
conç@@
paration
accent
l'environnement,
Grande-Bretagne
batter@@
organiza@@
N'utilisez
Office
Herpèsvirus
Seringue
ger
blanche.
Nobilis
provoqu@@
supprimer
3),
instaurer
infection,
évité
sure
contracep@@
s'applique
sinon
antirétroviraux,
ane.
onner
d'autant
journée.
variations
rues
reb@@
spécialistes
vaches
rejet
revenir
restructur@@
Suède.
écra@@
Intervet
Sa@@
tion:
ites,
prévoy@@
prés@@
ecter
di,
amp@@
LS
sun@@
conçue
dépendante
doseur
indiffér@@
aine,
juge
bes
am,
évitée.
bot@@
circulant
harmonis@@
fur
d'unités
étiquette
uniform@@
ennes.
l’heure
cé
avancé@@
bande
apporte
ture.
défi@@
satell@@
ai.
Méth@@
juri@@
préjudi@@
réussi
transformé@@
cuiss@@
chemin
aéroport
précis
blessure
notam@@
rit
aient,
interprétation
titulaires
ènes,
délais
comparer
avantage
l'UE@@
suffi@@
Roumanie
l'obésité
foyer
Cour
illu@@
repose
L'olanzapine
bien-être
Polo@@
niveau.
sond@@
k.
Métabolisme
irland@@
dépas@@
centi@@
peur
déroul@@
afric@@
ole,
ko
Premi@@
Mad@@
études?
qua@@
Vo@@
piè@@
ná
Sujets
opini@@
accord@@
abu@@
résultats.
proposer
terroris@@
elle-même
marchandises
villes
problème.
non,
Communauté
éthi@@
épuis@@
pétr@@
quotas
donc,
politi@@
sociét@@
coupa@@
çon
hongr@@
décen@@
l'étrang@@
construire
cim@@
crati@@
nob@@
données.
Zimbabw@@
détention
bientôt
rémun@@
fou@@
vrai
dommag@@
m'a
malheureusement
palestini@@
erai
gaspill@@
carbur@@
missi@@
collè@@
électeurs
intérêt@@
L’UE
ons-nous?
ences?
Permettez-moi
èmement,
æ@@
interprét@@
evi@@
instauré.
diphtéri@@
retirez
auparavant
récemment,
administration.
(ex:
capa@@
composant
cérébro@@
chimie
cohor@@
(18@@
om
disposant
ZI@@
adéquate.
Kivexa
esthésie
hosti@@
ère)
postnat@@
d'équilibr@@
étri@@
Ka@@
avérée
d'1
ess
Tredaptive
1%)
compara@@
noté
invasi@@
applicables
prothrombine
l’Agence
fractionn@@
clé@@
inévit@@
contexte
ench@@
inflammatoire
harmoniser
l'aliment@@
pancréas
siège
hebdomad@@
ité)
corticostéroïdes
excrétés
tionnaire
N)
contrôles.
étap@@
mus@@
inconnu@@
total,
lait@@
130
35%
venlafaxine
alimumab
AT)
d'imagerie
dienne
déprim@@
fertil@@
InductO@@
tolér@@
IV,
ergiques
cholinergi@@
(soit
génit@@
ans).
individuelle
pénicill@@
veineuses
Lucentis
Rebetol
9)
spondylarthrite
fel@@
OS
neutralisants
l’in@@
radioactivité
environn@@
Zometa
0,5@@
p=@@
faible.
rét@@
muline
l'éfavirenz,
4).
leucocyt@@
hydrochlorothiazide
74@@
Actrap@@
InnoL@@
goû@@
approb@@
RENOUVELLEMENT
Médicament
renouv@@
moteur
sine
retrouvés
exie,
croû@@
convulsions,
fistu@@
pleur@@
conférences
Pierre
Nord
prolongée.
poitr@@
estom@@
vésicule
Annexe
DÉ@@
rouge,
fici@@
“
thème
iri@@
langue,
Del@@
légères
eur)
80,
Dem@@
modérément
me)
(syndrome
attein@@
d'ur@@
nes,
sori@@
ha
formulations
diffuse
l'entecavir
éclair@@
angi@@
anticoagulants
tachy@@
accompagnés
publiés
complexes
concours
agence
placés
rédig@@
concl@@
aér@@
stillation
coxib
énati@@
période.
visuels,
vertiges
antirétroviral
semble,
pharmacodynamiques
cér@@
mâch@@
thèmes
trap@@
pratiquer
Ces
inflammatoires
ONN@@
re/
apparus
allaite.
surveiller
glutam@@
cholestérol,
créatininémie
immunosuppresseurs
s’av@@
millepertuis
essouff@@
savoir@@
papill@@
équipe
msd@@
co-
supervision
nourrisson
buccal
glycine,
Acide
d'eau,
Diminution
Ven@@
Pays-Bas.
peux
délégation
........@@
combinés
kg,
AU
morce@@
l'immunisation
valosine
dil@@
Prom@@
dysphonie,
sommeil
manif@@
GE
Novo
C/@@
nourr@@
FE@@
agres@@
fongi@@
rapide,
soleil,
basse
bactérienne,
herpes
ruption
aque
thiazidiques
transparente
prophylactique
infectées
ovarienne
ote@@
EMEND
aggraver
l'économie
l'équipe
française
d'administration,
matique
cela@@
accidentelle,
d'effectuer
l'aiguille.
l'épo@@
acét@@
molécules
NovoSeven
qualifié
Mét@@
développe
estation
d'an@@
circonstances.
VANT
(E
Gard@@
interrom@@
glycoprotéine
suicides
veris
sécuris@@
monoclon@@
lot@@
(0,2%
Jos@@
Madrid
l'extérieur
Yttriga
Fix@@
029
43
426/
01@@
Medi@@
viation
vêtements
fantaisie}@@
thrombocytopénie
oxyd@@
Chaque
monohydraté,
acry@@
pergill@@
e}
inspir@@
othérapie.
avenue
Vall@@
PG@@
existe@@
jusqu'@@
ercice
l'ampoule
Actraphane
accords
sentiment
Rh@@
territ@@
Gall@@
l'inscription
Go@@
08
Puh/
Finland@@
tus
naî@@
coxib.
réuni
attaques
OC@@
Ram@@
Antigènes
Hypo@@
gues,
envers
AUC
mesurés
transformation
énergie,
aupar@@
financières
correspon@@
recommander
indispensable
d'adapter
précon@@
nourriture,
résoudre
convainc@@
théori@@
protéase
envelop@@
protège
mandat
substitu@@
ermine
gê@@
ophob@@
thèse
ctu@@
AUTRES
écriv@@
l'année.
allemand
barre
faciliter
cicatr@@
fabriquer
registre
suggère
Clopidogrel
cibl@@
probénécide
équivalentes
longueur
engagement
nal@@
écrit
signaux
impose
excepté
défectu@@
octroi
prouvé
séance
l'hypoglycémie
marche
scrupuleusement
tribunal
existantes
propri@@
Rob@@
consommateurs,
encl@@
jur@@
Ros@@
remboursement
thérap@@
débou@@
garantissant
sés,
sex@@
(pourcentage
fixées
ethni@@
ématique
Qui@@
cinquième
bis@@
dépendance
pe.
traduit
précise
combattre
-ci.
endrez
bus
MARCHÉ
aj@@
Publi@@
congélateur
Peut
numéro
ANO@@
entend
Ara@@
aine.
Sandwich
9NJ
Hampshire
dois-je
VETER@@
phyt@@
is?
l'industri@@
amend@@
Répon@@
éliminer
apparaissent,
es",
Question
n’êtes
voudr@@
zlo@@
Suc@@
intolér@@
exception
désir@@
verrez
pun@@
marchandis@@
déplor@@
budgét@@
israéli@@
mais@@
grand-@@
préci@@
soup@@
vod@@
massac@@
provenance
mondial
emball@@
équipements
Tchétch@@
c'
impressionn@@
navig@@
définir
onni@@
inond@@
payer
èges
annul@@
décl@@
indemn@@
filles
jeunes,
signat@@
élément@@
label
coûte
alloc@@
VIH/@@
demn@@
politique,
d'euros
frontières
ONG
dire,
sport
jeux
combusti@@
chasse
peut-on
el?
militaire
investissement
milit@@
mili@@
souci@@
faisait
livres
automobile
sanctions
laissé
question,
OCM
L'ordre
que!
guer@@
oublions
pensez-vous
ce?
ir?
Pense@@
(A5-03@@
(A5-02@@
(A4-03@@
(A5-04@@
Résultat:
Danmark
DK-2@@
WI@@
symptôme
VP)
majeurs
inclusion
pivo@@
mg).
tumé@@
faction
genou@@
observé.
ostéopor@@
22%
mesuré
chromosome
alté@@
divisée
vir,
thr@@
anxiété,
affec@@
mém@@
nécr@@
réalisée.
lévo@@
intestinale,
cytarabine
oration
minute
gure
tolérance,
IT@@
eurs)
modérés
décentr@@
ventil@@
ubi@@
normalisation
d'infections
surdosage,
vécu
l'end@@
leuco@@
két@@
gêne
ale)
l'issue
d'induction
fréquente.
mmH@@
visite
RES@@
ès@@
profonde
oedèmes
améliorations
CYP1A2,
ritonavir,
acerb@@
tardi@@
go@@
contracter
nitr@@
gène,
cisplatine
EL
J
cand@@
III.
(le
myalgi@@
320
d'aggravation
Extavi@@
devenue
corticoï@@
l'alendron@@
émé@@
pourcent@@
naturelle
stimulant
ithromy@@
distinc@@
ogr@@
Remicade
deux,
enregistrée
posaconazole
tidine
hyl
cysté@@
émerg@@
aliskir@@
a/
jour).
dépendant
lodip@@
orales
ill
d'insuline.
obèses
(AD@@
d’ex@@
listat
SUR@@
absorbé
entiss@@
examinés
survenir.
produit@@
photosensibilité,
pseudo-@@
légers
France.
détach@@
chargée
bloc
curonium
Ery@@
visuelle,
allergique,
ophobie,
l'épilep@@
éma
magnési@@
quatrième
certificats
désignation
piration
urinaires
clam@@
régr@@
VÉTÉR@@
dre,
correspondantes
constitution
ters
d'emploi@@
caoutchouc.
libé@@
dép@@
elle@@
Farmacêuti@@
Lda
indo@@
oleptiques
pique
sud@@
août
poll@@
médicamenteux
lactation.
leuc@@
hématomes
maculaire
occa@@
ful@@
omatiques
spl@@
oblast@@
o-
monothérapie,
Des@@
pneumonie
YS@@
(13@@
Act@@
sueurs
somnolence
dissémin@@
transporteur
istance
vach@@
Fos@@
épistax@@
Zen@@
recommandés,
rétinopathies
primaire
né,
Mises
Fuzeon
tête,
l’information
notifications
côté,
définies
immunit@@
introduites
O-@@
se)
confirmés
aigus
ulcérations
instauration
Fort
laan
déterminera
d'Insuman
Optisulin
blé@@
-Str@@
adjuv@@
(patients
Dév@@
européens,
ogé@@
Evénements
TOR
corporelle.
épidermique
constipation,
plaies
emar@@
Pradaxa
Berl@@
l’Uni@@
eons
pharmacie
opie,
(9
conférence
…@@
Warszawa
Sup@@
Marché
liquides
postopérat@@
gastro-intestinale
Wi@@
ogi@@
ef
Organ@@
sympathom@@
soupl@@
O,
rifampi@@
infection@@
andem@@
éosin@@
UNE
opharyng@@
sacs
vigil@@
Holdings
tee
gsk.com
vul@@
plaçant
pensées
sèche
spas@@
épuisé,
muscle
mir@@
confu@@
larm@@
oculaires:
l’œil,
ée;
Cat@@
alizumab
(EPAR@@
vej
Post@@
(PLI
........................@@
1995
inique
cataly@@
pré-remplie
EMADINE
d'administr@@
allem@@
Jan@@
ouvert.
une,
médic@@
instau@@
tée.
quart
l'hôpit@@
Pan@@
adapter
d'installation
périodique
guère
ene.
l'Annexe
UB@@
otype
zonisamide
er:
lunettes
ques;
maintenance
AND@@
nutri@@
méthod@@
dialy@@
d'appliquer
constituti@@
MT@@
posé
d'amélioration
intervenant
d'épargne
voici
ectine
spéciale
éthan@@
ab
papul@@
rémittente-récurr@@
Diskus
FA@@
indépendamment
écras@@
mus
Parkinson
l'ent@@
indépendants
031
pés
orodispersibles
366/
59
425/
08/
484/
récentes
Rati@@
opération.
exagé@@
éventuels
suivantes.
d'acides
dine,
40,
réfract@@
ution,
SUBSTANCE
TIN
da.
nau@@
Ath@@
(Prot@@
Filgrastim
lem@@
dat@@
enceintes.
pli
dées.
demeure
l'AMM
ventions
ā
ophilie
°C.
ples
extérieur.
noir
jaune,
CB@@
perf@@
imit@@
km
l'érythropoïèse
d'impact
sulfamides
SOL@@
Pet@@
tél@@
ann
utin@@
inactivé
HEXAVAC
opaque.
oriz@@
Maladie
denti@@
mand@@
IB
division
aujourd'hu@@
catégori@@
ues,
causées
thyroïdiennes
euti@@
conducteurs
bras.
apparu
atu@@
conséquence.
différents.
d'ad@@
REYATAZ
CIA@@
d'immunodéficience
Rot@@
claire
soul@@
tiriz@@
différemment
commencent
partenaires
monter
poules
ynam@@
lents
d'habitude
sérotoninergique,
rase
L'ELIMINATION
hémorragique
l'hist@@
communes
l’eau
Viraferon,
r.@@
loratadine
quasi@@
darbepoetin
fran@@
Nobivac
L'activité
émise
médication
pesant
leucose
passent
fixée
composée
absol@@
oxone
ac.
abolis@@
croissance,
étis@@
numér@@
pratiquée
élevage
êt
session
supporter
l'adoption
Ranexa
varier
alfa@@
l’ensemble
important.
retourn@@
muné@@
réponse.
engagements
erte
basées
social
compétence
éducation
lénalidomide
riers
stituti@@
dé,
sensiblement
énorme
enveloppe
pressions
divers@@
Synag@@
co-rapporteur
Sec@@
assum@@
secondes,
vaste
tout-@@
bien.
glycosi@@
financière
lourd@@
éloign@@
vite
l'Irlande
prouve
prévisions
Tevagrastim
l'avenir
relève
Lin@@
ple@@
identiques,
mètre
références
Mag@@
cles
plong@@
épais@@
introduction
situé
Orale
Sw@@
sujet,
Placer
composition
emploi@@
l’autre
Précautions
ordonnance
TAN
terres
Slovenija
identifiées,
Soixante-@@
Nat@@
2010
minu@@
directive.
annex@@
Vu
décharge
compagnies
réfugiés
alarm@@
prétex@@
plafond
catastrophe
considération.
banques
venez
contraign@@
élections
chass@@
tortu@@
biens
salaire
lacunes
épou@@
usines
?u@@
automobil@@
allég@@
empê@@
indépendance
montagn@@
États-Unis,
retomb@@
Afrique
terrorisme
dialo@@
importations
bateaux
discrimination
ance?
rum@@
Améric@@
crée
disant
euros@@
cesse
coordonn@@
défens@@
L'exemple
néerland@@
meill@@
prison,
voudrais
hypocris@@
dissimul@@
sens.
erc@@
certitude
vict@@
doné@@
L'interdiction
faut@@
îles
l'autre.
secret@@
effac@@
lieu,
remarque
famill@@
étiez
sovi@@
devrait-elle
l'exemple
croit
emprisonn@@
avons-nous
kilom@@
voulons
Merc@@
ons?
brevet
6/98)
conque
Ont-@@
elles?
Personn@@
Savez-vous
Qu'a
/00)
2/2001)
Vient
Voyez
ps
94
moxi@@
robin@@
antipsychoti@@
bA1c
contribué
l’effet
articulation
arrêts
l'obtention
hypertension,
continu
neutropéni@@
Ev@@
5'-@@
0,1
prématuré@@
l'hom@@
correspondante
3,3
d'att@@
exie
détr@@
max
oxaparine
omycine
intéres@@
comparés
otoxicité
répartie
AX@@
immunoglobulines
mée,
mémantine
envisagé.
photéricine
fluvastatine
libérer
ib
olimus
77@@
ORT@@
risque)
l'atteinte
hallucin@@
existant
progress@@
étro@@
ES,
ulcér@@
ménopau@@
anti-
alfa.
tigécycl@@
-2-@@
rasburi@@
CYP2D@@
conjug@@
traités,
sérotoninergi@@
kg.
atine,
coque
urinaires,
antérieure
mois)
Interféron
élu@@
musculaire,
oreill@@
pulmonaires,
iton@@
Ci@@
aire),
anthracycl@@
comparant
pèsvirus
OSSE@@
EMEN@@
104
mère,
sper@@
aire).
Protop@@
clar@@
touchant
Tél@@
Levemir
simultan@@
modéré
graisse
antihypertenseur
dose-@@
individuels
MIRAPEXIN
écrasé
intrac@@
D’@@
ceftriax@@
actifs.
alisés
Date
________________@@
2001.
épaiss@@
critiques
Kap@@
mic@@
1995,
multination@@
y-@@
1990
impliqué
02
imm@@
(jusqu'à
volu@@
FIN@@
net
rose
escence
kér@@
dal@@
sanguin@@
LMR
traits
nés.
Demand@@
éru@@
lun@@
MAO
préal@@
rib@@
aem@@
D'ADMINISTRATION
d'experts
tise
disoprox@@
précipit@@
ISR@@
aériennes
benzalkoni@@
n'inhibe
convenablement
cirrh@@
hautes
spécifications
cale.
rachi@@
méningite
émotionn@@
Produtos
pancyt@@
infiltrats
pulmonaires
inage
pigmentation
envisagées
dure
rongeurs
biotechnologie
muscul@@
glitazone.
Ty@@
employés
applicable
d'après
heure.
temporaire
irréguli@@
jaun@@
rie,
rob@@
étay@@
lique,
sitagliptine
contribution
ine-@@
fibrill@@
l'hypertension.
gin@@
Dés@@
intravas@@
INC@@
Agenc@@
org
régular@@
conservateur
rénales
fén@@
prélè@@
prénavir
transmises
avérés
gest@@
ab.
assurance
dons
périphérique,
confidenti@@
Croh@@
oeuvre
itude
ermin@@
ORENCIA
azole.
botu@@
Ltd.
Fax@@
Deux
wit@@
xén@@
R.
externe
sociales
VI
dip@@
oth@@
pep@@
odilat@@
hydrate)
accélération
hépatiques.
l'indi@@
distinction
chirurgien
Royaume-Uni@@
Stras@@
affectent
Gener@@
oct@@
Tech@@
2005
étate
virémie
technéti@@
environ.
dix-@@
ene@@
kilogramme
isson
que/
collyre
mg/ml
eil@@
transféré
pand@@
utilisation:
kiné@@
coli
doubl@@
l'ajustement
Recommandation
6676
+370
SARL,
isom@@
anormale,
intér@@
ation),
flot@@
rup@@
fati@@
ôts
tén@@
d'inhibiteurs
risques,
ques),
fiel@@
ologue
rigu@@
permanence
reau
pule
omètre
idation
établissement
79@@
l'éducation
l’environnement.
outil
celle-@@
glimépiri@@
aisser
actives,
sous-cutan@@
rinc@@
CRIXIV@@
eusement.
chercher
suivant.
veine.
retin
quinol@@
vention.
poches
pancréati@@
sion:
sive
transformé
Véri@@
l'adolescent.
correspondent
compatibles
déconseillé
AG
l'imatini@@
ition
alfa-2@@
malign@@
immunitaires
tér@@
vertu
pylor@@
-à-@@
globulaire
ó
ise,
l'apport
ile
acap@@
métastati@@
030
032
033
137/
SER@@
exposer
sures
tionner
nuire
Examin@@
ut
glut@@
sorbitol
étam@@
silicon@@
AA@@
-P@@
ACTIVE
ACTI@@
vä@@
Tre@@
den
suspension,
ci-dessous:
renversez
88@@
ock@@
Fon@@
EP
anglais
pin@@

caractérisée
Litu@@
Land@@
labyrinth@@
occlusion
Sinus@@
acou@@
ches,
gél@@
Lan@@
aver@@
positives
Allemagne.
èlent
diamètre
BER@@
travers@@
JAMAIS
G,
prescript@@
ménor@@
mamm@@
omégalie
Phili@@
généri@@
intenses
lévétiracétam
brax@@
objective
justifier
publics
technologique
ADN
venant
pseudoéphédrine
individuel
positifs
Xeom@@
faussement
EST
légu@@
d'accident
VEG@@
l'alcool@@
Infanrix
sérum
l'eau,
Lituanie,
Pays
agi
ennent.
correctement.
vérifiera
207
espace
Tum@@
se:
SS@@
contenues
Pugh
compen@@
Pen.
pre
ments.
Cette
Ultratard
Stockholm
Mark@@
qu’à
tchè@@
ž@@
éléph@@
isi@@
homme.
enda
anesthési@@
Qu'il
[N
écl@@
opérationn@@
réchauff@@
cohérence
arrête
réussite
conjo@@
alisation.
cigarettes
aliments,
coups
témoign@@
pyra@@
umab
bureaux
retir@@
annuelle
mettent
encour@@
procédure.
l'harmon@@
régulateur
gab@@
20-@@
substitutions
terres@@
illustr@@
inhibit@@
institution
Kir@@
instrument
salle
US
Zyr@@
poulets
air.
195@@
mètr@@
NutropinAq
avantag@@
tê@@
("@@
budgétaire
tom@@
spect@@
plomb
lisi@@
nucléaires
ses,
ument
Chy@@
livr@@
ressembl@@
visit@@
sam@@
campagnes
poussi@@
oivent
entreten@@
précédent
aussi,
exigent
blanc-cassé
d'Utilisation
contourn@@
compensation
soumettre
hémoglobine
achat
choi@@
éclat@@
revê@@
Ori@@
tron@@
Cas@@
sément
applique
aîtr@@
révèle
terminé,
comptabil@@
apparemment
Tél/
Mainten@@
Maj@@
réel
congélation.
-même
ands
règlement@@
ca,
eaux.
nocifs
l'Europe.
répondu@@
l'avez
naï@@
sses
versi@@
paix
Commis@@
regar@@
Prac-tic
pauvres
Puis,
eni@@
Questions
S'assurer
pti@@
psychiatrique
trouver@@
sit
tés,
concert@@
ley
Souven@@
eilles
équiv@@
die
Var@@
appris
extraordin@@
l'écar@@
effondr@@
d'élevage
directive,
taxes
communications
avoc@@
décri@@
e»,
constitutionn@@
perç@@
lois
tier@@
production,
dérogations
connaissances
tribun@@
mensong@@
Somm@@
ici,
garanties
osexu@@
ainsi@@
européen@@
seign@@
empreintes
dit.
victi@@
célè@@
clav@@
notion
navire
urb@@
salu@@
tuées
allégations
é!
plaintes
êts
peines
prouver
agricole
t!
vot@@
trente
regr@@
bâ@@
Pakist@@
touchées
anda
mérite
l'espérance
L'industrie
croire
l'est
bill@@
eusement,
nifi@@
pacifi@@
amendement@@
places
enquê@@
plaît,
ez-vous,
munici@@
hon@@
connaissons
Nu@@
alor@@
aviez
ez-vous?
Puis-je
(H-04@@
Telle
ø@@
enh@@
Combivir
réduite.
CONST@@
rénaline
c)
explic@@
circonstances,
demandera
élevée,
incluses
d'utilisation.
0,8
ci-des@@
répartis
Philadelphie
désigné
hésitez
dysphag@@
malnutrition
mortal@@
situation,
H/
névr@@
ischémie
cheveux,
(SN@@
métast@@
occul@@
H)
sus,
din
trex@@
allongement
sec
ots
alopéci@@
Fend@@
44%
dermatite
accompagne
visuel
stati@@
articulaires
07
courbe
diminuent
symptô@@
rhumatoïde,
plus)
apl@@
semaines)
estin
croît
fibres
constatée
approfondie
molé@@
desc@@
ême
cerveau,
ome,
dermat@@
filtration
LS@@
5),
timolol
d'acuité
gyné@@
minime
possiblement
concerné
12,@@
alim@@
amélioré
olanzapine
phénylbutyrate
détectable
observées.
apture
és;
commenc@@
mesurées
dipivox@@
gemfibrozil
intolérants
habituels
ankylosante
17,
l'her@@
obtention
ovul@@
hématologiques
imagerie
GANFORT
oraux,
UC
prasugrel
enneté
(score
modifie
carbox@@
intranas@@
184@@
gabapentine
jeûne
calories
Enbrel@@
Rasil@@
nilotinib
longu@@
sartan@@
défér@@
18,@@
pramipexole
attendue
R,
hydrolyse
yl-@@
ety
sérotoninergique
Dar@@
l'Organisation
AUTORIS@@
antagonistes
poils
malaise
évaluation.
Santé
Cour@@
requise
MI
ÉS
l'enregistrement
vement,
73@@
Autriche
passage,
supplémentation
Avis
orphelins
infirmière.
tub@@
ajuster
d'action.
odermie
l'EMEA@@
(intervalle
ribos@@
ESS@@
'-@@
adol@@
liné@@
lithium
chapitre
régulation
buccale
25°@@
(HD@@
glucag@@
paragraphes
notice.
ricin
ant)
teri@@
déposée
2:
Ris@@
dien
peut,
instabilité
2002,
auto-immun@@
HMG-CoA
(dont
foli@@
trophie
pét@@
poussière
délé@@
encéphalopathie
TEV@@
purpura
épileptiques
pio@@
Aran@@
sensibil@@
omég@@
traduction
entrain@@
déliv@@
(ou
artérielle,
siff@@
nausée,
phospho@@
kinase
évaluant
dru@@
métabolisés
infectieux
cardiaque,
expériences
prénorphine
alfa-2b,
nt
Intron@@
European
VAN@@
))
élimination
queu@@
idiopath@@
orphelin
microsphères
l’UE@@
dégénér@@
médull@@
rapproch@@
1997.
prise,
pagn@@
plani@@
auc@@
rage,
l'initiation
syndr@@
olim@@
constante
aboutiss@@
Dodge
Immuno@@
aprépit@@
acidose
lèvres
fructose,
chim@@
floue,
ease
wh@@
styl@@
midité
cale,
d'aut@@
exiger
Lim@@
Estate
Docétaxel
(U@@
ologies
catalo@@
ew@@
10-@@
l’Autorisation
COMM@@
SION
otide
diffuseur
eta@@
Tou@@
duodén@@
ations)
sanguine)
Chi@@
Laborat@@
Rome
qual@@
Neulasta
DuoTrav
Trav@@
réfrigérateur
incorpor@@
flac@@
sexuel
rhinorrhée,
ère-@@
º@@
pH@@
+37@@
Ban@@
atan
Eff@@
agiss@@
aux:
Au
mains,
envie
issement,
paupière,
Vomiss@@
OLOGI@@
(pouvant
phases
ception
pousse
FORSTE@@
L'acide
Hongrie
individuellement
bro@@
Élimination
sous-cutané.
transdermique.
réglementations
circu@@

graf@@
contrefaç@@
intégré
emballages
saquin@@
substrats
liaisons
Produits
connu,
ovi@@
éman@@
scell@@
b)
Evaluation
1996,
1998,
incrétin@@
telmis@@
sévèrement
explor@@
Gliolan
zal@@
Silapo
réac@@
défaut
métabolique
enfant.
tiers,
respecté
prévu.
EX
allaitement.
GAR@@
d'utilisation,
Cast@@
E-@@
PegIntr@@
ième
stabilis@@
ke
actuels
l'exploit@@
cellulaires
tives,
YMD@@
nouveau-né.
Facteur
pleine
cheval
antibio@@
Pla@@
lob@@
applicateur
+351
Km
Etant
ase-@@
034
AIGUILLES
ampou@@
5/@@
108
EU/1/08/46@@
EU/1/08/465@@
EU/1/98/069@@
EU/1/98/070@@
98/
Ast@@
hanche.
bénéfice-@@
à-@@
soj@@
ingrédi@@
Martin
Insuline
PRINCIPE(S)
ACTIF(S)
Lane
Sign@@
indicateur
shire
800@@
sécur@@
féline,
ons@@
prérempl@@
enlev@@
seringue-doseuse
eux-mêmes
tec
ana@@
fongiques
l’or@@
initialement
mos@@
-8@@
porteurs
AR
l'initiative
mentions
possédant
Solution
cerve@@
greffe
accélérée
Fre@@
ensuite,
souhaitent
Cardoreg
d'allaiter.
VISTIDE
célé@@
d'alerte
Stre@@
historique
érez
mann
amor@@
(maladie
anal@@
pathogènes
Hydrochlorothiazide
structu@@
belge
occupe
cine.
mine,
neurodégénér@@
consid@@
continuer@@
visibles.
résum@@
correctement,
réforme
farine
posologique.
diluée
vraisembl@@
liens
extern@@
fluence
sein.
érieur
n’existe
systémati@@
follitropine
lait,
nomm@@
bénéficient
oise
donneur
transmettre
AX
pois@@
Escherichia
prothèse
Pati@@
Neuro@@
erius
IC@@
cros@@
vel@@
tions@@
ave
CELSENTRI
après-@@
Observ@@
Wor@@
uz@@
sis
l’ap@@
cycli@@
ent)
-20@@
systémique).
Wal@@
sse
fort@@
glom@@
développée
étudiée.
déclench@@
iques.
idité
majeur
somme
Normal@@
Protaphane
européens.
d'éliminer
Norvir
tô@@
orig@@
l'abri
fan@@
usuelle
permette
infantile
ustekin@@
enfer@@
achè@@
infl@@
endogèn@@
chr@@
rentr@@
tives.
présentée
véri@@
Tabl@@
(CEE)
transi@@
quotidien
rétablissement
confusion
soulevé
orientation
problèmes,
cyanure
minuti@@
Far@@
muqueuse
ī@@
Latvij@@
essionn@@
nés,
duré
ing.
Shire
sortir
ses.
participer
Ukra@@
corps)
d'hom@@
ancien
conteneurs
volati@@
alf@@
démograph@@
malades,
enregistre
répertoriées
modes
Memb@@
Meri@@
rév@@
installation
réserves
ension
appliquent
appliquées
1999
domaine,
appu@@
radic@@
sont,
autri@@
fragment@@
POS@@
énergéti@@
ame
étendue
zone.
boiss@@
qu'aucune
Vil@@
LISTE
dernier.
coch@@
d'An@@
bâtiment
options
AIRES@@
ÉCHÉANT
nocif.
effondrement
MODE
consen@@
économies
d'autre,
mélangez
éveill@@
N'oubliez
analyser
lent
Tot@@
longues
151
CT13
-02@@
Espoo@@
Esbo
avenir
nationale.
Protection
HUMALOG
utilisé,
démarch@@
duire
rez-vous
Seu@@
Seules
nap@@
stes
dévelop@@
espa@@
intitul@@
disposez
l’a
entendre
vous-même
evoir
cursale
inacceptable.
avr@@
méditerrané@@
stric@@
conflit
infanti@@
agus
sent@@
consent@@
producteur
embryon
l'oblig@@
quill@@
varient
centaines
spiritu@@
Euros@@
désastr@@
rifi@@
d'accu@@
ceint@@
publiques
taxe
violences
portation
stock
Tan@@
cadmi@@
trafi@@
savent
décourag@@
recul@@
ente-@@
esprit
lead@@
clô@@
print@@
barbar@@
arrivent
chose.
tout.
nive@@
ailleurs.
certes
agne
d'aide
caf@@
fille
recettes
profit
bran@@
céré@@
importation
scandal@@
Balk@@
nest@@
motocy@@
soigner
écos@@
C'est
cac@@
acteur
Turqui@@
panneaux
S'agit-il
insignifi@@
tonnes,
dévas@@
ESB
prix.
vor@@
alisme,
L'heure
quoi,
nuisi@@
ak
Gaz@@
rai
Constitution
Premier
sanc@@
vous?
loy@@
u?
là-@@
dernière,
navir@@
pêcheurs
bh@@
mettez
Nombr@@
Objet
l'instant,
Soit
DK
inscr@@
suffisant
qu’au
modè@@
56%
HER@@
patient-@@
otiques
endron@@
cytogéné@@
au-@@
Cyanok@@
engourdissement
gastr@@
rétention
récept@@
bexarot@@
ed.
agressivit@@
irritation,
accompagné
conduites
plasie
oïdes
adjuvant
rougeur,
mann@@
seringue.
plasmati@@
longtemps.
d'atteinte
peau).
omoteurs
INO@@
répondant
random@@
pergillose
locaux
Myozyme
iture
contraire,
maximum,
cutanée.
opie
van@@
ferme
propi@@
opro@@
ab,
citabine,
livre
bortézomib
rein
individus
suivant:
missions
metformine,
NeoRec@@
INVEG@@
anxi@@
12,
transaminases
d'accidents
montelukast
(moins
ocardi@@
réversible
individuelles
isoenzymes
1A@@
Rey@@
HT@@
dopamin@@
adrén@@
chronique,
l'essai
530
me/
pharmacologiques
comprises
plaques,
puissants
èse,
eczéma,
rougeurs
TORIS@@
(N
BR@@
lopinavir/
efficacité.
prédomin@@
injection,
FIRMAGON
mois).
calicivir@@
handicap
causant
évalué.
partielle
l’efficacité
compare
Tarceva.
rétr@@
zol@@
pharmacocinéti@@
ASC@@
dée,
optimis@@
das@@
(tous
Insulat@@
publication
nomateuse
familiale
café
er)
jugée
pandémie
EMEA/@@
CHE@@
__
prolonger
incluent
fiées
décoloration
nodu@@
CYP3A@@
mélangés
alopécie,
tachycardi@@
brû@@
confér@@
1986,
joindre
éné@@
fice
Irland@@
directrice
secrétaire
capuch@@
vessi@@
évolutive
IG
ose)
partenariat
neuromusculaire
hémoly@@
redi@@
bisphosph@@
s'effectue
Parkinson)
EMENT
95%)
olit@@
ale:
ophilus
avance
Contr@@
cum
infecté
ori
soumis:
prélevé
l'organis@@
altérée,
utilisés.
masculin.
insist@@
interstiti@@
orthostati@@
2008
mun@@
prémat@@
sug@@
détectés
lovastatine
agranulocyt@@
hémarthr@@
abdominales,
clér@@
suicide,
(se
fluoroquinol@@
bureau
établis@@
radiothérapie
sep@@
mér@@
intracellulaire
d'Enbrel
entraînent
l'animal.
4%)
neurotoxine
l'ambrisentan
bile
adalafil
qu'aucun
comparti@@
TRAVATAN
existants
cyto@@
prendr@@
l'ami@@
fiè@@
choc,
omyél@@
pneumonies,
fatals,
---
INSTRUCTIONS
memb@@
kérat@@
opathies
Emselex
mée.
diviser
Cel@@
greff@@
contras@@
ma-@@
grasti@@
corré@@
implications
reins,
vasomo@@
irréversibles
l'appétit
sev@@
vaccination,
angle
Κ@@
MBH
mulsion
,,
poitrine
ations:
méd@@
l'adul@@
europé@@
valpro@@
clob@@
olyse
son,
hépatiques,
sous-cutané
Rash
paupières
abig@@
anémi@@
fication.
CM@@
isomalt@@
dyl@@
etan@@
Royal
facul@@
ire@@
OptiClik.
étiqu@@
oudre
appeler
philos@@
dam
Confér@@
ska
estimer
spontanées
EUTI@@
intestinales
musculaires,
Organisation
BO@@
ories
imétiques,
ETI@@
piqû@@
ément.
l'immun@@
validité
Symptômes
linéaire
............................@@
feuille
odique,
Polysorbate
654
Kau@@
merck.com
š@@
eux:
citation
quants
aph@@
obstruction
Trembl@@
Thromb@@
Cepl@@
auv@@
alpha@@
durable
CU@@
LIFY
peste
01
gas@@
labor@@
olysac@@
chari@@
d'aboutir
argent,
ere
Royaume
stad@@
L'élimination
contribuent
)................................@@
FeLV
investig@@
lignée
NovoLet,
l'élabor@@
onor@@
incl@@
industries
chose,
prodi@@
commercial
troduction
suspendu@@
hl@@
atiques.
chefs
prévus
secou@@
ton,
couverts
ez-en
d’A@@
dépit
élevée.
l'étiquette.
médicale.
ral@@
mm3
algam@@
proximité
perstimulation
FOSAV@@
suspici@@
n'aura
oubli
comparais@@
Zer@@
vis
(HA@@
FANTAISIE}
GR@@
DER@@
Reg@@
mainti@@
performance
bétail
ampleur
(glycémi@@
interventions
nourrisson,
déclen@@
ive
gravité
intoxication
éventuelles
rénal@@
los@@
0,2@@
000,
Vers@@
ette,
fermement
Entre
productive
obact@@
sauvage
opénique
trophiles
Fern@@
estro@@
phénothiaz@@
anciennes
que;
tiles
surveillance.
entation
QUET@@
teront
oirement
cateurs
UES
endommagé.
inutile
6.1.
l'équ@@
⋅
Utilis@@
secondairement
ι@@
F-9@@
(0)1
600@@
Dublin
Pharmaceuti@@
Pot@@
Aldurazyme
rouges,
général.
mez
tiquement
Notez
muni
alu)
un.
affai@@
Procé@@
pouce
tres,
irrig@@
ly-@@
ex,
Eckenheimer
Top@@
étendu@@
Bratislava
CYSTAG@@
suppl@@
spécifique.
PH@@
na@@
scientifiques.
permanente
barrière
essayez
nº
itation
dirigée
appauvr@@
e*,
Lut@@
l'insuffisant
aspar@@
fène
ing,
atique,
nationaux
tait
éradication
d'État
antigèn@@
tivement.
orie
l/
Sau@@
application.
ption.
restriction
consign@@
Vectibi@@
correcte.
sens@@
cancéreux
intravitréenne
emplac@@
coïn@@
prendre.
bénéfique
perdre
occurr@@
l'Est@@
certifi@@
s'en@@
suit
indiquera
prén@@
abac@@
cidence
quin@@
tent.
L'EMEA
purifi@@
bactériennes
péti@@
Vimpat
vacciner
verse
redi
Insuffis@@
nimésulide
avec@@
Ljubl@@
Slové@@
courrier
+39
DH@@
septemb@@
adaptées
IT
d'aberrations
catéch@@
52@@
exacte
prématurés
2004.
priorités
l'établissement
Journ@@
officiel
d'équi@@
excéd@@
(0@@
diminués
disposent
(90Y)
Npl@@
kilo@@
englob@@
sexe,
bio-@@
meuble
superficie
endro@@
dépour@@
Tritaz@@
sé
connues
Tas@@
antimicrobi@@
approfondi@@
Wh@@
strict
accessible
correct
r-@@
refus
regard
sérotype
n'atteint
discuté
donnés
inconvéni@@
l'hypertension
divisé
spectrom@@
infrar@@
adoptée
élu
convenu
wi@@
diction
fumeurs
concile
ony
émati@@
fermer
ta@@
nomb@@
onér@@
élar@@
réflexi@@
jets
jette
citrate
roul@@
règ@@
calend@@
difficultés,
scénari@@
résu@@
REACH
pond@@
OVIS@@
naturels
en),
toi@@
informés
l’oxygèn@@
degrés
tées,
pilot@@
per.
es».
mobilité
tée,
fonctionnent
commercialisé
répertori@@
vois
lactique,
poursuit
l'Al@@
s'av@@
L’expérience
L'expression
ret
sorption.
refuse
accepte
rer
frais@@
Nouvelles
surface.
l’ar@@
RO(S)
Observez-les
Oc@@
accompli
phtal@@
suivante.
énerg@@
Personnes
boulev@@
358-@@
retournez
ation"
tez-@@
inadvertance
ras
Respect@@
vent,
Suomi/
Sach@@
sanitaire
parfait
date,
riez
n'aurait
péni@@
découv@@
fiants
vet@@
l'exercice
écution
l'ont
admissi@@
plaignant
vid@@
Toxicité
Troisième
domes@@
Tηλ.:
rivi@@
pauv@@
assisté
obarom@@
faill@@
céréales
exemple.
rel
pouvoirs
listes
partout
siècle
distan@@
modern@@
Kosov@@
autorise
incontest@@
natalité
étouff@@
tue
dangereux.
tombent
horr@@
là@@
sanctionn@@
carburant
vécu@@
routes
avan@@
Médit@@
territori@@
l'au@@
l'époque
aient.
obstacles
hausse.
mène
protectionn@@
place,
polic@@
parfait@@
l'enseignement
quoi@@
finan@@
écrite@@
pétroli@@
confis@@
quitter
dies@@
stig@@
polluants
piles
préoccupati@@
auteurs
roy@@
cinqu@@
access@@
cuis@@
voilà
vign@@
lois@@
igence
revenu
pensons
participants
mirac@@
alisation,
conducteur
infraction
invo@@
L'Italie
filets
obstacle
L'on
Cela
grec@@
excus@@
condamné
cartes
irré@@
habitant
peut-elle
aide.
abus@@
me!
l'Assembl@@
découverte
ait-@@
Barros@@
hait@@
transmissi@@
Gh@@
Eor@@
souverain@@
eux?
souligner
décr@@
Tam@@
chance
Qu'attend@@
Qu'entend@@
(A4-016@@
gem@@
udine,
(EMEA@@
arthrite
significatifs
tinib
égal
mesu@@
ulcération
uvir@@
ides
τ@@
plan-@@
prolongé
rufin@@
néphr@@
ofo@@
abolisme
pegaptan@@
transférases
osseuse,
ormon
umab@@
consti@@
élévations
ventri@@
antagon@@
(n@@
préexistants
olipo@@
pivot
stables
virus,
suites
rechu@@
Betafer@@
rétine
tipran@@
osin@@
transition
retrouvée
sif
vira@@
exag@@
ya@@
semblable
néfas@@
rim@@
entan
polypose
rosi@@
MM
licul@@
photosensibilité
estomac
rass@@
universitaire
↔
été:
renvers@@
ors
azép@@
ylchol@@
ts@@
Hep@@
est-à-dire
ura
uricémie
soumise:
vigu@@
spontanés
protégés
Der@@
portées
prélev@@
péridone
répétées.
l'appéti@@
stiripentol
(c@@
retarde
préalable.
tau@@
toute@@
précliniques
rat@@
tus.
ocard@@
formations
site,
----------------------------------------------------------------@@
http@@
pride
œdème
trices,
oxygèn@@
hésit@@
présidé
âni@@
moglob@@
come
π@@
pement
érap@@
potentielle
rang@@
étr@@
ibu@@
gluc@@
élaborer
ophi@@
professionnelle:
Dou@@
phénytoï@@
récipi@@
régation
vertige
ín
un,
renseign@@
orth@@
redev@@
trate
sévère@@
ecz@@
cardiovascul@@
créatin@@
shire,
vagra@@
pré-rempli
sidase
udine.
public,
atténu@@
opaques
dg@@
protocole
publique,
pharmaceutiques.
planification
TES@@
sum@@
proportionnellement
´@@
yer
transaminas@@
oes@@
ées:
é"
tendon
érance
fant@@
Viraferon@@
églini@@
considé@@
préférable
valences
potassique,
quelques-@@
inflammat@@
thiazidi@@
ri
tératogène
séc@@
pulvéris@@
nouveau@@
èglement
zinc,
accélé@@
tracon@@
AIRES
preniez
ritonavir@@
électroniques
polypropylène.
vertébra@@
ona
propriété
reins
ons:
stimuler
séparées
adine
ones.
sirolim@@
torémi@@
l'anim@@
spection
promouvoir
ynami@@
États-Un@@
apparaiss@@
ralentit
othérap@@
ogéné@@
tern@@
contrib@@
textes
arom@@
ayer
ève
compren@@
solvant.
ultérieur@@
répond
s'appliqu@@
paroxy@@
avé@@
oxybuty@@
recourir
sévoflurane
tombe
CV
opin@@
vant
Internation@@
doseuse
médiaire
téléphone
ú
Α@@
ya
torsion
paraît
IB@@
présentait
tus,
valence
épaul@@
primo-@@
régulièrement.
solution,
physiologique
rale
rése@@
Communaut@@
vigab@@
ving@@
viand@@
pronon@@
dispens@@
aveugl@@
talie
schizophré@@
opharmaceu@@
poids)
pression.
solvants
agl@@
compréh@@
intes
embl@@
possèdent
travaille
systèm@@
précaution.
surveillés
eux-@@
urgence.
Je@@
démo@@
requiert
purg@@
allu@@
stat@@
vider
combat@@
bli@@
tribu@@
pousser
régler
obtient
prévu,
Peu@@
osition
otez
Puis@@
p,
aie
éradi@@
certific@@
quiétude
Toute@@
isten@@
nav@@
mén@@
diffu@@
élevés.
ordinateur
prendront
polici@@
pays@@
paraî@@
oû@@
tonnes.
vit
travailleur
souffri@@
sûret@@
traçabilité
travailleurs,
erran@@
renvoy@@
processus.
voi
réform@@
réjou@@
élever
remédi@@
tourisme
aujourd’@@
surtout,
État,
onné
vieillissement
monn@@
retrouver@@
élargissement
meu@@
tu
ceux-@@
truc@@
pesticides.
on!
sauver
sold@@
cec@@
village
redi:
terait
espr@@
révoluti@@
peint@@
préoccu@@
serait-ce
occupent
Cro@@
ski
égal@@
s'agit-il
vendre
syndi@@
se?
TEN@@
Ziag@@
buv@@
l'abac@@
EXUB@@
rhée,
propor@@
thyro@@
usu@@
cill@@
démangeais@@
kg@@
mmol@@
opé@@
cartou@@
magné@@
UR
4.8@@
adoption
visag@@
MAO@@
itol
ilis
atteign@@
mière
Anti@@
herp@@
rm@@
pseu@@
tabag@@
alk@@
engourdiss@@
----@@
peg@@
tacr@@
boî@@
nucléosi@@
globul@@
King@@
ilib@@
Gl@@
(CE@@
stéri@@
IL
Ó@@
je@@
3A@@
pré-rempl@@
mouv@@
EMEA@@
Wy@@
Grè@@
citab@@
cept
cémie
Tev@@
rhinotraché@@
térieur
§@@
ver
TIONS
esthé@@
opa
pip@@
propyl@@
endu@@
paci@@
ν@@
entis
SUBST@@
deg@@
180@@
CHMP@@
éments
Í@@
Gen@@
E)
ONS@@
minist@@
arate
tem@@
chef@@
suspensi@@
vêt@@
atte@@
conom@@
ept
Slo@@
OptiS@@
ordonn@@
spir@@
Syn@@
op
Á@@
Sus@@
rapp@@
réf@@
aigu@@
manu@@
emment,
ß@@
spon@@
abri@@
erlo@@
inclus@@
apparti@@
érité
Liprolo@@
Effentora
inaccept@@
ire.
ecte
indivi@@
Luxembour@@
Shar@@
espèce
ed,
auriez
let@@
CHA@@
plaî@@
dif@@
particul@@
bel@@
l'emb@@
Tit@@
accom@@
diverg@@
resp@@
agne,
frontali@@
pénétr@@
accep@@
figur@@
domm@@
contex@@
èle
réfugi@@
Allem@@
beaucou@@
ait-ce
infr@@
vous-@@
ont-@@
Pren@@
interrompu@@
mule
cert@@
gne,
BYET@@
aconazole
rud@@
sir@@
méthotrex@@
ales)
iméti@@
8/
A).
Novo@@
opid@@
isch@@
sél@@
ovari@@
CY@@
glitaz@@
Servi@@
joint
glucose-@@
gment@@
yt@@
enz
lodipine
réduct@@
Neur@@
hypersensi@@
agli@@
agerie
Ob@@
intram@@
squel@@
imput@@
lide
--------------------------------@@
----------------@@
sat@@
rhabdomy@@
ύ@@
muscl@@
cidi@@
UTI@@
Kiv@@
FORM@@
ammation
ANS
Uni
Norv@@
thorac@@
cure
oxétine
bo
inhi@@
unes
Sev@@
glycér@@
afil
né.
–@@
asthé@@
éroïdes
épargn@@
persensi@@
Fl@@
anesthé@@
ATE
neutralis@@
ément@@
choc@@
AC
Flex@@
War@@
surfac@@
substr@@
dispara@@
Λ@@
exclusi@@
seringu@@
envir@@
brisentan
exc@@
juv@@
évent@@
pleur
pendant,
dénomin@@
Bus@@
nies
péné@@
registr@@
sira@@
Q
reff@@
tôt
abilités
mini@@
ouff@@
Europé@@
ressenti@@
ZY@@
ui
Espagn@@
Sin@@
oign@@
Voi@@
affi@@
mosph@@
récu@@
évi@@
convain@@
décid@@
Grande-Bret@@
matis@@
difficul@@
assass@@
traç@@
aband@@
aç@@
chaî@@
feu@@
plaign@@
Sy@@
a-t-@@
est-@@
Malheur@@
contref@@
faudr@@
Parallè@@
ièmement,
DK@@
méthad@@
encéphalo@@
Cir@@
infiltr@@
substituti@@
ensité
gouttes
FAB@@
Thy@@
étér@@
TM@@
calici@@
démange@@
ophiles
immunoglobul@@
thiaz@@
____@@
réfrigérat@@
atre
Te@@
kali@@
yle
fficul@@
adaptat@@
éma@@
immunosuppress@@
G-@@
secrét@@
glyc@@
/www@@
clit@@
aiguille.
dexaméthas@@
ilibr@@
poni@@
…………@@
Lon@@
Lé@@
écri@@
appara@@
ensibilité
stra@@
endu
endi@@
(ex@@
”@@
elph@@
corticost@@
ce-@@
struction
odique
Syst@@
chac@@
tug@@
octob@@
Etu@@
tens@@
nettoyant@@
thermoformé@@
κ@@
ο@@
fax@@
ophar@@
ė
line
Lor@@
tét@@
héré@@
dermi@@
Pax@@
véni@@
sili@@
Candi@@
irbé@@
hémodi@@
pace
api@@
vo
²
psoriasi@@
alidom@@
cassé
endue
pertur@@
diver@@
fév@@
ffici@@
eut@@
OptiCli@@
orph@@
dois@@
circonst@@
excl@@
BAS@@
poi@@
ram@@
oyez
7/@@
Portug@@
munodéficience
dol@@
NovoL@@
prér@@
subi@@
trag@@
onnées
empre@@
articl@@
lut@@
préh@@
pann@@
navi@@
défic@@
agit-il
Afri@@
tant,
Ving@@
rubri@@
glycol@@
folli@@
buc@@
sécher@@
approxim@@
caill@@
épis@@
intravitré@@
simul@@
stitu@@
compa@@
dimin@@
}@@
ficac@@
curoni@@
soumis@@
cispl@@
Ras@@
trig@@
cophénolate
suscepti@@
±@@
acétyl@@
exac@@
exe
ôm@@
VE
AVE@@
É
ention
foi@@
TIT@@
aisse
γ@@
limination
dures
°
citabine
Kin@@
dépist@@
450
nib
équilibr@@
za@@
giotens@@
uments
hane
sali@@
MIN@@
(S)
EU/@@
sè@@
congél@@
seignement
rand@@
Tηλ@@
FABRIC@@
énu@@
Cy@@
VER@@
Tlf@@
fantais@@
EM@@
âce
Gross@@
onnes
Allemagn@@
ã@@
ec
moiti@@
chapi@@
merc@@
auration
néph@@
ί@@
embre
STR@@
ferr@@
tim@@
Rib@@
fentan@@
séroton@@
β@@
leucopénie
bes@@
millepertu@@
vitro@@
érations
pulation
quet@@
lui-@@
elon
ints
équ@@
températ@@
itures
ades
Joh@@
å@@
orisation
foy@@
oit@@
bien-@@
Pel@@
gmentation
'est
ich
ète,
levé
illez
flou@@
promo@@
avor@@
ploit@@
stitution
poss@@
nouv@@
ez-vou@@
pesticid@@
siè@@
estini@@
réfu@@
pense@@
distr@@
Trois@@
RIS@@
périm@@
cicl@@
cade
fatal@@
inflixim@@
contrô@@
analo@@
conse@@
Comm@@
chromosom@@
ogéni@@
jeû@@
AUTORISATION
__@@
tatine
sept@@
ospit@@
ariat
gio@@
indétermin@@
errations
érythropoï@@
ilibre
CoA
ondr@@
idom@@
anaphyl@@
profess@@
psori@@
poid@@
ï
naus@@
GR-@@
š
pill@@
nicoti@@
IONSY@@
pension
lithi@@
aly@@
Intr@@
sorption
Kiner@@
peau@@
sar@@
Aff@@
†
ská
chon
™
♦
ida
cyan@@
poten@@
disper@@
amines
durazyme
Zon@@
μ
expéri@@
LIF@@
trodu@@
ε@@
σ@@
Τ@@
ηλ@@
sévoflur@@
Limit@@
front@@
aspect@@
l'An@@
l'exam@@
Fe@@
grou@@
Londr@@
scrupul@@
l'As@@
réper@@
omatique
doi@@
guéris@@
résou@@
M.@@
ourag@@
dang@@
celles-@@
ritan@@
im
égl@@
atisme
ş@@
cus@@
West@@
sémin@@
fluctu@@
automobi@@
lendem@@
fron@@
champ@@
Sain@@
conv@@
abou@@
iste@@
dollar@@
Tch@@
ă@@
Kos@@
1999)
périment@@
ù@@
ag
nous?
Permet@@
lopin@@
muno@@
pron@@
Humi@@
olan@@
zap@@
triction
verté@@
DM@@
HP@@
Kep@@
rier
opéci@@
’
oxic@@
DICC@@
done
Modi@@
ovir
rhumatoï@@
lissement
sement
estin@@
ος
Raptiv@@
Barr@@
LAS@@
Stock@@
l'adolesc@@
alie
Hamp@@
ider@@
info@@
aluation
délég@@
RISPERD@@
bioti@@
alco@@
décis@@
poetin
etu@@
ents:
mph@@
º
sympath@@
EU
bouff@@
ROVANCE
omar@@
chlorhydri@@
adu@@
η@@
ή@@
tavi@@
serve@@
Rapport@@
Grand@@
guli@@
ys
jonc@@
yttri@@
antihypertens@@
Maladi@@
DepoCy@@
vil@@
eils
ycl@@
υ@@
tali@@
janvi@@
cali@@
élé@@
romy@@
GlaxoSmithK@@
pancré@@
opidogrel
trat@@
lénalidom@@
douc@@
mécanis@@
pellicul@@
oc
est-à-@@
affin@@
ulc@@
correct@@
effectue
ission
ux
Sym@@
requi@@
Bru@@
aies
gré
Recommand@@
8/@@
kist@@
environnement.
nett@@
défen@@
approvisi@@
pesti@@
Commiss@@
signi@@
discus@@
fermet@@
d'abor@@
combus@@
dépen@@
l'équi@@
о@@
myocar@@
prophylax@@
céphalo@@
cipi@@
uité
cateur
stér@@
grippal@@
²@@
Protap@@
γ
strat@@
déficience
Remi@@
MINATION
intrav@@
cytar@@
l'entec@@
Whar@@
Tarcev@@
END@@
www@@
--@@
endocr@@
……@@
dermati@@
ELL@@
ofovir
kir@@
favirenz@@
(hypersensi@@
favirenz,
Roy@@
mail:
Trud@@
épil@@
Enf@@
intran@@
polyéthyl@@
des)
ERA
ATIONS
VEN@@
verb@@
d'habitu@@
traché@@
ofi@@
glitazone
omet@@
ect
diuré@@
otidi@@
conjoint@@
lév@@
sildén@@
maladi@@
MMONAPS
±
Tc@@
.:
Μ@@
Ε@@
l'hu@@
obil@@
hérédit@@
l'environn@@
prescr@@
emboliques
corp@@
Å@@
initiation
lingu@@
maï@@
ings
néer@@
ques-@@
enceint@@
male
lande,
bure@@
fal@@
Š@@
Danemar@@
stac@@
MERI@@
grastim
Ø
esti
Sandw@@
eil,
emballage.
curs@@
Î@@
cu
don,
estoni@@
eter@@
ref@@
emps
tech@@
accroî@@
l'Autri@@
paqu@@
proven@@
organi@@
campagn@@
coles
inad@@
Hong@@
statu@@
schi@@
Soix@@
épider@@
oed@@
lorat@@
pseudo@@
souv@@
ENO@@
venlafax@@
ovigil@@
ament@@
Ripraz@@
chir@@
Virafer@@
suppress@@
REYAT@@
précurs@@
ffér@@
diab@@
lesqu@@
riton@@
(CHMP@@
676
obi@@
acon@@
somn@@
incon@@
sence
gross@@
évation
limin@@
chlorothiaz@@
ROV@@
osante
allaiter.
ADMINISTRATION
dix@@
ssant
vieil@@
pilep@@
coï@@
bitu@@
EU/1/07/@@
θ@@
zyme
Lt@@
compte-@@
avas@@
ð@@
prur@@
CYP1A@@
enrob@@
Fabri@@
PRÉ@@
Fact@@
elle:
(90@@
Cli@@
ADMINISTR@@
ecch@@
>@@
antécéd@@
monteluk@@
Bene@@
exa
UTILISATEUR
Karve@@
SPRYCE@@
diam@@
titul@@
an-@@
Β
armac@@
atment
thrombo-@@
Ρ@@
contrac@@
rong@@
tilis@@
demment
exu@@
neurotox@@
praz@@
cins
Ê@@
étée
ī
sifs
MPLI@@
anhydr@@
vet
eva
epertu@@
évol@@
épar@@
conform@@
bénéfice@@
manie
ophtalm@@
z-les
Pfiz@@
resse
415@@
CONN@@
Ö@@
pramipex@@
gil@@
èrement.
ο
Bret@@
Doh@@
PONS@@
ţ@@
agri@@
ä
mange@@
issu@@
l'économ@@
déj@@
obstac@@
étroit@@
saum@@
orge
kra@@
posséd@@
empris@@
déri@@
drap@@
anie,
ń@@
dégâ@@
gouver@@
appl@@
ectar@@
enqu@@
débat)
ouvoir
Quatri@@
(A5@@
Souv@@
95%@@
secon@@
surdos@@
metfor@@
oxac@@
protoco@@
MabTh@@
mol
Levem@@
@@
_
PRINCIP@@
TOR@@
l'ins@@
µ
benzodiazép@@
neurom@@
cram@@
Gli@@
giv@@
NutropinA@@
oteurs
hydraté,
ore@@
Farmac@@
azan@@
Ran@@
pégyl@@
eczéma@@
istax@@
bulis@@
moglobine
ôme
UTILISER
©@@
sumé
Effentor@@
énol@@
érythè@@
still@@
médicam@@
½
polypropyl@@
TITUL@@
RESPONSAB@@
EU/1@@
Flac@@
vitez
MM/
Madri@@
ł
fél@@
‡
éro
GUI@@
CIA
mi
pharmacod@@
immunodéficience
CHAMP@@
Yond@@
giotensine
PROD@@
unaut@@
fruct@@
ormon@@
nimésu@@
Fas@@
hire
Nov@@
Σ@@
Pradax@@
onex
jon@@
zapine
cef@@
édr@@
nico@@
diagn@@
paclit@@
céph@@
bab@@
coxib@@
dispersi@@
eterinary
è
opharmac@@
Mab@@
Vimpa@@
VISTI@@
ige
ciméti@@
procè@@
pharmacodynam@@
trau@@
tionne
nausé@@
poule
pseudoéphédr@@
Kwik@@
STELAR@@
blanc-@@
Lietu@@
prov@@
monos@@
osphères
FAN@@
CATION
pation,
9N@@
fluoro@@
istre
≤@@
ode,
mette
Parm@@
ς
425@@
modi@@
UM@@
blan@@
l'extr@@
cus,
bureau@@
l'homm@@
plein@@
ferry
l'Allem@@
&@@
Bul@@
proces@@
chrome
Fran@@
ć
Monsi@@
tuti@@
éric@@
delà
mens@@
agra@@
comit@@
Résultat@@
т@@
е@@
bA1@@
fondaparin@@
dysph@@
dap@@
(90Y@@
vertig@@
TRISENO@@
opoï@@
titan@@
énér@@
lenti@@
inadvert@@
bibli@@
Pers@@
ankyl@@
GONAL-@@
cuillère-@@
Inhibit@@
Irel@@
Dipl@@
Rebet@@
lén@@
Tallin@@
hydri@@
convul@@
bles)
pravas@@
dge
Labor@@
Medicin@@
voricon@@
MIRAPEX@@
OREN@@
cepté
Nob@@
bridge
AIGUI@@
EU/1/07/4@@
δ
ω
ehring@@
ße
Telz@@
Chlamy@@
FH@@
actéri@@
gangli@@
d'exper@@
cals
Hémorra@@
LI
topoté@@
probéné@@
CEPRO@@
domy@@
Tredap@@
(SID@@
icité
pide
ω@@
odes
λ@@
30-2@@
apo
Emsel@@
BC@@
emption
liqui@@
Thyrog@@
Luc@@
FANTAISIE@@
biblio@@
Diacom@@
butyr@@
olol
ă
∞@@
VIR@@
hydrate
lamy@@
l'hyperten@@
OPTI@@
SON@@
ORACE@@
excr@@
utri@@
celu@@
sulin
poo@@
fung@@
somnol@@
mémanti@@
ß
infil@@
Č@@
pro
andis@@
—@@
émo@@
prolo@@
RES
apenti@@
Nomb@@
Ä@@
grossess@@
Indu@@
μ@@
Fabric@@
pès@@
ADMINIS@@
VIS@@
aum@@
rhum@@
ş
publika
zid@@
utorisation
heim@@
Pay@@
ercul@@
œil,
oricon@@
dagliptine
plom@@
anom@@
psychi@@
pauvr@@
détéri@@
paus@@
ègl@@
l'enregistr@@
jan@@
aujour@@
hui
erce
ř@@
phéri@@
curité
fav@@
artin
aume
ė@@
ôpit@@
l'Itali@@
cident@@
œur
ő@@
;@@
ǔ@@
pagne
ellig@@
/98@@
volon@@
scru@@
Lat@@
procès-@@
quatri@@
ý
Réc@@
jet:
cap
с@@
èses
τ
MMONAP@@
∝
ogénicité
________@@
core
sugammad@@
oté@@
stav@@
oro@@
pertu@@
ellulaire
eptiques
égalie
pra
calcit@@
®@@
UTION
Colle@@
Unités
eterin@@
FOS@@
a@@@
anomali@@
Duo@@
TRAVAT@@
impres@@
xembour@@
annonci@@
résumé@@
Sloven@@
étil
lend@@
Unis
Glax@@
Philadelph@@
allucin@@
/Tel:
oxicité
respon@@
travir@@
tolcap@@
MIS@@
Pelz@@
Trevacly@@
adal@@
cog@@
élév@@
timul@@
kins@@
kinson

Health@@
Œ@@
ό@@
η
ring@@
Φ@@
Β@@
Ι@@
Š
ά@@
proli@@
antirétro@@
cholestér@@
particu@@
entraî@@
gemfibroz@@
∞
quilis
DICA@@
réfrig@@
Thr@@
Yt@@
triax@@
oxication
nière
ņ@@
HUM@@
orodispersi@@
atini@@
Trac@@
Tracle@@
Naglaz@@
zonis@@
perg@@
CELSENTR@@
asil@@
CAN
wa
transamin@@
Temod@@
cortic@@
fantaisie@@
sanofi-av@@
Inform@@
Haar@@
Sloveni@@
ACEP@@
Néan@@
bepoetin
rémittent@@
bli
uni
drome
▲
○
€@@
Pug@@
YCE@@
ę@@
Prac-@@
TRES
ELIS@@
Trit@@
Winth@@
EME@@
EXA
ERE@@
YL
REN@@
SUB@@
ock
ACE@@
Resp@@
Puh@@
duo@@
Lill@@
glucose-galact@@
Т@@
Stockhol@@
caoutchou@@
ι
φ@@
О@@
iness
tez-moi
ani
approfon@@
intoxic@@
ffi@@
ocarbur@@
pyl@@
raisembl@@
ode.
extra@@
agran@@
TN@@
s-B@@
fit
aveug@@
réparti@@
ésu@@
­@@
ô
ś@@
proph@@
prophylac@@
pos
Observe@@
répert@@
spé@@
Ô@@
mons
hau@@
bit
vétér@@
l'étiqu@@
trang@@
rédi@@
élévis@@
enhag@@
Zim@@
nér@@
l'amend@@
bient@@
isra@@
dom
docu@@
Tall@@
Tem@@
в@@
ш@@
л@@
corti@@
anrix
↑
arctus
déshydrogén@@
Combi@@
ÉR@@
ReFact@@
lévétiracét@@
GANFOR@@
prénorph@@
eu/@@
heimer
zicon@@

psy@@
cteurs
AIS
thiazi@@
égr@@
crétin@@
Fastur@@
buty@@
Fuze@@
Prequ@@
énements
λλ@@
ό
FABRI@@
tos
CYST@@
Gél@@
fibroz@@
Č
→
bortéz@@
oder@@
≥@@
lixim@@
Lond@@
allè@@
inéti@@
Tevagra@@
terfén@@
Pegas@@
niloti@@
UTIONS
PRERE@@
Interfér@@
ophila
Θ@@
ý@@
acu@@
Jans@@
Janss@@
Cil@@
place@@
MAG@@
Υ
ń
ου
maravir@@
adéf@@
Vire@@
cinqui@@
gabapenti@@
-1),
méthox@@

4H@@
©
inergi@@
Starli@@
entor@@
Glus@@
HMG-@@
antihyperten@@
ONSY@@
Pays-B@@
éphédr@@
Myoz@@
Lju@@
ř
coag@@
Anim@@
velop@@
HEXAV@@
rhinor@@
zinc@@
epoetin
pa.
sidé@@
l'hormon@@
FeL@@
inth@@
tracycl@@
impa@@
phénylbutyr@@
$
ombin@@
dings
174
ć@@
heb@@
ytoï@@
fampi@@
ERS
Γ@@
δ@@
acrésol,
¹@@
Exfor@@
MARCH@@
NovoSev@@
reich
ocinéti@@
AZ
´
glycéri@@
ς@@
ę
Disk@@
ELIMINATION
ostic
Neulast@@
EST-@@
ption
Enbre@@
tamp@@
habdomy@@
études@@
tigmine
ţ
nomat@@
-av@@
↓
Sympt@@
ble)
Α
Ε
Ingel@@
marthr@@
VÉ@@
ả
asp@@
otraché@@
eth
Zi@@
С@@
П@@
RAPEX@@
Bratislav@@
curr@@
ingue
médit@@
tats
acom@@
hée,
scor@@
l'extrém@@
heim
net@@
sont@@
judi@@
isl@@
néan@@
umeaux
phil@@
ň@@
Cop@@
bition
ź@@
Ó
instaur@@
andé@@
domad@@
tun@@
cland@@
oppor@@
cile
gang@@
Unit@@
sécu@@
ż@@
ą@@
nourrit@@
Deut@@
concer@@
pargne
oix@@
ster
(A4@@
last@@
Résul@@
babw@@
blessu@@
arit@@
£
Trou@@
ч@@
а@@
н@@
и@@
ǔ
outch@@
wik@@
Yttrig@@

♣
ADMIN@@
tropin@@
éthas@@
SUTEN@@
ADRES@@
examéthas@@
TOL@@
LLES
ducation
Ü@@
gsk@@
chromos@@
lyre
pex@@
¾
thermo@@
sque
Auc@@
ELLEMENT
CHETS
fric@@
ύ
ö
Fait@@
nim@@
xib
othiaz@@
GlaxoSmith@@
épiri@@
ALO@@
Hydro@@
imin@@
acrésol@@
99m@@
∗@@
riz@@
aucou@@
rémie
Þ@@
þ@@
ð
en-Cilag
étiracét@@
χ@@
ρίου
Η@@
λι@@

ї
~@@
uctu@@

serin@@
½@@
∅
établ@@
rivas@@
mof@@
ë
#@@
VET@@
prématu@@
l'inhi@@
†@@
nil@@
χ
Cetro@@
Zone@@
ż
ptine
échanti@@
oxa@@
oût
soma@@
Zomet@@
ADINE
structions
ε
·@@
Soli@@
„
entifi@@
avein@@
besartan
flur@@
aptan@@
Ġ@@
õ@@
ώ@@
9):
odiazép@@
Ë
merck@@
lles
Ø@@
Solo@@
spondyl@@
axel

ª
Sebi@@
Gliol@@
diarrh@@
έ@@
Ελλάδ@@
VOIE@@
pra@@
Prac@@
sugrel
Précau@@
GON@@
ctus
ammat@@
∗
ª@@
pruri@@
FIR@@
LIB@@
FIX
STE@@
SON
hibit@@
‡@@
Cyan@@
pura
Ň
otrex@@
éristiques
Ş
ň
REY@@
Ã@@
ofi-av@@
Ultrat@@
agliptine
vec
zin
crit.
ÉCH@@
buri@@
/Finland
diph@@
sg@@
Impr@@
Tektur@@
Γ
alth@@
JA@@
OLOGIQUE
ϑ
morra@@
glucur@@
ATEUR
érythropoïèse
lafax@@
™@@
ή
Σ
Υ@@
Π@@
Ο@@
Τ
Р@@
И@@
Л@@
Е@@
Т
К@@
Н@@
А@@
évèn@@
ì@@
émer@@
Star
réqu@@
pétro@@
å
Ţ@@
ď@@
embour@@
Â@@
lem
rop
mement
chia
ı@@
ő
vote)
¡@@
lf@@
ilad@@
Ő@@
ñ
mith@@
souver@@
ǐ@@
pact
Deutsch@@
égét@@
errané@@
cteur
photos@@
Fil@@
égout
cul
disci@@
ǎ@@
terne
scén@@
û
récup@@
l'espér@@
Insul@@
l'exemp@@
lusieurs
Tek@@
d'hém@@
XIV@@
possè@@
catég@@
Quatr@@
Star@@
Inno@@
elis
ò
tigé@@
tructur@@
améli@@
eten@@
fabricant@@
anté@@
natu@@
audiss@@
ì
ssements
£@@
phan
infir@@
stiti@@
³
onance
nocu@@
cheri@@
linique
о
в
п@@
ķ@@
étch@@
Ž@@
tirez
ü
lai
\@@
ά
ν
ψ@@
Д@@
б@@
р@@
е
д@@
ы
ь
у@@
к@@
й
а
з@@
ь@@
