<blank>
<s>
</s>
the
of
and
to
in
is
a
be
for
with
or
not
that
are
The
on
as
have
it
you
should
this
by
has
been
at
was
will
patients
-
from
an
which
If
use
may
your
were
can
if
other
must
any
A
In
these
there
also
than
more
they
no
used
It
one
What
European
all
treatment
but
(@@
only
who
mg
•
You
dose
their
such
after
into
do
when
For
1
would
its
I
risk
blood
1/
take
people
EU/
during
There
However,
effects
up
about
injection
very
section
doctor
we
(see
'@@
information
number
time
what
new
two
–
out
report
those
Commission
being
This
product
had
given
does
first
before
3
active
tablets
medicinal
products
some
clinical
need
human
2
taken
between
10
system
over
same
increase
without
IS
treated
then
solution
WHAT
recommended
increased
so
where
Do
could
insulin
children
Why
cannot
years
following
because
FOR
.
ml
We
taking
study
three
per
studies
One
When
,
most
side
Member
under
less
All
made
Oral
them
important
even
case
5
available
including
against
example,
EU
both
least
Union
Europe
data
women
Patients
using
4
administration
many
order
renal
therefore
reported
severe
6
-@@
therapy
see
within
06/
health
100
safety
further
possible
known
well
AND
skin
?
administered
how
/
last
work
combination
No
adverse
symptoms
effect
rate
disease
through
every
reactions
make
much
Mr
weeks
oral
levels
30
medicines
patient
contains
level
result
cases
high
just
day
whether
cause
too
however,
type
able
days
once
50
)
hepatic
mg/
way
each
considered
associated
age
like
+
due
s,
000
As
substance
daily
Tel:
States
tell
measures
he
times
@@
:
million
period
IT
compared
water
s.
single
7
necessary
long
12
results
change
development
infusion
20
months
certain
market
end
re@@
s
did
USED
ensure
get
body
conditions
response
food
;
reduced
different
doses
events
total
observed
problems
us
specific
part
medicine
serious
already
site
reduction
set
means
containing
15
place
year
OF
liver
experience
until
become
S@@
another
).
control
care
few
treat
hours
To
impairment
four
put
animals
working
it.
based
child
small
An
week
patients.
United
medical
main
in@@
<
provided
group
vial
e.
Council
good
while
8
reduce
40
disorders
either
ed
x
>
es
substances
white
know
receiving
point
country
shown
Your
Marketing
potential
please
received
needs
done
),
Medicines
population
'
Treatment
24
down
needle
de
greater
!
treatment.
infection
25
still
ing
C@@
impact
B@@
give
un@@
low
significant
area
start
support
clear
syringe
higher
Use
right
particularly
virus
es,
vaccine
notice
plasma
approximately
Therefore,
pain
changes
growth
required
B
cells
lead
often
THE
appropriate
second
since
9
called
example
prevent
benefit
But
pre-filled
individual
major
now
's
waste
P@@
might
come
production
Human
contact
similar
efficacy
found
immediately
expected
form
special
seen
effective
mean
carried
sugar
lower
included
studied
activity
help
go
better
young
ask
eye
breast
amount
pharmacist.
large
our
‘@@
Please
stop
‘
g.
around
back
14
quality
local
always
allergic
sodium
60
caused
ingredients
via
red
public
listed
common
countries
continue
exposure
terms
ing,
T@@
five
UK
own
animal
D@@
read
According
monitoring
Report
next
current
cell
t
leaflet
function
particular
A@@
prior
present
signs
allow
longer
cancer
especially
ml)
yet
years.
Annex
ed,
(e.
management
EMEA
authorisation
hepatitis
acid
G@@
Not
2.
weight
chronic
areas
s@@
Any
es.
life
Committee
e,
receive
time.
Agency
and/
measure
national
marketing
pressure
powder
ing.
L@@
heart
protein
related
package
ed.
They
use.
e
18
third
E@@
o
them.
additional
non-@@
scientific
Only
loss
H@@
protection
factor
veterinary
procedure
and,
far
affect
causes
provide
tablet
his
K@@
reports
C
trials
drug
include
average
a,
11
having
effectiveness
i
pain,
These
account
recent
b@@
300
long-term
healthy
4@@
reaction
day.
state
limited
er
Authorisation
5@@
controlled
decision
want
F@@
occur
N@@
according
placebo
list
maximum
R@@
think
immune
off
diseases
responsible
whole
2@@
infection,
general
currently
process
Where
%
question
M@@
full
Kingdom
s?
access
research
time,
difficult
avoid
six
moderate
situation
suspension
produced
recommended.
At
►
normal
damage
absorption
pen
So
basis
dosage
best
fact
gets
g
"@@
disposed
al@@
6@@
usually
ate
200
little
/@@
ation,
decrease
adult
standard
h@@
serum
bone
enough
course
significantly
year.
MEDICINAL
indicated
France
00/
=
assessment
pregnancy
show
never
bleeding
4.4).
y,
risks
80
7@@
limit
pack
below
adults
rare
concentrations
experienced
i@@
How
3@@
patients,
achieved
term
proposed
ation.
ability
y
21
aid
instructions
e@@
evidence
IU
mixed
subject
men
objective
among
V@@
O@@
injection.
Mrs
great
transport
recently
above
groups
likely
continued
rates
'.
clearly
YOU
several
alcohol
rules
developing
needed
established
cartridges
regard
subjects
issues
allowed
obtained
tests
adjustment
concentration
antibodies
on@@
activities
n@@
estimated
≥
serious,
8@@
values
respiratory
acute
left
London
decreased
overall
release
test
duration
develop
p@@
remain
various
monitored
inhibitors
itself
BEFORE
kg
key
28
therapeutic
infected
o@@
ar@@
an@@
70
date
baseline
years,
leaflet,
failure
event
excreted
carefully
my
16
increases
applied
factors
infections
negative
Detailed
vials
ten
Another
again
produce
free
lack
a.
diabetes
old
alone
together
g@@
demonstrated
pharmacokinetics
rather
influence
solvent
Medicinal
caution
syndrome
involved
disease.
energy
half
00
agents
primary
k@@
breast-feeding
whose
analysis
twice
paediatric
milk
concomitant
milk.
makes
increasing
Liprolog
product,
EUR
I@@
d@@
er,
ribavirin
cap
say
incidence
pharmacokinetic
56
interferon
material
ation
developed
early
is,
addition
appears
it,
Report:
er@@
Many
Tel.
points
subcutaneous
names
designed
film-coated
position
vaccination
ritonavir
adequate
affected
gastrointestinal
http:
enzyme
resulting
region
Winthrop
Dr
sometimes
2.5
accordance
completely
action
al
Holder
progress
State
needles
On
S
types
months.
showed
appear
you.
Eesti
c@@
close
complete
over@@
ers
emea.
de@@
9@@
fully
(a
“
products.
approved
again.
Teva
48
line
initial
0@@
authorities
regulation
Once
comes
final
dis@@
fall
ating
/www.
problem
light
evaluated
international
07/
ia
clearance
13
2000
request
AUTHORISATION
Spain
hard
a@@
concerned
countries.
method
al,
vitro
visual
month
mild
evaluation
particles
positive
described
Germany
en@@
CHMP
that,
doctor.
study,
improvement
prescribed
glucose
t,
remains
history
proportion
75
m@@
relevant
Safety
D
W@@
From
household
starting
labelling
not,
mentioned
368/
apply
application
reached
Name
OR
whom
volume
shows
protect
minutes
require
clinically
medicine.
addition,
f@@
therefore,
Comb
person
going
intravenous
Products
systemic
adolescents
st@@
y.
directly
tract
held
storage
150
previous
multiple
it@@
ch@@
USE
led
500
follow-up
performed
(EMEA)
europa.
Internet
questions
Is
0.5
AUC
Parliament
days.
occurred
therapy.
Canary
viral
staff
intended
immediately.
drugs
natural
website
l@@
Ireland
reconstituted
out.
waste.
said
presence
[@@
short
extent
available.
400
el@@
throughout
Hypersensitivity
them,
cases,
hours.
Westferry
field
followed
at@@
feline
dry
Very
placed
s:
proposals
treatment,
di@@
35
criteria
IF
costs
product.
contain
&
role
generally
necessary.
E14
pregnant
’s
assessed
University
pharmacist
act
Information
market.
Summary
look
used.
HIV
sure
is@@
s)
suffering
prevention
es@@
22
alfa-2b
reason
possibility
General
system.
inject
17
measured
range
inhibitor
Circus,
level.
antibiotics
value
t.
past
Insuman
Insulin
training
Wharf,
le
she
death
food.
why
way.
dose.
hormone
Such
inflammation
4HB,
bottle
vitamin
carry
drive
ratio
Its
muscle
anti-@@
ly
projects
be@@
service
potassium
ic
essential
keep
as@@
frequency
survival
surface
usual
cloudy
improve
technical
Product
preparation
differences
Renal
aware
Take
le@@
1@@
ations
mechanism
introduced
y@@
impairment.
something
studies,
1,
label
difficulty
testing
hypersensitivity
peripheral
upper
SPECIAL
direct
reasons
others
That
me
discontinued
im@@
products,
co@@
U@@
ated
10%
capsules
day,
J@@
Netherlands
attention
target
III
disease,
find
frequently
(for
tissue
presented
identified
updated
Section
unknown.
DISPOSAL
WASTE
elderly
Three
benefits
status
In@@
measuring
one.
Humalog
tion,
ts
thus
questions,
weeks.
(used
rise
open
defined
abnormal
air
interaction
content
23
step
PRECAUTIONS
UNUSED
systems
Even
resistance
65
or@@
administration.
er.
action.
ers,
es?
talk
follow
plus
m
t@@
phase
undergoing
regards
3.
Al@@
Portugal
Limited
authorised
Of
difference
combined
feel
600
age.
submitted
monotherapy
ine
feed
oil
consider
work.
alternative
Article
started
divided
condition
equal
medicines,
dosing
surgery
(1
therapy,
programme
contents
Because
proposal
French
e?
HOLDER
takes
crisis
political
medicines.
observed.
micrograms
forms
determined
r@@
giving
2,
seek
Working
except
reach
requirements
excessive
maintain
Let
45
closely
(including
Since
Based
3,
stored
Pharma
age,
IU/
consumption
overdose
rash
E
ers.
exposed
although
internal
children.
suffer
away
am@@
en
biological
hands
existing
0.@@
S.
Question
maintenance
10@@
resistant
minimum
check
fat
Olanzapine
wastewater
involving
During
26
infection.
ar
creatinine
toxic
store
pre@@
distribution
impaired
equivalent
recommendations
consideration
referred
States,
h
am
her
ban
circumstances
previously
’.
disorder,
central
binding
soft
4.5).
skin,
interest
dogs
conducted
b
19@@
physical
concluded
PRODUCTS
ad@@
cleansing
face
Z@@
solutions
proper
determine
regular
mainly
ates
urinary
Some
Uncommon
technology
sp@@
outside
immediate
hour
reducing
International
minor
mg)
1000
uniformly
advice
diagnosis
man
poor
96/
’
social
(A5-00@@
re-@@
toxicity
li@@
body.
injections
pro@@
1.@@
aged
New
relating
ant
name
20@@
sexual
Italy
quickly
...
actually
issue
32
cover
rapid
kidney
slightly
initiated
50%
injected
in,
al.
lo@@
granted
document
particular,
Subject:
replacement
relevance
d
environment.
degree
"
calcium
pass
s;
ated.
return
acceptable
secondary
Health
−
joint
tion.
view
kind
decided
Then
plan
Firstly,
84
effects.
Other
RISPERDAL
(the
nurse
upon
withdrawal
sufficient
growing
Invented
added
Table
patch
recombinant
bioavailability
ri@@
business
matter
',
leading
tumour
placebo.
se@@
fewer
sections
across
ol@@
contraindicated
ro@@
industry
progressive
supervision
pens
address
regarding
car
excipients.
legal
simply
swelling
metabolites
VIII
vs
pharmaceutical
entire
someone
phosphate
harm
mis@@
holder
INFORMATION
Before
system,
Our
species
oedema
versus
global
children,
C.
doctor,
confirmed
II
assistance
il@@
rapidly
(CHMP)
vaccines
pigs
ab@@
os@@
steps
coated
.@@
Manufacturer
Pfizer
water.
EU/1/00/131/0@@
kept
parts
pulmonary
receptor
L
independent
possible,
information.
5%
almost
male
(3
Common
98
use,
prolonged
27
d,
materials
5.2).
marked
ic@@
examined
ed@@
an,
AB
trial
group.
possibly
arthritis
period.
p
pre-@@
19
stomach
eyes
adequately
providing
feeling
ag@@
temperature
healthcare
diseases.
goes
capacity
con@@
Nevertheless,
separate
remove
”
4.8).
initiation
e-@@
summary
room
ac@@
GmbH
majority
indicate
abdominal
k
stage
liquid
killed
top
parameters
balance
Re@@
intake
CYP3A4
improved
class
ent@@
j@@
month.
15@@
consequences
financial
Who
here
really
Read
price
amounts
quite
et@@
women,
well.
in.
pay
correct
operation
thought
along
on.
importance
alfa
dangerous
drink
purpose
antibody
sustained
A,
l
corresponding
setting
animals.
Cmax
brought
subsequent
damaged
FROM
ate.
insufficiency
Therefore
advised
Community
becoming
humans
achieve
Luxembourg
29
Common:
principle
driving
family
consumers
economic
perhaps
(A4-00@@
s).
stopped
expiry
0
hip
doses.
extremely
46
considered.
dependent
percentage
(5
Trudexa
original
*
progression
correctly
strong
MATERIALS
PRODUCTS,
nausea,
Clinical
After
ting
thyroid
prescription
chloride,
n
view,
provision
requirements.
powder,
EU/1/00/132/0@@
speaking
exactly
s'
42
reference
33
3%
onset
Enbrel
vivo
DERIVED
SUCH
CPMP
potentially
on,
environmental
safe
word
Will
resulted
ti@@
U
it's
concentrate
36
vein
no@@
services
P
recovery
ra@@
disorder
studied.
warning
022/
up.
ed?
discontinuation
par@@
outcome
oedema,
rheumatoid
reductase
ir@@
PegIntron
female
17@@
5,
tip
formation
supply
T
derived
mofetil
members
(0)
us,
unused
him
fracture
median
site.
cattle
excluded
commonly
id@@
ate,
2006.
Furthermore,
making
drop
resolution
DNA
done.
haemoglobin
Uncommon:
plastic
specifically
highly
aim
this,
words
Merck
guidelines
Within
(95%
c
ml.
diet
smoking
ap@@
year,
frozen
1997
yellow
works
process.
supplied
d.
October
let
Road
ted
Consequently,
media
forget
things
Unfortunately,
39
(such
model
om@@
osteoporosis
mouth
o,
respectively.
tions
digital
injections.
Adverse
250
metabolite
160
actions
mix
(C@@
enzymes
APPROPRIATE
drinking
June
pe@@
antiretroviral
difficulties
May
z@@
37
power
obtain
Although
told
else
live
world
happens
Under
nervous
%.
rarely
deaths
however
op@@
fondaparinux
favour
deficiency
soon
unless
4,
(as
solid
ated,
Severe
2002.
chloride
ill
France,
yourself
fight
used,
Experience
Sweden
believe
course,
this.
outer
successful
s),
maintained
ACR
solution.
HMG-CoA
sensitive
v@@
stable
1.5
20%
cartridge
occurs
removed
sterile
recognised
profile
Dose
me@@
Regulation
easily
bacterial
e:
oc@@
ine,
provides
002
policy
nothing
money
NovoMix
causing
relative
mortality
12@@
birth
chest
frequent
antiviral
brain
levels.
F
Alzheimer's
repeated
refers
ent
mental
90
Y@@
agreed
self-@@
Tell
representative
ha@@
stated
findings
needed.
half-life
kg/
5-@@
chemical
lung
ine.
transient
relationship
passed
ally
suggest
g/
An@@
capsule
ous
wall
structure
raised
suitable
cardiac
directive
physician
ec@@
Mix25
report,
countries,
front
doing
probably
001
themselves
opinion
living
/2001)
14@@
case,
sh@@
ov@@
contained
ations,
post
fever
weekly
one,
cost
elevated
viruses
laboratory
blister
transdermal
2.@@
ot@@
Mycophenolate
ations.
anti@@
Viraferon
Germany,
GlaxoSmithKline
34
heavy
ts,
law
valid
broken
consumer
amendment
call
My
Thirdly,
groups.
definition
empty
behaviour
800
sub@@
seven
metabolism
amino
Study
);
ge
R
stick
Prevention
rash,
w@@
He
documents
6,
transfer
ex@@
users
ever
4.2).
German
BATCH
RELEASE
Instructions
glass
workers
real
certainly
lowest
I.
depression
inhibition
%,
metabolised
patients)
consistent
inter@@
tion
counts
cardiovascular
repeat
eu/.
worked
Party
confidence
persons
investigated
card
com
Factor
RESPONSIBLE
food,
alone,
More
A/
49
syndrome,
Pharmacovigilance
30%
ear
worse
While
eye,
urine
applications
opening
highest
u@@
excretion
Europe.
leukaemia
deal
es)
chance
herpes
failure,
contrast
parties
trade
apparent
all,
quantity
Lilly
OÜ
pen,
disposal
falling
legislation
decide
looks
die
harmful
thing
and/or
study.
responses
31
injection,
25%
inhibits
studies.
cholesterol
Ribavirin
November
efavirenz
hospital
allows
September
reduces
Package
route
em@@
bacteria
salt
car@@
u
ings
CONSTA
he@@
Pen
strict
amendments
cancer.
04/
qu@@
fish
functioning
happen
approach
idea
treating
speak
lesions
simvastatin
e)
necessary,
conditions,
3.@@
weight.
man@@
Tarceva
exercise
titration
serotonin
acquired
Parkinson's
With
ly,
Using
shall
swabs)
Avoid
ACTIVE
MANUFACTURING
si@@
Sverige
competition
ans
requires
vehicles
so-called
vote
ing?
25@@
noted
metformin
Veterinary
18@@
200@@
suicide
sites
land
es:
converted
weakness
opened
meat
inadequate
suspected
1%
na
body,
function.
effect.
ing@@
2001
red,
ou@@
ally,
whereas
M
syringes
population.
mon@@
numbers
web
milk,
published
Sharp
Pharmaceuticals
acts
mother
plant
everything
comparable
28@@
(P@@
or,
suicidal
30@@
diabetes,
able,
diarrhoea
none
tuberculosis
inhibit
ne@@
(4
inside
took
tive
irbesartan
compatible
companies
Increased
strain
spread
Skin
(E@@
increased.
Mix50
size
41
procedure.
ampoule
ant@@
result,
ma@@
Members
Important
continues
USER
respect
text
environment
And
s!
cases.
zidovudine
38
excess
CI:
situations
painful
elimination
cells.
(range
13@@
r
regimen
eight
fold
ia,
bottom
ren@@
iron
April
medication
vomiting,
Taking
dioxide
gradually
psychiatric
old.
6.6.
Characteristics,
swelling,
diluted
problems,
pen.
demonstrate
Euro@@
Authorisations
Irbesartan
onto
MARKETING
bring
immunodeficiency
changed
future
education
agricultural
6.3.
market,
trials.
woman
Studies
Ar@@
later
milestone
mg.
careful
N
centre
are:
granting
4.3).
anaemia
cartridge.
Basal
Italy,
nature
Pregnancy
Hepatic
ts.
B.
mothers
resources
able.
try
professional
procedures
Commission's
(debate)
y?
/99)
times.
control.
1)
per@@
2%
comparison
8,
minimisation)
6.@@
bo@@
rest
permanent
infants
RMP
EXUBERA
language
reconstitution
passes
black
conditions.
2007
o.
precautions
count
5.1).
up,
Chinese
é@@
normally
Dohme
des
en,
us.
tions.
dose,
003
Powder
Mar@@
manufacturer
established.
spoon
coming
inform
demand
leads
security
road
consult
required.
fast
acting
nor
head
percent
Protopy
extension
7%
framework
week.
nausea
16@@
Plan
unknown
4.@@
relation
%)
basic
breathing
individuals
(A@@
delay
occur.
include:
post-marketing
company
4.4
accompanied
us@@
involves
reaction,
turn
water,
Con@@
ies
vaccine.
chain
effects,
004
Their
Both
citizens
votes
/98)
8%
hypoglycaemia
hyper@@
(≥
discontinue
inhaled
(pharmacovigilance
vision,
reactions.
ViraferonPeg
com@@
includes
persistent
recorded
ReFacto
cent
1-@@
Among
complications
characteristics
um
Efficacy
als
detected
extra
organic
meeting
sector
vial.
lactic
excipients
as,
persist
operating
syrup
ity,
covered
parents
people,
rights
employment
accidents
36@@
platelet
47
randomised
nine
imaging
meal
absorbed
i.
finding
low.
known.
ic,
agent
implementation
MAH
Ex@@
Side
]
symptomatic
Blood
running
Each
night
diseases,
concerns
so,
objectives
choose
Look
danger
nuclear
treatments
terminal
trials,
methotrexate
delayed
receptors
radiation
fixed
EMEA.
begin
l)
Most
co-administered
2003
ed;
DepoCyte
assess
adults.
ob@@
States.
disorders:
function,
tube
concern
es;
O
create
British
impairment:
th@@
hope
Europe,
sort
Perhaps
Treaty
Everything
900
way,
-related
Raptiva
ance
5.@@
-2@@
regularly
ph@@
round
decreases
fertility
optimal
respond
minimisation
revealed
ment
X
(S@@
peginterferon
ointment
end@@
+@@
63
device
IntronA
cooperation
competent
tic
out@@
sensitivity
July
rubber
asthma
ter
ary
women.
gene
development.
is.
Par@@
increased,
expenditure
whilst
du@@
Österreich
Box
accidentally
push
source
transmission
industrial
Are
official
risk.
Just
sound
cut
indeed
country,
President,
ation?
note
group,
(H@@
exercised
vertebral
%).
losartan
interactions
polyethylene
nerve
reproductive
Acute
undesirable
performance
interact
origin
le,
a)
placebo-controlled
th
MIU
I).
lost
leakage
World
eyelid
cycle
nasal
results.
unlikely
mmol/
linked
review
ho@@
all@@
organisations
Park
pH
Food
Belgium
ent,
box
depending
standards
House
equipment
z
ism
restrictions
concerning
Commission,
that.
recognise
plans
Can
introduction
job
Amendment
for@@
reported.
rec@@
intervals
peak
44
4%
ulcers
(another
days,
deep
vomiting
RE@@
Following
S,
getting
X@@
abnormalities
calcitonin
machines.
55
king
helps
adopted
est
NAME
slowly
2008.
attempts
induce
Belgium,
ent.
avoided.
eliminated
infectious
Telzir
tablets,
examination
paid
White
closed
budget
mention
seems
annual
which,
obvious
death.
figure
came
2-@@
Denmark
90%
29@@
irritation
ra
weeks,
adding
score
older
haemorrhage,
bi@@
Humira
180
og@@
fasting
hasn't
Preparation
microbiological
):
hand
quantities
corneal
units
AL@@
leave
expert
Characteristics
agreement
Special
double
anc@@
fungal
Public
requirement
gently
President
ine@@
information,
E.
joined
thereby
reverse
Neupro
amended
Co-administration
pipette
people.
Suspension
visible
debate
dec@@
Response
sign
basis.
intervention
happened
buy
.'
though
attached
machines
partial
s/
short-term
non
(6
topical
induction
acuity
formed
accidental
pl@@
ongoing
(1.5
fl@@
manner
surrounding
worsening
despite
absolute
component
95
SPC
ally.
diarrhoea,
ml/
Pro@@
project
Leaflet
Fax:
limits
appointed
cancer,
enlargement
should:
Children
se
contribute
radioactive
ampoules
Czech
Yondelis
006
applying
break
rotated
are,
building
ge@@
Questions
methods
informed
bodies
instance,
Tlf:
lamivudine
calculated
haemophilia
response.
surveillance
insufficient
dosing.
(with
20,
minimise
interval
populations
thromboembolic
excluded.
sclerosis
min@@
Per@@
G
properties
hair
breast-feeding.
polysorbate
IN@@
lowering
greatly
tions,
carcinogenic
today
ants
forward
becomes
Number
labelled
period,
IN
Eli
gl@@
allowing
future,
ors
disappear
stem
carbon
discussed
BIOLOGICAL
are@@
understand
over-@@
impression
(hypersensitive)
answer
violence
statistics
fact,
larger
severe,
virological
achieving
advanced
cor@@
so@@
I,
fluid
7,
ocular
15%
post-@@
A.
6%
concurrently
az@@
concomitantly
(<
co-@@
vaccinated
tenofovir
slight
mixture
untreated
animals,
uc
useful
coordination
ml,
(M@@
corticosteroids
dysfunction
packs
avoided
sa@@
package.
Portugal,
Finland
40@@
Injection
Administration
ON
wear
ed:
primarily
ness
expression
only.
waiting
By
cream
mixing
issued
KwikPen
po@@
27@@
Over
indication
feeding.
others.
button
hormones
area,
Greece,
el
victims
35@@
can@@
(e.g.
50@@
arm
mg,
OPTISON
circulating
Com@@
invasive
ins
IX
build
fatal

morning
genotype
Tritanrix
(n
re
rhinotracheitis
affecting
purposes
LDL
dropped,
palms
mo@@
headache,
detection
De@@
agree
ised
(B@@
conventional
tion@@
below.
fin@@
characterised
ia.
met
en.
AIDS
Le@@
reliable
)@@
sal@@
colour
gas
ise
states
controls
towards
paragraph
handling
005
hold
erythropoietin
considerable
ence
fentanyl
step.
urgent
burden
euro
illegal
work,
Every
Without
V
indications
abacavir
given.
circumstances.
(800
α
binds
stimulates
fe@@
respectively,
ation@@
marrow
Specification,
38@@
cessation
rel@@
i,
blocking
ALT
Additional
s-@@
C)
returned
magnetic
bladder
subsequently
hydrochlorothiazide
observation
ter@@
Free
f
na@@
alert
involvement
tumours
appropriate.
cl@@
Management
Pulmonary
house
clotting
discussion
C,
85
isolates
ul@@
tasks
transplant
party
ur@@
Dosage
areas.
ak@@
Ltd
26@@
Se@@
cre@@
moving
professionals
ted.
vaccine,
En@@
common:
MANUFACTURER
administer
items
me,
antigens
administrative
vessels
exist
mutagenic
seriously
ity.
mechanisms
health.
school
programmes
traditional
government
tax
lives
sold
fishing
Yet
3)
patient's
accident
appeared
modification
site,
withdrawn
der
years)
and@@
orphan
sufficiently
looked
a-@@
ingredient
life.
died
finally
adults,
min
vehicle
adolescents.
et
chemotherapy
w
1.0
mal@@
pa@@
recurrent
ity
pharmacovigilance
fever,
Irish
alisation
ar,
permitted
in-@@
effectively
her@@
malignant
ste@@
Rare
2006
face,
MIRCERA
bind
ance,
liver.
ranging
hypertension.
US
failure.
metabolic
infections,
ence,
ages
breath
Th@@
Kingdom.
container
372
37@@
Brussels
sale
Attenuated
sudden
commercial
unit
present,
life,
temporary
batch
uses
k,
prescription.
Ch@@
ality
ka
activity.
former
St
health,
move
labour
practice.
gives
accept
achieved,
production.
anything
es'
concerned,
saying
unemployment
Ingelheim
ps
la@@
normal.
Note
requiring
protease
74
ib@@
2.0
Risk
ide@@
1.
missing
neck
3.5
enrolled
Quality
insulin.
completed
load
HepB
naïve
acid,
AN@@
predominantly
occurring
experiencing
directed
ide
pumps
Further
irritation,
y:
motor
positions
Be@@
spontaneous
induced
Mon@@
slow
minutes.
procedural
AP@@
od@@
Botulinum
showing
lin@@
undertaken
St@@
carton
light.
Business
seconds
general,
SA
coloured
gener@@
beta
areas,
ted,
substances,
properly
says
lines
monoclonal
solvent,
SUBSTANCE
IC@@
Metabolism
Bayer
eating
opportunity
speed
est@@
ans,
regime
success
got
scale
ground
police
farmers
traffic
Europeans
funds
all.
/99):
/2000)
Boehringer
Healthcare
B,
react
fractures
su@@
pneumonia,
reactions,
swollen
reductions
inhibitors.
propose
Ac@@
post@@
CHAMPIX
60%
70%
statistically
younger
pre-existing
-1@@
day)
CI@@
disoproxil
o-@@
Board
BYETTA
heat
regulatory
baby.
diagnosed
child's
poly@@
PRODUCT
les
ying
ideation
pegylated
premature
user
Serious
tissues
affected.
establish
filter
mouth,
Naglazyme
wide
ly.
67
conjunction
Tel.:
CO@@
UN@@
m2
anaesthesia
travel
marketed
foreign
vary
orally
problem,
co-infected
ship
Tritace
initiative
nutrition
guarantee
ence.
wish
regions
figures
ass@@
run
private
emissions
e'
true
Assessment
41%
addressed
tri@@
7.@@
administration,
(called
micro@@
endpoint
diabetic
9,
ol
laid
steady
tacrolimus
somewhat
John's
2002
analogues
blisters
involved.
you,
(1.@@
guidance
daily.
es).
ess@@
developments
lactation.
clean
eyes,
res@@
evaluate
Mal@@
proof
revision
cap@@
residues
1998.
doctors
tolerance
horses
belongs
diuretics,
substitutes
is:
share
stopping
inverted
ADROVANCE
protective
identify
009
371/
372/
373/
EU/1/99/127/0@@
changes.
(%)
hydrochloric
ach@@
Feline
Slovenská
á@@
elements
Decision
implemented
stock
fi@@
recommendation
force
forced
sides
world.
category
remember
freezer
huge
prices
tonnes
credit
e!
it?
/97)
24@@
Orphan
operate
95%
methadone
1,@@
EC@@
contraceptive
U/
months,
week,
indicating
modified
potent
ca@@
00@@
ering
flow
4.5
an.
3-@@
disorders,
ox@@
97
ell@@
generation
FlexPen
cr@@
ling
Official
Pharmaceutical
error
retinal
thoroughly
yl
emulsion
efficient
severely
association
hearing
D-@@
officials
congestion,
Periodic
ist@@
Denmark,
Spain,
voriconazole
white,
ons
van
Wyeth
’,
places
Qualified
supplements
os
72
ev@@
humans.
intramuscular
packaging
AD@@
ati@@
blocks
OptiSet
Pack
office
tablets.
NovoRapid
medium
removal
enter
120
HBV
BMS
seem
problems.
ous,
connection
play
minority
border
competitive
contract
mind
wrong
matters
contamination
place.
BSE
moment
occurs,
infusion.
(4@@
our@@
discharge
(n=@@
Effects
overweight
0.25
tissue.
Ab@@
76
supporting
rod
x@@
synthesis
analysis.
went
flu
men,
neuropathy
ation)
Six
S)
TMZ
somatropin
crushed
RI@@
lungs
topotecan
ten@@
hypertension
evaluated.
ORACEA
Office
responsibility
availability
stages
Dosing
adjust
hi@@
symptoms,
particles.
cont@@
pressure.
af@@
subcutaneously
Gastrointestinal
cough,
form@@
nursing
warnings
common.
ative
table
Rapid
blue
equ@@
Di@@
Disorders
é
otherwise
pregnancy.
Candida
y-@@
gland
ing;
became
attack
suspension.
up@@
regulated
hereditary
clear,
yl@@
wine
dihydrogen
EXP
Car@@
resuspend
Inactivated
republika
detect
accepted
gen@@
to@@
ded,
sent
shared
Union,
here.
defend
sense
knowledge
big
hours,
jobs
Nos
sea
justified
STELARA
stri@@
examination.
vascular
advisable
vision
placebo-treated
trial,
uric
chromosome
absence
ang@@
clots
haemorrhage
disorders.
liver,
extreme
attacks
8.@@
electronic
paper
92
prophylaxis
52
itching,
strictly
7.5
performed.
(one
salmon
estimate
at,
NovoLet
Events
add
impair
vi@@
asthenia,
dizziness,
posts
Research
specialised
Un@@
before.
angina
Y
recovery.
began
advantages
86
closure
65@@
formulations
December
S-@@
See
macular
poisoning
block
multiforme
cycles
Urinary
Co@@
site:
eu/
Ireland,
tools
eat
wort
ty
voice
platelets
2)
ve
ding
CCID50
complex
additives
under@@
endogenous
patient.
ver@@
case.
ru@@
limited.
pens,
007
surgical
valsartan
beginning
Always
preferably
AR@@
ard
ut@@
planning
ants.
trying
survey
born
miss
anyone
Or
recognises
forgotten
Patient
off-white
Whether
ality.
head@@
sizes
nation@@
increasingly
society
military
thousands
Commissioner
fuel
s'.
(
Would
there.
(vote)
68
53
ed)
358
g.,
monitored.
routine
sleep
bleeding,
awareness
care.
gastric
episodes
50,
Tracleer
sha@@
off@@
HIV-1
favourable
weight,
emergency
39@@
subjects.
alkaline
venous
id
daily,
unstable
lo
panleucopenia
ta@@
one-@@
(200
6-@@
11@@
volunteers
gain
infant
Venous
ones
lon
tested
199@@
(D@@
principles
log
um,
Disease
Starlix
t-@@
Moreover,
Dis@@
made.
SE@@
Sustained
delays
Interaction
tic@@
membrane
2005,
Netherlands,
Her@@
ser@@
V.
100@@
sk@@
investigation
turning
discard
ist
disodium
arms
pruritus,
e;
+372
SQUIBB
+46
movement
ance.
database
ical
sirolimus
System
cup
committee
res
Sebivo
straight
4.2
exception
bu@@
manufacturer(s)
variability,
minimal
le.
diet.
Me@@
008
364/
G1
easy
Method
ant.
der@@
Holder.
gu@@
plants
scope
impossible
injury
carrying
expensive
link
Could
war
inflation
ders
syringe,
carton.
blood.
pivotal
64
fallen
GONAL-f
osis
rat
symptoms.
nicotinic
89
cm
virus,
thrombosis
ranged
readily
neurological
seizures
4-@@
otitis
rivastigmine
au
ulcer
do@@
redness
scores
(12
practical
ciclosporin
mellitus
amlodipine
movements
courses
appearance.
MabThera
taste
approval
latest
erythema
Evaluation
Spanish
susceptibility
angiotensin
SI@@
immunity
ates,
Also,
(F@@
iti@@
dealt
documentation
underlying
surgery.
pressure,
amongst
export
pump
occasionally
●
hand@@
act@@
behind
ters
WITH
Preparing
transferred
BRISTOL-MYERS
MA@@
centralised
opaque
focus
als.
gel
carefully.
low@@
referral
Val@@
hot
014
010
pack.
No@@
re,
la
milky.
microgram
middle
ik@@
asked
bed
simple
beneficial
Finland,
Poland,
sign@@
i.e.
extended
Elderly
tobacco
instead
ings.
Reference
arm@@
legislative
payments
country.
fed
România
Now
possible.
place,
a?
provisions
pesticides
Union.
lot
namely
billion
ings,
Directive
pollution
ago.
interests
Commissioner,
this?
(A4-04@@
EN@@
(I@@
stavudine
Unit
Symptoms
ion.
loss,
µg
birds
severity
II,
flushing
Type
1).
Effentora
AC@@
maternal
inflammatory
micrograms/
throat
illness
extensively
34@@
length
Kineret
home
(0.@@
Phase
(2@@
mat@@
mediated
mg/day)
functional
ill@@
docetaxel
VI@@
thrombotic
Q@@
IV
parent
resuspended.
clumps
smaller
P450
fo@@
Pre@@
cells,
discussions
depression,
int
ice
Scientific
TI@@
col@@
disease)
development,
70@@
ad
tolerated
L.
ig@@
switched
P.
te
lp
syndrome.
anticipated
skin.
nucleoside
te@@
noise
intolerance,
malabsorption
dizziness
pen@@
Due
artificial
changing
muscle.
Nespo
assessing
affinity
economy
1998
more,
proved
copy
stat@@
communication
transparency
touch
de,
occurrence
grounds
carbohydrate
excipients,
ing:
languages
Puh/Tel:
watch
Malta
del@@
contraceptives
red.
accordingly.
false
inf@@
ways
reflect
accumulation
ry
Iscover
offer
measures,
down.
funding
imp@@
Austria,
hol@@
regarded
ising
putting
mg/24
Remember
fear
t?
ANY
expect
fire
suffered
ago
Does
ciprofloxacin
air@@
inclusion
9%
44@@
medicine,
myocardial
(G@@
str@@
arthritis,
Trevaclyn
psoriatic
CE@@
vildagliptin
ing)
amprenavir
standing
week)
threshold
decreasing
vitamins
D,
marrow.
d-@@
-M@@
cytochrome
unlikely.
tics
dehydrogenase
DE@@
designated
Joint
(approximately
agents.
prepared
vaccination.
ep@@
dust
ments
detailed
ELISA
effect,
glioblastoma
thoughts
Specific
Single
AT@@
men.
examinations
eu.
woman.
cholesterol,
ud@@
Council,
dissolved
-f@@
+49
charge
epidermal
Keep
dihydrate,
ds
non@@
cur@@
Total
thousand
worth
represent
des@@
da@@
SARL
Norge
ial
vial,
Rue
instructed
substantial
core
syringes,
solvent)
011
ped
hydroxide,
Bi@@
opposite
capable
Fondaparinux
film
den@@
known:
ton
ion@@
Suomi/Finland
OP@@
unborn
um.
bio@@
regulations
(AIDS).
understanding
obesity
promotion
aspect
-based
absolutely
relatively
Clopidogrel
believed
produc@@
soil
again,
meet
decision.
meant
built
mass
actual
say,
flight
damaging
out,
travelling
however.
decisions
income
banned
cars
goods
now,
ity?
d?
/1999)
do?
(A5-04@@
Novartis
96
VICH
margin
,@@
continuous
foetal
breathing,
carcinogenicity
star@@
life-threatening
measurement
lat@@
destroyed
cat@@
interested
(i.
CEPROTIN
-1
process,
headache
reaction.
μ
methotrexate.
components
tests,
essentially
0.3
paclitaxel
resonance
ari@@
EVRA
levels,
6-month
incidences
restricted
1996
%),
Development
Group
titanium
patches
sc@@
83
ADMINISTRATION
preventing
version
ates.
*,
work@@
professional.
dysfunction,
anaemia.
data.
registered
alpha
Changes
EU,
needle.
ded.
bovine
glycoprotein
irreversible
back@@
Mean
physicians
Rare:
Madrid
immunisation
monitor
Republic,
acids
stops
inactive
gra@@
Neoclarityn
damage.
hand,
manufacturers
keeping
potassium-sparing
adjustments
fundamental
North
146/
369/
375/
377/
off.
Kent
U.
Put
English
r.
feeding
released
tr@@
bas@@
ies,
morning.
equipped
varies
Hungary,
crucial
record
De
intention
replaced
context
picture
draft
zero
stress
unwanted
Follow
down@@
then,
ment.
payment
identity
electricity
everyone
existence
board
cultural
be.
bit
bad
aircraft
tion?
minute
occur,
Ziagen
pioglitazone
randomized
22@@
9.@@
hypertension,
pooled
formulation
events,
implemented.
medi@@
ma
responded
m,
spent
groups,
,000
OR@@
58@@
Pegasys
periodic
herpesvirus
Peripheral
ological
AF
73
µg/
frosted
colourless.
SA@@
March
tendency
initiatives
Bo@@
organisation
ite
illness,
chamber
bones
il,
Ear
erythema,
x,
pal@@
Injury,
62
RT
Doses
Concomitant
tolerated.
Paxene
multi-@@
shock,
eu
ro
dl
collected
transmitted
meetings
Inter@@
ME@@
experts
ment,
swallowing
ase
glycerol,
genetic
supplements,
80@@
thereafter.
da
finger
66
TAKE
dementia
vomiting.
activity,
production,
advice.
71
vein.
scheme
ents
assessment.
sing
IONSYS
once.
refer
producing
Should
widely
“@@
hence
gradual
sed.
376/
97/
sun
Subjects
h,
180°
a's
He@@
Oy
KOGENATE
person@@
br@@
contraception
oxidase
periodically
k.
fruit
personal
near
T)
exchange
Ver@@
ole
choice
rejection
later.
happening
Latvija
exceed
tically
wa@@
methoxy
processed
American
television
late
First,
Qu@@
prison
har@@
duty
million.
know,
levodopa
Viani
shock
CVMP
Prometax
intestinal
regardless
offspring
ple@@
y)
10-@@
body's
4.6
efforts
ni@@
gemcitabine
affects
confusion,
interfere
25,
fluoxetine
12.@@
12,
(50
mor@@
0.2
iv@@
(N@@
Equilis
eye.
D3
sion@@
cross-@@
ovarian
high-@@
mice
10,
bra@@
double-blind
influenza
covering
experience.
employed
Conference
acted
prove
ating.
sugammadex
Centre
ear@@
59
55@@
Ukraine
congenital
trend
program
Post-marketing
conduct
triglycerides
ases
Adequate
1,000
ci@@
431
ast@@
Care
programme,
ce@@
list@@
Industrial
cold
remaining
research,
cough
hundred
Saint
entering
ess
ja
nose
ines
simplex,
sor@@
bro@@
Elimination
at.
cop@@
RA@@
bag
Commission.
continued.
compartment
attention.
quickly.
itis,
ke@@
infants,
seal
acidosis
claim
gone
network
if@@
child,
(10
012
as.
Sol@@
Romania
LE@@
activation
Man@@
Glustin
Bar@@
F2
Hydrochlorothiazide
categories
continue/
made,
practice
institutions
ism,
fa@@
Key
net
concerned.
ir
Lietuva
specified
ically
vital
claims
sitting
end.
Vaccines
rule
created
ement
efficiency
deficit
Ma@@
human@@
MATERIALS,
ARE
stand
problem.
producers
abuse
Dutch
y'
metres
allotted
saw
passengers
es!
today,
democracy
be?
pull
AMMONAPS
Part
latter
oper@@
N-@@
blood,
older.
population,
immunological
secretion
5)
ine-@@
ct
ded
couple
produces
ron@@
Karvea
(p
51
indicated,
0.0@@
bound
3).
140
visits
postmenopausal
2,@@
AST
dogs.
pharmacology
d:
ip@@
density
looking
a;
benefit/
e).
itching
fumarate
pharmacological
indic@@
SUTENT
*@@
exact
February
bar@@
samples
1995
Berlin
practices
Head
Time
st
ta
77
coli
provided.
benzalkonium
mit@@
Place
concurrent
neuro@@
altered
nose,
kin@@
oxygen
art@@
electric
distributed
fresh
statistical
Ph@@
Ελλάδα
MSD
digoxin
(blood
sion,
TO
Maintenance
liber@@
ana
schedule
culture
tive,
aggressive
weak
authorities.
Chlamydophila

member
ne
holding
agency
brand
pregnant,
NOT
neutropenia
measurements
position,
TH@@
operational
me.
Avonex
TA@@
SoloStar
Intravenous
um@@
sectors
ke
whatever
che@@
(FCV
identified,
sion.
chickens
origin.
session
text.
Sometimes
exists
to,
nevertheless
gender
Few
foreign'and
warfarin
commun@@
suggests
design
significance
applies
ist.
goal
comply
extensive
isation
largely
dead
imprint
enormous
Which
glycol-epoetin
Those
multi@@
thinking
au@@
+47
totally
PVC
litre
ality,
Everyone
Vfend
too,
crops
criminal
merely
families
millions
compensation
agenda
imagine
buildings
words,
investment
enable
?'
Fourthly,
1/2001)
(A4-02@@
K
SP@@
preparations
glycaemic
CE
CH@@
D.
ant,
(2.@@
wording
(6@@
CT@@
rats
1.0@@
reason,
alone.
1%)
placebo,
fine
low-@@
hormonal
solution,
el,
software
(9@@
35%
et,
elevations
58
image
Results
Interferon
ON@@
V,
adjusted
ankylosing
enti@@
reduced.
baby
muscles
0)
sen@@
involve
industry,
1999
ful
Non-@@
organised
lenses.
finished
Virus
exceptional
companies.
manufacture
ses
diagnosed,
od
situation.
Muscle
Long-term
ch
SU@@
gloves
BASAL
du
inspection
precautionary
representatives
consultation
irregular
Animal
CP
need,
m.
93
but@@
calves
pi@@
hydro@@
ref@@
glucose-galactose
OS@@
output
O.
pharmac@@
eliminate
n,
gi@@
Ro@@
hal@@
ning
infections.
periods
sick
optic
discarded
peptide
Opinion
talking
coagulation
self
hospital.
cat
Women
AL
(E
Street
Uxbridge
alter
variant
recycling
press
150/
276/
435/
damaged.
soya
sheep
Aldurazyme
Thyrogen
ris@@
Mixtard
Ri@@
ure,
ann@@
bl@@
structural
eg@@
well-@@
cas@@
tubular
e's
dialysis
priority
floor
Austria
il
2005.
carries
follows:
meals
precisely
Almost
thrown
psychological
rat@@
carrier
obviously
area.
defences)
Several
the@@
ter.
CO2
vulnerable
First
change,
ments.
bur@@
ism.
capital
policies
ants,
151/
less.
city
gr@@
ought
Polish
ingly
His
screening
toys
not.
Maybe
though,
!'
(A4-0@@
/2002)
rate.
patent
ready
unusual
02@@
%@@
followed,
il.
numbness
les@@
attempt
(and
Exforge
BMD
Pelzont
toxin
tal@@
1.4
MP@@
concept
desired
point.
selected
-0@@
(100
(5@@
reversible
ties
33@@
rit@@
90@@
Betaferon
antidiabetic
meaningful
≤
radi@@
2004
subjects,
mmol
examined.
ters,
ster@@
los@@
Department
1990
Luxembourg,
registration
sion
nail
v
ble@@
familiar
January
selective
ROUTE(S)
formal
deterioration
supplementary
ation:
fit
osis,
dic@@
visit
ide,
of@@
embryos
orthopaedic
ambrisentan
amide
exceeding
ol,
legs
filgrastim
too.
EXJADE
intensity.
wise
Pradaxa
log@@
so.
fields
ology
bottle.
computer
science
ani@@
PL
sec@@
interim
AS
ks
Vi@@
Pal@@
ire
performed,
66@@
tooth
Less
upset
terfenadine
sts
],
establishment
moved
physician.
-free
or.
withdrawn.
plunger
maintaining
level,
BeneFIX
synthetic
Via
als,
013
046/
Republic
appearance
Excipients:
state,
av@@
South
Laboratoire
Data
requested
TESLASCAN
Cor@@
haemodialysis
ó@@
MU/
child@@
elements:
battery
í
wood
ff@@
accelerated
divide
Pioglitazone
ar.
mid@@
increase,
necessarily
qualified
protected
ish@@
drinks
shape
pri@@
Ba@@
space
piece
measures.
written
systems.
enc@@
pointing
secure
ans.
an-@@
11.
distance
Accidental
Li@@
raw
Cal@@
report.
Po@@
unacceptable
ary.
side,
scheme.
th,
weakened
se,
provided,
CT13
9NJ
y;
deb@@
threat
replace
om
uniform
port
Nor
checked
heard
climate
message
discrimination
(H-0@@
presidency
disabled
genetically
worst
Amendments
y!
+45
Ms
event,
2/
7)
82@@
H
non-
altered.
included.
amine
Kivexa
anxiety,
uncommonly
postnatal
sites.
exposure.
ga@@
Syndrome
leg@@
6.1
4.3
ability,
earlier
Atripla
75%
Ag@@
controls.
hy@@
proximal
ended
β
ax@@
dopamine
ULN
mg/@@
Fasturtec
pol@@
National
remission
104
stimulating
Prequenza
aminotransferase
AS@@
hypertensive
F,
Penfill
Thromboembolic
rosiglitazone
ane
litres
flu@@
DATE
NAME}
Le
assistant
4.
aspects
ard@@
Technical
1997,
etravirine
facilities
statement
destruction
assay
pink
passive
tongue,
technique
kill@@
69@@
75@@
ose
consciousness,
L)
hypotension
age@@
18.@@
HCV
RO@@
environment,
COVERSYL
applicable
routes
neurotoxin
ness.
43
erlotinib
ting.
MS
(at
comprehensive
ros@@
EU.
Caution
appetite
antipsychotic
apart
(which
dexamethasone
9-@@
faster
hydrochloride
Units)
vial)
prompt
writing
colourless
Sal@@
dri@@
adjustment)
urticaria
marketed.
manufacturing
war@@
”.
arrangements
manner.
fun@@
TE@@
ve@@
cimetidine
Greece
selectively
027
metal
tics,
015
021
028
016
orodispersible
(2
81
unnecessary
anhydrous,
contaminated
comprising
rig@@
ors,
virus.
fill
enhance
trained
que
TIW)
pregnant.
budgetary
inducing
ey@@
killing
August
hazardous
solutions.
processing
assessments
caught
ities,
let@@
OptiSet.
SoloStar,
700
misleading
Yes,
ly@@
lies
diuretics
oul@@
presents
more.
series
super@@
ping
opinion,
permit
external
nutritional
teaching'the
son
ities.
ships
managed
consumption.
substances.
complaints
placing
market@@
ably
Porte
promote
Haarlem
constantly
knows
illnesses
there,
excessively
virtually
chemicals
flag
fair
poverty
quota
beyond
alism
here,
bank
relates
slaughter
beings
game
imposed
GMOs
it!
do,
(A5-0@@
discontinued,
(T@@
infection)
ER@@
dat@@
shorter
achieved.
regional
lansoprazole
aud@@
medicine)
(3@@
4.9
were:
fatigue,
Posaconazole
EM@@
exposures
Cetrotide
tin
firm
Financial
l.
reporting
1.25
candidiasis,
depressive
de.
administered.
(Cmax
community
compound
PE
ran@@
myalgia,
felis
satisfactory
unchanged
allergy
sed,
fractures.
slaughtered
91
cal@@
SPRYCEL
reproduction
strength
ator
data,
ba@@
olog@@
covers
Paediatric
present.
senior
maraviroc
STATEMENT
fac@@
rac@@
Alcohol
80,
acne,
reg@@
less@@
table.
emotional
TNF
hypo@@
sweating,
2005
ED@@
Br@@
controlled,
organ@@
.)
wound
investigations
cy@@
es),
Handling
sive
ens
3.0
titrated
offered
heart,
targets
Professor
pregnancies
level@@
Objective
J.
Deutschland
Protection
in-line
methyl@@
surgeon
NA@@
E-mail:
arm.
epidemic
deposit
Keppra
OL@@
Abnormal
Sodium
Estonia
II.
sex
ages,
sensation
NE@@
Limited,
ris
2800
She
lose
inactivated
approved?
Im@@
quality,
operation.
sample
enhancing
doubt
lit@@
NovoSeven
my@@
breast-feed.
hor@@
Sil@@
recommend
accounts
Erbitux
026
017
358/
cartridge,
ys@@
transplantation
Route
ina
FCV
Articles
ade
Programme
speech
resolve
Slovenija
ens@@
ement.
epoetin
sel@@
go@@
served
Nobilis
articles
emission
monoamine
images
infants.
Ne@@
transported
prevented
Four
accurate
explains
differ
ES@@
lives.
p.
wild
Change
ure
Ber@@
OptiSet,
Ra@@
apparently
L-@@
date.
unable
smoke
centres
al-@@
construction
exceeded
relevant.
team
likelihood
identification
adoption
(2)
red@@
Rapporteur
answers
ch,
PL@@
statements
aimed
ian
w,
wait
Africa
tic,
line.
Court
MERIAL
consideration.
dealing
easier
land@@
man,
ban@@
gave
raise
Ramsgate
studies?
enough.
Russian
sources
Αγίου
Δημητρίου
cross-border
ing'
children's
technologies
compulsory
directive.
Europe's
combat
people's
civil
welcome
Commission@@
phrase
ents.
play@@
EU's
wind
ideas
later,
ations?
question,
employees
No,
(H-04@@
/96)
3/2001)
2/2001)
88
these,
emia
immuno@@
agonist
gastroenteritis,
colitis
pre-
lymph
comparator
constant
grade
substitution
moderate,
infliximab
joints
trace
compare
pravastatin
bringing
Pi@@
os,
fatty
inhalation
RA
4)
techniques
men@@
improving
dic
dos@@
clo@@
cisplatin
ation;
Survival
additive
(1@@
(V@@
response,
seizure
EMEND
Remicade
lymphocytes
vaccinated.
efavirenz,
antihypertensive
tolcapone
sildenafil
ure@@
AB@@
ring
ef@@
literature
reports,
P-@@
details
declared
extend
st.
examples
ker
197@@
ur
198@@
Ministry
networks
lik@@
breakdown
AG@@
Sk@@
MRLs
advise
sweating
AN
expertise
Ad@@
formul@@
A.,
angi@@
labyrinth
resistance.
mar@@
lactation
ORENCIA
cirrhosis
D)
T.
fre@@
confirm
mut@@
blind
ies.
(or
sub-@@
events.
ase,
in)
hamster
retinopathy,
ty@@
bronchitis,
personnel
:@@
label/
Pharmacokinetic
ay
ics
characteristic
fol@@
hypersensitive
/9@@
refractory
tongue
sore
mono@@
College
Docetaxel
Medical
Weight
kilogram
ale
parenteral
action,
…
tee
sin@@
Services
Fungal
musculoskeletal
spots
elected
antibodies.
T,
enhanced
topic
reaches
indicators
authorisations
features
Germany.
IT@@
Ap@@
investigated.
flushed
hydration
intolerance
appropriate,
chances
HA@@
kill
Remove
consequence
Hold
magnitude
res.
fil@@
Ter@@
agents,
IV@@
laws
tubes
EU/1/00/132@@
134/
152/
XXX
415/
temperatures
tor@@
aluminium
year}
30,
Wilzin
indicator
Actraphane
cats
degradation
tion)
Ho@@
ship@@
East
equally
ders,
orange
Christian
educational
mer@@
derivatives
ash@@
justify
IB
letter
Protaphane
window
regularly.
(HIV-1),
host
rich
ists
TRISENOX
differently
led,
Fe@@
REACH
solely
future.
er's
Janssen-Cilag
er-@@
thanks
ous.
composed
ends
counted
ch.
mobile
versions
authority
rates.
Or@@
public@@
alism,
connected
safely
Wh@@
char@@
Concerned
raising
Pap@@
lie
ADDRESS
town
Prac-tic
myself
GIVEN
If,
father
instruments
arise
turned
d;
programme.
contracts
murdered
stocks
example.
welfare
playing
hardly
killed.
dialogue
court
sentence
objec@@
law@@
reality
other.
ago,
meaning
Presidency
spoke
bear
supposed
ted?
square
(A5-03@@
Swedish
HbA1c
formula
3/
ng/
vis@@
hygiene
Close
FSH
ion,
neuropathy,
fat@@
necrosis
rats,
mark@@
allergy,
A-@@
metabolite.
por@@
joints,
ID@@
10,000
met.
injuries
Glivec
memantine
trans@@
residue
iloprost
remained
months)
22%
completely.
individuals.
581
improvements
days)
82
olanzapine
media,
(1,000/1,200
classified
oxide
bilirubin
Rebetol
spondylitis
e),
fibrosis
atazanavir
Zometa
dropped
chromosomal
background
mellitus,
responding
ide.
(VTE)
l,
mask
date,
lip@@
Date
Virological
tingling
field,
photosensitivity
disappear.
industry.
Te@@
France.
Good
diarrhoea.
neuromuscular
electrical
discharge,
one@@
write
Agency’s
breaking
tetanus
advance
syndrome)
ys
investigate
autoimmune
urine.
ost@@
pneumonia
10.@@
t)
range.
Vascular
voluntary
cattle.
30-@@
2).
results,
ml).
diabetes.
dental
Parliament,
drug@@
lithium
therapies
Fort
tion:
As@@
Optisulin
strategic
properly.
didanosine
ok@@
a),
Reduction
VE@@
pressed
ain@@
meals.
ub@@
break@@
ia@@
p,
spinal
Polysorbate
Tallinn
Roche
transporters
a:
ADRs
ting,
layer
ous@@
multipack
60@@
Pre-filled
El@@
eth@@
Spain.
identical
concentrations.
EMADINE
Active
hazards
ive
USA
Never
inadequate.
assistance.
suspected,
organs
Viread
available,
(particularly
HEXAL
practic@@
(0.2%
Madrid,
harmon@@
Soliris
Coordination
ment@@
inserted
cumulative
EU/1/00/131@@
/003
018
019
024
025
ZYPREXA
box.
transferring
deltoid
ken
avenue
inc@@
below:
Oedema
Puh/
ole@@
(EEC)
breast-
ná
Unless
alis@@
base
financing
Calicivirosis
ric@@
iz@@
proteins
ins.
shaken
Institute
fails
Temodal
flexible
to.
switch
grams
Tevagrastim
G,
mil@@
half-@@
Stat@@
processes
initi@@
tap
Intervet
injured
Having
coli.
sil@@
(0.9%)
40%
23@@
human.
implement
observ@@
with,
San
í@@
systems,
cloudy.
ease
sum
opinions
historical
entry
encourage
acidosis,
implementing
ber@@
Anti-@@
sl@@
quarter
ic.
reasons.
Security
ie@@
NutropinAq
condition@@
destroy
wor@@
bond
markets
Commission’s
capsules,
ars
t;
eri@@
neither
Alpes
opportunities
symbol
faced
one's
alternatives
Out
ness,
Sandwich
intend
charges
spend
care,
green
Western
GR-174
Άλιμος
30-210
democratic
dying
calls
consumers.
subsidies
banks
some@@
funded
weapons
elapsed,
replied
represents
newspaper
agriculture
obligation
fate
al'
inv@@
ship,
dangers
Islam@@
peoples
Israeli
explo@@
Nonetheless,
compromise
(A4-03@@
Trizivir
initiated.
happens,
c)
fell
knee
IF@@
hazard
Philadelphia
circumstances,
growth,
loc@@
Imprida
ick@@
top@@
open-label
helping
(under
Tredaptive
gain.
defence
haemorrhagic
insulin,
(90Y)
amphotericin
fluvastatin
falls
(mean
behavioural
obese
depressed
109/
encephalopathy
7-@@
indicated.
99@@
mL
q@@
ogenic
8).
hum@@
eggs
inten@@
transitional
6)
pramipexole
limb
MIRAPEXIN
intracellular
paraesthesia,
technological
critical
Publications
Rome
chemotherapy.
sit@@
governing
lactate
redness,
bul@@
ators
constitute
thin
designation
passing
moderately
49@@
epilepsy
warned
administr@@
osis.
harmonised
impaired,
heparin
lovastatin
antiepileptic
Aranesp
Excessive
Inflammation
somnolence
dog
albumin
experiments
rever@@
humans,
ited
specialist
infiltrates,
ng
lic@@
inner
Levemir
Hyper@@
salts
weakness,
ently
volunteers.
dose).
Vomiting
61
German@@
Placebo
Science
Mil@@
(300
ids
67@@
Guideline
Warszawa
problem@@
limbs
back,
title
Organisation
les,
Shelf
mal
loose
Pol@@
pos@@
effects:
uncommon
itchy
pain.
Viral
glo@@
candidiasis
procedure,
shot
endocrine
Pl@@
composite
UN
(PLI
uptake
rapporteur
technology,
transcriptase
greatest
agencies
Harmonisation
lock
education.
Combination
re.
discarded.
gastro-intestinal
displayed
sunlight
stimul@@
Nervous
ator@@
delivered
manufactured
pancreatic
continuing
Age
hydroxy@@
delayed.
32@@
rhinotracheitis,
Median
ters.
ish
harmonisation
VII
teratogenic
/002
020
022
023
tablets)
366/
sa
sorbitol
)-@@
{month/
broached,
Vial
urg@@
06
d'@@
ously
al?
herbal
nic@@
region.
prevents
(HDPE)
mark
collection
Capsule,
City
dr@@
consists
organizač
zlož
erythropoiesis
IR@@
VISTIDE
newborn
strain):
HEXAVAC
ech@@
take,
extr@@
etc.
proposal.
(L@@
se.
together.
naturally
metre
arterial
stand@@
history,
im
hour.
207
pieces
mg/ml
planned
prime
cloudy,
Stockholm
defects
rap@@
mm
army
read@@
plays
6.2
Nobivac
mg/l
foods
dem@@
800,000
demands
chains
Col@@
el.
antibiotics.
instrument
constitu@@
Bal@@
worldwide
investig@@
cha@@
diver@@
guaranteed
grow
offers
pr@@
tic.
Ros@@
containers
Europe@@
gap
Min@@
emp@@
comm@@
end,
hel@@
pro-@@
ery
allocated
yours.
PC
METHOD
withdraw
Turkey
pitting
ethnic
Union@@
identi@@
comment
2008
companies,
wife
don@@
of,
suddenly
page
costs.
regul@@
(cells
arrested
freedom
mercury
them?
powers
felt
sustainable
trading
drivers
ethical
famous
perfectly
USD
operators
Air
flights
voting
book@@
accident.
denied
econom@@
currency
writing.
basis,
negotiations
uranium
Have
hed
island
comments
Palestinian
cred@@
/200@@
sell
Be
6/98)
ler
pharyngitis
Combivir
delay.
ae
(8@@
WHO
-treated
vo@@
0%
NSAID
pruritus
(15
analysis,
weeks)
acetylsalicylic
intensity
QT
Agency's
immunoglobulin
sleep@@
speci@@
5%)
arm,
×
(N
rashes
ratios
somnolence,
together,
letters
order@@
130
17%
models
alfa.
plan@@
6.
ol.
saquinavir
ritonavir,
exacerbation
restriction
111
99
adefovir
L,
intravitreal
Lucentis
comparing
320
popul@@
promotes
2.6
mov@@
disease-modifying
(N=@@
ed-@@
Sprimeo
8-@@
two-year
appl@@
toxicity.
duloxetine
FIRST
9.
acetate
blurred
hypotension.
phen@@
degrees
Italian
manag@@
Pharmacology
micro-@@
ach
(by
High
conjunctivitis,
ides
iting
CI)
(3.@@
mineral
DI@@
values.
°C
castor
parti@@
emphasis
pneumonitis,
Sch@@
inhibitors,
away.
ful@@
sinus
Rules
emergence
P)
supported
pharmacodynamic
reveal
injectable

low,
2001.
led.
microspheres
proteinuria
analysed
rash)
dissemination
lasting
resolved
separated
Suomi/
DG
appetite,
Diacomit
night,
glycine,
erg@@
LI@@
lips
oil,
(9
potassium-containing
allergies
advantage
Du@@
La
Inhibitors
humanitarian
acceptable.
storage,
Improvement
document@@
improves
monohydrate,
Holdings
SARL,
ER
dark
light,
breath,
TRI@@
ary,
thickening
ing).
seeing
Increase
pandemic
with:
combinations
alcohol,
disrup@@
molecules
compounds
Metalyse
Systems
vaginal
expose
facing
ties,
protein.
coronary
artery
for.
(R@@
progenitor
Yttriga
/001
137/
broad
revised
events/
worsen,
content.
lam@@
dys@@
zinc
Mac@@
precise
ner
Sa@@
La@@
Am@@
Turn
Copenhagen
Manufacturer:
Filgrastim
tim@@
bags
ert
conditions:
shell
Cardoreg
ex
applied,
els
gained
Tacrolimus
Parliament's
integr@@
ili@@
kidneys
removing
preparing
antifungal
wounds
ambient
operations
tive.
posi@@
Sec@@
Lithuania,
dispenser
ber
ization
ile
mobil@@
fur@@
distribution.
7.
automatic
cautiously
za
OTHER
galactose
protein)
Ultratard
ors.
extending
bid
Ongoing
loratadine
transparent
[N
Ciprofloxacin
creating
darbepoetin
loading
ties.
reaching
le-@@
ists,
relief
ats
part,
task
ked
breeding
claimed
factory
Ranexa
Zyrtec
pose
elec@@
glob@@
conclusions
pul@@
Shire
Long
Tenofovir
ter,
profession@@
errors
send
legislation.
sales
lan@@
packaging.
effectively.
transition
demand.
largest
cancers
fail
rou@@
options
altogether
sm@@
regulation.
consequences.
closing
surveys
admitted
proven
000.
bar
ending
remind
embryo
Atlantic
perfect
happen,
follow.
hop@@
alist
supplies
000,
checks
ents,
tried
soldiers
So,
opposed
tragic
domestic
fraud
power@@
ation'
terrorists
Mediterranean
Hungarian
People
beef
girls
train
Anyone
whereby
justice
book
acy
GDP
election
China
summer
terrorist
fisheries
imports
Convention
s’
farmer
now.
run@@
forest
genuine
undertake
foodstuffs
accused
mak@@
selling
speaker
Category
will,
criminals
be,
red?
agus
speaking,
(A5-02@@
Danmark
HI@@
(glucose)
nit@@
group@@
malnutrition
lymph@@
CNS
diagnostic
(in
celecoxib
B-@@
represented
fying
Privigen
foot
ST@@
ICH
Guidelines
old,
proportional
cutting
54
accounting
MRI
adalimumab
infection@@
ziconotide
beta-@@
CYP1A2,
unknown,
mg/day),
releasing
indicates
institution
eczema,
itch@@
h/
intolerant
Cancer
sclerosis,
Te
single-dose
dose)
1.7
lact@@
ating,
Liver
ine)
attributed
raz@@
id.
inspections
contributes
biotechnology
Kaposi's
biliary
Dublin.
Ben@@
1993
↔
Need
reduced,
irrespective
handed
pressing
Applications
ut
partners
submitted:
discolour
mi@@
Post
reduction,
bus@@
Significant
Packs
haematomas
Chronic
block@@
cervical
thrombocytopenia
chaired
creation
committees
applicant
meth@@
awa@@
flushing,
mid-@@
skeletal
dro@@
toxicity,
amin@@
side-effects
13.@@
CD@@
adversely
oz@@
contribution
transferase
21@@
Infectious
Fuzeon
ulcer,
fatality,
Interactions
Aclasta
bowel
sol@@
sible,
borderline
Men@@
immunosuppressive
15,
Trans@@
Dodge
radioactivity
Del@@
Two
Update
d)
continu@@
Compared
regression
Su@@
Royal
ology,
EX@@
Estate
..
Musculoskeletal
region,
+4@@
Director
ore
Rom@@
Neulasta
compliance
prefilled
Duration
Like
scale,
egg
SA.
6676
Baltic
+370
inflammation,
fu@@
glioma
ovary
marks
thiazide
stay
spectrum
soci@@
és
(44-20)
b)
requests
sector.
manual
point,
Metformin
incretin
reaction).
H.
insert
ity@@
scheduled
important,
of<
Aprovel
operation,
goals
usage,
need.
—
tin@@
filled
2%)
Diskus
+351
fructose
zonisamide
recur
thumb
specific,
uncontrolled
metastatic
EU/0/00/000/000
/004
103
98/
exists.
ency
{MM/
disp@@
ham
Nor@@
Fendrix
Gen@@
88@@
Sh@@
Rec@@
Operation
ures
ú@@
REYATAZ
maybe
genes
km
Ham@@
promoting
Cap@@
variable
risk-benefit
prohibited
element
Alert
direction
Pen@@
rising
barrier
insufficiency.
carers
forward.
but,
justification
Infanrix
side.
ator.
himself
avian
rol@@
usual.
ations:
CELSENTRI
cu@@
Er@@
Yttrium
rose
emb@@
KG
proportion@@
2000,
EEIG
ves
necessity
conversion
ises
massive
characteristics.
degraded
check@@
innovative
established,
actions.
ously,
Is@@
weaker
psych@@
wanted
ze
serotype
Labelling
obtaining
option
appeal
Pierre
committed
Adult
sodium,
whenever
sed
inst@@
HIV,
infrastructure
state.
bonds
Slovak
ism@@
pat@@
news
lifestyle
discuss
eng@@
operator
substance(s)
care@@
world,
race
wishes
catch
term,
skills
any@@
Spot-on
attenuated
ign@@
HUMALOG
question@@
foot@@
nearly
Otherwise,
ently.
y's
2010
gh@@
productive
ash
abortion
closer
track
story
houses
another.
health@@
hundreds
tonnes.
mere
disaster
ers'
Parliament.
Votes
leaders
businesses
interesting
bureaucracy.
opposition
safe,
advertising
passenger
driver
wonder
taken,
NATO
victim
legally
Wine
inhabitants
weather
ECU
issue.
losses
entitled
ing!
ically,
jo@@
livestock
collapse
landfill
aims
customs
director@@
interest@@
negotiating
ated?
proposing
ent?
Despite
er?
report?
(A4-016@@
03
three-@@
recently,
yourself.
%;
dietary
pertussis
56%
IS@@
fore@@
itis
thigh
dy@@
alopecia,
fatal.
cytarabine
ory
78@@
Kaplan-Meier
Figure
day@@
27.@@
excretion.
tremor,
⋅
partnership
Otherwise
concern.
plasma,
eness
overdose,
corticosteroids.
T-@@
5.3).
tended
latent
atory
EF@@
CYP2C19,
histamine
AUC)
4/
Form
uc@@
catabolism
(‘
Cmin
LU@@
12-@@
lipoprotein
FIRMAGON
Op@@
disability
suggestive
chemotherapy,
paralysis
Eye
application,
GANFORT
selection
meal.
tor
Rasilez
Riprazo
nilotinib
Seven
juvenile
mouth.
determin@@
crushed,
undergoes
attributable
pseudoephedrine
hair@@
Between
1985
cellular
Laboratory
Thus
5.
post-operative
reversal
tiredness
conjunctival
0.9
Warfarin
injury,
Anti@@
limit.
documents.
penetrate
Losartan
conclusion
respectively
agon@@
virologic
Lo@@
gut
cul@@
ure.
openia,
donors
begun
CMV
conclude
rate,
TRAVATAN
complications.
organ
alfa-2b,
pens.
tis
Emselex
taken.
-like
we@@
workload
considering
neutropenic
points.
take:
Signs
sti@@
anxiety
ions
ities
facilitate
he/
temperature.
dom@@
ry@@
res,
interruption
congestion
counts,
ours
London.
Pharmac@@
cardi@@
2004.
cartridges.
qualification
Authorisation(s)
Netherlands.
micrograms,
constipation,
tho
pain)
Urine
.,
administered,
DuoTrav
Shelf-life
m-cresol,
Effect
shortness
menstrual
flo@@
surface,
tests.
(shock)
cycl@@
eye:
Pharmacodynamic
plas@@
region@@
ABILIFY
MA
Hungary
incineration
4.8.
receptors,
exten@@
EU@@
opening.
Resistance
s/@@
doses)
Silapo
wiped
stopped,
supervision.
sure.
accompanying
typical
suspended
notify
ving
entecavir
Cardiac
limit@@
InductOs
gar@@
removed.
portion
stopper.
2007,
ize
vehicles.
converting
ally-@@
sing@@
shel@@
IU)
426/
95/
/0@@
rati@@
Mo@@
bubbles
carefully,
sn@@
Dublin
Lane
We@@
contain@@
focused
exercising
NEVER
ie
bottle,
scre@@
connec@@
syringe.
bottles
anti-
clothing
rue
pel@@
metabolism,
Green
White,
coma,
newly
integrated
analogue
lad@@
Cam@@
not@@
pointed
ou
NO@@
starts
4-91
Association
ational
Tylvalosin
linear
Secretariat
HIV.
issues,
pack,
cleared
Vectibix
measure.
Ob@@
failed
ators.
molecule
grow@@
mandate
substitute
donor
sulfate
Indinavir
Escherichia
Infusion
alised
Vimpat
Aerius
1%).
fail@@
For@@
ase.
nica
E,
Italia
abil@@
ver,
materials.
dra@@
Absolute
potential.
l/
often,
sets
exceeds
metabolism.
limiting
(The
smoking,
pent@@
Simultaneous
improvement.
On@@
weighing
fourth
cigarettes
app@@
ious
interpretation
lim@@
automatically
rolling
principal
reform
regulator
substitutions
gri@@
et.
cyanide
aberration
risk/
Rotigotine
odi@@
VIRACEPT
form.
pig@@
ration@@
direc@@
reviewed
driven
competi@@
cigarette
other@@
understood
entirely
risen
path
exp@@
ak
ta,
pan@@
stage.
institutions.
acc@@
ruled
ability.
der,
being,
introducing
thinks
themselves,
collec@@
(3)
quality.
apply.
17,
belong
F-69800
dangerous.
water@@
ei@@
incorrect
handled
style
analyse
added.
Tr@@
African
tanks
Hampshire
hot@@
notification
Synagis
ensuring
afraid
Regulations
times,
done,
".
worse,
better.
woman,
holiday
industri@@
decline
there@@
Effective
bon@@
Sen@@
famili@@
references
define
Ur@@
participants
tool
nobody
effective,
Tηλ.:
flame
sentenced
rates,
taxes
describe
kilometres
exceptions
ty,
workplace
z,
coast
conflict
urban
repa@@
important.
schools
year-old
Tobacco
ship.
?@@
stands
crime
arrive
reply
hotel
hectares
that?
imported
treaty
prisoner
sports
olive
secret
fighting
Austrian
rural
ultimately
cloning
motiv@@
Iran
immigrants
unfortunate
directive,
right.
wants
trust
provoc@@
Iraq
citizen@@
condemned
Islamic
dangerous,
proposal,
WTO
others,
question.
forces
say:
detention
us?
four@@
then?
impose
that!
Strasbourg
preliminary
year?
94
Wil@@
implanted
stop@@
open@@
tis@@
entered
mg).
6%)
in:
-4@@
dehydration,
situations.
hepat@@
Helicobacter
complete,
Oc@@
proteins,
dasatinib
malignancies
x.
tics.
test.
O,
insomnia,
enoxaparin
GIST
Lam@@
survived
brain,
small,
0.8@@
0.9@@
H-@@
128
significantly.
add-on
scan@@
field.
16%
patient-years
venlafaxine
ulceration
11.1%
bodyweight
phosphatase
pioglitazone.
antibiotic
cholinergic
subset
(O@@
Scale
VA@@
’).
HPV-16
1,200
CD
Week
relapses
8)
47%
PRE@@
VTE
circulation
form,
st,
below).
=@@
progres@@
intranasal
g,
consecutive
fat,
PE@@
17.@@
a/
79
part@@
(to
ation).
lab@@
variation
burning
gender,
aemia
inducers
CYP3A4,
Johnson
1987,
director
consultant
C-@@
Cl@@
rocuronium
ulation
allerg@@
lymphoblastic
ths
submission
Meeting
Ask
2002,
collect
played
medic@@
polysaccharide
hyperglycaemia
rib@@
induces
Summaries
glucagon
anti-cancer
nervousness,
Swine
diffuse
p-value
farm
Abdominal
PRCA
My@@
pronounced
week@@
Multiple
probable
incontinence,
rodents
sitagliptin
8.
metabolite,
tubing
determination
Infections
simultaneous
s'@@
Sweden,
passage
preservative
'(a
tro@@
oedema.
consistency
approach.
(200@@
Driving
Application
Careful
Photosensitivity
sick@@
lesion
cell@@
interrup@@
rats.
caution.
factor@@
”).
Monitoring
Discard
Genzyme
SHARP
Str.
radiolabelling
assembly
motion
R.
enter@@
0.00@@
istic
Fr@@
PhD
UK.
Barcelona
ate)
46@@
oil@@
del
ences
month@@
List
mouthpiece
epistaxis,
coun@@
aries
Hol@@
Ha@@
ella
mean@@
Upon
unique
patches.
ven@@
variations
Hy@@
perversion
maculopapular
4).
Global
runny
@@@
after@@
ry,
paroxetine
trouble
perform@@
len@@
iness
legs,
pain@@
(Seen
(itchy
mel@@
fragile
(EPAR).
Reproductive
sugar,
(905
FeLV
OM@@
Infection
stimulate
rises
highlighted
ty.
experiences
ches
about.
Fer@@
pregnancy,
presentations
Immunodeficiency
argument
initiate
kg.
Vildagliptin
long-acting
prothrombin
antidote
develops
pylori
Transferring
plenty
spite
challenge
suggesting
saline
antacids
resolved.
hypoglycaemic
grant
doses,
ages.
breastfeeding
administering
Extavia
rest@@
line@@
label@@
locked
go.
Gliolan
matrix
heparin)
Epivir
E-@@
relieve
drawn
dispose
burning,
Sar@@
ets
lu@@
estimates
ó
n.
valu@@
cent@@
post-menopausal
land.
/005
101
386/
EU/1/98/069/00@@
EU/1/98/070/00@@
X/
XX/
XXX/
Cardiovascular
reaction@@
stretch
band@@
patients:
preferred
6.1.
GM
indicator.
Cartridges
Av@@
deliver
Investigations
long-@@
..@@
Staff
Lithuania
Eckenheimer
need@@
Heart
adi@@
mostly
disturbance
Smoking
neutral
CYSTAGON
Gar@@
pathway
ark@@
BV
Z
blast
cer@@
lots
materi@@
Met@@
wool
Government
(FHV
Lda
dysphonia,
minim@@
components.
Belgian
today.
belonging
dementia.
antigen)
borne
blocked
SINGULAIR
hex@@
above.
manage
receives
MI@@
feed.
antibiotics,
system@@
cure
ble
cetirizine
tre@@
modifications
Latvia,
Norway,
Community,
challenges
5).
pres@@
compatibility
aw@@
hospital,
oth@@
Eating
(23
hur@@
markedly
ched
ath@@
matter.
action@@
osi@@
+386
phot@@
fluids
+35@@
adapted
sun@@
enclosed
summarises
Cas@@
(International
Norvir
typically
express
fif@@
implants
chosen
nor@@
accessible
initially
rooms
whole,
lap@@
distal
Analysis
well-known
individually
57
alized
ching
successfully
80%
questions.
hom@@
depend
damaged,
relate
dog@@
Orfadin
benefit@@
effort
expected.
B)
ms
ot
{Name
Reconcile
located
deeply
encouraging
twenty
recruited
launched
s’.
(FR)
systematically
report@@
ick
Kar@@
directions
mechanical
sto@@
Frequencies
ess.
coverage
safety,
ordinary
fulfil
doctor’s
relatives
generate
Looking
roughly
clinic
fifth
equipment,
safe.
poorly
cour@@
Poland
observe
Tor@@
Waarderweg
Lyon
ack
down,
ments,
save
ask@@
subjected
Lisbon
conclus@@
reserve
Can@@
Espoo/Esbo
Gu@@
gre@@
bread
definitive
instructions.
zones
family,
bs
May@@
Bel@@
-up
Soviet
EU-@@
(alu)
example:
ls
Union's
commodity.
ches,
'?
peace
appe@@
sulphur
tonnes,
prices.
successes
p.m.
ill-@@
modern
Tim@@
agenda.
es'.
hero@@
fair@@
agreements
involved,
bought
sav@@
refugees
tar
exc@@
cheap
shop@@
voted
rely
facts
farm@@
sole
country@@
women's
envisaged
short@@
Britain
answered
sit
employ@@
Nothing
consider@@
protection@@
Greek
home.
attitude
capit@@
cloned
roads
t!
Has
blame
million,
door
cadmium
concrete
pe
India
murder
invest@@
a'
seat
who,
work?
earth
paying
result?
profits
strategy
Did
not?
in?
ly?
tions?
introduce
ate?
develop@@
market?
1/98)
/2001):
3/98)
5/2001)
48@@
(1)
102
discontinued.
lopinavir/
stopped.
required,
restart
cerebrovascular
arms.
convulsions,
correspond
(SD)
levetiracetam
3000
am,
pilot
haem@@
root
(CNS)
nec@@
aggression,
58%
event.
nodes
Copalia
varying
zed
durable
long.
sufficient.
(from
past.
skin).
neonates
MS,
'that
babies
Myozyme
management,
dex@@
Ca@@
attaches
leuk@@
otic
actively
bortezomib
myeloma
zoster
123
agitation,
partially
aspergillosis
baseline.
twelve
NeoRecormon
damage,
(5.@@
(total
intrathecal
pill@@
montelukast
long@@
8/
6/
exacerbations
heart@@
complic@@
understood.
dl,
blin@@
ira
monthly
9)
5/
tiv@@
ster
calicivirus
EP@@
event@@
pra@@
drops
2001,
documented
ised.
profiles
PT@@
1.3
min)
44%
populations.
aliskiren
Tekturna
murine
110
antibody.
inactive.
inhibiting
orlistat
learning
plasma.
advances
rin@@
ess,
ology.
relations
bladder,
sessions
(up
alcohol@@
immun@@
eli@@
5.2
baby,
lum@@
provider
predicted
Internet.
Haemophilus
Neisseria
trial.
tract.
lessen
hepatitis,
anaphylactic
Herpes
generalised
isation.
presentation
mucous
detectable
nephrotic
's.
ity)
mycophenolate
/4@@
ventricular
contacts
newly-diagnosed
attempting
randomised,
4%)
atic,
lipid
medications
exercise,
muscular
conducted.
bit@@
CYP2C9
foetus.
atrial
lysis
weighed
line,
devices
buprenorphine
ribavirin,
ulcerative
diseases)
myopathy,
rup@@
observations
naive
fluctuations
kidneys.
format
mandatory
disorders),
pale
ia).
tablet@@
acid.
tired
loaded
Houtenlaan
1381
DOHME
GMBH
4561
2612
Infocenter@msd.
(these
participate
adopt
aff@@
fold.
substanc@@
VI
decreased,
acid@@
thing,
attention,
CM@@
sucrase-isomaltase
University.
over.
pharmaceuticals
Potassium
Tél:
Therapeutic
(EC)
oestrogen
alleviate
cirrhosis,
cramps
ion
Minist@@
Ep@@
Minister
drops,
Dynastat
rhinitis,
ECALTA
farms
182
estonia@gsk.com
667
facial
Sub@@
interest,
mu@@
ker@@
tis.
arr@@
ia),
Ceplene
kes
and.
tear
ins,
al/
shift
elimination.
....
tissues.
childhood
mild,
IM@@
structures
ay@@
berg
heads
acknowledged
Organ@@
exclusively
projects.
tively
11%
drugs,
encouraged
rinse
Transfer
Panretin
ons,
{INVENTED
mothers.
Ensure
barrels
specific@@
column
support,
simplex
explain
YMDD
follitropin
spreading
calicivirosis
firmly
25-@@
Prime
radic@@
ther@@
ack@@
relapsing-remitting
Km
inappropriate
IL@@
7%),
CR@@
CRF
fluctu@@
eu@@
ET@@
029
341/
ori@@
tight
Too
film@@
Examples
compensated
Martin
1995.
ra,
fracture.
SUBSTANCE(S)
eas@@
inform@@
Mat@@
Rhinotracheitis
104.9
provi@@
attach
handle
Holland
bre@@
Slovakia
Landstraße
Frankfurt
ative,
injection-site
ured
desire
Psychiatric
card.
feet
Hard
gold
resist@@
printed
nature.
Lu@@
measure@@
ov
sulphonylurea
stimulation
ring@@
cultures
wing
euro@@
rot@@
proceedings
restructuring
blister.
mann
Journal
England
Growth
preserv@@
ali@@
division
ently,
growth.
considers
a).
hyperstimulation
3),
reminded
remembered
Card
Telmisartan
receptor.
solution@@
CIALIS
visually
crises
swallow
breathe
probenecid
5.0
sevoflurane
plasma-derived
disappears.
Estonia,
fibrin
babies.
Sirolimus
Patients)
Repeatedly
erup@@
tly,
allergies.
ek@@
-C@@
Last
Ljubljana
H,
nominal
west
+39
pic@@
vari@@
AB,
regulation,
dedicated
Cer@@
sen
Franc@@
desloratadine
Produtos
Individual
PD@@
search
PHARMA
clean@@
nitrogen
oblig@@
ical,
phase.
ones,
pathogens
exist@@
interrupted
hu@@
Nplate
clarified.
alcoholic
depends
notably
leader
–@@
12%
Leave
solvents
Fo@@
Tritazide
widespread
til@@
death,
suppression
agre@@
prophylactic
medium-sized
preventive
institutional
protec@@
antimicrobial
Dec@@
crisis,
helped
corresponds
Slovakia,
labels
stabil@@
ics,
Latvijā
discovered
restrict
issu@@
Characteristic,
Neurontin
supervisory
support.
incident
Ste@@
Tra@@
help.
inspec@@
ici@@
reinforced
males
e-mail
(7.5
known,
mand@@
dates
clar@@
mas@@
40,
Tri@@
olig@@
poultry
procedures.
ina,
OptiClik.
termed
records
powered
Waste
sight
cho@@
aring
ret@@
necessitate
TIN
kers
integration
throw
consumers,
histor@@
functions
Sy@@
84@@
Malignant
lists
suggested
ades
Twenty
marine
UK,
content,
disturb
learn
effective.
account.
Israel
vessel
land,
b,
generic
However
ush@@
Nic@@
product),
frame@@
Thus,
must,
ran
squeeze
San@@
reasons,
table,
authorization
Strada
med@@
t:
street
traces
sexually
have,
code
gases
leaving
person,
swine
past,
fitted
(first
Jo@@
sought
depend@@
crossing
do.
training.
with.
websites
tu@@
reject
somewhere
summit
banning
minerals
steel
Statistics
services.
attacked
technically
rightly
him.
lives,
mentioned.
risks,
house@@
Russi@@
money.
expectancy
deaths.
referendum
packaging,
lif@@
armed
alism.
aid,
jum@@
margin@@
discus@@
negoti@@
politic@@
technology.
produced.
parliamentary
right,
decisions.
'the
cast
aging
ers?
win@@
reason@@
Americ@@
said,
ned
tion!
asylum
directives
university
pesticide
explanation
politically
serve
a!
ed!
counter-@@
ds.
metals
crimin@@
ans@@
independence
ve.
tuna
rad@@
tackle
yourselves
Finnish
debt
research@@
seats
sanc@@
yet,
rail
resign@@
listen
beautiful
whom?
bio-@@
meat,
appropri@@
talked
Or,
pleas@@
hear
Nobody
airport
Why,
mean?
(A5-020@@
8/2001)
5/97)
69
sinusitis,
purposes,
two.
decreased.
Environmental
manifestations
to-@@
cohort
tremors,
indinavir/
cytogenetic
Luveris
following:
oma
secretion.
ell
hour@@
inflammation.
fractures,
high-risk
INOmax
tender
fund
non-clinical
(un@@
oste@@
migration
’)
treated.
pig
oma,
filtration
mood
losing
metformin,
14,
tigecycline
safety.
III,
CYP2C9,
CYP2D6,
receptors.
recovered
59@@
microgram/kg/week
IV.
DVT
TORISEL
days@@
1%.
(12@@
C/
87@@
anthracyclines
IV,
PI@@
PRO@@
OSSEOR
neutralising
Si@@
retina
sperm
trough
nose.
2%,
11.@@
Tarceva.
stud@@
))
substantially
complementary
gabapentin
triglycerides,
cro@@
oti@@
SIFROL
bosentan
maxim@@
anaemia,
Therapy
ing),
Mag@@
discolouration,
its.
ement,
audit
1976
1986
Brussels.
Post@@
hospitals
company.
Coun@@
arc@@
NSAIDs
ely,
EE@@
(not
discomfort,
aemia.
uri@@
Wa@@
MRL
easily.
fire@@
ben@@
tak@@
resource
improv@@
hoc
15-@@
al:
ram@@
demonstrates
isol@@
off-@@
MRP
ists.
Gr@@
ä@@
fur
f.
occasion
benzodiazepines
Lib@@
cutaneous
Cy@@
testing.
LE
Str@@
phosphate,
dyspepsia,
exenatide
defec@@
ds,
ton@@
emia,
bile
iso@@
74@@
mic@@
mutation
am.
adolescents,
(two
rhythm
(400
cells)
aly@@
age-related
ch-@@
ness@@
siz@@
Continued
Responses
son@@
]).
insomnia
depression.
operated
signal
method.
Dan@@
gram
sco@@
website.
guid@@
Fin@@
alise
establishing
FOR@@
ely
adapter
Insert
height
ket@@
TAC@@
MUST
hydrochloride)
dabigatran
12.
ue
Trinity
Degree
Masters
moisture
clearance.
sparing
(0)@@
sector@@
PARTICULARS
durability
outcomes.
(13@@
diffuser
cm)
ve,
micrograms.
Mel@@
flu-like
aci@@
ium
Ger@@
advis@@
refrigerator
Vis@@
di
treatment:
EL@@
grand
bruise,
GI@@
adhesin
U*
finger,
hydroxide
Recommendation
GE
estonia@gsk.
155
07
Efexor
inhibitory
spot@@
ts)
PA@@
abscess,
shar@@
H).
emtricitabine
148
14%
ogen@@
FORSTEO
bone.
tur@@
Calcium
channels
activated
switching
thrombin
function@@
disruption
Through
Em@@
che
Registration
1996.
London,
(PT)
occur:
permanently
PR@@
complications,
arising
observed,
immediately,
occur@@
exposure,
residual
prescribing
(MRI)
50-@@
CC@@
bridge
UB8
ac
public.
”,
reflected
labelling.
use@@
Finally,
life-style
end-stage
Withdraw
centr@@
Review
changed.
CML
64@@
product@@
undergo
2000.
vasculitis
oxide,
BA@@
fundament@@
righ@@
031
blisters)
EU/1/06/357/0@@
08@@
383/
death@@
ID
working.
listlessness,
mmol)
histidine,
lymphocytic
train@@
Har@@
dig@@
Co
mag@@
infect
select
lon@@
Somatropin
j
haemat@@
ain
MIU/
realistic
term.
Open
Pregnant
Activelle
®
Slovenia
Merz
Work
idi@@
experience:
Bratislava
alising
conference
equival@@
150@@
mg”
ink
publications
arranged
crisis.
standardisation
teeth
cross
ail@@
when,
Tel@@
Nimesulide
met@@
din@@
exclusion
pit@@
survive
doctor@@
authorisation.
Committee,
neurodegenerative
attack.
machinery
yr@@
ely.
fall@@
assumed
commit
ily
ics.
def@@
fer@@
Posology
Concurrent
contracting
issue,
location
last@@
chew
cows
act.
tan@@
consensus
int@@
intensified
respect.
Sweden.
Area
atic
definitely
citrate
constituted
INSTRUCTIONS
York
isophane
on-@@
373
Lapp
lactase
INVANZ
ately
telephone
reddening
analyses
ok
192
Mark@@
Repeat
mad@@
cake.
Aspergillus
activ@@
exhibits
cause.
prodrug
empty.
eastern
ate@@
(Invented
de-@@
ides,
b.
P,
same.
path@@
bus
air.
values,
stronger
pur@@
continuation
anabolic
Des@@
narrow
uncertain
innovation
evalu@@
conservative
herd
identified.
entr@@
flow@@
neutr@@
dist@@
Selamectin
request@@
priorities
ba
proceed
isolated
2008,
benefits.
der.
evaluating
psoriasis
draw
lost.
ing-@@
markets.
animal's
mouse
Res@@
Crohn's
candidate
finance
react@@
Co-Rapporteur
Ru@@
Romania,
paraffin
ying.
Communities,
art
Merial
stage,
progress.
ner,
dairy
sulph@@
ones.
conf@@
point@@
emerged
set.
Monday
ders.
completed.
specialists
hun@@
reconstruction
knew
Purevax
ap
restric@@
93@@
chain.
item
radio
resist
four-@@
(Percent
}>
somebody
ust
suspect
Manufacturing
OPATANOL
properly,
ori
Egypt
Point
Parkinson’s
hard@@
well,
coordinated
mine
War@@
rigorous
Prophylaxis
bom@@
o?
trains
stra@@
ast
valued
successful,
instruct
happen.
mentioned,
ble.
Tur@@
own@@
everybody
budget@@
systematic
suffers
this:
calling
kinds
harm@@
strategies
Roma
century
Ta@@
youth
cru@@
worker
changed,
worrying
time?
guarantees
t'
s',
cultivated
diversity
conciliation
stringent
renewable
sold.
alised.
rs
biggest
fail.
streets
cigarettes.
textile
factories
workers,
quote
by@@
journey
sw@@
zone
effici@@
coastal
call@@
grown
nu@@
fish,
balanced
itself.
prevention,
article
transportation
diesel
cod
authorities,
Amnesty
predic@@
quot@@
escape
enabling
dignity
ks.
invest
said.
educ@@
citizen
moment.
excuse
Ku@@
next?
business@@
honourable
hypocrisy
board.
deadly
Mc@@
£@@
divi@@
allowance
batteries
complain@@
viewed
success.
property
Afric@@
OECD
debate,
Constitution
geographical
lorry
elections
peaceful
flexibility
ishing
other,
fuels
patent@@
pure
watching
lead@@
Unfortunately
(Mr
Simply
fishermen
-year-old
colleagues
reserv@@
Well,
motor@@
rain
vehicles,
matter,
village
Was
cubic
quanti@@
one?
badly
cosmetic
saving
scientists
voters
action?
ded?
happen?
(H-06@@
(A4-019@@
6/97)
(A4-035@@
3/97)
Ferring
recovered.
guideline
0.8
concentration.
N,
osteoporotic
initiating
'(@@
veins
circulatory
sarcoma
enfuvirtide
alopecia
dose-related
bone,
emesis
respon@@
disappeared
symptom
Rel@@
42%
charged
inhal@@
interference
thorough
h.
cuts
dl)
MD@@
ES
leg
net,
(all
in).
dermat@@
drowsiness,
vertigo,
disturbances
aemia,
timolol
worse.
contraindic@@
sho@@
OPTRUMA
constipation
transaminases
ophthalmic
R)
LT@@
rasburicase
preclinical
pursued
er:
preceded
tolerability.
evident
22.@@
consolid@@
(mg/
returning
31%
16,
28.@@
vitreous
apolipoprotein
LD@@
classic
regimens
tax@@
Rap@@
III)
Toxicity
Tasigna
fro@@
alendronate.
2.5%
SS
blood@@
strains.
two-@@
occlusion
emtricitabine,
hem@@
effec@@
exaggerated
formula,
(DVT)
apo
mobility
relax@@
ions.
sac@@
BID
AUC@@
RENEWAL
20/
occasional
complex@@
{PRODUCT
convulsion,
0.1%
Third
teaching
1988
1992
accumulate
less,
potassium.
confus@@
vinyl
doc@@
keratitis,
depres@@
spine
BM@@
er)
sucrose,
Talk
anticancer
detected.
metabolites.
meningitidis
ished
Meetings
inspected
samples.
properties.
ts:
ways.
GLP-1
propos@@
activities.
termination
2:
lumbar
Fever
MR@@
stations
introduced.
ho
hypokalaemia
**
ham@@
Sim@@
Rash,
SVR
assessment,
certificates
lips,
Undesirable
protection.
blood-@@
Cases
leuc@@
lymphoma
OB@@
Reports
asymptomatic
Danish
fits
cos@@
septic
-2
translation
Higher
increase.
er;
smok@@
II@@
39%
Transient
glyco@@
mes
micronucleus
anagrelide
Preclinical
Baseline
examin@@
(2.4%
cellulitis,
IntronA.
YYYY}
inhaler
considered,
secre@@
10)
volumes
Daily
(Hypericum
dark@@
aris@@
sepsis
opath@@
gal@@
common@@
reli@@
vitro,
Weesp
selec@@
KE@@
facility
sed@@
id,
IA
CON@@
valproate
oedema)
s):
Allergic
Fri@@
ons.
certification
Transdermal
breath.
EC
UL@@
350
vein,
steady-state
Rash
urgency
pec@@
stiffness,
package,
Monoamine
insulin)
worsen
month,
Hypo@@
chro@@
ple
forming
candi@@
procedures,
diseased
edetate
resolves
guidelines.
000@@
6900
654
Novo
Trading
9750
177
body@@
children@@
SE
med,
inability
nonproductive
scan
bleed@@
Bur@@
breaks
IX.
ai
failure@@
potassium,
Norway
W
Advagraf
rejec@@
enforcement
counterfeit
cleavage
menopause.
hormone.
continually
arch@@
mol@@
roll
'and
Unit@@
tracking
expressing
168
79@@
dimen@@
Class
partner@@
lights
2006,
adap@@
persists
105
deterior@@
flush
Bondenza
calculation
preparation.
follows
advisable.
AF@@
expect@@
communications
subtypes
models.
RELISTOR
Holding
detec@@
ular
medication.
intoxication
DA@@
dialys@@
87
delaying
(E171)
277
glass,
matters.
Approximately
rhinorrhea,
Cr@@
blo@@
acet@@
stag@@
oil.
Cast@@
APPEAR
SOLUTION
ml@@
030
032
3ml
337/
363/
033
001/
lay@@
hypotensive
cents
ares
Excipients
mix@@
ethanol
abor@@
reduc@@
ras@@
ü@@
shelf
life@@
ene.
arthralgia,
CHMP,
submit
know@@
per.
Great
tightly
pack@@
premises
1),
ford
J
spo@@
prim@@
D-60318
syndrome).
rare:
+421
delivered.
operative
strongly
Usually,
cartilage
1A@@
Bulgaria
chlor@@
lutropin
ich@@
ye@@
73@@
Italy.
events/1,000
manic
(FVH
strains):
strain)
phenyl@@
nationally
History
0%)
Ibraxion
deleted
nur@@
Mit@@
ensured
Standing
Paris
eradication
Sometimes,
possib@@
1998,
purely
Recently
exhibit
grounds,
emerge.
wid@@
illness.
split
eding
double-@@
Alternatively,
Az@@
lacking
secreted
magnesium
inhibitor.
lay
Penta
years).
reading
combine
1997.
ture
Swed@@
fall.
Pedea
20-@@
solvent.
laying
West
INCRELEX
repair
Toxin
pushing
determining
(Child-Pugh
justifies
should,
INVEGA
pac@@
era
new@@
Ga@@
Ol@@
tyrosine
kinase
connections
El
T).
Economic
ya
perform
Bb
Bri@@
MicardisPlus
sector,
participation
housing
backing
antagon@@
ahead
20.
30°C.
risks.
depleted
incentives
drug.
inevitably
metabolic/
elevating
genotypes
Ritonavir
healing
acceptable,
swallowed
Better
downward
Ty@@
ir,
exerts
consisted
cake
(inhibitors)
attempted
delivery
preventative
allowed.
Pr@@
ized
Xeomin
floating
lor@@
considerably
aggravated
40-@@
+371
injection/
180@@
feed,
variability
high.
texts
variety
episode
State.
commitments
waves
Group,
all-cause
releases
obligations
gross
ative.
implications
Air@@
particip@@
rescue
anticipated.
commitment
UC@@
accession
finds
associations
lying
puts
Pe@@
allergenic
horse
ust@@
contributing
ö@@
volatile
campaigns
maize
soil,
calendar
mother@@
design@@
pow@@
op
Zonegran
itself,
character
coordin@@
-P@@
species,
average,
ity;
ances.
bor@@
ites
responsibility.
cards
users.
t's
inser@@
educated
adopted,
alization
allocation
Bas@@
retain
reserved
reasonable
arrest
tiny
g/@@
good,
+40
expressed
policies.
+32
shortage
Mol@@
canc@@
servic@@
ank@@
amp@@
Tony
Mari@@
chair@@
own,
ual
complaint
environment@@
cri@@
Immeuble
patient@@
ite.
class@@
15%.
vit@@
interpreted
Soci@@
Cha@@
Brit@@
DOSAGE
reads
precautions,
Porcine
accoun@@
ix@@
decides
orders
Porto
ful.
condition.
500@@
about?
won
Wor@@
pages
President@@
separ@@
Psoriatic
pas@@
consult@@
Barro@@
supplier
has,
worried
fifteen
Succursale
scientifically
Athens
ligh@@
judg@@
tabletter,
smell
(specific
bioactivity
protein).
irrigation
rest,
NovoLet.
FlexPen.
Twenty-@@
his/her
recover
realise
scrap@@
reason.
alisation.
print
Mor@@
nutri@@
arguments
announced
tend
prohibited.
debated
dies
carriers
rules.
penny
schemes
hospitals,
tackled
most.
consumer.
oppres@@
religious
spending
prisoners
either.
alarming
penalties
research.
workers.
financ@@
popular
torture
import
love
simplified
phenomenon
homes
disabilities
SARS
origin@@
nets
conc@@
territory
society.
unemployment.
dictatorship
banned.
indeed,
spe@@
Council.
girl
poverty.
tariff
leaves
employee
spoken
see,
scrap
a'.
u,
kind,
'The
heading
import@@
duplic@@
provis@@
abroad
disasters
extraordinary
detained
person's
threatened
NGOs
employment.
govern@@
reimbursement
tain
nothing,
first,
ers;
y',
register
ageing
dead@@
inde@@
also,
speakers
environmentally
online
nonetheless
examine
criterion
ino
bull
Council@@
struck
vote,
said:
spirit
Liber@@
politicians
random
licence
Indonesia
Here
schools,
unfair
alongside
Russia
interven@@
perspective
leadership
accidents.
2010,
competitiveness
Council's
obliged
OLAF
present@@
boat
remark@@
protests
punish@@
Someone
writ@@
AIDS.
answ@@
power,
rock
tonnes;
admission
map
bomb@@
cou@@
truth
discover
solar
revenue
constituency
Now,
if,
man.
now?
purpose?
Rule
revolu@@
ment?
es’
assumption
made?
!@@
legitim@@
Either
/2002
Think
Whatever
again@@
years?
B5-0@@
achieved?
(A5-012@@
(A4-@@
9/2001)
6/2001)
Anything
moxifloxacin
granules
diphtheria,
vaccines.
X-ray
occurred.
high,
9/97)
Overdose
27)
scene
95@@
recorded.
intravenously
disturbance,
bexarotene
longer.
hypoglycaemia.
abscess
enlarg@@
carcin@@
4.6).
Hum@@
old@@
intervals.
mitotane
RNA
161
19.@@
4.1
points,
Viracept
0.001).
2),
ACT
reacts
alive
assays
rufinamide
yourself,
inadvertent
chloride.
AT
alte@@
39.@@
ling.
Day
time@@
133
discomfort
Grade
16.@@
everyday
Vel@@
Celecoxib
Thelin
capacity.
ST
2-3
700@@
ULN,
QUADRAMET
-agonist
3,@@
glucuronidation
acne
IU/@@
um-@@
regimens:
511).
514).
505).
3-fold
HBeAg
dipivoxil
intermedi@@
ate-@@
ane@@
(7@@
Ka@@
3%)
vaccination,
OT@@
viruses.
undergone
hist@@
208
prasugrel
(low
470
ranitidine
GM@@
control@@
morph@@
hepatically
auc@@
rum@@
tol@@
embry@@
±@@
amine.
15.@@
ED
mg@@
Actraphane)
Mixtard)
InnoLet
't
publication
ade@@
rimonabant
YENTREVE
collagen
hydrolysis
R-@@
6),
aliz@@
sul@@
tablet.
avir/
(based
tolerance.
wn
ator,
faeces.
irritability
ulceration,
excit@@
graduate
BSc
Mis@@
1987
ologist
1994,
Chem@@
Brussels,
(non-@@
allo@@
precipitates
continuously
predictable
antagonists
BE@@
EV@@
Similarly,
Haem@@
ini@@
Retinal
sion)
flat
proc@@
anticoagulants
have/
kit
Equ@@
arly
pop@@
discontinuing
613
breast-feed
numerous
Proprietary
influenzae
oro@@
medication,
clin@@
µm
hypercalcaemia
cells).
trigger
hydrogenated
Kaletra
slow@@
tional
postmarketing
received.
interstitial
orthostatic
Der@@
Various
aberrations
family.
ens,
Bone
4.8
Antibodies
Serum
haemophiliac
Diarrhoea
e.g.
attempt,
splenic
encies.
Aseptic
PK
epilepsy.
co-
valdecoxib
138
1400
Low
ton.
electrolyte
uro@@
CP@@
viable
Foscan
genotoxic
CL@@
liv@@
frequencies
iodinated
Disinfect
proce@@
zoster,
135
MS@@
chang@@
darifenacin
confirmed.
consequence,
mail
licensed
5.17
involuntary
Paxene.
tical
Hepatitis
Complete
infusion-associated
integrity
forwarded
Radi@@
reported,
ral@@
open-
insurance
pension@@
ini,
drugs.
disorders).
hypoaesthesia,
calcitonin.
ech
even@@
instance
Typically,
Leuk@@
e/
GmbH,
190
Bec@@
ative@@
Control
clobazam
(other
EID50
below)
breath@@
Confidence
factors.
controlling
1995,
qualifications
TIVE
OptiClik
fec@@
sy
Service
Corporation
Produc@@
School
uk_medinfo@allergan.
......
tem@@
mission
aking
1.1
pre
en)
stool
chills
Executive
F-@@
Chief
Directorate
UK@@
ley,
ari
à
Avonex.
eye@@
13%
induc@@
Exelon
use:
order,
flatulence,
tension
fatigue
epidural
mature
sus
outbreak
remainder
SK@@
alli@@
msdeesti@merck.
om.
grey
TS
Cerebrovascular
events:
Commonly
wanting
dream@@
reflecting
ired
eyelids
ic)
Mos@@
substituted
AT,
elevation
ia)
canarypox
fic@@
medicin@@
P-gp
comp@@
catalytic
kil@@
gen,
Heads
Year
(HIV)
Switzerland
recovery,
6%.
characteris@@
age:
intravenously.
(serious
tolerability
rinsed
CRIXIVAN
Revatio
Avastin
bacteria.
Pop@@
visible,
AR
tel@@
suspicion
bin@@
Savene
Mic@@
insulins
repor@@
(PSUR).
Consequently
inducer
CoAprovel
ink@@
energ@@
Gemfibrozil
Apidra
harder
prepare
reach@@
hormone,
spec@@
fasting,
exclude
220
constituent
MTX
ound
ions,
renin-angiotensin
blocker
About
signals
horses.
polypropylene
0.2%),
blu@@
410
ger@@
pt
Nacional
phenothiazine
protein@@
neonatal
FA@@
ultrasound
meningitis,
questionable
TIONS
INFUSION
packag@@
mean,
/008
bioset®
153/
285/
108
034
capsules)
EU/2/05/054/0@@
adopted.
Xolair
†
application.
surgeon.
elective
recipient
animal.
bright
ps,
att@@
injections,
Also
Park,
ton,
rid@@
PO9
2NG
ature
Vials
packs.
dip@@
restored.
metric
386
calorie
weg
spare
Proposal
ow@@
FOSAVANCE
behalf
heal
Over@@
ances
hepatomegaly,
ile@@
Twinrix
aph@@
mos@@
lenses
Ge@@
Gy@@
BC
Siklos
ill,
l'@@
08
ars,
Medi@@
→
essential,
partner
patient-years),
DE,
PREPARATION
TAXOTERE
01
attacks,
organism
mania
chairman
offices
hepatic,
les.
Hor@@
Gre@@
eti@@
Hu@@
possess
]@@
patch.
structurally
chicken
text@@
impairment,
IBR
animal@@
GA@@
Notice
S).
provisional
dopamine,
holds
Substances
1989,
serving
avoiding
organisations.
Secondary
bearing
theoretical
Cholestagel
crush
contributions
squ@@
recommend@@
improved,
alternate
primed
trends
obesity.
serious.
executive
CN@@
BI@@
ened
learned
arsenic
avir,
opportun@@
ft
able@@
infarction.
sequence
recognition
Slovenia,
strength.
excellent
was,
IMPORTANT
itis)
influenza,
To@@
opportunistic
Below
Nausea,
pituitary
upright
instruction
I-@@
Pugh
C).
insi@@
Rosiglitazone
Insulatard
Gal@@
cyclic
MP
anti-retroviral
replication
Lundbeck
Jalra
r,
las
juice
steadily
421
Levetiracetam
practice,
-8@@
guil@@
dam@@
Farmacêuticos,
14-@@
strains
ordered
consequently,
marginally
improved.
Opgenra
adop@@
equipment.
enterprises
onic
AM@@
light@@
discretion
Desloratadine
checking
precursor
pharmacokinetics.
formally
emerg@@
imatinib
match
calicivirus,
(Amplicor)
serotonergic
Tran@@
lasted
glycogen
summaries
powder.
pushed
calm
causal
inherited
spac@@
naloxone
beta-
Ul@@
papers
soluble
lesser
individu@@
standardised
fattening
arbitration
Osigraft
result.
-induced
preclude
Rivastigmine
yl,
Prior
prof@@
FORCALTONIN
eptotermin
cit@@
hydrogen
'-@@
prepa@@
Spec@@
intense
atively
compensate
partly
i.e.,
refusal
pulled
chemically
Sandoz
strip
shown,
fracture,
arg@@
Action
channel
hour,
ne,
{tel}
{fax}
{e-mail}
links
heav@@
consisting
sealed
only).
ric
picture.
organisation.
liqu@@
means,
ene,
can,
Probenecid
particulate
discussed.
ung@@
son,
sts.
lec@@
chil@@
rabies.
bos@@
So@@
needs.
Steady
display
IU@@
infected,
epidemiological
Currently
1,715
8%),
mar
sever@@
walking
offic@@
implement@@
section,
retention
Macugen
personality
713
thigh.
blister@@
requirement.
diameter
aggregate
serv@@
emitted
ps.
TB
started.
Bre@@
unclear
follows.
colon@@
stric@@
radical
oured
outcomes
approach,
material.
supervised
succeed
2003,
high@@
2%.
panel
tac@@
deter@@
accur@@
l'Aviation
ere@@
codes
confusion
sampling
sugar@@
risk,
transactions
transmucosal
ands
analy@@
emerge
consist
trac@@
Mont@@
legisl@@
She@@
ja@@
conver@@
turning,
consumption,
Man
ler@@
US@@
wat@@
regulate
ive.
defin@@
ura
tar@@
adapt
2009
ante
va
EACH
SPECIES,
sch@@
counter
regist@@
protection,
uk@@
ward@@
markings
Americans
warning.
intensive
mother,
completed,
met,
back.
Stop
committing
smoke,
wish.
HAART,
issues.
2000@@
Romani@@
favour@@
ks,
account,
northern
don
Sha@@
Sanderson
1DH
West@@
imperative
Erasmus
SMEs
pulp
day-to-day
candidates
Ven@@
heating
ud
stor@@
behaviour.
deemed
get@@
vegetables
encouraging.
powerful
hand.
ved
service.
turns
valuable
ozone
Eurobarometer
seconds.
terms,
fish.
pollutants
symbols
Unemployment
execution
illing
ries
ith@@
governments
disastrous
suffoc@@
like,
Constitutional
constitutional
'S@@
religion
honey
ity'
decades
parents.
situation,
longer,
roads,
transporting
traceability
violence.
earn
music
centres.
seven@@
explan@@
foun@@
declare
cover@@
combating
past@@
distinguish
matter?
communities.
river
service,
built.
war.
subsidy
healthier
penalty
outside.
dependence
costly
mud@@
else.
demonstrations
regions,
proposes
prevented.
paint
dramatically
moment,
under-@@
employment,
aid.
researchers
on-call
tragedy
territorial
Vol@@
ation'.
ation!
bel@@
ed'
Tun@@
repercussions
borders
sadly
coast@@
purpose,
prison.
sufferers
signed
condem@@
problematic
sible.
confidence.
1/97)
stone
crimes
wine,
journalists
Jean
sett@@
atmosphere
Aid
dom
dramatic
resolution,
landing
HIV/AIDS
terrible
communic@@
Indeed,
look@@
brutal
seed
surplus
cabin
GBP
settlement
union
sport
ecological
Mur@@
storm
flood@@
deal@@
refin@@
expense
evil
addi@@
constitution
beg@@
producer
aid@@
policy.
cure.
campaign
fantas@@
surely
greenhouse
fleet
imper@@
hang@@
export@@
books
decision-making
where,
door@@
incentive
centuries
wrong.
organization
cost-@@
revis@@
films
Internet,
record@@
construc@@
monopol@@
zz@@
Obesity
biofuels
polic@@
judicial
nation
good.
COM
revolutionary
elsewhere.
intensi@@
engine
critic@@
floods
killed,
announce
English,
deser@@
hit
Kosov@@
win
represent@@
elling
here?
fact@@
Wednesday:
offici@@
Adam@@
achiev@@
phased
'European
igh@@
forever.
neighbour@@
Madam
process@@
cannot,
all?
beginning.
pension
?"
Whilst
cared
part-@@
gathered
Sadly,
innocent
questioned
money,
es',
deadline
wage
dé@@
invented
ence?
parliament
flag@@
en?
liberalisation
mesh
cast:
refused
law.
flax
principle.
respec@@
one!
applause
place?
ther.
/2005)
Secondly,
/00):
(A5-016@@
(A5-035@@
DK
sanofi-aventis
DK-2@@
swab
zidovudine,
GL@@
component.
92%
chemistry
animal,
le;
locally
subgroup
8%,
Cyanokit
7%,
discontinuations
you@@
phase,
willing
predispose
Instead,
follicular
memory
ischaemia,
Tum@@
meningitis
H)
rectal
hostility
(predominantly
compar@@
osteoporosis.
(ACTH)
depicted
terminated
reversible.
-treatment
femoral
Flebogammadif
allowed,
(prolonged-release
NeuroBloc
insul@@
Evoltra
parties,
slaughter.
overdosage
shock@@
harmonise
food-producing
uncertainty
exists,
occurs.
lenalidomide
kidneys,
size.
2.47
lymphatic
activities,
cidofovir
malformations
33)
ther
techniques,
upward
SonoVue
Rey@@
H1
females
aemic
HCV-RNA
atin@@
great@@
es/
107
1,530
micrograms/kg/week)
micrograms/kg/week
yn@@
cognitive
performance.
estim@@
kg)
Zocord
microgram@@
comparative
V)
DMARD
eleven
months).
strain@@
rated
Forsteo
ation),
Luminity
tipranavir
(N=
for?
leaked
IDflu
posaconazole
alterations
33%
ine/
optimisation
rating
events;
7%.
lowered
bed.
intensify
course.
7).
deposition
familial
pharmacologically
25)
Carcinogenicity
Organization
ologic
topics
frag@@
fistul@@
1986,
Service,
Hospital
1992,
Secretary
stry
-1.@@
TW@@
ment:
perfor@@
pigment
iri@@
photophobia,
Mild
vecuronium
surface.
colour@@
ab,
supplements.
MAOI.
phosphate)
Porcilis
oxy@@
phosph@@
Proportion
turn,
leaflets
modul@@
-resistant
ly).
Suicidal
Depression,
Pre-@@
E2
map@@
baseline,
etic
origin,
ribavirin)
translations
DO@@
gestation
rhabdomyolysis.
thrombocytopenia,
ocytosis
y-
lamotrigine
anti-epileptic
aches
(19@@
Sup@@
secretarial
97@@
K)
mod@@
ix
IC50
polymer@@
n=@@
ited.
varicella
stiripentol
numbness,
swallowing,
INTELENCE
imbalance
4.4),
HMG
(MR@@
rab@@
reas@@
CLL
frequ@@
aching
conven@@
vasculitis,
--
cationic
idiopathic
Thalidomide
Celgene
VA
rhabdomyolysis,
criteria,
Bio@@
radiotherapy
diagnoses
ines,
observers
jec@@
anaphylactoid
2833
tion;
Consistent
2003.
deep@@
ine).
lymphoproliferative
fus@@
urination
airway
Upper
Ltd.
nucle@@
Draft
Pri@@
(containing
Industry
neurolog@@
ously.
sores
anos@@
Emtricitabine
infective
oxygen,
amine,
ome@@
dop@@
TION
Breast
controls,
EEA
fellow
University,
non-governmental
deprived
ACT@@
Potassium-sparing
oph@@
economics
Document
pertechnetate
(99mTc)
dl.
02
negativity
contains:
tering
/1@@
m2)
dryness
sweats,
uria
ón
prolong@@
Drug
Nation@@
ute
2.5@@
ever@@
Gener@@
te,
AIDS,
tylvalosin
(especially
another,
phenytoin
supernatant
self-
tide
(ADRs)
correct.
tells
stop.
aggregation
them@@
Sexual
High-@@
nasopharyngitis,
Dysp@@
848
bolus
WT
Education
destination
GYÓGYSZERKERESKEDELMI
KFT.
Järvevana
405
si
depot
food:
Potential
arter@@
ency@@
anaesthesia,
difficult.
hos@@
patients):
movement,
feel@@
prostate
people)
scar@@
tingling,
ston@@
clot
brown
ise.
myopathy
sensation,
glands
stomach,
ements,
sens@@
iris
Cat@@
0.7
Possible
fulvestrant
cholera
HPV-18
B-1180
absent
silver
Haemoglobin
ere
Hampshire,
Lin@@
aver@@
CCID501
methyl
syndrome),
tiredness,
affec@@
cross@@
warranted
os.
satisfaction
Fax
indications,
liquid.
Chairman
1999.
Knob
(every
alpha-@@
enhances
ophthalm@@
restored
uted.
bloody
consulted
PML
compounds.
successive
fle@@
tioned
newborns
HIV/
refrigerator.
diseas@@
identifying
instances
corrected
receiv@@
Robert
Agopton
aspir@@
65%
formed.
lock@@
timing
immunosuppres@@
r-HuEPO
(about
components,
acids,
regres@@
irrit@@
compromised
hours)
unpreserved
(activated)
studi@@
Fluoxetine
ab
cloud
appears,
CV@@
89@@
Ph+
No.
systemically
harvest@@
Mart@@
qual@@
F.
mother.
225
swab)
/006
/007
292/
293/
354/
421/
EU/1/07/425@@
EU/1/07/425/0@@
01@@
EU/1/08/464@@
EU/1/08/465@@
EU/1/08/484@@
EU/1/08/484/0@@
Initial
atin
(U@@
indoor
moist
applied.
Exceptional
Fl@@
phosphokinase
colourless,
(E420),
propylene
fos@@
mul@@
trometamol,
fla@@
All@@
Paris,
opened,
670
(0)1
las@@
bones,
ica
ma,
Catal@@
28108
strasse
Havant
assurance
operations.
surfaces
by,
ols
Kr@@
Fertavid
Formal
Panleukopenia
fibre
donate
Syringe
Luer
500,
cleaning,
incineration.
ce
alendronate
route,
calibrated
Tro@@
calculating
val@@
2100
ulcer@@
♦
vaccine):
strength@@
contrast@@
remov@@
est,
ink.
INVENTED
400@@
gene@@
instillation
pin@@
mail@@
ity:
TRO@@
Neutrophil
harmless
eb@@
circulation.
Jean-Louis
X-@@
Hist@@
child.
norm@@
discontinuation.
ination
(infection
ass
Peter
HO@@
Vice-@@
HB@@
sulphate
ord@@
emul@@
Euratom
immature
Preotact
5.1)
fragility
circul@@
ketoacidosis
mind.
AT1
replacing
visible.
Valnemulin
nar@@
chemicals,
MT@@
ml),
cris@@
cell)
dosage.
verify
Tadalafil
ately,
recommends
ir.
HCT
meets
nelarabine
protein-@@
substrates
kn@@
>,
intake.
convincing
closely,
rob@@
Sildenafil
file
technetium
clastogenic
noticeable
avail@@
withholding
malignancy.
mutual
licensing
genic
hypokalaemia,
chickens.
immunosuppression
lamivud@@
glycol,
ame
influenced
worry
spasm
pneumonia@@
tablets:
Invirase
SO@@
Inspec@@
Saf@@
radio@@
ding.
haemodialysis,
deferasirox
Vaniqa
-filled
CYP3A4.
acy.
Bil@@
representing
accident,
(HIV-1)
á
occupied
Bor@@
FR@@
Ital@@
Bro@@
ity-@@
Pa@@
members.
judged
withdrawing
hr@@
5%.
assist
Rua
hypoc@@
tran@@
rejecting
glomerular
disturbed
first-@@
shortly
Communities
.”
adjustment.
5%,
Pas@@
sedative
graduated
purple
disulfide
separation
selective,
Meth@@
med
target.
daily).
Follow-up
sheep,
three-month
put@@
extent.
sts,
s”
differs
G.
horizontal
hr
warm
refrigerated
sugar.
named
metabolites,
beta-1b
accepted.
natur@@
BSC
hands.
species.
Ari@@
gel@@
tra@@
eventually
announcement
antigen
volume.
fairly
away,
pre-donated
reserve:
leukaemia.
quarters
addres@@
governed
involv@@
ist,
78
gluteal
mechanism@@
en-@@
foreseen
single-@@
vigabatrin
solved
RAP@@
Kor@@
ines.
forecast@@
ful,
rings
tizanidine
establish@@
degenerative
parties.
escalation
195@@
mia
assessed.
safeguard
ish,
proposals,
complicated
50/
irradiation
Day@@
disagreement
audi@@
shut
oid@@
address}
Vitamin
24-@@
pot
ore@@
concentrated
Lenalidomide
excre@@
logo
closed.
institution@@
self-inject
Mixing
José
neph@@
subjec@@
five-@@
silicone
bes@@
marking
agent,
ly:
teams
anaesthetic
intermittent
cab@@
deepening
beam
Puregon
cycle.
irs
developed,
u.
smokers.
messages
Sw@@
shortcomings
1.0-3.0
pyrexia,
hand-@@
strange
respective
VASOVIST
warming
6.0
EXELON
recall
prescribe
sewage
presenting
remember.
(OHSS)
oxygen)
waste,
Len@@
pigs.
É@@
("warning
symptoms")
N-glycosidic
O-glycosidic
VEGFR@@
Russia,
compl@@
broad@@
blistered
permit@@
chills,
Users
rail@@
birth.
Live
4.3%
programme@@
methods.
projec@@
machine
Exposure
Ab
targeted
duly
pir@@
ANC
fats
reveals
susceptible
insulin-degrading
clear@@
Neuroleptic
Général
drink@@
sla@@
roun@@
(Norge)
Mus@@
(unstable
Northern
number,
rich@@
(0)8
treated,
sharing
appliances
demonstr@@
890
test@@
long,
damages
recycl@@
investigation.
conduc@@
Oprymea
pictures
yield
gro@@
missed
Yet,
character@@
351
358-(0)20-7570
Greater
39,
dropper
to:
refer@@
air,
sibility
Author@@
Around
up?
IG@@
translated
home,
Placebo-Controlled
[ml]
capping
Were
Foreign
ana,
Triatec
Scot@@
sad@@
enough,
atively,
Sinusitis,
off,
institute
(hyperglycaemia),
personnel.
hypo
career
lived
edi@@
ty-@@
bee
good@@
18.
den
engine@@
hurt
ically.
remin@@
inquiry
semin@@
new,
declaration
bench@@
value.
giv@@
strang@@
hospit@@
plut@@
choice.
head,
Natura
e’
simpl@@
evol@@
seeking
Iraqi
troops
accidents,
acknowledg@@
investments
nan@@
building.
restaur@@
Eurostat
appalling
retirement
toys.
destroying
groundwater
neighbouring
historic
author@@
burden@@
recycled.
additives,
colonial
Naz@@
practically
ner.
feature
moun@@
perfec@@
crop
ped.
genuinely
plac@@
purpose.
rivers
imposed.
energy.
discour@@
rehabilitation
ort@@
House.
sentences
Arab@@
suit
domin@@
Presidency.
shopping
south
southern
heavily
Innovation
world's
saved
ese
beet
moral
Vehicles
safeguards
ani
noble
civilians
remot@@
forbidden
journeys
è@@
vague
us'
camp
in-depth
debates
retained
bodies,
passports
electoral
fingerprints
addic@@
abuse.
prospects
everything.
Turkish
2010.
unemployment,
immigration
terms.
prevalence
anybody
Muslims
devoted
minutes,
asking
Chamber
tion'
alism@@
decision,
Price
rights.
convergence
seized
keeps
alities
by-@@
refuse
polluting
haul@@
victim@@
ideology
government@@
ded@@
brominated
fal@@
alleged
billion.
profit
decentr@@
Je@@
emig@@
contradic@@
er'
promis@@
school.
possibilities
high-level
beans
view.
autumn.
expenses
true.
knowing
hidden
aids
list,
players
coins
-year
exploitation
humanity
pollution,
begin@@
socio-economic
fundamentally
varieties
refused.
jobs.
broadcasting
reserves
derogation
friend
prison,
Indi@@
honest
ion?
hab@@
entity
list.
rul@@
catches
happy
Inflation
invention
Omar
success@@
citizens.
bat@@
2004,
amend
sensible
unfortunately
recreational
biofu@@
departure
principle,
ly!
plain@@
criticism
tonne
Vote
agreement,
Gi@@
condemn
equal.
yet.
obstacle
Bell@@
deduc@@
violence,
Lord
Vil@@
trees
plane
clim@@
flooding
bal@@
whatsoever
wi@@
sea,
MEPs
ceiling
employer
reality.
ruthless
ier
transport,
change.
Ombudsman
democracy?
wearing
draw@@
catering
foot-and-mouth
figures,
energy,
feder@@
freight
er!
taining
Enough
But,
Environment
wider
because,
restrain@@
talks
ingredients,
experts,
concep@@
point:
50%.
2002@@
ú
Blokland
admissible
Sz@@
cement
manufacturer,
ski
paragraphs
Apart
ier@@
Pirker
lessons
illegally
derogations
jail@@
mistake
money?
products?
’?
trap
bred
injured,
ities?
ings?
d!
euros
grapes
terrorists.
Orlando
Whereas
yes,
Recently,
Much
burned
worthy
Something
next,
education,
lav@@
Paradoxically,
Niebler
decisive
monetary
exported
What,
Minutes
have?
Internet?
done?
see?
8/97)
4/98)
2/2000)
(A4-015@@
9/98)
(A4-018@@
(A4-024@@
(A4-039@@
(A4-037@@
(A4-038@@
(A4-017@@
akis
(A4-036@@
Katiforis
4/2000)
Tá
Plads
DK@@
disinfectant
postponed
builds
ol)
)).
inhibitor@@
contributed
right-@@
severe.
9/
positive.
peg@@
SC@@
1.0%
PFS
nevirapine
patients'@@
dysphagia,
Lymph@@
sis
ated@@
lability,
-associated
transfusion
placebo@@
perforation,
developmental
displac@@
ators,
ills
arly,
static
peri@@
mann@@
steroid
24,
cytokine
11,
3.3
infused
ACS
hour)
hin@@
specially
30%.
bupropion
CI,
77@@
(7.@@
encies,
pimecrolimus
myel@@
load@@
arms,
aminotransferases
p=0.00@@
full-@@
treatments.
ate:
agitation
ES,
gastroenteritis
extravasation
96@@
10.7%
umab,
62%
mg),
74%
sib@@
(6.@@
7%)
accumulates
(deep
FEV1
4.6%
romiplostim
avir.
3.1%
18%
sub-group
mmHg,
normal,
199
tissue,
(either
noradrenaline
uptake.
5-fluorouracil
canal.
18)
Simvastatin
0.6
(equivalent
0,
sham
32%
glucocorticoids,
our,
regulates
millimetres
recover@@
ations)
50%,
quantitative
2-fold
airways
185
intact
hypercalcaemia.
-containing
org@@
synthesised
Enbrel,
eration
18-@@
(3%)
relapse
noticed
AF.
postprandial
-0.@@
model.
5,@@
azacitidine
CPMP/
09
Maximum
irritated
fertility.
malaise
flu,
Co-
anorexia,
decrease,
thirst,
indications.
inspector
tropical
Vietnam
Health,
multinational
Ash@@
sell@@
WP
II)
chemistry,
workshops
tation
Support
well-controlled
glargine
Rev@@
ALU@@
oni@@
tracing
organs,
anxi@@
macrogol
None
oration
blurred,
GR@@
bisphosphon@@
card,
units.
glottis
T1
T2
applications,
bruises
Generally,
State,
m)
gli@@
ia/
oesophageal
ts@@
MAO
Hep@@
4.5)
54@@
toxoid
collaboration
c-@@
M)
ement@@
ner@@
approaching
validated
dissolve
acy,
ACE
well@@
EC50
Classical
subunit
antigen@@
Lab@@
anomalies
aplastic
distress
RD@@
fain@@
malaise,
fatal@@
fel@@
2007.
05@@
poll@@
ification
delegates
ISENTRESS
necrosis,
aggravation
cyt@@
embolism
purpura
SSRI@@
occasions
rupture
packages
Directorate-General
oma.
Description
5),
VLDL
tolerate
K103N
reduction.
parecoxib
restore
abnormally
methotrexate,
permitted.
detected,
(more
wheezing
enhancement
Bleeding
Evidence
transporter
glucosamine
physiological
prote@@
Ames
salvage
testing,
ine's
glucuron@@
haloperidol
4.4@@
hypertrophy
swab.
see@@
instruc@@
menopausal
Nec@@
objections
phosphatase,
ture,
definite
REYATAZ/
biolog@@
perforatum)
Translation
attended
exposing
vaccines,
Biotechnology
addressing
Sinusitis
proliferative
acetyl@@
workshop
Cross-resistance
pressure),
warmth
tism
paresthesia,
D).
(liver
macro@@
CART.
repe@@
Ísland
112
Systemic
eable
Social
Sci@@
necrolysis,
Flatulence
Efavirenz
(SE)
nose@@
bilirubin,
P-value
Diovan
names:
vegetable
Dublin,
Berlin.
Bir@@
advised.
een
IRA
Amsterdam
MSc
linguistic
robust
ska
567
thrombosis)
pain/
oily
perforation
Conditions
minister@@
71@@
BO@@
DULOXETINE
BOEHRINGER
INGELHEIM
reconstitution.
Pandemrix
Prepandrix
bottle@@
ums
TRA@@
PO@@
stools,
oesophagus
tional,
tightness
(rDNA).
34-91
(60
Red
lined
gallbladder
disodium,
machinery,
Allergan
1st
filiaal
EE-11314
230
401
380
works.
respiration
haz@@
atypical
purpura,
retention,
fingers
periods,
sunlight,
ed),
ringing
G)
redness.
pupils
VFEND
gall@@
jaw
Thiazide
nerv@@
eyelids,
asthma,
memor@@
System@@
dysp@@
kg,
efalizumab
classes
lic
infant.
Prophylactic
INE
106
ALT@@
gens
ranges
Cu@@
1994
efficiently
thromb@@
substrates.
(usually
endometrial
conformity
emerging
AG,
Edifício
angle
management.
cher@@
affairs
NR@@
related,
1991
Technology
Greece.
Residues
ships,
Pres@@
maintained,
concomitantly.
capecitabine
Januvia
shaking
ez@@
glucose-
telmisartan
drop@@
Etanercept
collapse.
previously.
Ketek
Levviax
certain@@
elev@@
mg/kg
dosing,
ring,
closely.
consulted.
test,
bags,
tendon.
])
lift
printing
update
TA
concepts
½
age)
responsibil@@
edge
Nateglinide
(HBV)
DPP-4
interfering
Zavesca
PSUR
glass@@
tor.
HIV@@
co-administration
potentiated
insufficiency)
Gl@@
method@@
α,
contrast,
Talc
Xa
applicator
Assistant
correction
Epilepsy
Epoetin
eptacog
Pull
0%),
(0.3%
blistering
usion
lob@@
cleaning
Setup
º
ma.
derivatives,
57@@
shield
Name:
YTRACIS
Store
dreams
PACKAGING
schedule.
range,
sublingual
potential,
irritation.
CAP@@
0/
/009
EU/1/05/329@@
343/
NUMBER(S)
50x1
360
085/
086/
EU/1/99/107@@
ography
unexpected
weighted
Icandra
Zomarist
spot
mucosa
ture.
hard.
benefit-risk
organs.
Carefully
glutamic
oxid@@
sodium.
425
monohydrate
yl-@@
hydrox@@
ate;
holes
Stability
rosis
ses.
Tηλ:
rough
House,
Bol@@
SUBSTANCES
300@@
Industria
8006
Pot@@
left.
Wilson's
sudden@@
peripheral,
(Pro@@
intramuscularly
Lis@@
J/
diff@@
Set
LO@@
sealing
bil@@
2.4
Training
assess@@
PHAR@@
compresse
Form@@
pins
fast@@
vel@@
ene
Fruebjergvej
vers
blepharitis,
hyperlactatemia
bronchitis
cup@@
impotence,
pancreatitis
flex@@
acu@@
Gadovist
MY@@
125
atic.
lasts
NL-@@
anaplastic
eligible
relapsed
for:
lesions.
join@@
gon@@
aim@@
UB@@
Breast-feeding
trimester
catalogue
SOLVENT
enlargement,
alised,
Halocur
phys@@
ham,
Euro
organisational
At@@
cyan@@
asis
)*
IV):
adul@@
Milk
dysfunction.
(CHO)
ams
eff@@
Ig@@
cli@@
manifest
reaction)
photo@@
CI
(patients
Agre@@
require@@
Bureau
disproportionate
non-linear
brain.
studied,
shaped
adhered
Tru@@
heart.
riluzole
prescribes
absor@@
interpreting
fee
Cub@@
BE
minimize
)/
bruised,
ish.
glasses
bigger
(HIV),
working,
solve
Often,
alcohol.
irradiated
Fib@@
professionals,
trioxide
ild@@
dermal
potentiate
special@@
attack,
BTP
adaptation
Child-Pugh
AZOPT
liquid,
parameters.
chambers
arises
translocation
hesitate
DAS
position.
first-pass
births
Bursal
protects
Optimark
correc@@
Immune
pric@@
periocular
Lower
Actos
Agenerase
Ren@@
sequ@@
(MAOIs),
2.5-fold
temsirolimus
optim@@
°
shiel@@
infrared
congestive
Anidulafungin
rang@@
transplantation:
apnoea
Child
INTANZA
products:
TE
5,000
modes
ace
Guadalix
Viraferon,
Stevens
complement
chi@@
Luigi
+44
7073
thank
lid
Until
NG@@
Per
je@@
Sc@@
Abacavir
factor,
per-@@
Lou@@
FAR@@
intake,
mobilisation
responsiveness
transplanted
period@@
LDL-@@
name)®
publish
electron@@
agreement.
202
fibrinogen
zes
tampering.
continue/discontinue
21%
expan@@
owing
Azomyr
Structural
(0@@
reduction)
effectiveness.
rapidly.
correlated
confirmation
milligram@@
benz@@
lactone
cle@@
Syn@@
sympathomimetic
particulars
sections,
ute.
muscle,
U,
shoulders
replac@@
resin
disorder@@
combin@@
commit@@
bad@@
99%
Caucas@@
proposals.
Allow
Aldara
failures.
Annexes
antihistamine
fied
Lamictal
Tabletten
oxygen@@
shif@@
vaccin@@
TEVA
erythrocytes
myelogenous
10.
adjusting
gentle
compromise.
set@@
Set@@
million@@
97%
Progression
proportionality
stream
duc@@
radiolabelled
discrimin@@
defined.
(SVR)
one)
say.
Bulgaria,
c.
Medic@@
mati@@
Cold
upwards
Thrombin
III@@
long-
Ret@@
sound,
6.6).
Bauskas
LV-1004
371-7
Shake
sive.
µM
labelling,
light-@@
otoxicity.
450
Water
diverse
defective
med.
COM@@
above-mentioned
coding
similarly
alpha@@
o's
reve@@
epidemic@@
purified
subjects;
ably.
expectations
successful@@
justi@@
cited
satellite
meters
mes@@
lethal
arrested,
ep
Genetic
confidentiality
negligence
RILUTEK
pathway,
bis@@
F)
notifications
fertility,
principally
route.
Reporting
deleg@@
China,
faces
Cyprus,
active.
ly-@@
feat@@
’@@
found.
PV@@
died.
box@@
illnesses,
coherent
liability
negative.
loss.
website,
coffee
Sam@@
l-@@
public,
(pH
coll@@
demographic
Var@@
Dogs
plen@@
consume
here@@
Sul@@
carbon@@
Committe@@
freely
detail
samples,
interpre@@
exhibiting
examining
supervis@@
polypropylene.
ENA
tions:
only:
waist
151
w.
reac@@
materials,
enveloped
impact.
calcul@@
recep@@
visitors
declarations
rubbish
bot@@
arise.
prospec@@
appropriately.
Weeks
needed,
packed
crow@@
rence
observer@@
Elec@@
recon@@
Japanese
plaque
intern@@
targeting
project,
Kat@@
interpret
ge,
dur@@
suspicious
obstruc@@
enlargement.
Iceland,
video
rum
,000@@
finished.
second@@
ologists
Thereafter,
randomized,
board@@
pandemic.
fied,
Valsartan
dish@@
Ziconotide
appreci@@
loxacin
FRANCE
correctly.
lifted
inject.
pathogenic
Introducing
Show
tains
Wel@@
DR@@
om,
injected,
doubling
dispute
die.
slowed
introduced,
tain@@
Att@@
Denmark.
isomerase.
Tél/Tel:
100,
100-@@
Dem@@
/2@@
Bu@@
0.03%
hn
Wales
nationality
crack@@
noise,
626
69007
l'Aviation,
power.
plat@@
consul@@
(0)10
allowances
programmes.
waters
forg@@
spring
Cle@@
Don't
deficiencies
ini
priority.
mb@@
withstand
ley
RIX
ges
substanti@@
em
parental
autonom@@
vicinity
MIC@@
consumer@@
avi@@
fir@@
latter,
72,
thereof
CRF.
scenarios
part.
9%.
EURO@@
Units
hon@@
_______________________
tly
tric@@
amb@@
Il@@
index
ith
BLISTER
Pneumococcal
S.A.
Hen@@
altern@@
chop@@
developed.
arity
Changing
Tap
shut@@
oring
home@@
brings
Make
understands
strain),
vaccinate
priming
fever),
arti@@
reviewed?
KWIKPEN
ti,
bury
ading
gest@@
gul@@
Rig@@
tig@@
oun@@
appear@@
ain.
ah
structure.
ă@@
ania
Interne@@
mo
mer
sal
vot@@
proven,
estimates,
ence@@
cut@@
ineffective.
regulations,
updating
seconds,
ming
tern@@
while,
paren@@
afterwards.
bri@@
ners
anywhere
5500
organiz@@
eigh@@
Sem@@
thereto.
kers,
Prov@@
Statale
Suboxone
7414
tunnel
z-@@
ath
Wal@@
deadlines
outbreaks
up-to-date
certificate
Belar@@
alling
tt@@
overcome
co
Dou@@
(insulin)
retail
vol@@
deal.
practitioners
childcare
acceptance
towns
pollut@@
restricting
biodiversity
mom@@
expensive.
cereals
club@@
build@@
Christians
lines.
deficits
quick
wines
differently.
chemicals.
carcinogenic,
repro@@
retardants
payments.
Georgia
deaths,
belt
ineffective
PNR
timely
quotas
excise
lawyers
pace
auxiliary
ts'
Treat@@
trafficking
hunger
gun@@
solv@@
desirable
cohes@@
intergovernmental
legislation,
Equally
bulk
pollution.
ight
ements
ancient
moreover,
intelligent
courts
founded
lifespan
e'.
fool@@
barg@@
incinerated
self-employed
civil@@
Summit
dram@@
ouring
things,
civilisation
being.
industries
foster
fake
slip@@
illus@@
twenty-@@
anyway,
solidarity
poultry,
lorries
dividing
all-@@
Surely
answer.
opt-out
spawning
mountain
ils
big@@
legitimate
purposes.
udg@@
ise,
explain@@
Nap@@
."
incur@@
enjoy
families,
2000-@@
entailed
force.
apply,
paradox@@
illiter@@
exemptions
people’s
confuse
Constitu@@
y'.
Terrorism
terrorism
read:
alls
him@@
...@@
fossil
mess@@
mining
gun
border@@
cannabis
increasing,
priv@@
insist@@
Treaty.
exhausted
shipment
stricter
clarify
shining
second.
fied.
2020.
limit,
EFSA
economies
student
tit@@
enem@@
ats,
ance?
united
mistakes
BSE,
rest.
world@@
intellectual
organise
eth
Europa@@
Mugabe
deliver@@
lapse.
authors
deliberate
grand@@
force@@
commissioned
order.
boats
ts?
ty?
campaign@@
sharp
hear@@
postpon@@
different,
seeds
visa
thirty
minors
impres@@
passport
tw@@
purchase
appropriations
ambigu@@
proud
asbestos
petrol
minimum.
'A
regime.
imperi@@
ideological
heat@@
competence
philosoph@@
dismissed
countri@@
convic@@
individuals,
distor@@
leav@@
Commissioners
sense.
clear.
for,
compete
permissible
cynic@@
decisiv@@
Hardly
maternity
label,
infringement
Presidency,
methane
distributed.
approach@@
ry.
marker
remain@@
factor.
‘the
hunting
Procedure
profit@@
islands
nations
fear@@
resources.
injured.
object
fishery
cash
pesticides.
retained.
making.
SIS
illeg@@
aries,
racist
every@@
minor@@
Balkans
maritime
spend@@
sympath@@
Olymp@@
falsified
homosexu@@
strengthen
battle
Parliament@@
Hann@@
ASEM
believes
fired
prison@@
company,
refu@@
embarrass@@
mines
informed,
eco-@@
Often
hopes
discipl@@
real@@
minded
civilian
tyre
re?
universal
substance.
bill@@
laun@@
convince
cooperation.
traps
car,
instrum@@
violent
boarding
satisfied
inter-@@
pers
migrants
cluster
profitable
are.
time!
confusing
offences
,'
fish@@
democracy,
Chamber,
honest@@
foreign@@
claim@@
inevitable
Channel
consumers?
abducted
arrived
nigh@@
part),
Africa.
/EC
gather
perhaps,
(B5-0@@
quoted
word,
capital,
wherever
incidents
100%
deserve
tabled
Martínez
Lulling
anywhere.
Regarding
protest@@
strateg@@
seo
jok@@
opol@@
destroyed,
applause)
traditionally
President-in-Office
least,
migr@@
ments?
system?
minute,
aeroplan@@
bananas
age?
out?
ag
used?
Oh
runs
ang
ses,
issuing
patri@@
absurd@@
č@@
bann@@
screen
north
think,
shop
statistics,
manufacturers.
pay,
sanitary
port@@
fears
Lange
farmers,
Wall
kind.
corrup@@
sending
person.
respected
over,
Brazil
metre@@
donations
law,
cloth@@
Take,
financed
sed?
Every@@
yesterday
text,
tors
community.
Rights
school@@
sanctions
phthalates
certific@@
repl@@
essential.
on?
happened?
take?
Virtually
2007)
Given
involve?
(A5-015@@
7/98)
(A5-028@@
8/2000)
7/2001)
(A5-034@@
(A5-009@@
(A-0@@
(A6-0@@
(A5-025@@
2/98)
(A5-017@@
(A4-027@@
(A5-019@@
draf@@
(A5-018@@
Third,
121
4th
3-month
adrenaline
HC@@
ataxia,
etc.)
joint@@
400/
(SD
tolerated,
stomach.
Hypotension,
bivalirudin
techniques.
circum@@
hyperaesthesia,
migraine,
occult
oozing
paralysis,
Test
-1.
atorvastatin
Circadin
oppositional
1.2%
0.3%),
pups
displaced
phas@@
relieves
tle
complication
infiltr@@
birds,
dose-@@
NC
antagonists,
betaine
interleukin@@
4.5%
(57%)
bowels
responsive
5000
molecular
ving,
176
injec@@
thrombosis,
nephrotoxic
CS@@
achievements
som@@
pegaptanib
day).
NEVANAC
pharyngolaryngeal
infusions.
(viral
0.8%
PIs.
reached.
osph@@
constitutes
70-@@
34%
55%
breakthrough
ify
depart@@
ated)
82%
fixed-dose
thyrotropin
(ALT
-to-@@
CYP3A@@
90%.
treatment-experienced
exhibited
deficiency,
pneumococcal
bacteraemia
supine
7/
cardiovascular,
atory,
common,
85%
van@@
Pain
reuptake
0.50
Scandinavian
(1,000/
NRTI@@
repeatedly
gemfibrozil
CNV
Herceptin
25.@@
7.5%
Luc@@
24.
confir@@
culture.
86%
870
HER@@
PROTELOS
urine,
inflamed
scars
Knodell
IgE
0.5@@
volunteers,
midazolam
3-
antirheumatic
(MMSE
random@@
sixteen
aded
compas@@
high-fat
nephropathy,
optimised
3.75
117@@
deferiprone
fam@@
respectively),
monotherapy.
exposu@@
kg@@
166
6-
24%
dependency
adenomatous
polyposis
multiplicity
chel@@
um)
ceftriaxone
(CYP@@
syndrome:
AUTHORISATION/
AU@@
EMEA/
Jul@@
renewal
mg/kg/day
rapporteur@@
follic@@
temporarily
Me
ility.
predict
sarcoma,
medicines@@
1980
Health.
ax
ñ@@
paediatrician
Paris.
Internal
Nord
Myocet
Start
Hence,
mutations
VER@@
caus@@
hole
bag,
Small
concentr@@
succ@@
inyl@@
Roc@@
erythematous
Overall
Ox@@
Lor@@
medicines)
intestine,
Alim@@
clam@@
exacerbate
oesophagiti@@
days).
myelosuppression
OPINION
REFERRAL
conjugated
stability
MDS/
1-3
(22%)
anticoagulant
precipit@@
duplication
cardboard
demonstration
degrades
microtubules
tionally,
ensures
omes
released.
cerebrospinal
reservoir
pot@@
substance,
whit@@
disorient@@
Depression
Costa
Camp@@
transparency.
Win@@
intra@@
Seizures
opathy
pancytopenia
aetiology
VEL@@
adapter.
localised
-00@@
HCV.
adjunct
relevant,
calc@@
questionna@@
membran@@
erythropoietic
Immuno@@
defer@@
portal
ia:
haemarthroses,
amide.
mus@@
Teva.
surveillance.
overdoses
Head@@
sensitivity.
Loc@@
dul@@
ingu@@
integrate
servants
Aranesp.
asthma.
contractions
rebound
(10@@
SC
corticosteroids,
cholestyramine
tening
Ec@@
Decrease
Nasal
faecal
carri@@
vertigo
disseminated
gadolinium
themselves.
creatine
Hypoglycaemia
sun,
infliximab.
Peri@@
healthy,
beta@@
fib@@
CYP2C@@
tadalafil
ary@@
Subsequent
utilised
sepsis,
MM@@
http://@@
post-
punctate
rare’,
cream.
cystic
rhyth@@
mic
Haemat@@
haematological
applicants
lung@@
Lact@@
resume
transmissible
ritis
gestational
size,
13/
as:
Trade
CV
unintended
Shor@@
is)
ening,
115@@
exacerb@@
triggered
glucos@@
papilloedema,
installed
team.
(s)
fibr@@
pigmentation
stromal
eaten
'of
termin@@
Est@@
BP@@
v.
lansoprazole.
botulinum
before@@
ance:
Sector
archiving
EMEA,
Turner
Unscrew
treated)
45-@@
Affairs
lipo@@
thirst
Released
Benzyl
transport@@
facilitating
converts
ution
al)
Decreased
feet,
heartbeat
ocyt@@
stiffness
pancreas
luteinising
Hon@@
Han@@
245
(IT@@
absorber
hormon@@
Delegation
Norway.
Paseo
Don@@
Dox@@
2,000
Long-Term
1,071
alfa@@
rhabdomyolysis
Cerivastatin
8%)
37.5
6.6
Usual
(IU/
suggestion
Loss
ena
eighteen
ada
Vienna
MAN@@
Agence
TER
Lane,
Red@@
Organon
x1
Oxidase
intraocular
rifampicin
show@@
ADVATE,
container:
vial:
Naïve
Predictability
TR@@
opathy,
Ejaculation
Erectile
syncope,
,,
tis,
glos@@
Dyspnoea
Alopecia,
uth
glutamate
attach@@
Out@@
surgery,
intestine
distributing
Fil@@
119@@
.com
Commun@@
Inc.
fasted
pil@@
Flu@@
thrombocytopaenia
shaky
hands,
voice,
energe@@
bed@@
blisters,
eczema
tis),
(affects
pass@@
beating
nel@@
seizures.
(pulmonary
Bad
diuretic
aggression
cholesterol@@
phases
45%
deposits
abnormal,
digestive
granul@@
melan@@
tivity
Swelling
tenecteplase
Lar@@
outweighs
risk@@
comprised
Eg@@
ejaculation,
Thromboembolism
Lip@@
Aspartate
transi@@
phosphor@@
CK
Kon@@
5-ALA
103.5
................................................................@@
.....
unit@@
endothelial
adrenergic
Sor@@
library
transp@@
scal@@
in-
rub@@
assembled
Guidance
signature
bleed
mail@emea.
len
officer
pharmacovigilance,
large,
invited
actions,
telematics
1;
oral,
ires
alisation,
23%
inhibitor,
ide-@@
fluoride
infusion,
self-injection,
once,
manufacturer@@
further.
epo@@
recommendations.
doubt,
GI
cells/
settling
non-union
tables
substituting
gadoversetamide
terminate
Central
",
medicine@@
access,
creatinine.
unfractionated
dog's
fem@@
monit@@
pump.
bag.
corticosteroid
worsens,
tend@@
Applic@@
maintained.
substrate,
slower
supports
CA@@
TRE@@
Reg@@
emissions,
Creatinine
stopper
recommended:
-style
treatment)
interventions
LH
curren@@
Especially
apple
(SP@@
corporate
transplant.
hydroxylation
azole
gonadotroph@@
sickness
ded;
acquisition
signs.
nature,
172
cautioned
new-born
breast-fed
thrombin.
happen@@
barrel
Industri@@
A)
itary
ae,
beta-blocker
day;
149
ethyl
release:
hyperuric@@
lupus
corp@@
Fernando
walk
(baseline
Onsenal
parameter
Gastro@@
NT
Vaccine
independently
endor@@
Status
hypno@@
Dizziness,
threshold.
entacapone
dopa
decarboxylase
ical@@
344/
387/
EU/1/08/464/0@@
EU/1/08/465/0@@
o-
opinion.
carb@@
Magnetic
silent
non-hormonal
fragile)
parts.
contents.
KS
clothing.
>.
shoes.
reassessed
rubbed
ha
action:
assi@@
adjustment),
soy
siliconised
palpitations
{month/year}
marketing.
775
Avda.
mbH
The@@
3AA
Dresden
Activity
penetr@@
illum@@
Gently
0.4%
Component
fertilisation
chem@@
closure.
Kay
Fiskers
Vir@@
ratiopharm
ly)
LY@@
aseptic
actu@@
phthal@@
moroctocog
Fle@@
stro@@
(*)
debilitated
Fol@@
Bachelor
gloves,
pinching
Charles
Tem@@
delegation
VR
0,5
icul@@
Noviana
ona
(0)810
TopoTarget
symptom@@
rash@@
defect,
Influenza
amnesia,
asthenia
EPARs
container.
ent;
“Pfizer”
“PGN
imprinted
lets
Light
mg”.
capsule.
Capsules
moder@@
V.,
_____________________
meeting.
MANAGEMENT
TIC
retic@@
OX@@
Bulgari@@
stre@@
Finland.tuoteinfo@gsk.com
A).
tumour@@
µg/kg/week)
prescrip@@
1.75
0.75
void
COMP
n˚
menorrhagia,
79,
ADVATE
humanised
Tél/
(0)69
1503
recruitment
osis)
oedema@@
Pan@@
estr@@
secretariat
ra.
Sorbitan
qui@@
palm
Adalimumab
Hydro@@
ron
cef@@
pyrrolidone
dihydro@@
Som@@
Swe@@
ques
Director-General
Diseases
SME@@
Nucleoside
seriousness
lP
addiction
hospitals.
glucuronidation.
25.
fix@@
atopic
dermatitis
chapter
1%),
nat@@
Sufficient
accordingly
contraception,
ral
Consideration
orph@@
tacrolimus.
Effentora.
orang@@
SPC,
you:
Fund
narrow@@
multiply
bud@@
finish
though.
meetings.
nas@@
filter.
RotaTeq
(an
ML@@
glucuronide
emphasised
disposal.
and-@@
membranes.
societies
exemption
penicill@@
tion),
titrating
mammalian
vivo.
oxybutynin
sensi@@
Nevertheless
insect
medium.
relapsing
etanercept
transplantation.
binders
montelukast.
extrac@@
e'@@
failed.
stays
authority.
credibility
ogen
applic@@
worn
halves.
growing.
decreas@@
114
5-fold
Inst@@
Immunosuppressants
CAR@@
Incidence
leafle@@
corn
polyoxyl
demonstrated.
forum
infarction
fibrillation
meningococcal
drain
hot,
pharyngitis,
Rh@@
suspension:
FURTHER
diuretics:
INJEC@@
iodine
Cozaar
requesting
John’s
ied
foaming.
DE
Inovelon
phob@@
quick@@
hallucinations,
system).
stituting
needle,
IV).
Toremifene
cirrhosis)
nephro@@
ures,
efflux
retro@@
psycho@@
ery@@
rele@@
Vas@@
Implementation
virus)
asse@@
ental
infarc@@
Agustín
Nordic
Ches@@
man's
king@@
TO@@
ept@@
role.
(unboosted
saquinavir)
ani,
Bud@@
Koh@@
esta
Erlotinib
receptor@@
maintains
-B@@
averaged
mun@@
spoons
main@@
Manuel
opioid@@
Conven@@
Salmon
devoid
heter@@
extre@@
surprise.
VIRAMUNE
predisposed
CD4+
AUC.
l/@@
classification
devi@@
proton
Baraclude
Cox
zi@@
lev@@
ane.
38.@@
Cooperation
darker
renew@@
plates
HIV-2
latch
opened.
moisture.
veterinarian.
grad@@
half-lives
LS
short-@@
predomin@@
ont@@
acidosis.
FAP
ballo@@
thi@@
Tyverb
demand@@
Neuro@@
doxazosin
4.0
lenalidomide/dexamethasone
placebo/dexamethasone
weeks).
Antibody
platelets,
sticking
lyophilised
supported.
understandable
9.5
counting
degre@@
reactive
Agomelatine
extrem@@
gas@@
insufficiency,
prolong
divided.
diet,
ible
forth
QU@@
ano@@
placement
modest
MPS
outweigh
zon@@
5.0%
G-CSF
antigenic
Lantus
Endogenous
inherent
platelets).
affected,
expul@@
index.
Pegaptanib
deriv@@
N=@@
separately
wh@@
calories
fat.
minimising
ne.
alin
Crixivan
Tasmar
enrichment
aine,
year's
Rating
aries.
struggle
cope
managing
specul@@
(p=0.00@@
Kir@@
alk@@
welcomed
-specific
yro@@
eness,
Plan@@
views
Protopic
201
disrupting
selectivity
cyclo@@
lip
intestine.
tetracycline
Fab@@
fragment@@
aspar@@
survival.
mechanism.
dimethyl@@
ave
Tolerance
metabolisers
5.1
aving
integral
Trabectedin
ju@@
conserv@@
Committee.
nM,
Venlafaxine
autom@@
Zidovudine
hearing.
thir@@
smokers
ides.
authoriz@@
III.
mm3)
polar
ated;
requirements,
disadvantages
Tractocile
institutions,
Agency,
head.
remnants
Names
morbidity
followed.
sixth
incorporated
emit
succeeded
meat@@
ences.
seizures,
reproduc@@
enrol@@
Masivet
herds
Bou@@
chocolate
asymmetric
Mix25,
tip.
Physician
Ukra@@
challeng@@
mutagen@@
hydroxylated
monophosphate
oe@@
attained
omy
benefited
Entacapone
black,
lawy@@
phenylbutyrate
plung@@
derivative
copper
Wear
glyc@@
glu@@
Reconstituted
ice.
transport.
TMZ,
precursors
erythroid
inated
Portugal.
sites,
tox@@
2.3%
starch
hearing,
50.
flexible,
intermediate
expanded
budget.
vehicle,
Annual
Advocate
minus
disast@@
135@@
renal,
control)
notable
excep@@
plate
isation@@
add@@
salivation,
people@@
clos@@
gam@@
resting
breakfast
19%
der:
].
sely
propagation
unequal
8.3%
salmonella
utility
amantadine,
non-enveloped
parvovirus
bin.
incapable
week;
breast@@
weight)
TYSABRI
ophthalmologic
anti-allergic
rid
completing
HAQ
Alzheimer´s
CF@@
mass@@
España
ano
cohe@@
distribu@@
dium
take.
completion
Media
lys@@
outcome.
ire.
(1-
4-pack)
access@@
ening
motivated
1999,
-line
Quixidar
that@@
Malta,
Mannitol
residence
divis@@
sheet
regi@@
ensu@@
mentions
internation@@
Men
transfusions.
ich
Pergoveris
cleaned
126
(P02080)
proper@@
particulates
onwards
serious)
redistribution
smooth
expenditure.
Nycomed
Bet@@
IB@@
eliminated.
poisoned
retinopathy
Market
ck@@
childbearing
machin@@
furniture
ical.
nia
holding.
just@@
were,
ves.
weakening
Oxy@@
V/
clearer
MON
consumer,
evidence.
loop@@
chocol@@
aki
ri
Clinically
st-@@
Ram@@
before,
Chaussée
Waterloo
1135
Postbus
2031
(Sweden)
Garnier
69800
interpret@@
implic@@
custom@@
Mortality
first.
')
caring
elderly.
puppies
Pat@@
vessel).
tens
sors
deposits.
deterioration.
181
hire
Contracts
kno@@
Chapter
Nowogrodzka
02-
Á@@
+48(0)22
da.
Super@@
heard,
measles
em.
walls
+358
Wilson”
Improved
undertakings
ong@@
strengthened
tree
recognized
bodies.
Then,
Subsequently,
Later
isers
operates
ite,
retard@@
executed
Stre@@
Blo@@
600@@
mented
difficulties.
handling,
collected.
One@@
Way
ost
Sandwich,
Boulevard
urs
(199@@
45,
86/PB
attack@@
Santa
RG24
án@@
protecting
Rod@@
fault
Pos@@
perception
shi@@
1989
posts,
Off-white
act,
ration
vehicle.
serious@@
turn@@
18,
irs,
documents,
owner
saf@@
zation
275
VETERINARY
drawing
Contrast
Cre@@
bron@@
Quinta
Finland.
pasta).
substances:
RC
such,
treatment?
studied?
CIPROFLOXACIN
TEC
leak@@
fit@@
parallel
ello
colum@@
rear
work-@@
55,
Combined
quar@@
paper@@
influ@@
evid@@
dire
ida
Span@@
w.@@
2015
guardian
listing
pock@@
Serotype
appearing
ade.
WHO,
guard
isn't
respected,
destroyed.
left,
tered
stuck
alcohol:
ill:
attack),
row
many,
assume
beforehand.
headed
eless
elli
Sugar
y’s
Michel@@
belge
hat@@
730
Scottish
63%
fax
automated
desirable,
ée
pu@@
cht
no,
number@@
complaining
fields,
eck@@
Chi@@
tabletten/
comprimés/
logical
inappropriate.
ancy
Early
fare
control,
fires,
criteria.
plant@@
begins
beta*.
security.
Franco
oric@@
teach
much,
consent.
clock
Galileo
crucial.
practition@@
differen@@
traded
resources,
soldiers.
safeguar@@
queu@@
defe@@
sums
plo@@
Energy
alarm@@
Stocks
prov@@
everywhere,
ocean.
ought,
Fun@@
entrepreneur@@
chromium
truth.
plants.
anthem
party.
irresponsib@@
SOLVIT
awarded
TAC
biomass
computers
Kosovo
impact,
VAT
celebr@@
Czech@@
defen@@
tough
alistic
economically
promoted
enforcement.
invisible
plant,
contracted
shocking
Tibet@@
rs.
standards,
53%
respect?
Nig@@
traffickers
aggres@@
treaties
missions
assist@@
parking
directiv@@
infra@@
dossier
cooling
learn,
f,
budget,
corrid@@
cruel
ning.
itan
programming
firstly,
Mess@@
Islam
golden
Kal@@
exception.
Gor@@
army.
considerations
six-month
1994-@@
suff@@
despair
inciner@@
staff,
capac@@
ity'.
destabil@@
entails
ors'
alists,
informed.
vet@@
suffer.
án
rape
smil@@
brief
alled
routes,
obstacles
vote.
ridicul@@
amendments.
till
guilty
collapsed
disaster,
strong@@
tun@@
police,
eleph@@
crime.
German,
fatalities
basically
talent
Bay
increasing.
industrialised
Far
birth@@
tobacco,
granted,
lands
euro.
poverty,
privileged
dictator@@
come.
everyone.
short,
conceived
contamin@@
misled
instance.
le'
consumed
father@@
propag@@
ways,
verifiable
;@@
input@@
knowledge.
Clearly,
ets.
Zimbabwe
surprise
ECB
sions,
root@@
approve
methodology
edly
contempt
custody
ight,
Jews
philosophy
arrog@@
2013
ski@@
feasibility
unsafe
stems
Save
parents,
firms
students
grave
comfor@@
collap@@
teacher
deny
productivity
intervene
ession
alive.
unity
constrain@@
democracy.
ity!
tom@@
Europe?
Green@@
supporters
oriented
prior@@
destin@@
fanatic@@
imparti@@
policy,
ans?
contrary,
morning,
obvi@@
sounds
millen@@
net@@
transit
seller
blowing
forecasts
lines,
jack@@
reform@@
poorest
malaria
politics
ocean
landfill@@
Europe!
unacceptable.
pesticides,
imprisonment
regret@@
permits
workplace,
pollu@@
vast
expansion
est.
2011
colours
fraud.
missing.
dubious
'a
inconsist@@
French.
relation@@
sentenc@@
stories
winter
mini@@
demanding
punishment
ably,
horror
classical
value,
words.
Buddhist
debate)
charging
citizen,
theatre
rubble
emissions.
immigr@@
Europol
ports
-out
launch
ter?
maize,
catch@@
Baroness
roles
Kingdom,
climatic
clause
teachers
organised.
demanded
label.
wol@@
savings
jobs,
invent@@
isolation
minister
argum@@
thing.
magaz@@
interest.
fronti@@
ticket
cook@@
shameful
nursery
engagement
earli@@
initiative?
overweight.
structure,
September,
weaknesses
biocidal
enforc@@
140@@
aviation
confisc@@
resp@@
atis@@
ambi@@
notes.
civilisation.
fraud@@
forest@@
resett@@
bird
Customs
aware,
ves,
supermarket
opposition,
six-@@
ov,
Sab@@
oppos@@
organisations,
injuries,
pilot@@
ances,
training,
policies,
far,
Portuguese
French,
washing
fathers
argue
Guine@@
prevail@@
slaughter@@
either,
GMO
enthusias@@
oned
job@@
ians
atten@@
Milosevic
loy@@
boxes
permission
mountains
OSCE
manoeuv@@
progress,
Flor@@
irre@@
sail@@
react.
subsidis@@
cot@@
Middle
Cuban
smallest
Ban@@
Tuesday:
remarks
originating
advoc@@
feedingstuffs
catastrophic
outstanding
confron@@
bombs
Boeing
(NL)
abol@@
from.
centres,
schools.
suggest@@
Europe'
Jes@@
ai@@
forwar@@
ther,
premium
exec@@
passengers,
2050.
encoun@@
'un@@
sur@@
chain,
ingredients.
Pere@@
mighty
pay@@
freed
appointments
telling
assured
forecasts,
government,
black@@
Scotland
created.
Barroso
buys
persecuted
Serbs
dispar@@
explosive
citizens,
ily.
says:
crew
verified
Tuesday
Erika
sin
confid@@
Pérez
chip
(RO)
slightest
tors,
charg@@
Friday:
Sittings
ski,
regulating
work!
silence
question:
Miguel
BSE.
methods,
Al-@@
ada,
now@@
comment@@
responsibility,
job.
intelligence
search@@
Israel@@
Leban@@
moment@@
success,
ban.
offering
late.
Giuseppe
Cou@@
subsidiarity
vessel,
says,
note,
gif@@
surviv@@
poor@@
all!
distr@@
conceal
want.
solution?
issue?
ency?
such.
ong
apples
idh
earned
electromagnetic
sporting
six@@
sorts
motorcycle
scarcely
Indian
tag
referring
rice
flying
aircraft.
craft
buses
TV
buying
countries?
tive?
ze@@
Kh@@
cow@@
simply,
Quite
VII,
fertil@@
Asian
sea.
dum@@
No-one
enough@@
handful
scientist
wheat
alien@@
foc@@
hide?
board,
VI,
%?
wind@@
absurd
view?
advant@@
Paragraph
true,
personally
shed
FP@@
flavourings
case?
doping
tractor
ign
picked
employees,
licences
Africa,
diagnosis,
posed
cereal
airports
borrowers
'If
lobby
2009)
/2001
Cederschiöld
punished
(B)
2/97)
(A4-040@@
(A4-020@@
(A5-027@@
4/2001)
1/2000)
(A4-010@@
9/2000)
4/97)
Elles
(A5-039@@
(A4@@
Ghilardotti
(A4-034@@
Harrison
committe@@
did,
Suddenly,
Thirty-@@
København
A/@@
ys.
tetanus,
implantation.
period;
ock
O)
CONSTA,
Impact
evident.
Overall,
arthri@@
fulfilled
(alendronate
vs.
0.4@@
response@@
oxidative
odds
sedation,
Successful
vaginitis,
neur@@
palpitations,
gastritis,
metastases
rosis.
encephalopathy,
reliability
INFAI
recommending
suic@@
anger)
prolongation
noted.
natal
ness)
Profender
insulin@@
varenicline
us)
impaired.
Livensa
equals
HIV-@@
homocysteine
26%
olanzapine.
2.7
Arixtra
(16
surrounds
3.1
(in%
MPD
anti-diabetes
lide
HBVAXPRO
yttrium
cidofovir@@
GAB@@
ocytes
perpetu@@
transparency,
3.0%
(hazard
PDT
dermatitis,
undetectable
S-
2.3
marrow,
(1-@@
smoking.
escal@@
24-hour
clotting.
patient-years)
prolactin
gynaec@@
program@@
LUMIGAN
(10.@@
L/
echocardiography
InductOs.
CYP2E1,
UGT1A@@
muscarinic
sinusitis
chronically
4),
11/
Short
dependent.
dementia,
Inten@@
uptake,
4,@@
L).
ibi@@
NovoNorm
capsul@@
1000/
NNRTIs
respectively).
Civ@@
double-blind,
either@@
duration,
315
groups:
negative,
umab.
rams
156
9%)
excell@@
Mir@@
spine,
cough@@
macrolide
12)
(acute
pregnancies.
pre-treatment
respectively;
y),
alanine
icy@@
cysteamine
estradiol
µ@@
EE
HIV-infected
AUC0-@@
hypertriglyceridaemia
triglycerides.
hypersensitivity,
599
albumin:
(UACR),
mmol.
basel@@
dar@@
photoc@@
radiation.
178
112@@
manifested
-R@@
ic/
fold,
AF,
meta-analysis
abrupt
(FAP),
bow@@
sweetened
CYP450
ase-@@
rix
pandem@@
officially
(WHO)
rix,
AUTHORISATION/RENEWAL
.......

renewal:
Ti@@
me:
End
shelf-life
Furthermore
ships.
dryness,
soles
feet.
inactiv@@
tility
(age
bridging
defici@@
ency.
occurred,
nodul@@
dial
tinnitus,
Ernst
Young
1983
joining
1982
echin@@
Ireland.
Fel@@
ater
eric@@
Vienna,
co-ordination
resi@@
floor.
stres@@
monitoring.
4.8)
often.
e*
PRI@@
GO@@
COMP@@
Ser@@
chlorine
Immediate
ods
cold,
ING
epithelium
posterior
ification,
CR
Virus,
SD
stearate,
Strength
scar
EMEA@@
authorisations.
sunlight.
reflux
anticonvulsant
ress
ARTICLE
(4)
Month
met:
coumarin
Valtrop@@
ician
Protein
51@@
6.2).
dilution.
lymphomatous
bir@@
could,
irritability,
iro@@
hepatocellular
distres@@
prophylaxis.
Painful
Percentage
02-@@
ire,
clarification
Develop@@
Previous
Elevations
2.4%
Final
biotechnological
cancers,
ias
EXJADE.
toxic@@
new-onset
thiazolidinediones,
conduction
fluoroquinol@@
Similar
presid@@
pause
pectoris
XX@@
Convulsions
monotherapy,
or-@@
elled
ographs
N-
Cmax.
By@@
dose-finding
arthritis)
distant
sof@@
Plasma
(16@@
e-
soun@@
jaundice,
rapporteurs
glioma,
Mutagenicity
yielded
uses.
epti@@
BSE@@
albumin.
Paclitaxel
assay.
pharmacology,
avir@@
fibrill@@
fund@@
rip@@
skeleton
graded
incorporate
input
Towards
neon@@
phosphat@@
intravascular
eding.
216
int/
{@@
authoriti@@
es'@@
ride
trimethoprim.
Benzalkonium
Dam@@
multiply.
is),
dose-dependent
ocyte
degeneration
warrant
excluded,
immunosuppressants
(hypoglycaemia)
(swelling
eyelashes
26.@@
dry,
spongiform
Anaphylactic
unrelated
urticaria,
modi@@
gen.
thes@@
ional
Administr@@
pharmaceuticals,
feelings
lethargy
ff
cod@@
changes,
(haem@@
aem@@
TNFα
unaffected
Trac@@
reassessment
Preparatory
Spe@@
treatment-emergent
variants
months;
genit@@
rely,
ered
Tan@@
ör@@
scoop
centre,
files
Diag@@
(if
itor
orphan@@
Wat@@
Agriculture
Personnel
Budgets
Consumer
sia,
adjunctive
generalized
myoclonic
young,
lactating
ic-@@
Different
steroids
dreams,
nightma@@
L-Leucine,
L-Isoleucine,
CONCENTRATE
PP@@
dness
experiment@@
deple@@
febrile
Reduced
vessels,
corpor@@
implant@@
alteration
Problems
jer@@
Sun@@
glycer@@
College,
Barcelona,
Uppsala
pupil@@
(500
Nuremberg
Aut@@
l).
Division
E-2@@
+3@@
Doc@@
................@@
chemistry;
publishing
Spon@@
reports.
progestogen
Tw@@
(75
Body
superior
colour,
Liquid
Urticaria,
Dyspnoea,
Ple@@
tendon
Pain,
incontinence
Poly@@
BRO@@
AV@@
aire
March@@
aven@@
Michael
193@@
Laboratories
144
45@@
Char@@
rep@@
uted,
ids.
ital
bathing
facilities.
234
thereafter,
adhere
incorporation
Continue
Leuc@@
ocy@@
diplopia,
Pneumonia,
Functional
ped,
daytime
aps
Chang@@
fees
Anaemia
Spinal
Echinococcus
bag@@
pigs,
cholest@@
aesthesia
Portugal@@
Floor
Marlow
940
sk
676
Eston@@
Ares
Zamenhofo
LT-44287
37320603
@merck.com
750
Cent@@
328
VIRACEPT.
Efectin
,5
Ant@@
SUSTIVA
tartrate
Respiratory
statin,
procedu@@
ashes
VEN@@
haematoma,
ocular,
touch,
behaviour,
anxious
sleepy,
difficult,
wound,
spin@@
ears,
gums,
us),
mur@@
(occurring
Rest@@
lessness,
dizzy
throat,
Blurred
Tremor,
erectile
ideation,
more)
diverticulitis
exhaust@@
bum@@
opa@@
marg@@
infection),
bru@@
drive,
oesophag@@
ky
crusting,
id-@@
consequent
Nicotinic
carboxy@@
de)
AstraZeneca
Budapest
onia
Way,
orgas@@
immunogenicity
material,
dose-depend@@
GP@@
thyro@@
Road,
Os@@
Ivabradine
dor@@
+31
103.0
7.2
Atorvastatin
lowers
Regi@@
nominated
officers
irrig@@
receptor,
(30
mp@@
genes.
watering
olysis
analogu@@
drug-@@
dihydropyrimidine
orm@@
EU-wide
Speci@@
bottles.
Requirements
co-ordin@@
OUTER
infusion)
Pens
forecast
Reproduction
Cont@@
Regulatory
Forum
Validation
Emulsion
treatment).
Na@@
delegations
publish@@
its,
PPARγ
Adjunc@@
0.01
benzyl
bacteriostatic
Wegener's
condition,
treatment@@
strength,
abundant
anti-tuberculosis
short-acting
fistula
mm3
assistance,
ibuprofen
shor@@
dictated
(s).
repetition
ardi@@
missed,
Concerning
committee,
context,
preserve
diuretic@@
Tracleer.
171),
Nob@@
Oxford
ding,
particle
233
sorafenib
spoonful)
(below
will:
CPMP/CVMP
Chairman@@
aligned
precau@@
expelled
last.
collabor@@
precaution
treat.
overnight
ionisation
interfer@@
asing
cleared.
snack
characteristics,
Competact
withheld
Lysodren
recording
bol@@
Dol@@
Titanium
thrombin,
innate
Skeletal
pepti@@
consideration,
Comp@@
'from
ls,
(amlodipine)
PT
co,
metastases.
epoprostenol
PPE
UR@@
erosion,
moist@@
Parque
219
oestrogens
(high
similarities
imag@@
assisted
setting.
Sev@@
extrapyramidal
hypoesthesia,
participated
36,
subcutaneously.
FOIL
America
attached.
DEX
domain
unresectable
usage
ampou@@
155/
EU/1/03/26@@
EU/1/04/279/0@@
EU/1/06/357@@
367/
109
036
398/
Neopharma
30/
CellCept
Top@@
Astellas
Confirmed
141
protocol
Imaging
operations,
dry.
dehydrated,
hypovolaemic
ultraviolet
Eucreas
fitting
bulbs
proximity
clean,
delivers
cut.
injecting
administration:
collecting
ed).
phenol,
ethyl@@
sulphate,
hydr@@
histidine
amlodipine/
anaem@@
Half
Fabry
deficiency).
Que@@
Phar@@
Valley
ï@@
tes
rod@@
4103
Tafarnaubach
Gwent
Poc@@
Parameters
Press
Alduraz@@
packs,
amlodipine,
(saquinavir/ritonavir)
ki
Leukaemia
................................................@@
Percent
Cycle
transplant,
argued
tamper
high-density
spare:
nurse,
core-data
procedures@@
PE)
Anglia
Wales.
ling@@
Gothenburg.
science,
Hamburg.
forefinger.
Virlix,
con
solu@@
(less
epiphyses.
Iceland
0.1
Latvia
reti@@
ž@@
comprimidos
complet@@
erec@@
depression@@
bacterial,
y).
(side
scleral
pigmentation,
hyperaemia,
°C)
Abraxane
influenza-like
role,
originally
es’,
Cod
Yorkshire
ock@@
disco@@
aqu@@
cap.
Cel@@
Herstellung
ung
bruising
park
Generics
Potters
EN6
Gooimeer
hap@@
ME
UP@@
VAL@@
ulceration.
art,
Sof@@
Glimepiride
glimepiride
pick
arcoma
arrang@@
arrangement
ide),
sucrose.
containers.
191
scaly
retrograde
swallowing.
filler
vic@@
continues.
ingen
0.2@@
NA
ROBERT
placenta
machines:
hypo.
drafted
EN-C,
FR,
MG
panic
België/
Belgique/
atic@@
Gerhard
iss@@
aemia)
hepati@@
virus).
Departments
oleate
Eight
Betaferon.
-2-@@
itor@@
Fat
qualifying
anded
Hycamtin
methyl-@@
intoler@@
hid@@
l),
(platelets
peptic
homologous
Gaucher
April@@
adjuvanted
harming
IgG@@
distinguished
office.
guar@@
Santé
Forcaltonin
weight-bearing
restrictive
symmetrical
first-
subtype
transmission,
Presidents.
Parliament’s
circovirus
ane,
iod@@
tumour.
ketones
licen@@
owners,
lymphocyt@@
use)
elling.
caregivers
highlight
Binocrit
continue.
lateral
DM
broader
ero@@
mixing.
etoricoxib.
arrow@@
Vic@@
Programme.
atory.
foam
forthcoming
interrupt
mention@@
Mer@@
impair@@
psychomotor
margins
THAT
CY@@
body).
TRITACE
these.
Cerezyme
diseases:
isom@@
O-@@
doses).
Platelet
GF@@
benefit.
antacid
]-@@
repeated.
shake
ET
Currently,
safer
Tandemact
simul@@
cerebral
arteries
meal,
0.5%
warranted.
Depending
Unit,
transl@@
Pic@@
colour.
gras@@
1990@@
85@@
atosiban
ng/ml
(6%)
stil@@
silica
abat@@
Device
ometric
omen@@
contin@@
Micturition
Proliferative
Enteropathy
ARICLAIM
TV@@
Sepsis,
But@@
Nas@@
tenderness,
ster,
rh@@
tuberculosis,
Karvezide
LeukoScan
soy@@
colouring
free@@
407
(MAOIs):
Current
Add
ORI@@
Injec@@
ised,
SPRYCEL.
incorpor@@
prefer@@
PRE-FILLED
HANDLING
MI
acity
frequency,
Impaired
abnormalities,
ligible
series.
biphasic
suspen@@
adjustments.
stakeholders
ward
false@@
monitored,
anticoagulants,
serological
(10,000
compensatory
duodenal
absorb@@
ula
leukaemic
test)
CYP2A6,
biom@@
Black@@
800@@
@merck.
Solna
Export
Tob@@
Pes@@
**@@
ni
19,
ø@@
Janu@@
enforce
don't
P-2@@
Paço
invert
Kam@@
11-@@
ef
overactive
blad@@
Strasse
ka,
flav@@
spic@@
AE@@
90.
ethanol.
fusion
5600
simultaneously
is-@@
gradu@@
Borg@@
95-@@
Ribeiro
-5@@
Farma
Fa@@
conjug@@
contra-indicated
Sus@@
dus
intrinsic
lep@@
recogniz@@
non-EU
A-I
fr@@
secret@@
solvent@@
meaning@@
20.6
Piro
SOMAVERT
bevacizumab
solutions:
gent@@
9.7%
cortex
Consumption
SME
thymidine
resides
ace@@
modifying
GIP
disc.
cyste@@
malnourished
Record
RT,
Adefovir
ester
deletion
approved.
sponsors
distribution,
acts)
itraconazole,
ketoconazole,
juice,
concentrations,
aine
AUC0-24
Giving
sis.
salbutamol
Intravascular
harmonised,
J,
Slo@@
MO@@
ays
peptides
cattle,
breakfast.
tolerance,
no-@@
Swallow
Doxazosin
epinephrine,
rapid@@
(re-)vaccination
washout
NOV@@
(Table
IU/ml
Up@@
spl@@
implant
compression
Pompe
Bimatoprost
lyophilized
fluoro@@
pyraz@@
computerised
Community.
matched
connective
Gabapentin
neuropath@@
ies@@
-100@@
analys@@
king.
capsule@@
sam@@
mediators
urticarial
(EU)
cov@@
disease).
idated
duloxetine-treated
pending
Onsets
myc@@
214
Rebif
MM-009
endpoints.
586
COPD
products;
fermentation
preced@@
embryonic
sively
reared
-24
pap@@
societies.
illicit
Adults
(over
evenly
laser
receipt
preparation,
session,
wed@@
Pressure
were.
uring
anticipate
Procedu@@
effectiveness,
experimental
MCyR
manner@@
Ombudsman.
anti-rheumatic
logic
ible.
radioiodine
/3@@
consistently
vent@@
ratio.
agonist,
would,
outlined
architec@@
lar@@
-fold
parts,
presumed
cholesterol),
bar-code
engineering
aqueous
Ovitrelle
separately.
bronchiseptica
raises
Sta@@
cetroreli@@
micrograms/0.5
Switching
3.9
ertapenem
98%
breeds)
tas@@
Sixty-@@
leukaemia,
acetylcholine
terminals
ZO@@
bab@@
TSS
Ki@@
intr@@
116
ex-@@
mini-@@
bluetongue
suppress
pleural
differing
(COX-2)
isotonic
revaccinated
follow-up,
tium
supplement
sy@@
max
ac.
Ultr@@
albeit
trauma
lyn@@
tourists
disperse
relies
urea
(OJ
on:
published.
Ventav@@
yearly
angiography
diazoxide
Therapies
painkill@@
rapporteur,
achievement
hydroxy-@@
cord
injury.
radiotherapy.
challenged
Plavix
flare
vigorously
empty,
inferior
filtered
appro@@
modified.
potency
neutrophils,
Mang@@
ate).
cognitive,
M1
Mig@@
exercis@@
elabor@@
distinct
var@@
collected,
figure@@
years:
2001@@
bec@@
coating
sponge
21.@@
6.6%
Prasugrel
created,
Report.
Arg@@
es’.
erc@@
milligrams
appropriately
bon
discoloured.
reconstitution,
25°C
incid@@
window,
anced
technetium-99m
VEGF@@
tured
Univer@@
sities
("@@
project.
visited
Used
emits
did@@
tubing,
Vacc@@
encephal@@
gn@@
failures
lis@@
categorised
Health@@
coat
croscarmellose
crystall@@
oly@@
thrombocytopenia.
Beta-blockers
abuse,
swim
bath@@
ily,
voc@@
difference.
FF
definitions
BN
3.6
comparisons
compon@@
Race
intervention.
ond
incomplete.
isotope
metabolizers
(5%
headache.
dizziness.
independ@@
view@@
eric
elsewhere
studies)
balance.
ated:
description
Osteoporosis
tested,
breeders
coded
green.
particles,
°C,
cages
join
6.9%
3.6%
convenient
(shoulder).
bottom@@
poisoning,
pump,
assay,
nes
readings
252
municipal
waist.
B19.
burden.
discoloured
heroin
suck
Asth@@
Christmas
ta.
energy-@@
Infusat
crossed
16.
10.0
(results
ward.
Persons
py@@
if:
tory
bod@@
discoloration,
report:
regulations.
whole.
time-@@
Sections
examinations.
non-blistered
(1-pack
problems:
danazol.
(ACE)
wheezing,
ude
notified
holders
progressively
manual.
Sugammadex
extensions
Lap@@
dan@@
wished
ultra-@@
0.000@@
extraction
guidel@@
penetration
Intravitreal
282
continuous.
mm@@
case-by-case
dependence.
appear.
skelet@@
inspectors
dy
interview
cooperative
design,
supplies.
confirms
serious;
consumed.
rise.
compart@@
scrutiny
expression,
cel@@
wiping
th.
Natural
flow.
Hom@@
tag@@
Economics
complex,
Company
ural
MAC@@
Marg@@
Alcobendas,
overweight,
ight.
factors,
transgenic
asts
promised
114@@
suicide.
desert
freez@@
given,
ually
blocked,
fox@@
toward
Menitorix
profound
ility
at-@@
Wherever
bac@@
Protop@@
lyophilisate
pharmacy
weigh
Valletta
je
ć
VL
copies/ml
Bank
37,
atives
emo@@
PO
Priest
filling
sweeteners
8,000
simple,
Che@@
ara
iry
ATED
Musculo-
Myeloma
pati@@
profil@@
urge
cut,
walk@@
frozen.
sides.
Pen,
Ratiograstim
Isle
malignancies,
addresses
persons.
marks,
H5N@@
paras@@
86@@
28%
reimbursed
propor@@
moon
Hein@@
ms@@
transfer.
reminder
slip
wall,
thrombocytopenic
347/
oured,
(≤
safet@@
rol
clicking
stressed
dispersion
secretari@@
Turk@@
Défense
osity
exper@@
wise,
row.
differential
cathe@@
omeprazole
increas@@
atom@@
Parkinson@@
reviews
those,
60.
double@@
rous
BR@@
Film
Pentagon
Population
ke,
biome@@
Force
bull@@
bridges
TABLET
ALU
8EP
GU@@
Basingstoke
overex@@
total,
amending
budgets
los
Vie@@
pathy
JANSSEN-CILAG
wn@@
1992.
Peace
fri@@
unch
ility,
instructions,
forc@@
giant
adopting
Characteris@@
in-use
reflects
awaiting
ESA
annually
advance.
ion:
leaking
N1
recruit
failing
ries,
pets
ko
Sloven@@
connect
bother
ek
lax@@
Maj@@
schizophren@@
ging
Relative
kne@@
Vasco
(weakened)
(killed)
is?
)?
aling
NOVOMIX
Xenical
Square
trad@@
Strauss
nod@@
Fast
Greec@@
stitution
atives,
comfort
inadvertently
tex@@
explained
bars
Lau@@
Arthritis
Inadequate
PATIENTS
---------------Study
harbour
back;
gently,
offices.
stas@@
ş@@
Leon@@
Bucharest
Bos@@
Whitehall
≤1
troublesome,
Nicosia
Amsterdam@@
locate
sy,
stic@@
hungr@@
found,
lun@@
appear,
(persistent
devic@@
manufacturer.
pregnanc@@
falsi@@
faulty
supplementation
adrenal,
abroad:
Disease.
travel@@
(hyperglycaemia).
Answ@@
danger@@
distances.
(reduction
Slovak@@
4023000
+42
vent
aspartame
of.
rant
NL
SE-169
incision
Abbott
burn@@
residential
drug,
usable
4%.
ey
jung@@
reno@@
oh@@
29,
Tietgens
DK-5220
Odense
SØ
objective.
rule.
preserved
abortions
Motion
brush
tulathromycin.
negatively
itation
1%,
Tabletten,
dispense
5-hydroxy
Directive.
delayed,
hesit@@
drun@@
(laminate)
tically,
specifying
hide
tos@@
abused
nia,
Organisation,
Armen@@
mL)
blocked.
distribute
Testing
alfentanil
alternatives.
en;
delta.
beta*
q
ef,
seas@@
69,
portable
windows
Agency@@
John@@
own.
confused
eyesight
how,
Hav@@
River
terrorism.
forese@@
terror
stagn@@
compet@@
luxury
Nigeri@@
fought
Bul@@
Soil
landscap@@
jams
providers
option.
effort@@
disput@@
profession
advertising.
transfers
ese.
contagious
rif@@
Alzheimer's,
outbreak@@
reservation
stein
utmost
producers,
willingness
immigrants.
pillar
fragrances
Subsidies
reforms
linked.
super-@@
widespread.
comes.
Taliban
cohesion
peat
federal
abortion,
distinction
taxed
enabled
clones
dam
history.
persecution
similar@@
gold.
regulated.
ke.
oppose
slav@@
employe@@
stand,
encomp@@
Colom@@
terrorists,
ge.
Terrorists
November.
bees
toys,
Tex@@
mountain@@
reciproc@@
embargo
elections.
wave
relig@@
mercury,
believ@@
always,
ased
travel.
Roman
owners
Transport
cruel@@
goods,
dozens
counter@@
exhaus@@
how.
tunnels
objectiv@@
hob@@
tactics
Sic@@
recognis@@
novel@@
besides
Asia
extremism
Afghanistan
dishon@@
creates
engaged
Albani@@
aston@@
ished.
empire
merch@@
fact.
Mother
ws,
cows,
san@@
indeed!
rearing
forestry
frustr@@
tortured
igno@@
offence.
mothers,
iceberg.
forces.
beauty
unaware
behave
nurses
uz@@
fixing
registr@@
dual
CAP
abolished.
Communist
food@@
dynam@@
necessar@@
strengthened.
conscience
disaster.
undertaking
recycled
dies,
bureaucratic
specialists,
imperfections
forward,
Charter
leave,
mark,
efficient,
poison
extent,
scoreboard
prisons
pretty
anch@@
hake
secrecy
tradi@@
honour
viol@@
belonged
kid@@
adopted@@
untenable.
liter@@
barely
Framework
aside
combat@@
pensions
penalise
turnout
election.
calculate
intolerable.
agriculture,
expenditure,
securi@@
exceptionally
mountains,
coc@@
habit@@
unloading
paraphrase
season
sions.
language,
articles.
operation@@
nowhere
'public
on-board
Ukraine,
covered.
hast@@
item@@
':
commerci@@
hatred.
feeds
simple.
arrest@@
provision@@
Tibet
fatten@@
ans'
optimism
tourism
dest@@
Ker@@
overe@@
dead.
lesson
contamination,
patents
most,
presently
deals
conflict.
women’s
dignity.
unified
employers
Schengen
preparatory
proves
consent
resident
efficiency.
Left
Programme,
ust,
handic@@
guarante@@
investment@@
defining
bankrup@@
scienti@@
irresponsible
year-olds
games
Andal@@
survey,
surviving
western
0/97)
hunt
knowledge,
scand@@
sludge
roots
about@@
currency.
'Europe
decisions,
master@@
undoubtedly
universities
afford
manipul@@
Juli@@
symbol@@
treaty,
brother@@
diox@@
Scotland,
our.
GMOs.
clearing
Moroc@@
reforestation
Authority
judge
carcasses
Father
disturbing
Eastern
roof@@
thick
underground
measures?
loud
Califor@@
pays
desperately
nickel
certified
inval@@
Latin
accuracy
presupposes
creative
contribu@@
alloc@@
competition.
shoes
journal
activi@@
extrad@@
tachograph
deployment
stick.
trouble@@
hectare
abus@@
experiment
gained.
fiscal
explosion
afterno@@
Mario
wrote
lessly
justifiable
ballot
century,
one-off
forgotten.
crops.
passed,
drought,
Holocaust
politician
melting
ough@@
kind@@
profit.
Kyoto
we,
society,
magic
Kenya
stating
Euro-@@
elite
Ukrainian
EIT
scour@@
literally
democrati@@
pit
Airport
life-@@
poker
fisher@@
plain
Croati@@
importer
importation
expor@@
prohibit
lessness
incomes
cheapest
dioxins
tested.
hatred
right@@
ets,
Pakistan
admits
watch@@
cars.
late,
ignored
free-@@
textiles
profits.
infl@@
becom@@
trade.
happened.
inven@@
emerges
akes
films,
Egyp@@
costs,
interconnec@@
neglec@@
plur@@
homel@@
polluter
objective,
Treaty,
brake
execu@@
-friendly
gains
Hamas
utes
libraries
herbic@@
Pacific
Gra@@
km,
paper,
transmit
doctors.
on-going
discharges
aj@@
bran@@
location,
rent
client
background.
protected.
Albanian
CMO
sak@@
office,
Europol@@
resourc@@
'all
decent
sorry
best,
fies
Democratic
oppression
Basque
oldest
Memb@@
recognize
Anton@@
ruling
ers’
sees
qualities.
able?
afforded
manufacture@@
mistake.
Gaza
beings,
bing
en's
Chin@@
hell
disabled.
forests
acks
Alstom
Lithuani@@
contrary
congratul@@
years’
restaurants
shelves
elections,
disappear@@
ille,
foundations
judges
drink,
euro,
1980@@
victory
imprisoned
permis@@
decency
duty@@
spirits
Sharon
Paul
Jam@@
appoint@@
witness
ous?
profite@@
UCLAF
football
solidar@@
more?
colourings
few.
iled
subsidi@@
responsibilities
Brenner
piec@@
leas@@
One,
say@@
flood
remarkable
Gam@@
comprehen@@
scapegoat
budget?
Gilad
inqu@@
extinction
?’
urgently
second-class
retur@@
far@@
acqu@@
nothing.
meet@@
justified.
thermal
biometric
tively.
premiums
newspapers
alisation'
'non-@@
mission@@
colleagu@@
Mad@@
abandonment
Jen@@
McCarthy
ers@@
'You
taxation
conservation
proposed,
drif@@
Gaz@@
owned
Naturally,
thing!
ice@@
automobile
arrangements,
tensions
Farm@@
unacceptable,
likes
bell@@
agency,
truth,
farming
sleeping
seat@@
accounted
barbar@@
instinc@@
murders
brief@@
diplom@@
Markov
economy,
distributor
force,
caf@@
truly
creat@@
shipown@@
als?
ages?
of?
regard.
Pakist@@
ECHO
Iran@@
flag,
airlines
redundant
unfortunately,
sive,
rers
arrives
burg
ning,
kidnapped
youngsters
roof
privileg@@
hil@@
filed
discussing
shack@@
massacres
desper@@
ministers
granted.
defects.
Wednesday
Little
municip@@
Directive,
wit@@
like.
likened
Dybkjær
Rob@@
language.
Her
Berès
Quisthoudt-Rowohl
figures.
consu@@
reactor
/2007
.’
Fewer
phone
Gallagher
atá
me!
immigrants,
aga
Milan,
pacif@@
Munich
newspap@@
money@@
murde@@
miracle
court,
journalist
islands,
dollars
Gargani
journalist,
Paasilinna
euro-@@
sand@@
copyright
Ship@@
n't
2009@@
imagin@@
sing.
sovereignty
benefici@@
star
competition?
ignore
fishermen,
Mandel@@
advisers
catastroph@@
admit@@
Might
absur@@
area?
new.
bhfuil
unhealthy
nonsense.
help@@
1968
evidently
ego@@
situations,
innovation,
ach.
capita
pigmeat
massac@@
get,
corner
panels
pace.
(adopted
cool@@
perpetrators
must.
sure,
hed@@
decided.
cargo
welcomed.
overcapacity
carrots
pensioners
accepting
cheaper
lifetime
exempt
checked,
amendments,
Arch@@
intellig@@
China.
teenage
Welsh
/98,
doors
compens@@
Simplified
merger
share@@
ever-increasing
judgment
reply.
moderation
eradicate
le!
fodder.
destined
billions
wasted
Poor
cases?
compiled
adverti@@
ground,
status,
monitoring,
negotiation
Alpine
globalisation
ophobia,
monopoly
aeroplane
ACP
trust@@
rer,
national@@
portra@@
faith@@
threats
DHA
figh@@
situation?
so?
difference?
doing?
decibels
le?
states@@
beverages
scope,
July.
markets,
welcome.
Accordingly,
contem@@
hull
cocktail
Members.
Maced@@
els.
doub@@
transposition
prices,
vely
workforce
toll
act?
soon,
exist.
concealed
democracy!
Amongst
exactly?
disappoint@@
groups?
place@@
bombs.
(B6-0@@
scen@@
amendment,
exports
supermarkets
court.
doubts
refuge@@
exemp@@
long?
Europe’s
ement?
kilograms
set-aside
teach@@
Palestinians
bans
important?
happening?
language?
date?
reap
priorities?
proposals?
'What
crisis?
Wol@@
eminent
Subject
bankno@@
door.
(Protests
contain?
donation
Fourthly:
Fourth,
Ninety-@@
want?
there?
igh
ous!
8/99):
Camisón
Asensio
(A5-026@@
Sánchez
1/96)
(A5-010@@
Berger
(A5-037@@
1/99)
5/98)
(A5-038@@
Leinen
5/2000)
8/98)
Haug
Hautala
A4-0@@
(A4-029@@
Varela
Suanzes-Carpegna
Trakatellis
Resolution:
result:
(Laughter,
International,
branch
Six@@
Seventy
defeat
Thirdly:
(Uproar
о@@
SEN
WIL@@
antipsychotics,
inhibitor)
states,
hypox@@
unting
ductus
aripipraz@@
VE
HER2
IGF-I
anomal@@
(37%
disposition
benzodiazepines.
stricture
Trizivir@@
Rarely
hCG
thr@@
benign
Guillain-Barré
IGF@@
37.@@
typh@@
pemetrexed.
3%,
pup
non-selective
2300
develop.
sensitisation
47@@
Dafiro
Ev@@
staff.
ellul@@
ara-@@
gia,
metry
Dicural
resuspension.
satis@@
plot
mediator
48,
er).
ira.
29.@@
ITT
non-vertebral
responder@@
Fron@@
52%
ITY
UFH
earmarked
Board.
ventilated
validation
post–
QTc
hepar@@
147
Exubera
Ide@@
-2)
CAM@@
cascade
profen
reductions.
72%
cataract
non-serious
infusion@@
liaison
Contro@@
R-
enantiom@@
Program@@
questionnaire
follow-up.
(>
ULN)
67%
X,
(2.5
physiologic
dep@@
(See
listed,
normal)
(erythema
swelling),
a-treated
galact@@
orrhoea,
tap@@
EVISTA
139@@
301
proportions
lean
lox@@
6%).
lesion@@
embolism)
ison@@
2.7%
AM
Thyman@@
weeks),
constric@@
ventricle
classes.
nM)
2C,
D1,
late-onset
phenylbutyrate,
(i.e.
populations,
schedul@@
endemic
set,
153
Cubicin
penicillins,
glycerol
output.
mite
anaesthe@@
0.19
weight@@
189@@
randomization
zumab
VF@@
placebo-@@
(499/
854)
folic
dialysis,
(both
experienc@@
allopurin@@
(0-@@
(20
lipids
HDL
emia.
(MA@@
(CN@@
comple@@
commonly,
K.
(18/
(29@@
325
IMP@@
iser
NV17317
te-@@
CML,
herpesvirus,
Extavi@@
alendron@@
group)
28-day
lungs.
4.7%
displacement
retin@@
(0.5%
clarithromycin,
Zevalin
dermati@@
mercury'(mmHg).
(MRI).
opro@@
Quint@@
two,
three,
(n=28@@
hypospadi@@
retrospec@@
(assessed
(p=0.0@@
1.6
temozolomide
monomethyl
triazenoimidazole
carboxamide
(MTIC).
incidence.
abr@@
113
hypercalciuria
enzym@@
aspartate
(AST
(15%)
M184V
ethinyl
Sur@@
capsule,
high-f@@
20-week
delay@@
needed@@
grape
Animals
137
length.
LDL-C
0%,
(30%)
(18%)
2-5
Insulatard)
Protaphane)
colon.
Dex@@
(AD@@
suit@@
8,@@
follow@@
fluconazole,
Remeron
Wort
prepar@@
bioequivalent
Dar@@
atinib
TION@@
__
mutually
inging
(infected
inactivation
reteplase
prognostic
Concer@@
ns
transpor@@
Others
hepatotoxic
focal
defic@@
difficulty,
genotypic
1972
1974,
1977
1973
epidemi@@
1978
1981
positions,
Bovine
Montpellier,
Drugs
professor
Toxicology
CPMP@@
conferences
coordinator
alog@@
concentration@@
Death
Hospit@@
teriparatide
necrosis)
ATION
5%@@
abnormality
chest,
feeling,
nervousness
dioxide.
Gluc@@
olytic
Defined
GN@@
active,
abras@@
anterior
photopsia,
ADE
Moderate
165
fluor@@
Carbamazepine
units,
larynx
GEN@@
LY
clotting)
Erythropoietin
courses.
(E172),
classi@@
Refer@@
od.
EudraNet
electrolytes
NRTIs
ulcers.
737
FOLLOWING
NECESSARY
Por@@
EXP@@
feasible.
thin@@
calci@@
down-@@
EGFR.
(15@@
Leafle@@
effic@@
bradykinin.
antibodies,
indirectly
ill.
elas@@
1-5
sac.
(CSF@@
accountability
consciousness
syncope
NMS
bradycardi@@
Arzneimittel
pru@@
ADR
(range)
195
examined,
CYP@@
sitagliptin.
closure,
Improvements
alys@@
MIR@@
includ@@
xi@@
anger
agranulocytosis,
leukopenia,
(COP@@
indigestion,
seg@@
Fact@@
mild@@
nails
Tygac@@
Dom@@
er),
mellitus:
Communities.
overlap
Dor@@
sted
quit
persist@@
carbamazepine.
4.7@@
Preliminary
drafting
PID
anastom@@
folinate
induction.
vaccinations.
problems)
paralys@@
RoActemra.
tremor
cramp@@
20%,
ziconotide.
AEs
local@@
going.
foet@@
anion
Oxyglobin
lop@@
cans
CYP2C8
(37@@
COMT
19.
mutagenicity
hypoxanthine-guanine
HG@@
alyse
dose-limiting
12/
usefulness
saquin@@
tn
evaluations
TEN@@
epistax@@
tigecycline.
NHL
(heart
deleterious
incub@@
Water@@
considerably.
gingival
ritis,
Viraferon.
TEXT
---------------------------------------------------------------------------------------------------------------------------
http://www.@@
experiments.
tubule
tail
iver@@
Coadministration
daily)
deficient
lumiracoxib
UV@@
25%,
eded
edema
Dose-@@
phy@@
conjugates
batches
Vaginal
implications.
(COM@@
encephalopath@@
Simul@@
Rem@@
4%),
notice,
-type
oneph@@
leak
painful@@
nel
agn@@
aca@@
Gad@@
ovi@@
myoglobinuria
breathlessness
isation,
ence)
Myel@@
SSRIs
ETOMEP
ification.
spondylitis,
glass.
parable
ulcerations
gang@@
Bacterial
rare.
seen,
diet@@
Approximate
EMEA/@@
matic
Finland@@
327@@
Κύπρος
adjuvant@@
scoops
box,
122
David
verification
ram
Replace
storage.
aprepitant,
flavour
protein,
tonic-clonic
Dyspepsia
Didanosine
92-@@
microns
sleeping,
Difficulty
glands,
bleed,
tness
ives
osis),
dodecahydrate,
L-Threonine,
L-Glutamic
homocyst@@
spar@@
imin@@
fights
count.
model,
fication
gelatin,
Colleg@@
Faculty
Liverpool
Edinburgh.
Pharmacist
Diploma
Toxic@@
Law
unde@@
Thomas
fumar@@
(1000
disten@@
orr@@
Rosuvastatin
Limerick
Parties
Maria
Farmac@@
Consum@@
Doctorate
Doctor
Mou@@
cardiology
sci@@
aryn@@
injection?
Yes.
kit@@
606-10-50
ew@@
ActiTrak
Sm@@
Ran@@
EN
decay
SS@@
SION
1.9
cm@@
evacuation
tis/
Gastric
pains
moderate)
Site
build-up
Chest
ENT@@
für
ales
gos
Jacques
AU
Directeur
9.9@@
Dr@@
36.@@
Romano
retinitis
fosamprenavir
sle@@
visiting
rine
nonselective,
MAOIs
puncture-proof
1993,
Dun@@
Cab@@
prost@@
travoprost
eyel@@
epilepsy)
unc@@
response:
eosinophilic
Dys@@
cras@@
nip@@
ids,
hoarseness,
1:
neurotransmitter
osteomyelitis
red-@@
Scal@@
FO@@
Q
*:
Econor
(E4@@
anhydrous
Hydrochloric
vigilant
glucose,
mote
Α
640
ee
d.@@
Serono
145
HOW
DEPO@@
uninfected
composition,
dil@@
Co-A
Reductase
vastatin,
Pra@@
haematuria,
toes
spotted
lesions,
specifi@@
skin),
eyelid,
staying
fall,
anorex@@
NEURO@@
OG@@
lation
endophthalm@@
suicide,
550
(agranulocyt@@
crying
hives)
racing
anger.
mening@@
ater@@
It@@
eyelashes,
lining
staining,
Travoprost
mydriasis,
haemorrhage.
altering
Try
Van
straat
Ein@@
cath@@
ode
or)
Hepato-biliary
ase)
Elevation
K,
(hyper@@
ited,
ad,
posing
needles,
Unchanged
Excipient:
graft
tion).
three-year
Prague,
cephalospor@@
enzymes.
vials.
N-acetyl@@
hydrolys@@
ester@@
Mucopolysaccharidosis
avir
Dexamethasone
azine
wall.
GMP
raised,
ories
levodopa,
chronic@@
combination,
ach,
DRO@@
f)
KwikPens
Quadrisol
EMEA/CVMP
Clockstop
Tab@@
proving
(cancer
Genotypic
Entecavir
AG
PRT
ago@@
physi@@
Unit.
1991.
IT-@@
follow-up@@
(once
MRA
High@@
suming
melphalan
0.08%
Together
phenylalan@@
glucosidase
then.
-fre@@
hormones,
stroke.
Calcichew-D3
indinavir.
names)
mono
hyperthermia,
noea
develop,
fluoroquinolone
(life-threatening
outcom@@
post-treatment
fast-@@
returns
have.
persist,
transaminase
(hyperglycaemia)
resuspension
supportive
lesion.
tetracyclines
bacterium
vessel.
neutropaenia
alternating
apart.
otoxic@@
neuritis,
incompatibility
comparison,
pre-specified
adjudicated
burns,
co-administering
Zerene.
caspofungin
emetic
micron
MON@@
UR
refrigerate.
indigo
carmine
132),
HR
fen@@
(TRADENAME)
each,
blunt
tenth
ENGERIX
osteoclast
analgesic
ganciclovir
AVONEX
Kepivance
specified.
causally
alize
loos@@
pist@@
cycle,
excipient
predisposition
blood),
newborns.
schedule,
parallel,
assing
cytotoxic
formed,
discharg@@
Degarelix
biochemical
prototype
newborn.
intra-patient
coagulopathy
217
suited
existed
Polyvinyl
Macrogol
activates
defenc@@
times)
poured
obtained.
puncture
zing
enterocol@@
12-16
gaining
Gall@@
asis,
auer
Federation
Associ@@
technique,
(ramipril),
(valsartan),
(atenolol),
calcium-channel
Hel@@
(Needles
included).
multiple-dose
Dysentery
KIU/
units)
mec@@
clinics
(“
horse@@
acetate,
polyole@@
soren@@
darkening
Anorexia
§,
da,
Tecnologico
Calle
Severo
Ochoa
Tres
Cantos,
60,
Jos@@
oid
casing
Adenomatous
quantit@@
397
rifampic@@
Opinions
module
has.
downstream
molecules,
evaluation,
IX,
crushed.
infertile
reproduction,
tubal
Patient@@
absorption,
debilitating
epileptic@@
us*
ition
has@@
Being
perpendicularly
forefinger;
Lopinavir/
ine:
end-@@
levodopa/
vardenafil
h)
diploma
000/
5ml
vials)
Bot@@
sachets
035
04@@
055
43@@
003/
5b
EU/1/99/116@@
vials,
request,
inquiries
118
enci@@
Physician's
effectiveness@@
ICE@@
Evicel
temperatures.
formation.
ingestion
lymphocytes,
cell).
Tests
water-like
consistency.
inspect
skin@@
iness,
acetate.
560
ingredi@@
ents)
poloxamer
phosphatidylcholine,
polyester
ine;
beat,
iron@@
replic@@
experience;
decompensated
Year@@
pre-dispensed
371
Fablyn
unexplained
womb.
Fabrazyme
Aventis
agen@@
Rain@@
Ax@@
PG
Lim@@
Gesellschaft
klinische
Spezialpräparate
straße
D-2@@
Penn
Tredegar
NP22
37530
é-@@
atch
stent
y/
viewing
ve:
ination,
locks
B:
staffing
shire
PD)
haemolytic
nifedipine
26-@@
machine.
pre-haemodialysis
onwards.
omed
SE-@@
Fertility
Bus@@
Fevaxyn
Pentofel
immunise
FHV
(F2
(431
balloon
s*,
strengths
detecting
580
Assemb@@
dropper,
nomin@@
cap,
ASS
bottles,
trained.
449
needles.
Pravastatin
ate/
Rapporteur@@
230@@
9/9@@
mask,
lin
fin
cannula
reflex@@
Four@@
full,
(RP
heal@@
Cour@@
mg/0,1
comprim@@
ė@@
Acet@@
ana@@
sko
TROUVIN
TT@@
Copenha@@
+33
femal@@
flush@@
extremities
photosensi@@
jaundic@@
candidi@@
hyperaemia
disc
keratoconjunctivitis
lacrimation
superficial
pruritus.
usia,
sk,
Galv@@
04
215@@
guidelines,
Renals
bands
gelatine
Blu@@
2”
band,
1g
zur
einer
slo@@
ür@@
Alb@@
BV,
eská
+420
Direc@@
Contra-indication
NEU@@
AST@@
EO@@
Absorption
(b@@
(PD@@
hypereosinophilic
L1
§
eosinophilia,
Gmb@@
1050
Got@@
little,
bodi@@
finalised.
Kap@@
oxib,
WP),
(29.8
(43.3
p=0.0023,
(40.1
34;
peti@@
lo,
R),
als:
malignancy
Paget's
Salomone
Simpson
Street,
Marsa
HMR
Suicide
Cryptosporidium
parv@@
aquatic
organisms.
Tar@@
GERMANY
Belgien
scienc@@
Master
bridg@@
Poliovirus
Haemophilia
haemorrhage@@
etro@@
retinopathies
edema@@
Kur@@
pathogen@@
ib
ger
Plac@@
Bed@@
Oil
ses@@
pancreas.
Sibutramine
COX@@
icin
Hyperkinesia,
paresthaesia,
(W@@
class.
quinolone
anu@@
Arterial
excipient.
·
ib,
ria.
peanut
sulfonam@@
sulphonamides
proteins.
contraindications
hypothyroidism
grap@@
Grand
(IB@@
stepped
ind@@
activation.
Inspectorate
Française
Sécurité
Sanitaire
briefly
unit,
Diacom@@
0-@@
1.2
epithelial
that:
Federal
Applicants
bet@@
pe,
dosages
junc@@
Technological
1-2@@
lightly
centi@@
adrenocorticotropic
generous
Professional
promptly
reasonably
thromboembolism
icity,
(excessive
alcoholism,
(90@@
disappears
radiolab@@
”)
const@@
kinetics.
freely.
IX@@
world-wide
sexu@@
ute@@
acknowledge
included,
cyclosporine,
quinolones.
(1.3
optimum
preferable
Econom@@
supplying
omat@@
cholec@@
-day
diminished
lick
ada.
asthma@@
1500
labor@@
ADENURIC
Neupopeg
both.
tetracyclines,
urea,
plenary
parasite
tuberculin
immunocompromised.
tender,
Correction
ephedrine
TIN@@
interchange@@
cross-linking
treatments,
granulocytes
Aspergill@@
fever@@
penicillin
ization,
exist,
disappearance
shunt
gated
A),
synaptic
Index
pemetrexed
Level
icity
HRT
g).
sulfamethox@@
oncolog@@
parenterally.
substrate
vitro.
rub
blow
mutated
able;
relapses,
remitting
ib.
un.
triple
pattern
III-@@
Montelukast
ographic
adjusted.
non-Q-wave
posture
habits.
BeneFIX.
inating
chairmanship
Canadian
lymphoid
contraceptives.
Arava
sinus@@
Pylobactell
screened
nelfin@@
Immunogenicity
ZOSTAVAX
ZI@@
sions
Mec@@
irregular@@
carrier)
antibiotic@@
oth
itis@@
count,
fungal,
(herpes
vir@@
cellul@@
ites,
s)@@
quantitation*
Headache
Stom@@
20mg
Lac@@
ose.
sodium-
Abatacept
-2,
Volibris
Es@@
ential
(this
322
SUSTIVA.
difficulties,
nett@@
simvastatin,
(MAOI@@
(TNF@@
β,
Administer
Monday,
venting
motion.
Needle-Pro
URE@@
load.
ici
sera
atroph@@
urgency.
noc@@
toxic,
neg@@
enalapril
dyspnoea,
INH
N=
36.
OptiPen
Rapid,
630
covari@@
(P-gp)
gain@@
dict@@
ANTI@@
cluding
here:
Interval
Amb@@
SI-1000
(facial
duce
injection:
racemic
assay@@
mode
olic
chelating
+353
tablet)
E-28750
Conditional
Collect
sugary
conscious.
414
seventh
Walter
o:
censored
IVAX
incompatible
tick
ticul@@
Jean-Michel
Mary
Sollentuna
ffe@@
Do@@
Herbal
ku
provider.
203
dissolved.
veralipride
suitably
sty@@
č
rop@@
depos@@
lac@@
(kg)
(0)89
1970
š
spp.
ospor@@
ios@@
Paul-@@
Lang@@
05
54,
permitting
computer@@
ine-
harbouring
mutation.
(CD@@
acchar@@
cere@@
PDGF@@
B).
49%
alkal@@
152
Α@@
Saint-@@
Nova
Salamanca
Lack
ylation
gluc@@
contracts,
CYP3A4)
burnt
52@@
osa
4-
Ceftriaxone
shadows
cholesterol.
gastroduodenal
ption
partic@@
fraction
Zoledronic
presumably
subcutane@@
formula:
m2).
tocilizumab
securing
185@@
Ministers
review@@
Pruban
Tam@@
loxacin,
serum.
thro@@
amylase
OP-1
RIN
millilitres).
variations,
oedema),
pathophysiology
sepsis.
anti-tumour
fork.
Oste@@
ADP
idase
microliter)
stable,
messenger
Altargo
premedication
differentiation
4,5
ological,
chemical,
sor
YYYY}.
Design@@
Desirudin
sulphide
119
8.9@@
bactericidal
PegIntron.
(11.@@
(AUC@@
furosem@@
atorvastatin,
metabolising
normalised
threatening.
sification
haematopoietic
radiological
Bra@@
neutrophils
Sustiva
(600
muscles.
NSCLC
aprepitant.
(maintenance
Aden@@
Lev@@
spoon@@
older).
pathic
ATE
predictive
home-@@
vertical
4-hydroxy@@
hormones.
aggreg@@
ion),
adine
Providing
stepwise
increases.
augmentation
205
Asian,
etr@@
IP
stream@@
attending
frontal
Bring
Needle
aiming
globe.
cool
yttrium-90
spike
TP
tis).
importance.
lem@@
Lepirudin
hirudin
ple.
beta-1b.
*Lipoatrophy
follow-up:
lysosomal
urethra
wide.
75-@@
µm.
DNA-derived
approached
13.5
[95%
Continuous
variables
granulocyte
tax.
Einnehmen
EudraVigilance
AIDS-KS
2309/
lodged
N-linked
oligosaccharide
23-@@
relevance.
subject@@
abl@@
explored
Valdoxan
showed:
deoxy@@
guanosine
Agency.
Network
amino-@@
sant
2005-@@
infec@@
2C8
degree.
washed
dried
adolescent
recipients
concentration,
eval
34-@@
illustrated
NV@@
white.
milky
neuropathy.
icill@@
considered@@
cabin@@
CA
fluorescence
development@@
dermatitis.
study).
Unified
compres@@
11%).
492
ent)
depth
inspired
CHR
transplantation,
dose-proportional
onc@@
inu@@
Pseudoephedrine
Ytracis
GV@@
ectomy
sulfase
215
Sevoflurane
gases,
thyroglobulin
Singulair
rotigotine
produce.
relocated
consequ@@
vehic@@
idal
Thirteen
Sep@@
leukopaenia
reused.
ody@@
10%.
diure@@
solutions/drugs
confirmed,
combinations.
pes@@
Far@@
clum@@
irritate
omas@@
sectors.
film-
follow-
exertional
turbid
5'-@@
sweat
increase:
7-16
situated
Transparency
obstruction,
0.22
injector
58a
-401
LV@@
ā
Self-@@
preterm
GA
Mycoplasma
renic@@
potently
(K@@
DV@@
Aivlosin
medicated
therapies.
2B@@
smoked
Fra@@
rubb@@
oxidation
ide)
cyclooxygenase-2
calicivirosis,
noti@@
bones.
small.
positive,
wording:
favourable,
row@@
oce@@
A's
pre-term
Tysabri
shown.
mission,
glucocorticoid
AIDS@@
sarcoma.
Sut@@
recurrence
utilisation
February,
June,
Particularly
hypoglycaemia,
fication,
Activities
organisms
beside
progressed
means.
tionary
Watch
400,
ers:
Eric
Karl
mond
Zone
abused.
radiographic
Clin@@
domain@@
intra-@@
breed@@
24.@@
efficac@@
agit@@
inium
enhanc@@
spectro@@
colony
ang,
terminology
annex
rank
vel.
Hudson
whe@@
milk@@
izing
in;
ine),
Mix50,
Maropitant
calculation,
Zealand
imiquimod
drink.
dFd@@
microbiologically
spectr@@
inj@@
functions.
injuries.
arbitr@@
.]
overly
Atriance
mia,
gender-@@
dynamic
costing
grasp
pieces.
tising
sorbit@@
colloidal
anhydrous.
shell@@
mers
breast-@@
abdomen
straw
squeezing
1);
severe@@
pressures
graduates
Phen@@
Dimeticone
aked
haemodialysis.
proportionally
Visudyne
IgG
2.2%
tel
ler,
satisfactor@@
FI@@
sister
vomit
Vimpat,
arel@@
Yarvitan
transformed
stuff.
injection;
entary
mosquit@@
opaque.
suspension,
UF@@
episodes,
spray
equivalence
clonic
Ian
Ly@@
4.4.
non-pharmacological
audits
malignancy,
specific.
lower.
")
categor@@
rex@@
deterg@@
lamivudine.
Antacids
Discontinuations
infrequent
ide:
eva
cet@@
layers
sus@@
anti-hypertensive
prone
dust,
findings,
breaks,
third.
ponds
bold
atics
divided,
capsular
pattern@@
(eg
conditioning
ferences
173
cure@@
logistical
2.9
consist@@
ency,
5-00@@
finalised
B/
200/
case-@@
generated
2010@@
6).
racial
percutaneous
carcinogen@@
10%,
count@@
table@@
vul@@
’t
en:
yp@@
patterns,
ling,
Thyro@@
eral
continuity
interpreters
subscription
jug@@
biologically
etric
Carbaglu
Single-dose
RISPERDAL@@
-enhanced
scan.
Rapamune
amput@@
nal
traumatic
5%).
mentioned:
annually.
forms.
limited,
Berg@@
2004@@
model@@
Precautions
unintentional
fibres
skip@@
session.
tamper-evident
snap-off
chloro@@
mobility.
judgement
era.
(11/
seemed
Insufficient
diffusion
conveni@@
(tummy),
SoloStar.
struction
dysmenorrhea,
tub@@
Contact
virtue
ites.
rubbish.
ally@@
Agents
(abdomen);
thighs
sulphone,
selecting
Administrative
simil@@
hydrated
Dy@@
photosensitivity,
146
Retacrit
Overweight
(800-1,200
(800-
µg/kg/
PM@@
(eg,
analyses.
attained,
ustekinumab
1:@@
dropping
plans.
ia;
risperidone
Infrared
Individuals
(using
accommodation
BON@@
endoc@@
(dose-normalized)
feed@@
re:
(3),
(1),
IL-2
Colum@@
Protec@@
stations.
Inhibition
sero@@
attend
promising
consistent,
PB@@
246
Noxafil
Life
scanning
hypoactivity,
tachycardia.
collapse,
longstanding
beta-sympathomimetics,
Amin@@
immunocompromised
Black
suspensions
tram@@
ank
B-type
natriuretic
(BNP)
Stor@@
females.
Sunitinib
amin
grams.
pages.
wash
recommended,
Cows
consultations
"sodium-free".
stable.
explanations
ession@@
AB.
Meda
allevi@@
apparent.
/mm@@
adequacy
us).
resumed
‘Do
Betaferon’).
contributory
hypovolaemia
INO@@
atric@@
labour.
marginal
Stimulates
ril
ACE@@
dish
(equal
Fill
Austri@@
orrhoea
49%.
restoration
ès
ki@@
(5)
2649600
7378800
264
SWEDISH
ORPHAN
ß-@@
Imidacloprid
ketosis,
.).
category.
ria,
ole.
ble,
ensuing
finger.
Integration
Io@@
Acquired
INGREDIENT(S)
Nasolacrimal
Tre@@
temporar@@
cosme@@
devices,
rtv
bathro@@
Mul@@
adic
names,
(OTFC),
citrate.
compounds,
sting
segment
Methadone
camera
sends
sow
recognised,
compu@@
elled,
Preven@@
finished,
lear@@
strawber@@
thinning
Full
267
similar,
prospectively.
(0)21
predisposing
nal@@
render
organism@@
stac@@
encouraged,
facility,
IU,
Remission
Finance
Lewy
disease:
+356
6000
Building
info@@@
Suc@@
Gaulle
vanishes.
cramps,
Hamburg
Zi@@
(also
Canada
MB@@
may,
following,
ola
581,
Peterburi
MERIAL,
Lyon,
Saint-Priest
Add@@
}<
Nutrition
6,000
nelfinavir
cellulose
9.4
Surrey
(in@@
code.
STO@@
20)
Civil
news@@
ann
Pasteurella
Reas@@
Where@@
msdnorge@msd.
ome
preservative,
PGA
Don’t
100%,
yours
Step
rhinitis
tooth@@
Open@@
sun.
redden@@
guinea
thickened,
selegiline
valve
circ@@
cran@@
(0.7%
site;
name,
dres@@
Jer@@
preservatives
enda
el-@@
Bay@@
datab@@
Objec@@
pragmatic
KIU)
POL@@
Tel
COMMUNITY
REGISTER
427/
Use@@
breast-milk
situ@@
puberty,
que,
stratified
gateway
2985
Mercier
(extremely
mood)
Nottingham
Resolution
submissions
ensues,
cyproheptadine
enz@@
translates
mum@@
able:
Milton
ians.
F-92058
Swiss
Vertigo,
legs.
works,
Parameter
compares
drawn.
pathogen
red;
chapter,
poisoning.
qualit@@
re-start
calf
Altern@@
86,
participants,
23-24
on-treatment
atel@@
N+@@
65,
Line
ized.
Tax@@
tons
1200
Lake
Trans-European
infer@@
ade,
itis.
gullet
receive.
rs,
larg@@
Cruz
ff.
R076477-SCH-30@@
Quick@@
Vall@@
ika
Peter@@
Chineham,
Martine@@
cia
ská
FL@@
21-22
-,
1-4@@
elder@@
manager,
band
EAS@@
bypass
stra
ops
composition.
mixtures
Ni@@
halving
consuming
ratification
residu@@
orient@@
decis@@
Suvaxyn
re-evaluation
calves,
pet
exclusiv@@
SR@@
sticker
625
USA@@
culture@@
ij@@
-off
Cho@@
ity),
accepts
reorganisation
purchased
remedi@@
cosmetics
schem@@
Regimen
proven/
Fonte
synergistic
strains),
stomach@@
blended
Forty-@@
ano,
interests,
VER
GADOVIST
sweet
banana
Bucure@@
Fifteen
operation),
(antibiotic),
prescription)
Connect
trip
Neu@@
biotechnology.
result@@
east
pieces,
ours.
detergents.
p.@@
delivering
Trials
RESPONSES
(PCV
÷
technique)
Pooled
tile
Retapamulin
hesitation
bubbles,
posted
stabilised
stroke
manure
MEDIA
Nav@@
shire,
stain@@
Cyprus
mistakenly
Group@@
ough
mixed,
identifiable
Sel@@
Latvi@@
Bridion
does,
task.
measured.
impossible,
day-@@
spraying
appeared,
continues,
temporary,
feasible,
ay.
expos@@
skimmed
coffee,
elapsed
planned.
allergies,
altogether.
flowing
born,
go,
coli@@
exil@@
diabetic,
insufficiently
ately.
nurse/
shoul@@
sad
amputations
labels.
Pfizer,
podruž
svetovanje
področ
farmacevtske
dejavnosti,
+421-2-3355
Di
les)
benefiting
quickly,
dating
facts.
Cardiff
OY
Sak@@
non-existent
successful.
Scandinavia
ls@@
fru@@
än@@
643
1E
Serotonin
-term
42@@
disc@@
Tou@@
Binger
Wind@@
gen
(20,000
open.
wall@@
signals.
organizations
thinking,
lifetime.
az
EMA@@
13.
tica,
indefinitely.
Five
6%,
ox
e’.
Pramace
(D),
(Pw)
mg/25
Mem@@
Eur@@
(benzalkonium
chloride)
unilateral
und@@
port,
carers,
let,
Georgia,
Kyrgyzst@@
ova,
Foetal
sati@@
ety.
expressly
licence.
donors.
Expert,
PROMPT,
ionally
incentives.
installation
translations.
complaints,
opin@@
mechanism,
han
antly
Safe
20,000
Mas@@
faces.
amount.
compromis@@
Catania
ania,
Victor
step@@
gradually.
jerk
cautious
wish,
beverage
alarm
wake
Zarzio
Ireland@@
300,
worrying.
EU’s
summit.
promotion.
Trag@@
justic@@
exclusive
impossible.
country's
commodities
earliest
precious
asset.
deep-@@
grin@@
representation
consequences,
asc@@
eloqu@@
Saturday
Ombudsman,
Sud@@
dyes
odor@@
registration.
specifications
enterpris@@
PFOS
shops.
statis@@
workplace.
demonstrating
RAPEX
stock@@
poorer
hoped.
channelled
Daphne
ached
talk,
proceedings.
tears
large-scale
everyone's
effectively,
quantity.
style.
reliable.
describing
Stal@@
Tat@@
businessman
negotiated
mortality.
figure.
richest
Levi@@
deported
sters,
Sea.
rules,
atmosphere.
alg@@
Telecommunications
impressive
Church
beli@@
inadequate,
sweets
defined,
'In
Regulation,
deleted.
exploit@@
y’
treaty.
respected.
Ji@@
tied
compulsor@@
found@@
Court's
boneme@@
cyber
sch
coast,
fuel,
foods.
ratified
constructive.
translated.
player
Transfers
scale.
multitude
transported.
lodg@@
osing
competitors.
Workers
lav
fron@@
perceived
anti-f@@
rain,
Council’s
items,
dumped
isolate
objectives.
bá@@
league
Iris@@
cancelled
'Ode
ony
riots
merc@@
defended
evi@@
Tutsis
contamination.
imagination
URBAN
war,
tallow
Satellite
Turkey.
exciting
Ukrainians
speeds
Lithuanian
centuries,
existed.
denying
dichloromethane
hither@@
spared
sake
waves,
winners
hundred@@
metals,
'no
marriage
behin@@
air-@@
winds
blackmail,
agenda,
sale.
murdered.
disappointed.
cyc@@
punishable
villages
shortages
ys,
harass@@
subsidy.
represented.
ferry
year@@
lifting
'y@@
traffic,
traffic.
cancell@@
pipe
worked.
Bis@@
camp@@
butter
Eurodac
simplified.
'H@@
better,
complicated.
Harmon@@
fications
rer
Muslim
tionally
simplification
strikes
Shal@@
acidification
inhabit@@
pestic@@
mot@@
caffe@@
coloni@@
much@@
doing.
Passive
programme?
prevent@@
eting
sectoral
accountable
stock,
Bolivi@@
Pel@@
wealth
Holland.
Saddam
40%.
Austria.
road@@
farmed
ASE@@
eradic@@
indigenous
reversed
HIV/A@@
Britain,
annum,
railway
zone.
high-quality
coming.
summer,
wood@@
expi@@
annex@@
km.
stipulated
opt-out.
presume
speech@@
planet.
long-distance
collective
bargain@@
passi@@
same,
algae
advertising,
clon@@
ion'
notion
ices
negotiations,
re'
implies
currencies.
cla@@
North-@@
populated
confidential
tering,
dialogu@@
grass
exhibition
much-@@
legislator
nutrients
ised;
Climate
concept@@
valid@@
defensive
disappointment.
promotional
dredg@@
promises
payments,
prohibits
Besides
uro
taxi
hampered
OSCE@@
organis@@
labour,
contract@@
exploited
wage.
Job@@
clubs
hus@@
presidency,
referendums
compromises
cartel@@
tual
abundance
ranking
Monsanto
'EU
province
coalition
sport@@
raped
fire-@@
reactors
conception
Damasc@@
airport.
scrutiny.
bail@@
hearings.
sou@@
1990s.
cares
dioxins,
sectors,
performing
ev,
enterprise
limits,
defending
singing
th-@@
vely.
continent
indifferent
quiet
opportunity,
dollar@@
chase
percep@@
manipulation
statistics.
sm.
hang
swiftly
decad@@
barriers
oligarch@@
beneficiaries
Australia.
sorely
love,
spirit@@
country;
snow
faul@@
Russians
measure,
farms.
proportionately
wil@@
dol@@
favourite
opens
two-thirds
rants
emergency,
scrapie
Ries
retardant
better@@
cereals.
massacre,
occupati@@
gur
buildings,
decoupl@@
Bishop
arrested.
alcoholism
defaul@@
minute.
Stand
contradict
ais
phenomen@@
communist
disease?
Port
era,
immense
volcano
closures
many.
announc@@
well?
specifically,
perspec@@
secondly,
admis@@
seed@@
diplomatic
den.
limitations.
children’s
ecosystems
Poland.
server
Ze@@
rout@@
out-of-@@
lah
undertakings.
weakness.
tot@@
assassins
computer,
stages.
sport.
discred@@
instruments.
carrot
respect,
die,
Rwand@@
proportionate
serves
Recent
citizens'
exporter
importing
subsidies,
petro@@
benzene
abortion.
neo-coloni@@
vocabulary
defence.
drastic
outward
genoci@@
Yan@@
grain
crime,
murder,
heritage
an'
stun@@
han@@
alists.
1956
anim@@
understanding.
adequate.
tional.
fortun@@
inclined
Histor@@
distorted
Afghanistan,
prospect
'No
fire,
hydrogen@@
bill
horizon.
sacred
speaks
opponents
cloning,
freedom@@
end?
shelves.
doctors,
stak@@
tragedy,
searching
icious
Ignorance
bless@@
painted
direction.
deserves
conventions
Illegal
entails.
dismantling
counts.
investment.
dangers.
Vojvodina
adventitious
imprison@@
attrac@@
run.
platform
danger,
Incineration
dump@@
inevit@@
hate
PC@@
insult
contex@@
shareholders
months'
insur@@
dialogue.
fertilization
expand
answer,
approv@@
ange
Initiative
clever
pipeline
competitor
Bav@@
obvious.
amph@@
scandal.
screening,
discovered,
modern@@
slogan
media.
uses,
chap@@
aus@@
Dav@@
loans
humane
stuff
Banning
unpleasant
prohibition
chlorinated
barome@@
Austrians
Google
catching
ying,
financially
competition,
cost.
patenting
roads.
buildings.
limits.
applies.
tru@@
proof.
invitation
Prosecut@@
executions
waters.
fy.
careful@@
implied
on!
privati@@
stockpile
tremendous
Orkney
readers
injustic@@
abandoned
&@@
promot@@
purse
upstream
year-@@
ambitious.
WT@@
negotiations.
purchaser
everywhere
Hutus
qualifications,
simplif@@
directives,
Europa
recipe
supernumerary
/EEC
separating
further@@
rests
stumbling
postpone
West,
Ori@@
occupation
underestim@@
unanimous
nice
ban,
Instead
irregularities
fraudulent
achers
Citiz@@
filters
facilit@@
bombers
oppon@@
beaten
prejudic@@
langu@@
heck@@
festival
voices
Kha@@
Ayala
Order
abandoned,
2009,
traceable.
dissidents
designed,
currency,
catch-the-@@
moul@@
Mount
honey,
Europeana
egg@@
ecstasy
Chechny@@
tank
ighting
prisons.
complainant,
happened,
groun@@
done@@
Virg@@
restructur@@
Pact
blamed
wrong,
ands,
gavel
friend@@
wife,
football@@
timber
negotiate
document,
job,
obso@@
bond@@
voic@@
whis@@
blows
hunger.
haven@@
peace.
bread,
leap@@
sense,
ruins
stolen
lost,
ignor@@
assassin@@
sive@@
spiritual
broadcast
books,
pornography
satellites
code,
socialism.
surprising
piracy
authorised,
customers
valuation
expec@@
struc@@
mit.
Uganda
sufferers.
South.
tability
Ozone
plants,
oxides
Kla@@
claims.
divisions
phasing
college
EMU
tomatoes
Iran,
replied.
Unanimity
allocated.
sex@@
Cuba
cry
wholly
fridges
settled
disadvant@@
qualifications.
merit
apologised
writer
Tues@@
litre,
buried
1996,
lea@@
bling
mistak@@
Fon@@
choices
liberal
wonderful
outset.
recourse
Sand@@
slog@@
humili@@
discrimination.
generous.
tack@@
asser@@
courage.
prud@@
Mum@@
displaying
paralysed
des.
uranium,
meat.
detrimental
wine.
Palestine
hinder
health?
States'
ements.
voluntary.
Christi@@
European-@@
Itali@@
authorized
where@@
Syria
touched
government.
acrony@@
Market@@
Schmid
answer:
ball
vodka
axis
disciplinary
Moha@@
ered.
waste@@
grandmother
needs,
born.
arri@@
fingerprint@@
lef@@
advocate
teaching.
August,
timetable
sphere
!"
come,
deregulation
perver@@
charge.
hardship.
breach
er’s
succum@@
insignificant.
me?
satisfied.
mechan@@
nes@@
price.
mankind.
sportsmen
Look,
pun@@
oks
indulgence
sh
protoc@@
Jerusal@@
industry?
marri@@
wines,
products'
turbines
istic.
incident@@
cheap@@
portfolio
Airbus
Washington
majority:
tion-related
ICES
majority,
iling
hens
piled
counterfeited
Sadly
disadvantaged
element,
ures.
Lukashenko
industr@@
controversial.
kilometres,
afford@@
economy.
ń@@
miles
reserves.
Bon@@
Tit@@
Cohn-Bendit
satellit@@
Cos@@
Mun@@
predecess@@
Member.
grower
separati@@
assets
diversity.
explained.
pessimis@@
bullet
or's
removed,
soldi@@
Mercedes
Thank
Ladies
gentlemen,
proceed@@
Foc@@
cock@@
Guer@@
ins'
redundancies
innov@@
thing@@
".@@
than@@
James
splendid
fasci@@
bin
ine?
bh@@
h-@@
ding@@
Go@@
votes,
stamp
pip@@
ateur@@
apolog@@
Kall@@
Avi@@
responsible,
signing
rule,
hEorpa
ese,
Europeans,
shocked
ept
shado@@
Schul@@
Blair,
debate.
greater.
Moscow
tantamount
offen@@
Muchas
brut@@
rank@@
MEP@@
ws
conce@@
makers
well-being
Poet@@
Pur@@
vis
eda
’:
Watson
dialogue,
disgrac@@
essenti@@
minimis
resentment
belts
beef@@
vineyards
respondents
stone,
differenti@@
try,
weapons.
eful
points?
best@@
ision
basis?
conflicts
structure@@
threaten
yourselves.
famil@@
field?
them!
laugh@@
Dutch,
hunted
admit
available?
f?
credibility.
invent
control?
ia?
hne
users,
garden
quantities,
ating?
people?
decl@@
jumping
enough!
Let's
ladies
Nice
impenetrable
níos
Marse@@
luck@@
disclosure
peacefully
soldier
desperate
escap@@
paid.
coach
eag@@
voting:
live.
dilig@@
discrimination,
outright
'not
people!
scandalous
revol@@
supposedly
Cro@@
Stream
concre@@
te.
tractors
mark.
noted,
coins,
ght
gathering
accepted,
appreciate
surpris@@
pipel@@
volcanic
dissid@@
attractive
foul
mosques
Gulf
wine@@
drinks,
coin
prosecut@@
emphasise
prevent,
retail@@
infringements
guaranteeing
junk
dering
fire.
otto
politics,
massacre
striking
any.
projected
deploy@@
fail,
jam@@
climb
wondering
torture@@
iring
strike
price,
coastline
ruined
Castro@@
speakers,
genocide
paint@@
pretext
certainty
endeav@@
whistle
abatto@@
harvesting
boat@@
standard,
chur@@
signatory
Yugoslavi@@
Get
Iraq@@
Trieste
sans
imprisoned,
oa
expres@@
Ecumenical
Police
ants'
sel
amaz@@
oils
Ogłaszam
wznowienie
sesji
Parlamentu
Europejskiego
przerwanej
Oh,
grotes@@
Albanians
very,
answered.
renewed
champag@@
finally,
suicides
’;
glaring
accessible.
things.
tyres
elimin@@
pursu@@
kilometre
furn@@
composition
Rou@@
objects,
Mexican
holiday.
oked
deliber@@
cig@@
Flan@@
pulling
toler@@
ignoring
storm@@
dream
funds.
December,
endorse
envisage
Athens.
grav@@
...'
Foundation
This,
dare
weights
2.6%
won@@
fields.
wed
shot@@
predat@@
presidency.
strategy.
HIV-positive
minds
licence,
reaffir@@
grants
ser
CEN
amount,
ambulance
effect?
erous
homosexual
single-hull
compos@@
desirable.
shipping
churches
cite
Meanwhile,
macro-@@
atism
ars.
illnesses.
consequences?
print@@
ald
ally?
thirdly,
Presidency?
risk?
role?
information?
when?
Haiti@@
ched.
process?
data?
think?
balance?
regulations?
boundaries
Germany?
resources?
inos
tankers
from?
inhabitants,
leisure
holdings
wer
repressive
Bö@@
rejected.
Members,
'I
crop,
Appendix
democr@@
domain.
ture?
billion,
middle-@@
accus@@
Bosnia@@
Zimbabwe@@
exclus@@
Tibetan
beg
ext@@
compani@@
Piedmon@@
/EEC@@
crazy
Protest@@
Estonian
recognised.
McDon@@
boy
Buitenweg
VO@@
insist
-and-@@
ferries
programmes,
dead,
examples,
raised.
ged
Coca
Israel,
proposed.
lament@@
evic@@
Democ@@
inn@@
C5-0@@
prevention.
Bosnia
overcome.
peace,
Think,
s"
succeed.
cession
president
elector@@
get?
purpos@@
ler.
advent@@
gold,
importantly,
z.
reading:
unprecedented
abortions.
fruit@@
mach@@
opportunities.
Atlan@@
aromatised
concession
ground@@
prudence
weakest
conditions?
heirs
options.
2003-@@
promise
pon@@
thri@@
departments
ère
employees.
doomed
premi@@
ve?
complied
offence
exist?
de?
introduc@@
as?
use?
to?
way?
months?
mission?
graph
Muslim@@
authorities?
copies
hemp
instead?
issues?
possible?
employment?
Brun@@
debate?
regulation?
fishing,
que.
francs
trade,
Firstly:
adulterated
EU/@@
(continuation
ned.
bold@@
districts
begg@@
deport@@
left)
lers
unjustified
socially
Eighty
guaranteed.
happens?
endless
say?
sigh@@
Irrespective
incen@@
whisky
envis@@
activities?
lack@@
inisation
(H-05@@
Wijsenbeek
(H-016@@
Whoever
friends
(A)
(A5-014@@
7/2000)
(A5-030@@
Neves
Coelho
(A5-036@@
Christodoulou
Cunha
(A5-029@@
Rapporteur:
Rapport
6/2000)
Hoppenstedt
(A5-@@
7/97)
Kirkhope
(A5-000@@
Menrad
Secchi
Seppänen
Lage
Excise
Chernobyl
him,
/2003,
Minut@@
Wake
(Laughter
oked,
Supervisor
scientists,
who?
luck
evidence,
incinerators
speak@@
credible
(SK)
(SL)
settle
You,
agam
tá
thar
ceann
Ghrúpa
UEN.
Uachtaráin,
however:
girl,
Earthquake
(Loud
Cephal@@
Sl@@
bronchiti@@
X-ra@@
instead.
abruptly.
expires
KIOVIG
salbutam@@
STELARA.
titre@@
57%
sulfonyl@@
(EMEA@@
titre
incapacit@@
1.3%
0.6%
subgroup,
3/@@
histo@@
aset
adjust@@
catt@@
overdosing
perf@@
unreported
osteopo@@
levetiracet@@
(18@@
dalte@@
%].
21)
measurable
routine.
phlebitis
ostat@@
al),
hypertonia,
4.3)
tomy.
antidepressants,
msec@@
arrhythmic
7400
conscious@@
nodes.
BYETTA-treated
hyperplasia
ic'@@
(p@@
cycle@@
Intrac@@
overgrowth
limbs.
Star@@
benzodiazepine
responses).
kinetic
lame
determinations
bradykin@@
abatacept
hearts
Ferripro@@
58.@@
T-score
69%
(A-@@
0.08
VTE@@
12-week
comparable.
second,
insulation
fibre@@
body’s
aspergillosis,
percent@@
rooms.
analytical
surveillance,
(Q@@
patients),
radionuc@@
(anaphylactic
periods.
diplopia
pentamidine,
4β
-1,
adhesion
parenchy@@
areas:
Diractin
0.02@@
12.5
OM
2.5%),
A771726
MEDAL
bosentan-treated
SP
ALL
gland@@
hallucination,
gait
diarrhoea)
resolving
hyperparathyroidis@@
parathyroid
501
progression-free
(PFS)
165),
OF@@
visit@@
4.4%
Exub@@
is-stimulating
restricted.
3600
grades,
Clomicalm
reactions@@
557
adalim@@
370
(25
88%
statin.
dummy
FABLY@@
interactions.
broncho@@
insulin-@@
clarity
border.
ogenesis
I-IV,
(number
antagonism
CYP2B6,
estradi@@
laropiprant
affinities
(Ki;
HT2A/
HT3,
HT6;
D2,
D3,
D4,
D5;
m1-m5;
adrenergic;
carbam@@
(2-@@
600,000
duration).
respir@@
genitourinary
oplas@@
nitric
ycin
survived.
multicent@@
TRISENOX.
gluconeogenesis,
adenocarcinoma,
ULN;
dose-reductions
2%),
kg),
inclus@@
316
2a
S),
CHAR@@
324
L),
FVF25@@
(AN@@
choroidal
neovascularisation
(most
HP@@
(20@@
38%
43%
sA
matory
pioglitaz@@
23/
43.@@
eme@@
percentages
endpoints
wom@@
eggs,
radioactiv@@
ity).
erythromyc@@
3.4
seve@@
-derived
score.
CYP2C9*3/
*3,
0-24
lorat@@
p=0.0@@
ischaemic
clopidogrel@@
derive
eosinophil@@
sput@@
280
ferrets
Vietnam@@
120@@
TP@@
4000
4-week
cystine
UC
(46
prandial
neoplastic
granulos@@
(27@@
offspring.
0,@@
surrogate
systolic
mmHg.
dilated
(-4@@
(-@@
HA
genoty@@
polysomnography
re).
vo
M184V/
cohor@@
30)
50)
Actrapid)
32-@@
Difference
la,
displays
fibrosis,
possesses
bitter
tran
preference
rating.
aminoglycosides
UD@@
carcinogenic.
Aerinaz@@
Das@@
phototoxic
TION/
REVISION
MIU/m2
__________________
refrigerator@@
__/@@
cells),
worsen.
octreotide
omas,
somatostatin
pseud@@
redness@@
dication
anorexia
hyperbilirubin@@
mechanisms,
Agenerase.
unidentified
NAME@@
vesicles
micturition
euphoria,
tachycardia,
burn
Kro@@
Courtois
1975
Statistical
practitioner
1984,
Bénéfice
researcher
ley-@@
Smith
adviser
Advisory
ICH.
conferenc@@
Paris-@@
nosocomial
R(-)
S(+)
lipos@@
orub@@
icin,
aor@@
videoconferencing
neutralised
releas@@
peak@@
YF
warrants
Corlentor
attacks.
Declaration
LES
NING
TN@@
EUROPEAN
detach@@
hair,
ard,
spill
hypochlor@@
inch
uron@@
um:
blockade:
electrocardiogram
poly(@@
dir@@
CLINICAL
degeneration,
iritis,
cataract,
Reaction
epilepsy@@
(minutes)
neostigmine
T4/
(Ph@@
Aujeszky's
NI@@
Likewise,
mon
HIV-infection)
UG@@
irinotec@@
toxicities.
positively
nd
fication)
Variations
2000-2002
nebulis@@
medicine),
1,7@@
concentrates
stavudine,
cobalamins-(@@
Half-life
2.8
pell@@
553
623
ing<
spi@@
Lisonorm
lisinopril
serogroup
prevented,
Japan,
(ED@@
TURE
publications.
hydration.
disoprox@@
dipivoxil.
Axura
outpatients
immin@@
phosphorus
Ebixa
cavity
Activ@@
200%
(HD@@
Further,
More@@
deeper
max.
salmeterol
picog@@
NNRTI@@
ted;
ticity
intrathec@@
(CSF)
CSF
sustain@@
cytarabine.
meningitis.
urate
Lesch-Nyhan
ity*
benzodiazepine-like
Avenida
wards,
NT@@
antagonists.
Haemorrha@@
fatalities)
Emergency
ETVr
lag
Hair
petechiae,
ritic
hyperpigmentation,
encing
2009.
03-@@
C04-00@@
Solir@@
Absc@@
patient’s
allergen@@
Minim@@
QTc@@
epiphyseal
tendons
lig@@
keratin@@
suggestions
Zeval@@
sampl@@
extremities,
effects).
rodent
Post-@@
Bios@@
ensor
bilirub@@
ipr@@
requests.
ety@@
Obstructive
Canc@@
recur@@
Reductions
glomerul@@
Sutent
JC
Suic@@
Avaglim
Avandia
convulsion
GANFOR@@
G-CS@@
Whenever
(thrombocyt@@
4.2%
eculizumab
Pseudomembranous
Eudra@@
ez
sen,
AV
behaviours
antidepres@@
sants
disturbances,
infarction,
extracellular
competitions
inhaler,
(meaning
committees.
seizure@@
newly-
symptoms).
Champ@@
ent),
pali@@
BW@@
duration.
evening
IOP
vision)
DMA
illa
rabbit@@
ends.
emesis,
quiet@@
ocytes.
overloaded
1600
eyelid.
Dos@@
(likely
(8.@@
Atri@@
sensations,
Irregular
gall
shoulder
genital
Allerg@@
unwell,
peritonitis,
Secretari@@
Investigations:
suria,
hyperglycaemia,
Appropriate
mig@@
robenacoxib
lameness
hepatocytes
chol@@
cows.
pup@@
glycosaminoglycans
UGTA@@
investigating
homozygous
genotoxicity
bits
drug-related
Zenapax-treated
copic
exams
amit@@
3%.
outlet
PVC-@@
extrapolation
Codex
Warnings
Vent@@
tum@@
occasions.
foscarnet
Wipe
Clean
lex
diverticulitis,
osteomyelitis,
pyeloneph@@
----------------------------------------------------------------------------------------------------------------@@
127
(EMEA):
keratopathy
keratopathy.
rotic
Measures
Rever@@
(LDH),
(GGT)
35%,
39-
cholesterol)
face.
correlates
ambrisentan.
syringes.
tests)
enzyme-@@
(ELI@@
vision@@
grow,
Japanese,
security,
kidney,
cefuroxime
Lyme
sensiti@@
Cognitive
Potentially
bronchospasm,
periorbital
fluores@@
informal
CPMP,
macrolides.
s..
landmark
Break@@
spotting
blockers
R,
intracranial
hypertension@@
myeloproliferative
Levels
Crohn’s
colitis,
bronchodilator
EXUBERA”
Cutaneous
hydroxycarbamide.
tract,
GI-@@
repeated-dose
tone
perman@@
constituents
Privi@@
31@@
blepharospas@@
Multi@@
(PM@@
SS)
Max-Planc@@
251
substitu@@
(Study
RAPID@@
year).
withdrawals
Telematics
notes
substances@@
Deputy
DRA@@
Provision
grazing
indications:
Clostridium
Twist
weight).
Benzoic
Purified
External
aggravated,
infancy
(SME@@
valproate.
Stevens-Johnson
mouth@@
temporary.
Stomatitis
1.08
dose:
end-fil@@
earache
(urticaria)
Digoxin
L-Phenylalanine.
vasoconstriction
inuria,
methion@@
osis@@
neutropenia),
fet@@
(leuc@@
Rac@@
yellowing
saturation
rates;
significant.
Tu@@
microbiology
chemist
Surge@@
Manchester
pharmaceutics
assessor
veterinarian
Institut
Ges@@
diabet@@
crises.
DIRE@@
Lönngren
D-90429
Dissolve
swirling
(Vss)
substitut@@
documentalist
Documentation
Raheen
Ninet@@
Director@@
(UAB).
Glasgow.
BP
Ce@@
dex
Worked
agam@@
plate,
(90%
(Ziagen
PL-02-@@
applicable,
coccidi@@
alfa-2b/
Rebet@@
2b
ribavir@@
exponential
SUMMARY
ANT
PER@@
COMM@@
rial
3.8
4.7
spoonful@@
Recommended
(mg)
BSA
Oily
nail@@
Pharyng@@
(mild
joints)
Fatigue
perindopril
Alexander
CH
3.1.@@
André
P.@@
284
Médicament
UT@@
River@@
MARABELLI
Servi@@
Veterin@@
ero
sur
ORAL
ibri@@
endem@@
Dukoral
bronchial
tylosin
reconstit@@
Timolol
length,
Centre,
tubing.
cartridge:
Estimated
Process@@
Alopecia
DED
openia
aemia@@
1,2,@@
Thrombocyt@@
Gynaecological
postural,
ivi@@
exer@@
ptosis,
Epistaxis,
abscess@@
ºC.
endocarditis,
apped
Impression
Sleep
payable
Line@@
(CL@@
Epidural
ure)
pr
Disodium
(E507)
EDTMP
H2@@
olanzap@@
informing
manifestation
13,
Nederland
061
www.@@
d.,
sto
11-3,
Kaun@@
C/o
139
545
kap@@
EFEXOR
effect:
Amlodipine
resection
blur@@
defect
Hormone
ALS
10-12
tility.
haemoptysis,
thrombocythaemia
confused,
walking,
irregular,
vagina,
gout)
muscles,
ache,
crying,
flat@@
usual,
menstruation,
psoriasis,
sound@@
eing
sight,
uve@@
sensitivity,
(EC@@
somnambulism,
asis.
triglycerid@@
(hypersensitiv@@
Spas@@
whitish
Nerv@@
sleep,
ladder
standing,
convul@@
anger,
605
people:
Yel@@
py
Contrac@@
eal
GS@@
enzyme@@
fat).
Treatment@@
Metabolic
(statins),
Slight
abnormality,
shak@@
gas,
spasms,
swell@@
discolouration
crusting
ar:
Inf@@
dense
TY
Bangladesh
VIII.
vastatin@@
Ke@@
Guid@@
Verenigd
Koninkrijk@@
Knowledg@@
Elap@@
electro@@
de:
“How
creatinine,
Raised
ASAT@@
vej
110,
King@@
XA
AS,
urine;
immer@@
NL-2@@
IV)........................................................@@
CCID
biosynthesis
disposing
Groups
Pharmacy
M3
pushes
stered
hydroly@@
ases,
Galsulfase
thrombin@@
(PenFill)
lex@@
InnoLet).
galactosidase
derivative,
(MPS
Maroteaux-Lamy
VIII@@
Saquin@@
lessness.
plan,
sorivudine
Nevirapine
RNA@@
-dependent
millilit@@
link@@
eptide
Seretide
(As@@
analgesics.
swit@@
wild-type
pubertal
virus-like
oestrogen@@
progest@@
CVMP.
AMPOULES
ML
Pens.
embolism,
(human
©EMEA
Pan-European
(a)
Direktor
Bonn
Wharf
EMEA/MB/002/97
Immunolog@@
EMEN@@
Nucle@@
D-79@@
bathe
narrow-@@
Emtriva
(ex@@
Coopers
Lybrand
specialising
Therapeutics
Master@@
Astra
requested.
focusing
stated.
glimepiride,
awake
glucose-@@
40%,
meal@@
Kinzal@@
Micardis
twice-daily
once-@@
cats,
lipoatrophy.
shallow
pseudomembranous
flares
higher.
MIRAPEXIN.
RoActemra
papillo@@
etc@@
aks
instit@@
nitrates
(i@@
causes,
IAR@@
corticosteroid@@
intramuscul@@
arly.
initiated,
bw
antiglaucoma
NSAID@@
stinging,
frequent.
ADROVANCE@@
FOSAVANCE@@
reconsidered
omycin,
quinolones
pacemak@@
vomit@@
aspiration
LIN
clinic.
replacements
REGRAN@@
ingestion,
gradually,
lengths
adjusted,
remembe@@
Achilles
(excluding
categories,
uck@@
conclusion,
Crestor
cardiover@@
resto@@
encountered
decision-@@
break.
calculation.
Son@@
Opinion.
database.
Telbivudine
co-administered.
EX
vice
MEN@@
depressed,
Castle
stroke,
End@@
disease@@
Bondronat
ush
kits
2.25
exaggeration
resorption.
enzyme,
insulinotropic
treat@@
J-@@
Kineret.
blockade.
GAG@@
supplemented
ovulation.
plates.
residents
WHO.
Inte@@
carbamide
otide
indinavir
centrally
nozzle
urease
13C/12C-@@
proliferation
Theoretically,
36%
lipophil@@
268
304
Nespo.
adrenal
cortical
Sik@@
consumptive
phenomena
ß-cell
immunoglobulins,
submitting
potentiates
neutralization
ATI@@
epileptic
Related
Afterwards
pool.
snap
arium
remission@@
ingested
exchang@@
infus@@
intravenous@@
perindoprilat,
)].
arma
noe@@
a*,
(ileitis)
es”).
polyvinyl
polyurethane
(PV@@
cetuximab.
(EGFR)
cancer:
0.5%),
0.2%)
drain@@
Pig@@
ples
erythematosus,
Ery@@
E-0@@
cloth
dose?
yields
Estrada
Rio
mail:
chlorpromaz@@
use),
leukaem@@
Beromun
meningiti@@
renally,
radiopharmac@@
eutic@@
confusional
Convulsion
Psych@@
pares@@
hype@@
thesia,
09.@@
MINIMUM
IMMEDIATE
MIN@@
IUM
incorrectly
Attach
ht@@
--------Enbrel@@
-------
(serum
nmol/
];
independent,
open-label,
potenti@@
nitroglycerin
photosensitising
CONTAINING
TEMODAL
133/
le)
lister
2500
EU/1/05/330@@
334/
353/
362/
(unit-dose
(bottle)
(40
042
418/
011/
015/
pack)
027/
039/
bottle),
1b
mg/g
product-@@
Cri@@
Hazard
Gemcitabine
patient-years,
Resonance
MRI@@
drip@@
sprayed
freezing
marks.
reduce,
fingers.
tanning
(please
footwear
(ALL)
(ALL),
ALI@@
RE
abdomen,
breasts
suppurative
Adol@@
(CP@@
Inspect
e.,
polyoxyethylene
buffer
bic@@
arbon@@
ents:
metacresol,
171,
ammonium
Back@@
ene-@@
film.
ulcers,
fast:
clammy
lamivudine-resistant
omal
itraconazole
Hodgkin's
1-9@@
church
Py@@
dg@@
dilu@@
Month@@
Extre@@
Poligono
09400
Aranda
inhaler.
167
rist@@
Aes@@
BT@@
Essex
S.A.,
lan
HR@@
Packaging
Lanc@@
burg,
CONDITIONS
hamn
ê@@
medac
Hants,
Treated
myalgia
myosi@@
Rot@@
yme,
infecting
fluids.
sleeve
mirror
helps.
usu@@
3x@@
Fam@@
rasburicase.
hyperuricaemia
Pyrexia,
Oedema,
Adopted
Old
fluticasone
propri@@
FER@@
DK-2300
Calicivirus
Chlamydia
psittac@@
irritabil@@
thus,
overestim@@
antimicrobials
Fir@@
connection.
cover.
Polyethylene
42,
(PET@@
HDPE
1000,
alu)
UTYL
multi-pack
yc@@
Fluctuations
CVMP@@
(0.3%)
(2.7%)
Arts
linguistics
librarianship
goggles
high-risk,
high-temperature
Zirtec
rivestite
Latvia:
1mg/
Sli@@
ZA@@
(spine)
stimuli
Immunologicals
surgeries
film-@@
ato
tabletter
Espoo
MEND@@
lapse
difficul@@
Fanconi
eruption
hypoaesthesia
cyst,
Pneumonia
Rhinitis
aes@@
Event
Circumstanc@@
macrocyclic
molecul@@
°C.
Beck
Dal@@
Thir@@
lov@@
wrist
Jap@@
GENERAL
CLASSIFICATION
SUPPLY
Tenecteplase
Constipation
odour
hig@@
7767
enteric
Capsule
REV
e/@@
intrav@@
Infus@@
bacteri@@
MP-@@
modelling
complex.
Herts
Bar,
iel@@
134
DD
Č
ette
Enterprise
Geral
Lisboa
ARE@@
(haemoglobin@@
HE@@
Gianmartino
Ó@@
erel
glau@@
CML.
(Ph+)
platelet-derived
arrangements.
PDGFR@@
PDGFR
α@@
(GIST@@
E/@@
anti-diabetic
HCl)
protamine
Glycine,
Gödec@@
Mooswaldallee
79090
(22
gonadism
162
Gonazon
tinnitus
kes,
Carretera
any,
templates
Gramsci
Albert
OU@@
windpipe
Severity
Phosph@@
lumirac@@
conceive.
:<
anaesthetist
celecoxib.
anticoagul@@
AIIRAs
sulfonylurea
l.,
60-@@
GUIDE
Hypercalcaemia
sing,
life-time
life-long
disease),
used:
um),
164
Hand@@
magne@@
revenu@@
PERF
Schering
toxoid@@
inin@@
ato@@
zia
uria,
polyuria,
osis);
haemorrhage*,
ia*
neuropathy*
ena,
obstruction*,
cerbrovascular
seizure,
hepatomegaly
4.4)
Rein@@
strain).....................................
strains)@@
strain)......................................
strains)........................@@
(vCP97):
molluscum
asse
anal@@
quad@@
PS@@
Rous@@
GE@@
atitis
MRFG
http://www.eudra.org/emea.@@
html
THER@@
Hydrogenated
Lecithin
stearate
neutralizing
atadine
β@@
phre@@
Midd@@
(regardless
product)
Hepatobiliary
hyperhidrosis,
Headache,
excipients;
sparfloxacin
sensitiv@@
cephalosporins
toremifene
formaldehyde
dihydropyridine
diphtheria
Known
depre@@
NeoSpect
MR
ferro@@
Allergoid
idiosyncratic
gadoversetamide,
somnia,
sensory
bisphosphonates
ushing
hypokal@@
hia
Under@@
pover@@
Ibaflin
shoulder.
o/
aden
Thoughts
(%@@
E.@@
Rapilysin
Safe@@
(Ministry
Health)
Alliance
ares,
umbrella
Queen
Children@@
AE
(SPC).
arthropathy
nucleotide
mitochondrial
polyarticular
transformation
viability
NAP@@
vaccine)
presynaptic
prostagland@@
cancerous
treats
glutam@@
multi-national
Secretary-General
(BMP@@
-7@@
3.7
lacos@@
amines
science.
Disability
Let@@
letter.
fluoresc@@
alternative,
Physicians
misuse
maximal
r).
subtype,
Kel@@
ampoule.
ionopho@@
first-line
should.
Inno@@
chew,
indwelling
Fern@@
ampoules.
pegfilgrastim.
correctly,
Standards
Visiting
Tissue
peptid@@
stimulation.
validity
questionable.
doctor/health
thrombosis.
rotavirus.
dehydration.
low-dose
sedentary
Xeom@@
It's
response)
titration.
responses.
ointment.
zo@@
nasoph@@
Prescribers
VACCINE
oxib.
pseudo-@@
dimin@@
breakage
spillage.
IDE
y'@@
virus-1
(HIV).
system)
fusari@@
chromoblastomycosis
above,
occlusive
accelerate
ion-@@
RSV
isoforms
Occlusion
overview
GFR@@
channels,
Combin@@
gonadotrophins
Mass
sildenafil.
hospitalisation
ute,
ists)
intended,
break,
Kentera
suc@@
amoun@@
Gaul@@
scale).
CIALI@@
Fentanyl-@@
tisation
understood,
overdose.
APL
17)
Nonaf@@
pill
curative
observation.
otes
Meas@@
ump@@
Rub@@
recruitment.
Korean
ogenicity
Doppler
wav@@
geriatric
remain.
(anti-emetics)
feeding,
ribosome
Canada,
regulator.
passages
nerves
e’,
Norm@@
Ara@@
thrombus
min,
intu@@
itive
quo@@
sulphonamide
amelior@@
fentanyl@@
(10%)
7-fold
µl
Lay@@
Chro@@
enteritis
Tetan@@
Cyclospor@@
OV@@
ASC@@
arrhyth@@
LT-CAGE
CARD
10).
ence;
inine
asermin
preservative.
Lansoprazol-ratiopharm
RTV
(declared
Industrie@@
exa
intraderm@@
haemodynamically
aeti@@
poison@@
pharyng@@
Nos@@
[eczema
herpeticum],
[cold
sores],
varicelliform
tigo
shing@@
56.3%
deafness
hypotherm@@
outcome),
mycobacterial
eds
haemorrhag@@
ascit@@
Leflunomide
irbesartan/
free”.
Angiox
Avamys
sucrose@@
itching.
bruise
Proton
Integr@@
Necrosis
5-fold.
Initi@@
MIX@@
vial;
al;
ria
UNI@@
Kö@@
jos
inson
WAR@@
Access
lied
INJECTING
SYRINGE
NESPO
(NYHA)
beat@@
metabol@@
Thiazides
Induced
liver@@
nephritis,
pid@@
urethral
ril@@
gravis
35,
709
Basal,
Intel@@
servation
ried
prescri@@
ene@@
diame@@
ter)
(In@@
,<
nimesulide
acquis
Phone:
ribavirin.
tus@@
mirtazapine
acetylcholinesterase
imatinib-@@
Ley@@
ude.
activate
pathways.
des,
Ipsen
Sign@@
Magna
Direct
tival
ischaemia
Sp@@
necrotising
TC
Approval’.
multipl@@
AP
(recombinant
A/S,
cen@@
mac@@
NS@@
ł
Jan@@
75,
5-7
Jean-@@
GAR@@
atri@@
SILVA
ASE
ary-@@
Husargatan
mysel@@
115
fulfilling
Throw
puncture@@
Piso
99mTc-depreotide
DepoCyt@@
2700
CYP2B6
ova
Stephen
ratio,
rim@@
Main
iber@@
Ris@@
g)
8701
produk@@
cz@@
fumigat@@
spp.,
krusei@@
uv@@
46,
25-63%).
Becaplermin
healing.
insertion
transferase,
mood,
paranoia,
(CV
124
solub@@
dispen@@
Κηφισίας
GlaxoSmithKline,
Cedex,
131
Med@@
Venda
Amadora
Laboratorios
Maxim@@
chest.
bedtime
advisability
inducers,
CYP2D6
catechol-O-methyl
SPC.
ister
iger
fear,
joy,
laughter
prolifer@@
precipitate
L-
346
resor@@
HDL).
HDL@@
Cimetidine
34%,
seiz@@
perfusion
cr
Clearance
anakin@@
hr/@@
1-4
291
Moder@@
accountability.
remedy
fumarate,
ritonavir.
vir.
Spr@@
stol@@
Bristol
authorisation,
Zer@@
Experts
ordination
Compatibility
verifi@@
synovial
(PDE@@
Fi@@
Emselex.
amen@@
Tunisia
alumini@@
pathways
Aclasta.
obstruction§,
cotton-
spots§
topoisomerase-I,
intimately
torsional
prostaglandins.
implicated
stin@@
early,
M).
combination.
Darbepoetin
(OS)
ADAS-Cog,
ival@@
oy@@
catalys@@
-19
136
Lietuvoje
+3705
2514000
practices,
imatinib.
5.2%
graf@@
Low@@
ViraferonPeg.
lived.
adjuvant
tocopherol
sorbitan
reductase,
ols,
erythromycin,
magnesium,
deamin@@
gemfibrozil)
rifampicin).
Cmin/
1.19@@
patient,
(IT)
encies
incomplete
entitlements
doubled
Contraindic@@
mucositis
Radiolabelling
oxybate
aprepitant
mealtime.
mobilisation.
aripiprazole
cycles,
17-@@
shooting
exit
osin@@
phr@@
Duloxetine
sheep.
1/1@@
7/9@@
Fatigue,
stores
flutter
TB@@
dehydr@@
Zenapax
FE@@
supply,
collections
arsen@@
form}
(tri@@
Leder@@
3.4%
hypocalcaemia
placebo/
herpetic
viv@@
sters.
µM,
metabolically
ian.
years;
laropiprant.
seroton@@
rhythms
eighth
ant).
cavity,
calibration
dosage,
stearyl
chew@@
Levodopa
retinoid
Ras@@
ez,
Membership
RXR@@
γ@@
detectable.
Breast@@
originates
signs,
hazard@@
codi@@
Sjö@@
gren@@
side@@
insoluble
Ambrisentan
Nexavar
tilting
onin
prominently
hyp@@
zum
metabolized
second-generation
gp@@
Fish@@
opioid
natalizumab
Neupro-
reservo@@
Regranex
MM-010
1923
1354
overload
ec,
Practice
pro-drug
thalidomide
contraceptives;
Langu@@
semi-synthetic
optional
Re-@@
Lansoprazol
platelets.
72@@
pasture
Novem
hours).
foot,
unclear.
icatibant
gadofosveset
espec@@
tives,
rosacea
pipett@@
dog.
tly.
Stage
males.
enterprises.
retri@@
re-used.
re-assessed
shortening
159@@
compact
pudding.
clinging
illed
lever
slide
thum@@
gallstones
ystitis
occi@@
Nephrotic
cm2
sophisticated
see.
spray,
(125
Basic
gil@@
sows
auto@@
differentiated
Presentation
Facilities
moistened
Directorates-General
ture@@
Centre.
load)
(between
objection
STR@@
diarrhoeal
462
responders'
[95%,
99%].
Ques@@
specimens
esis
neo-@@
Zome@@
C24hr
inuria
ritor@@
Plus
decongest@@
indirectly,
gangli@@
patch,
approximate
adds
achievable
HD
ires@@
(buttocks)
uncertain.
ogene@@
(percent
motion,
APTIVUS/
RESI@@
Resist@@
70,
tetracyclin@@
RT.
SB@@
oded
accept@@
Rifabutin
Risperidone
type,
Stopping
Discontinuation
BTVPUR
AlSap
594
393
fleas.
delavirdine.
barrel.
syringe:
contrib@@
paclitaxel,
Sit@@
refrigerated,
SHOULD
put,
LV-@@
70.
is;
antiandrogenic
cau@@
Mann-Whitney
tor,
calcineurin
µg.
Omnitrope
0.26
trisodium
VII@@
phenylbutyrate.
olop@@
hydrochloride).
exam@@
distingu@@
appreciation
nea
94%
sucrose
unk
aspect,
biv@@
competing
ycline
idine
Tol@@
ific@@
isers.
(n=18,
n=49,
ZIMULTI
327
initis
pigment@@
Ko@@
concentration)
appreciated
Triple
larynx,
ylo@@
ga,
Rīga,
rstā
vniecī
pārstāvniecība
7364000
76@@
Sau@@
Riga
chicken@@
urity
offset
Vaccination
rt@@
Brachyspira
Va@@
ss
revise
fashion.
gau@@
criteria:
ITTE@@
translate
64)
esom@@
antigen,
Orgalutran
amide,
temporal
Botox
vented
consultation.
piston
mob@@
Cef@@
fluid,
achieves
thrombo@@
panleucopenia.
chlamydi@@
fiable
persons,
distributes
conclu@@
AD,
MAH,
advanc@@
Sabumalin
Sanohex
bioequivalence
ded:
Yondel@@
disability,
consolidation
RC@@
al's
combining
hydroxy
inorganic
otoxicity
saliva,
disintegrate
dissol@@
vice-@@
chairman.
expectations.
squeezed
piercing
stir@@
Inver@@
vac@@
Lopid
Alexandre
chair
chairmen
RI)
randomisation.
CIN2+
walked
Living
Examination
Eculizumab
ilis
favourable.
ring.
was:
spiral
bodyweight.
messages:
Contraindication
1984.
Ray@@
Industries,
Å@@
Efalizumab
triazolam)
models,
prop@@
3%),
enzymes,
St.
serotypes
HAM-@@
scales
gout.
Babes@@
CTCL
owner.
Protective
esc@@
liner
desicc@@
oled
impede
legi@@
interrupts
dissemin@@
fractions
conserved
discomfort.
Pharmacopoeia
2377/9@@
Rober@@
WP)
guide
rapporteur.
Bioavailability
Elcatonin
atom
+).
resuspended
AT2
maintain@@
Masitinib
ylation.
jux@@
fin,
comprise
Steering
-28
mail.
Budget@@
microscopic
LDL-cholesterol
anno@@
determines
leflunomide,
pyl@@
GT@@
from,
(des@@
[M@@
(Et@@
emodepside
(cGMP@@
Christ@@
ogu@@
acin
homology
20%.
grew
distributors
exchanges
interferon-gamma
TAR@@
large.
token,
(IC@@
co-operation
gelatine,
lauril@@
sulfate,
(E17@@
‘Week
'on
rat.
panitumumab
overnight.
depressed.
comfortable.
sion:
Operational
20th
1/@@
cease
desired.
rifabutin
blast@@
2%).
12.8
raziqu@@
Already
cured
29.
apart@@
CO2.
Ammon@@
oestrogen.
Fas@@
INC@@
vomit,
tenecteplase.
etan@@
MUN
Tarceva,
ciprofloxacin.
25°C)
adjuv@@
homogeneous,
Broussa@@
HPV
(VTE),
(PE)
convey
laboratories
schizophrenia.
pression
raltegravir
Co-Rapporteur(s)
Demol@@
Salmonson
Tomas
Salmon@@
elements.
59.@@
4.1,
4.2,
restrictions.
L.@@
delegate
announced.
multilingu@@
Certification
lymphocyte
Efficib
regular@@
MI,
aggrav@@
compartment.
rend@@
enjoyed
scoliosis.
cimetidine)
6.3
zalcitabine)
Bordetella
Cyt@@
syn@@
anticoagulant@@
umbilical
gol@@
658
2.9%
anorectic
cellulose,
90,
us;
hexa@@
ethylene
gain,
outcome,
transfusions
drow@@
growing,
Bacter@@
dung
calculations
Agranulocyt@@
avoid@@
ained
puberty.
diag@@
streams
sham@@
animal-@@
regimen.
seal@@
half.
ground.
halved.
Name}
responsibilities.
wort,
Starter
steam
ºC
statutory
Scores
inflammation),
analges@@
Inclusion
hemodi@@
phone,
it)
e’s
verse
standard.
(15.@@
otox@@
hyperkalaemia
state-of-the-@@
mucocutaneous
fixation
satisfy
Magnesium
microsphe@@
(30@@
surgeries,
defects,
strengthening
Hispan@@
races
disper@@
(NDIR@@
Best
guide.
contrac@@
known@@
architecture
aline
dysmen@@
5%),
Efient
(0.1%),
palivizumab
frequency.
Pancytopenia,
Pancre@@
Pet@@
anal
anticoagulation
resolv@@
pair
radioactivity.
ined
Dev@@
inventory
enterohepatic
injection@@
underwent
ciclospor@@
return.
NP@@
sunburn
plasma@@
is).
disturbances)
hydrochlorothiazide.
ogenous
(33@@
(investigator
assessment)
streptococcal
cumul@@
previ@@
Party.
seventy
etary
salts.
thaw
rows
ases.
countries:
Broken
hip,
Future
she@@
Zerene
translucent
hormone-@@
Party,
sex.
crescent@@
vertebrae
(13/
(17/
145)
(2/
(36/
523),
352),
162)
(3/
28),
2.5%,
Indic@@
as),
cuts,
information”).
dex.
using.
buttocks
thigh,
OptiClik,
disease;
Instrum@@
Amenorrhea,
lou@@
Cl
LDL)
falsely
cervix
shoot@@
Operat@@
Doctors
inhibitors)
unequivocal
Diuretic
Immun@@
206
262
metopro@@
statin@@
ates@@
buttocks;
unusually
projects,
plastics
preputial
clitoral
fragile,
interview@@
formulated
radius
toilet
(70
tablet,
oropharyngeal
(50%)
r-h@@
stratum
Arms
IIIa
alerted
antiemetics
Patients,
Limit
thalidomide.
persist.
non-myeloid
Winthro@@
2.5,
Lum@@
9.0
mitigate
(21%)
inity
35.@@
tioned.
170
ILD-like
0.0
diffus@@
clip@@
shav@@
umb@@
Fed@@
tili@@
services,
demethyl@@
nitro@@
leaflet.
nam@@
perfusion,
Caucasian
rFVIIa
aesthetic
thre@@
ls.
cycles.
hardened
bia,
Thailand.
Dim@@
omer@@
affairs,
Centre@@
disappointing
approxim@@
accumulated
summarized
manufactured.
deficiencies,
HBeAg-@@
scler@@
uni@@
carbonate
Busilvex.
(single-dose)
compounds:
(duloxetine
ly),
dressing
anterolateral
aining
inactivated,
yt@@
Thiazides,
(OHA),
(MAOI),
sulphonamides.
pox@@
salicylates
53@@
weigh@@
slurred
speech,
moving,
").
0.9%
compliance.
Rates
(second
usia
implant.
23,
mobility,
ing's
entacapone,
phenomenon.
sooner
ety,
SW@@
Strategy
enters
ologies.
broil@@
(RMS)
(CMS).
Republic.
Icel@@
disintegr@@
Count
C-B@@
mTOR
dystroph@@
MT-@@
coli,
pictog@@
Educ@@
LEO
Orion
Corpor@@
lymphotoxin
homotrimers,
TNFRs.
aromatic
agent.
calor@@
CPA
tyrosinemia
[...]
