<blank>
<s>
</s>
de
la
et
les
des
le
à
en
du
est
une
dans
que
un
pas
ou
par
pour
être
a
sur
ne
été
au
qui
sont
vous
plus
ce
avec
chez
patients
-
ont
Les
Le
doit
il
peut
ces
Si
traitement
votre
aux
se
si
Une
La
cette
(@@
cas
d'une
Un
comme
Pour
On
n'est
mg
d'un
après
doivent
mais
Vous
•
y
dose
1
deux
moins
1/
EU/
également
leur
Par
même
taux
Il
médicaments
fois
non
peuvent
avant
risque
fait
d'@@
tout
effets
pendant
soit
avez
était
nombre
sans
n'a
"@@
utilisé
on
médecin
européenne
entre
système
d'autres
2
son
comprimés
faire
aussi
3
sous
rapport
Commission
d’@@
autre
solution
10
Rapport
(voir
Dans
très
mise
médicament
cours
l’@@
indésirables
elle
rubrique
cela
Toutefois,
bien
donc
sera
pays
marché
personnes
produit
contre
études
En
%
dont
produits
,
?
prendre
autres
orale
.
l'@@
tous
jour
traités
@@
niveau
qu'il
DE
Des
5
Pourquoi
avoir
données
Ne
ayant
ainsi
er
trois
enfants
type
4
e,
Nous
temps
afin
toute
présentant
Tout
augmentation
Voie
:
exemple,
lors
6
L'@@
travail
e.
groupe
femmes
ans
maladie
é
où
A
ml
mesures
mois
ses
000
nous
certains
informations
ET
chaque
conséquent,
atteints
alors
«
Que
symptômes
peu
étaient
je
prise
06/
50
/
site
toutes
sa
étude
mg/
effet
nécessaire
«@@
encore
ée
100
devrait
santé
sécurité
pourrait
forme
»
e
doses
association
l'Union
Mais
réponse
fonction
ils
voie
l'utilisation
contient
faut
30
ceux
raison
utiliser
es.
jusqu'à
es,
S@@
semaines
-@@
membres
manière
leurs
période
ent
point
première
tant
pris
États
jours
base
7
20
hépatique
troubles
résultats
és
+
aucun
concernant
administré
virus
ez
in@@
aucune
n'ont
Selon
problèmes
ait
–
êtes
)
patient
car
toujours
question
flacon
important
exemple
contrôle
ni
terme
millions
compris
développement
Tel:
l'un
15
12
l'
devez
ant
CAS
rénale
déjà
heures
B@@
mesure
seulement
maladies
00/
conditions
compte
Tous
ées
elles
lorsque
DANS
substances
perfusion
façon
tels
vos
d'
diminution
long
in
EST-IL
durée
cliniques
partie
animaux
trop
seront
réduction
possible
insuffisance
devra
er.
s
contenant
QUEL
cas,
étant
recommandé
clinique
8
l'on
40
Sur
d’une
D@@
Lorsque
lait
Quelles
;
).
eu
réactions
C@@
De
M.
montré
depuis
surveillance
P@@
d’un
production
24
quatre
M@@
Conseil
QUE
A@@
quel
voir
européen
T@@
25
DES
recommandée
cellules
besoin
notice
n’est
c'est
o
pouvez
réduire
QU'EST-CE
Quel
!
nouvelle
active
es
risques
faible
stylo
l'administration
population
que,
et,
vie
immédiatement
particulier
),
semaine
injectable
certaines
personne
mis
place
n'y
L@@
H@@
tel
s'il
selon
notamment
disponibles
qu'une
UTILISE
fin
E@@
administration
ons
nouveau
peau
K@@
poids
procédure
présente
celle
substance
re@@
questions
syndrome
concerne
jamais
qualité
n'@@
s'est
principe
seul
cadre
soient
plusieurs
avait
er,
croissance
infection
protection
telle
lieu
traiter
vaccin
facteur
an
pharmacien.
é,
é.
s.
humaine
s,
L’@@
traitement.
posologie
l'efficacité
G@@
reçu
moyenne
N@@
groupes
cet
celui
60
lui
2@@
telles
sang
actif
souvent
9
recherche
R@@
Toutes
usage
suspension
matière
Votre
ré@@
grand
événements
F@@
douleur
concentrations
sujets
utilisation
reste
pouvant
rapportés
ée.
parce
ans,
quelques
formation
quantité
réaction
importante
mettre
14
B
moyen
suivi
injection
ans.
vue
décision
environ
charge
dé@@
signes
seringue
perte
<
s@@
s'@@
pouvoir
problème
4@@
L'utilisation
savoir
l'objet
demande
vers
serait
cinq
l'étude
x
qu'elle
sévère
a,
és.
5@@
ation
d’autres
donné
18
essais
d'insuline
i
b@@
V@@
particulièrement
quand
2.
jour.
utilisés
e?
qu'@@
existe
présence
œ
seule
nouveaux
entraîner
mois.
e@@
ch@@
qu'un
laquelle
valeurs
t@@
nouvelles
sein
médecin.
durant
=
contenu
jeunes
anticorps
cancer
liste
début
és,
3@@
beaucoup
bon
Peu
qu'ils
date
C
eux
humain
l'UE
al@@
enfant
ml)
âgés
total
pression
actuellement
programme
6@@
éviter
l'aide
poudre
300
partir
/@@
200
patients.
ation.
aient
adultes
h@@
caractéristiques
mieux
efficace
traitements
(par
uniquement
région
Qu'est
placebo
graves
notice,
Néanmoins,
valeur
termes
Troubles
11
prenez
8@@
80
indiqué
>
Lors
instructions
d@@
consommation
l'autorisation
moment
I@@
7@@
six
t
modification
nombreux
premier
certain
processus
plan
composants
ée,
LES
activités
comprimé
et/
concomitante
points
tolérance
l'Agence
suite
sait
c@@
tests
concentration
ation,
devient
utilisée
g
généralement
dès
ensuite
unique
Europe
contact
observés
cause
bonne
e:
va
».
domaine
augmenter
o@@
déchets
Veuillez
administrée
-il
di@@
permettre
Mme
facteurs
indésirable
phase
i@@
Parmi
principal
gestion
règlement
d'utiliser
e)
comité
UI
er@@
responsable
-ce
an@@
"
nécessaire.
élevé
era
boîte
situation
O@@
différents
information
suivant
1@@
Royaume-Uni
g@@
France
qu’il
INFORMATIONS
remarquez
rapidement
possibilité
a@@
prises
en@@
position
ement
Quelle
méthode
im@@
donner
%.
n@@
d'administration
70
traité
recevant
grave
k@@
co@@
ar@@
pharmacocinétique
rares
changement
d
présenté
ées.
anti@@
Effets
peut-être
rôle
spécifique
ine
dernière
convient
observée
d'évaluation
insuline
plupart
infections
critères
volume
permet
transport
l'enfant
soins
inhibiteurs
28
régime
règles
ag@@
ad@@
chronique
ants
zones
autorités
présent
16
al
souffrant
as@@
ées,
4.4).
corps
ent.
hommes
at@@
ribavirine
flacons
attention
dernier
rapide
am@@
jour,
mentionné
é@@
parlez
quelque
avaient
années
recevoir
Très
Toute
pourra
particules
trouve
f@@
l@@
Monsieur
comment
trouble
dème
modifier
référence
détaillées
produit,
Plus
conduire
provoquer
is@@
or@@
n’a
pourraient
Titulaire
supérieure
capacité
1,
significative
puis
clairement
évaluation
eurs
que.
véhicules
conséquences
systèmes
d'informations
AVANT
dit
00
r@@
d'insuffisance
chlorure
cartouches
veuillez
lire
signifie
ailleurs,
voies
importantes
atteint
eur
titulaire
zone
me
avons
QUELLES
initiale
aide
membre
fréquemment
J@@
plus,
SONT
deuxième
fréquence
prévention
libération
personnel
susceptibles
relatives
conformément
S
9@@
l'état
parfois
réduit
allergique
nécessaires
médicament,
".
d'injection
quelle
0@@
année
récemment
Quand
face
critère
E
dispositif
S'il
projets
75
l
age
p@@
ent,
potentiel
CONNAITRE
Or,
totale
médicament.
métabolisme
►
dû
http:
internet
droit
21
pharmacocinétiques
on@@
modifications
disponible
solvant
Patients
demandez
observé
limite
pu
bénéfice
prolongée
douleurs
Pas
Winthrop
Trois
Son
spécifiques
passage
ligne
y@@
L'administration
liés
présentent
kg
e).
ante
Parlement
passer
of
Eesti
raisons
s?
parler
placebo.
plasmatiques
délai
D
celles
2,
3,
liées
s’@@
Y
l'effet
m@@
l'arrêt
parmi
ti@@
LA
sodium
56
20@@
Pendant
es?
développer
0,5
général
it@@
immunitaire
te
10@@
l'insuline
semble
femme
devront
prix
Où
nécessité
eau
ations
surface
soutien
Teva
Comb
maximale
l'activité
on,
protéine
emea.
W@@
directement
.@@
L'objectif
survenue
m
test
cependant
inhibiteur
ement.
d'efficacité
n
qu'en
mécanisme
CHMP
propositions
a.
associées
ement,
13
500
difficultés
UK
l'ensemble
rapports
/www.
attentivement
résultat
préparation
mal
Insuffisance
dernières
Même
recommandée.
[@@
réalisée
2,5
étudié
solutions
devraient
ritonavir
complète
supplémentaires
préparations
demander
minutes
associé
v@@
résumé
température
u
Traitement
A,
lesquels
48
os@@
thérapeutique
crise
éléments
368/
grande
es@@
ine,
l'hépatite
service
due
(1
suffisamment
activité
ale
prudence
150
troisième
cent
grossesse
el@@
blanc
autorisation
Dr
patientes
état
e;
d'entre
haut
qu'à
parties
n'existe
scientifique
Liprolog
sucre
patients,
ant.
surdosage
65
400
nom
faites
aiguilles
toutefois
d'être
monde
types
e),
survie
L'AUTORISATION
pelliculés
Z@@
ac@@
h
07/
0,@@
complètement
ques,
europa.
technique
part
paramètres
suivants:
baisse
oculaire,
démontré
Hypersensibilité
sévères
lésions
globules
ine.
Tel.
anti-@@
c
liquide
microgrammes
22
puisse
associés
us
fabricant
n’@@
L'Union
17
vaccins
vétérinaire
augmente
semaines.
meilleure
13@@
diabète
alimentaire
19@@
conserver
OU
LE
progrès
POUR
Affections
juste
résistance
Canary
récepteurs
d'environ
lesquelles
I
(EMEA)
proposition
paragraphe
ordures
clairance
produire
vi@@
différentes
progression
600
cartouche
Re@@
marché.
davantage
utilisant
-en
con@@
foie
l'exposition
ants.
Westferry
respectivement
principalement
UI/
sensation
amélioration
U@@
dehors
d'origine
l'Europe
mg,
objectifs
réduite
pharmacovigilance
bi@@
on.
anomalies
diagnostic
fréquent
z@@
propre
réglementation
kg/
an.
E14
≥
hépatiques
passe
prévenir
u@@
obtenir
ménagères.
vaccination
maintenir
significativement
»,
35
besoins
supplémentaire
fréquents
obtenu
able
l'eau
légère
conservation
difficile
politique
heures.
Circus,
fournie
connu
ex@@
correctement
preuve
Human
qui,
sorte
dire
L'Europe
premières
Wharf,
rien
aire
DU
sur@@
questions,
informer
entraîne
régulièrement
quotidienne
associée
li@@
4HB,
prenant
agents
%,
es:
présenter
permis
élevée
cardiaque
moyens
nos
a-t-il
e!
45
ceci
diminuer
pré@@
alfa-2b
aspect
d'utilisation
premiers
action
protéger
connaître
l'annexe
—
mode
D'UTILISER
",
augmenté
proportion
e-@@
vitro
recommandations
2000
contrôler
utilisées
Portugal
&
Elle
jours.
intraveineuse
examen
adolescents
portant
ml.
fréquent:
directive
estime
NON
aires
modèle
accru
ant,
...
ou@@
ables
garde
suivre
eront
pense
effectuée
l'évaluation
relative
semaines,
ent@@
is
ol@@
tr@@
différence
mises
analyse
petite
carte
eur.
ques.
respiratoires
exigences
jetés
traitement,
nourriture
survenir
inflammation
ajustement
In@@
poursuivre
longue
d'avoir
el
TITULAIRE
MEDICAMENTS
Pharma
j@@
non-@@
métabolites
sites
ations,
réponses
cliniquement
seconde
l'association
destinés
chirurgie
l'infection
am
vitamine
petit
documents
ations.
Fréquent:
Utilisation
d'eau
131/
notre
techniques
lequel
op@@
majorité
sous-cutanée
4.5).
représente
Allemagne
montre
ant@@
ci@@
ons-nous
p
14@@
l'augmentation
al,
tissus
12@@
chiens
monothérapie
yeux
lignes
maternel
médicaments.
suivants
1,@@
et@@
dispose
III
T
l'in@@
l'aiguille
côté
public
forte
politiques
(A5-00@@
toxicité
fracture
inclus
(un
P
permettant
ère
restent
via
probablement
Quels
assez
L'expérience
supérieur
an,
fonctionnement
as
observées
n'était
S.
aire,
décès
double
*
en,
MÉDICAMENTS
accès
90
aurait
si@@
car@@
mélanger
n'
Plusieurs
l'homme
versus
formes
conduite
al.
aire.
pa@@
ques
ab@@
aiguille
au@@
132/
erait
Qui
d'effets
vision
t,
gonflement
conséquent
minimisation
déficit
Ce
régions
devant
l'une
administrés
3.
distribution
sanguines
généraux
précaution
k
dix
l’utilisation
longtemps
âgées
principaux
es)
'@@
London
métabolite
mains
Al@@
os
artérielle
susceptible
gélules
antibiotiques
patient.
ra@@
conseil
précautions
famille
ements
avis
s:
quant
c’est
ap@@
eux.
ot@@
aires.
glycémie
l'injection
derniers
biodisponibilité
L'efficacité
Pfizer
age,
s'agit
Seuls
consulter
niveaux
II
doute,
om@@
mortalité
féline
Pays-Bas
st@@
santé,
Sans
Malheureusement,
pourriez
nécessaire,
cycle
protéines
libre
l'EMEA
tissu
ni@@
plaquettes
infectés
23
potassium
stylos
mort
services
aura
l'étiquetage
fois,
repas.
humain.
s'assurer
là
Insuman
considérés
principale
te,
extrêmement
d'études
légèrement
inférieur
évalué
fond
sensibilité
impact
eur,
re
sérieux
RISPERDAL
plasmatique
98
fondaparinux
inférieure
ie
o,
eurs.
lumière
autant
bénéfices
limites
pas,
(A4-00@@
vitesse
cutanées
plus.
eurs,
l'autre
17@@
incluant
modérée
c'est-à-dire
Y@@
confiance
tenir
dénominations
prend
certaine
posologique
globale
aires,
auprès
dose.
administrer
(S@@
uniformément
autorisations
changements
tes
jusqu’à
médicaments,
présidence
tu@@
couleur
acide
années.
garantir
déterminer
d'au
traitées
Cmax
conservé
commencer
ens
l'absence
conclu
qu@@
Par@@
w@@
enfants.
ar
entreprises
ter
CES
document
excipients.
ers
L'étude
aujourd'hui
possible,
bas
injecter
l'âge
injections
situations
rubriques
5,
aiguë
menée
C.
secteur
sous-@@
nombreuses
15@@
différences
membres,
capuchon
l'objectif
classe
droits
travailleurs
hépatite
médicale
réalisées
tête
temps.
révélé
rénale,
VIII
com@@
eux,
ité
structure
État
suivantes
phosphate
élevés
(0)
chose
Faites
puissent
no
près
faire,
Voilà
mois,
limiter
rapportées
L
U
par@@
16@@
sodium,
enzymes
f
ants,
GmbH
M
tion,
mentionnés
moitié
consiste
étudiée
able.
insuffisants
Rien
quantités
l'origine
cutanée
transmission
arrêter
26
antes
l'ordre
Trudexa
mg)
mélange
pi@@
principes
recours
expérimenté
faite
ai@@
consommateurs
large
utilisation.
conçu
Premièrement,
ez-vous
25@@
arrêté
heure
d'action
0
ales
ri@@
court
supérieures
d'éviter
dus
per@@
limité
{Nom
4,
tableau
considérée
l'absorption
SUR
rouges
responsables
représentant
font
AB
exposition
demi-vie
profil
800
at
sains
inter@@
essentiellement
liée
o-@@
cl@@
connue
l'apparition
all@@
fois.
produit.
aux,
reconstitué
Préparation
l’un
002
sujet
constitue
systémique
pourcentage
petits
étudiées
contrôlée
d'A@@
maximum
propriétés
causes
nationales
av@@
rouge
r
5.2).
pas.
texte
aliments
continue
96/
Quelques
disposition
condition
citoyens
and@@
bras
able,
R
appropriée
):
ACR
19
(CHMP)
repas
pompe
section
manque
rénaux
ons.
ais
l'allaitement
alfa
voire
L'effet
001
pays,
voix
Pourtant,
devons
Notre
ables.
études,
l'adulte
âge
4.8).
nerveux
cliniques,
liaison
catégorie
me,
évaluée
ance
10%
populations
dérivés
élevées
s’il
and
prescrit
commercialisation
sé@@
Infection
langue
the
médecin,
Poudre
Olanzapine
fi@@
certainement
Quant
18@@
entraîné
seuls
assurer
virologique
buvable
procéder
autour
faibles
A.
36
aux.
6,
cholestérol
X@@
elles,
considéré
actions
établie
elle,
(E@@
Ch@@
em@@
Mar@@
Limited
ons,
ir@@
l'Autorisation
projet
qu'on
étude,
provenant
estimé
ate
actifs
maternel.
porter
euses
ères
progressive
chacun
similaires
mère
2006.
scientifiques
b
procédures
antécédents
C,
to
humaine.
fonctionne
d'in@@
veiller
devenir
pays.
l'article
Nombre
39
l'incidence
correspond
appelée
(en
augmentée
femmes,
%)
n’ont
(3
enne
stade
souches
1000
Comment
mes
complications
considération
Road
particulière
iss@@
résolution
principales
Insulin
dépenses
est-il
amendements
A/
84
actives
idées
comparaison
pl@@
(A@@
résidus
il@@
espèces
crises
améliorer
vu
similaire
degré
créatinine
l'université
col@@
isé
soumis
facilement
humains
établi
en.
Merck
chaîne
PROVENANT
Leur
victimes
Troisièmement,
étroite
2,@@
succès
ver@@
l'A@@
placebo,
largement
is,
diminue
tion.
enfants,
50%
coagulation
demandes
donnée
mêmes
ante.
particulières
29
gu@@
diurétiques
rénale.
euse
grandes
pourquoi
qu'elles
es;
saignements
travers
définition
minimum
étape
33
tendance
1,5
prescription
(P@@
l'information
calcium
blanche
postes
reconstitution
ét@@
th@@
pharmacien
l'accès
tampons
noms
cas.
el,
publique
Luxembourg
médecins
l'année
ence
verre
préremplie
enrobés
LIEU
ité.
tiers
metformine
comparé
sanguins
sanguine
allergiques
provoque
hépatique.
46
B.
jour)
160
l'interféron
peau,
meilleur
elle.
coopération
fait,
société
taille
boîtes
coûts
gaz
législation
européenne,
qu’une
t.
Suspension
eaux
er?
Objet:
/2001)
35@@
adaptation
médical
tri@@
excessive
Non
polyarthrite
age.
immédiatement.
42
l’œ
PegIntron
conduit
récepteur
fer
ents
caractère
VIH.
remettre
Con@@
n'en
appropriée.
annexe
matériel
local
autorisé
cu@@
faire.
présentez
alimentaires
plutôt
européens
28@@
ml,
suivantes:
man@@
série
potentiellement
faiblesse
aider
az@@
porcs
allant
altération
connus
éliminé
mar@@
2002.
dis@@
contiennent
vérifier
retirer
juin
milieu
France,
AL@@
destiné
003
fer@@
ell@@
NovoMix
200@@
volontaires
éruption
comportement
ines
5%
presque
relation
d'hypersensibilité
virale
conséquence
ec@@
ale,
atteinte
jeune
fabrication
effectué
d'emploi
matières
instauré
com
excipients
appliqué
gens
utilisez
connaît
mon
Rapport:
36@@
sévère.
relatif
1)
3%
n'ayant
fins
considérées
viande
irritation
lié
sérique
grâce
sept
ateur
ale.
04/
jours,
mofétil
mon@@
27
adéquate
An@@
O
santé.
flacon.
agir
Ré@@
dégradation
simple
travail.
sou@@
simplement
l'impact
vétérinaires
S,
-2@@
dépression
secondaires
l'acide
30@@
seraient
assistance
end@@
contrôlés
l'ex@@
appliquer
ais@@
dosage
vivo
MISE
nausées,
Espagne
or
que:
avantages
ur@@
examens
sommes
d'absorption
(souche
mi@@
cela,
poudre,
laisser
travail,
ici
e"
sûr
savons
rapporté
blancs
bouche
fièvre
biologique
250
mg.
ose
mo@@
domaines
É@@
ma
−
version
fortement
Mycophénolate
obtenus
inhibe
plaques
n'auriez
totalement
Pharmaceuticals
conséquence,
faisant
LOTS
ak@@
ts
vie.
-,
éliminés
européenne.
isme
veut
loin
qu'
circonstances
central
ite
suicidaires
supérieurs
produits,
pro@@
(n
toxiques
limpide
générale
CPMP
plaquette
ter@@
leucémie
haute
br@@
acquise
pertinence
trouver
for
titre
Lilly
mal@@
qu’@@
004
approuvée
/99)
consultez
pulmonaire
un@@
médiane
tumeurs
contrôlées
induit
49
l'élimination
naïfs
l'ASC
mélangé
lorsqu'il
l'animal
cor@@
8,
coordination
L'
one
rendre
impossible
diluer
professionnels
nature
organisations
agit
GlaxoSmithKline
l'immunodéficience
clés
FABRICATION
022/
dispositions
us@@
l’Union
N'@@
parents
Commission,
L'un
consommateur
l’Europe
AS@@
journalière
ser@@
fixe
antes.
cœ
poursuite
tandis
importants
IN@@
réductase
efficacité
d'entretien
sclérose
(pour
vs
ténofovir
congelé
isation
sont:
4.2).
s)
té
octobre
rarement
ité,
mé@@
seringues
vomissements
ance,
animaux.
maintenant
6.6.
présentés
OÜ
CONSTA
prérempli
élément
l'environnement.
bénéficier
cour@@
objectif
marché,
vo@@
contre,
e".
zidovudine
nécessaires.
l'ostéoporose
fractures
95%:
26@@
normale
produite
34
semaine)
d'enfants
I.
N
endommagé
l'expérience
possibles
dispositifs
influence
contenus
min@@
masse
su@@
rythme
rapidement.
d'obtenir
contraste
élévation
x@@
bout
Sharp
is.
négatif
capable
Résumé
mer
nettoyants)
99/
quoi
Seul
passé
Peut-être
l'environnement
(IC
champ
1.
32
st
temps,
moelle
tuberculose
génotype
els
synthèse
);
Q@@
rhinotrachéite
novembre
ez,
huit
mauvais
directrices
pharmaceutiques
l’aiguille
Aucune
travaux
ul@@
habituellement
commission
l'emballage
á@@
qu’elle
boissons
INFORMATION
l'égout
m'@@
pratique
vient
UTILISÉ
Qu'est-ce
L'UE
monde.
fonds
B,
et/ou
poursuivi
losartan
4.@@
stimule
standard
VIH
ouvert
injecté
ér@@
blanches
Informations
centre
sub@@
il,
entraînant
révision
bouton
International
atténué
ère.
preuves
Nom
l'alcool
limitée
RESPONSABLE
tions.
bl@@
ass@@
moi,
id@@
maintien
randomisés
d'injection,
µg/
38@@
AR@@
cliniques.
bovins
CA@@
l'EMEA.
musculaire
du@@
acides
CI@@
d'anticorps
hormone
bou@@
Enbrel
calcitonine
cal@@
+@@
travaillé
ing
divers
septembre
ance.
euse.
progressivement
d'animaux
o.
interrompu
statistiques
évaluer
eu@@
ence,
approche
vont
thermoformée
ante,
de@@
transdermique
d'effet
l'application
uvre
fournir
27@@
appelé
ach@@
réaliser
dû:
chômage
saignement
G
surtout
simvastatine
correspondant
50@@
8%
accrue
respiratoire
tiques
méthotrexate
d'E@@
31
réalisés
ités
gélule
significatif
opaque
capacités
ro@@
visant
empêcher
directe
sécheresse
ov@@
Mix25
Ar@@
it,
plastique
Dohme
respecter
gar@@
années,
République
transfert
envisagée
qu’ils
indiquée
PRECAUTIONS
pêche
(débat)
schéma
%).
biologiques
développé
semaine,
événement
reproduction
route
me.
F
interactions
décidé
onn@@
ill@@
d'infection
(4
AN@@
40@@
d’injection
mutation
(C@@
ème
cr@@
ani@@
l'aptitude
ente
l'industrie
um
ce@@
l)
ad
utilisateurs
tenant
(y
développement.
yl@@
méthodes
dommages
d'hémoglobine
che
Durée
technologie
jeu
marque
En@@
Europe,
sirop
adresse
suite,
vin
ence.
économique
PARTICULIÈRES
oubliez
V
RE@@
lamivudine
te.
évènements
(I@@
marge
5,@@
polyéthylène
application
intervalles
fréquente
eur@@
petites
nausées
faveur
veineux
évidence
ol
fuite
veine
rougeur
ReFacto
e/
pr@@
fort
1997
avril
lorsqu'ils
ci-dessous
Pro@@
quelqu'un
AT@@
injectables
antes,
frais
·
te@@
grands
conscience
États-Unis
utilisation,
apparaît
départ
Neupro
L’utilisation
vraiment
lis@@
égale
stérile
L'UTILISATEUR
Sa
s-@@
PRÉCAUTIONS
interdiction
j'ai
concurrence
devoir
for@@
que)
cas@@
os,
(≥
clinique.
récente
définie
thérapeutiques
9,
fantaisie}
sauf
fin@@
interféron
cycles
rare
37@@
2002
médecine
ère,
f.
même,
sécurité,
musculaires
enzyme
outre,
ales.
rester
organes
Di@@
Le@@
gi@@
Ils
atteintes
oi@@
tions
hormones
continuer
Irbesartan
l'exception
reconnaître
gouvernement
dés@@
UTILISÉS
/97)
Tableau
budget
PARTICULIERES
ation?
Madame
900
courte
terme,
terminale
majeure
parlez-en
n'apparaît
score
(de
3,5
(une
accidents
form@@
plasma
accidentelle
(5
Grossesse
maladie.
approximativement
CYP3A4
34@@
y,
pré-@@
in,
initial
res
le@@
(les
bu@@
ales,
responsabilité
MI@@
signalés
puisque
tube
bactéries
Mix50
Portugal,
Après
199@@
de.
signe
vis-à-vis
pensez
des@@
can@@
chances
bouchon
phénomène
rées
el.
Suède
erreur
L'incidence
UTILISES
L’Europe
/98)
de,
ph@@
difficulté
(avec
ans)
soigneusement
I,
périodes
présentaient
(sous
semaine.
simultanément
adaptée
ages
aggravation
33@@
microgrammes/
comprenant
ie.
Su@@
corporel
fonctions
2003
indiquent
fièvre,
vomissements,
CO@@
alisation
2001
souche
ed
ens,
analyses
d'élimination
po@@
probable
cré@@
manipulation
ob@@
préalable
gr@@
X
circulation
animale
injectables.
fourni
E.
professionnel
ex.
ampoule
ampoules
63
co-infectés
enceinte
lien
005
visibles
55
absolument
elles.
S'IL
année.
L'in@@
efficace,
contrôles
6.3.
l’on
choses
débat
euros
mot
24@@
approprié
(H@@
l'analyse
constater
suffisante
modifié
Tarceva
traitée
000/
l'échelle
vaccin.
11@@
chimiothérapie
active,
osseuse
basée
rhumatoïde
malades
graisses
95
diabétiques
retard
inconnu.
bio@@
eu/.
technologies
chaleur
fortes
(L@@
prise.
4.4
4.3).
secondaire
PGR
Cor@@
atteindre
ase
grossesse.
cartouche.
CE@@
administr@@
commun
Park
5-@@
d'ex@@
souvent,
outre
ru@@
infirmière
l’UE
l'être
ise
rouler
ateurs
meilleurs
président
Imprida
concernés
d’informations
figure
pouvait
porte
es!
d'abord,
Qu'@@
2-@@
(utilisée
note
observations
val@@
machines.
essai
pioglitazone
tn
l'estomac
hyper@@
ite,
développement,
ra
20,
nourrissons
attendre
contamination
glucose
journée
présentées
indiquant
peginterféron
remise
À
analogues
sexe
manifestations
tension
destinée
stockage
tion
affection
polysorbate
internationale
mentionnées
lentement
goutte
tes,
Syndrome
disponibles.
port@@
tentatives
Belgique,
Li@@
adapté
sens
reçoit
décrit
Tel.:
unique.
Vi@@
ang@@
toucher
multiple
européennes
ON@@
naturelles
l'intégralité
essentiel
l'État
DÉCHETS
Sverige
dépistage
ré.
Parce
DECHETS
Mais,
perfusion.
reprise
contactez
défini
apparaître
mor@@
2%
IX
humain,
IS@@
trans@@
oculaire
l'E@@
neuf
sériques
périphériques
provoqué
évaluées
actuel
od@@
vitamines
panleucopénie
bas@@
d'Alzheimer
pommade
g/
transitoire
ali@@
tin@@
EN@@
quels
Viraferon
DepoCyte
Section
bo@@
2008.
cancer.
pathologies
tâches
Instructions
l'octroi
machines
ins
41
Irlande
détecter
Ltd
1,0
exclusivement
efficace.
co-administration
ers,
souffrent
mené
006
BIOLOGIQUE
suffit
Prévention
parle
peine
L'information
ban@@
Vos
tonnes
véhicule
7%
dessous
anormale
candidose
éventuellement
nécessiter
but
47
nécessitant
thérapie
ie,
D,
Protopy
ation@@
bénéfice/
oral
nettement
suspension.
chimiques
cou@@
l'enzyme
dioxyde
it.
glycémie.
devait
l'é@@
thrombo-emboliques
5.1).
confirmé
eu/
I).
lots
37
expérience
dose,
affaires
fl@@
déterminée
corps.
utilisé.
pipette
hydroxyde
D'ORIGINE
est,
ins@@
l’autorisation
tabac
parfaitement
raison,
vente
coût
AD@@
hanche
normalement
jusqu'au
suivie
l'organisme
symptomatique
résistants
es).
poids.
tique
terrain
tacrolimus
somatropine
malgré
valsartan
injection.
ER
mécanismes
TI@@
anc@@
gène
gestation
diarrhée
congestion
modérée.
85
AP@@
malignes
culture
enti@@
Eli
Gardez
ml/
contr@@
ay@@
KwikPen
sirolimus
envisagé
vol@@
constat@@
RCP
hautement
résultant
i,
Se@@
tour
l'am@@
teneur
articles
d'information
différent
tes.
ements.
rou@@
complémentaire
ir
fentanyl
commun@@
indique
connu.
programmes
parlé
Qu@@
a-t-elle
quelles
navires
écrit.
indications
débit
rapportée
rés
cardiaques
es),
fertilité
tp
SI@@
in.
signification
humaine,
prévues
d'augmenter
euse,
pos@@
(0,@@
entièrement
127/
Per@@
180
Mi@@
subi
sévère,
répétées
dysfonctionnement
cuillère
ou,
ev@@
poids,
Dé@@
LI@@
se@@
statut
obtenues
limitées
P.
..
ME@@
Royaume-Uni,
enfant,
appartient
(cellules
Œ
Österreich
attendu
pu@@
Italie
ter.
l'alimentation
d'alcool
l’enfant
nuit
Yondelis
calicivirose
tor
normes
att@@
entreprise
Ri@@
fu@@
changer
res@@
contre-indiquée
moindre
portée
ait,
voulez
Six
loi
ent-ils
é?
députés
Président,
que?
ement?
Nos
seringue,
radi@@
Raptiva
46@@
29@@
cutanée,
sécrétion
pronostic
constituent
(6
7,@@
l'intérieur
normal
devaient
ViraferonPeg
composé
cit@@
a)
chat
90@@
négative
tive
physique
remis
rel@@
mondiale
D'autres
Prise
chef
én@@
Augmentation
C)
juillet
Danemark
fournies
enzymatique
diarrhée,
um@@
so@@
demand@@
]
infectieuse
lo@@
372
Box
)@@
Belgique
permettra
danger
accident
Telzir
solvant,
rend
vie,
s’est
optimale
d’utiliser
z
FCV
relire.
extérieur
personnellement
est@@
mères
alité
chiffres
permettent
ers.
reconnaît
financement
enquête
issus
chiffre
source
constate
QU’EST-CE
parole
ceux-ci
»@@
nous,
minutes.
survenus
hi@@
hémorragie
épisodes
8,@@
(T@@
2)
gel
els.
d'attente
00@@
visuelle
ites
1%
Tritanrix
(1,5
MUI
(la
cultures
-ci
urinaire
ères,
ori@@
1-@@
Internet
discussions
interne
difficiles
l'instauration
bar@@
ing@@
jaune
poly@@
d'améliorer
2007
pratiques
apporter
présentation
ari@@
recommandées
mmol/
contraception
chi@@
sels
Wyeth
Mise
doigt
toux
augmentant
communautaire
ensemble
conseillé
ma@@
apparaissent
autorisés
comporte
stricte
injectable.
intérieur
ge
nutrition
Gélule
hausse
boire
contenir
construction
sol@@
fonctionnaires
L'ex@@
(hypersensible)
L'une
prévoit
multiples
vari@@
cancers
3,@@
psoriasique
prévue
devriez
d'activité
choc
l'évolution
efficaces
identifiés
70@@
génér@@
arrêt
d'interaction
absolue
transporteurs
co-@@
hypertension
pharmacologie
(D@@
précoce
fatigue
rée
relativement
D.
Réponse
ressources
connaissance
isolats
n°
D-@@
MIRCERA
administrées
soleil
montrent
marquage
trait@@
neutropénie
hypersensibilité
biais
filtre
Diplôme
i.
enceintes
Pr@@
général,
emballage
ette
transplantation
Comité
exercice
d'autre
Commission.
EN
der
ique
particulier,
d'acidose
réseau
lus
seuil
009
Flacon
personnes,
spécifiquement
d'abord
étapes
ai
effectivement
ble.
prom@@
mauvaise
n'étaient
l'Espagne
Ma
donne
auraient
producteurs
train
pollution
s'
comparable
vasculaire
normale.
9%
N-@@
(4@@
(G@@
d'exposition
oraux
s),
ur
l'excrétion
toxine
répondre
arrêtez
l'HMG-CoA
fera
menées
l’EMEA
CHAMPIX
25%
matin
vitro,
For@@
HepB
former
7,5
important,
-1@@
tombé,
donnant
porté
occupé
l’université
unités
Ro@@
Douleur
risque.
envisager
ens@@
utilis@@
présentations
effectués
proposé
van
tor@@
suppléments
déclarations
Mon@@
x,
ements,
SA
arm@@
locales.
rapporteur
lie
oc@@
entrer
vigueur.
sous-cutanée.
remplacement
modifiée
pl
dues
che.
Ex@@
L'injection
ka
Bayer
ble
chimique
communication
St@@
précisément
excrété
malade
aller
è@@
délivré
membres.
participation
qu’un
jou@@
re.
j'@@
dou@@
pourront
istes
voiture
Lorsqu'un
citer
ordonnance,
QU'@@
violence
pesticides
montant
passe-t-il
és?
Tlf:
ve@@
38
(à
Prometax
pertes
3)
fœ
Com@@
substitutif
réunions
somnolence,
l'acuité
vildagliptine
(<
44
débuter
cible
20%
TMZ
riche
laboratoire
ax@@
Européenne
retrait
d'autorisation
tractus
sociétés
tions,
DE@@
convulsions
ables,
commune
(M@@
présent@@
grave.
accord
érythème
maison
multiforme
implique
oculaires
d'Humalog
jeun
comprise
s;
Basal
Inhibiteurs
répartition
no@@
le,
doucement
abdominale
na
propos
tenu
poche
propres
vit@@
ment@@
commencé
émissions
pe
combien
fabricants
proposée
défenses
quement
maladies.
joue
007
010
Pi@@
prescrit.
réunion
sort
nationale
carbone
ens.
mention
contribuer
représentent
Outre
clair
semblent
cher
coup
compt@@
point,
commence
republika
L'impact
voyez
Ou
on?
Qu’@@
."
s!
véritable
encore,
ont-ils
L’Union
suivante
ide
appar@@
us.
comparativement
estimée
urinaire,
MP@@
voriconazole
mesurer
4%
augmentations
appel
post-@@
30%
22@@
enfin
EXUBERA
fixation
respiratoires,
Ribavirine
72
3-@@
nu@@
orale.
mouvements
centr@@
intervalle
animal
Europe.
nécessite
lentilles
anémie
tre
montrant
inducteur
»).
ative
3,0
diffusion
observation
associations
AVEC
60@@
one,
Business
cul@@
ati@@
Fax:
l'air
échelle
52
déchet
Virus
gènes
résulte
intention
doute
composés
NOM
lu@@
ic@@
ait.
FABRICANT
savez
our@@
d'é@@
alis@@
parti@@
croissant
continu@@
prochaines
limitée.
s'avérer
augmentent
population.
Posologie
Grèce,
bat@@
particules.
dépasse
centres
répercussions
S'agissant
finalement
aut@@
viol@@
défendre
eraient
s'en
médias
char@@
Lire
ez@@
promotion
Quatre
Slovenská
sûr,
million
te?
pouvons
Mon
Personne
/2000)
l'abacavir
péremption
,@@
OR@@
pathologie
ann@@
él@@
affections
ET@@
89
rhumatisme
minimiser
ir.
der@@
absence
éruptions
activ@@
environnement
stable
58@@
impliquant
pour@@
dic
démontrée
ES@@
né@@
FlexPen
suggèrent
vis@@
grave,
CE
effectuer
OP@@
création
s'ils
at.
incidences
ies
BASAL
mai
iques
Naglazyme
européen.
proche
s'impose
fication
fermeture
Fabricant
Royaume-Uni.
55@@
he@@
suivante:
The
intolérance
32@@
ble,
autorisée
l'ADN
devenu
importe
Co@@
réserve
réglement@@
014
371/
372/
exactement
Laboratoire
étudié.
préférence
substitution
tient
èrent
d'énergie
gravement
minorité
erez
souhait@@
d'aliments
hors
fixé
l'im@@
déclaré
esse
Leurs
langues
România
ter,
Gu@@
S’il
milliers
œuvre
alité.
(H-0@@
Boehringer
Ingelheim
enn@@
formule
(800
l'homme.
74
enne,
sanguin
l'hormone
tentative
morts
comparables
métabolisé
Tracleer
patients)
idé@@
µg
complément
précédant
4,@@
39@@
pédiatriques
adultes,
min
67
l'inclusion
dessus
aminés
docétaxel
profondes
(environ
(12
décrits
*@@
tirer
simultanée
saumon
allait@@
préalablement
triglycérides
foie.
V.
cytochrome
asthénie,
locales
directeur
lutte
(1,@@
basé
Chez
ef@@
ég@@
sugammadex
og@@
l'action
dr@@
Pharmacovigilance
échantillons
reporter
uni@@
neuropathie
périphérique
indésirables,
mutagène
ont,
représent@@
flux
changez
institutions
l'embout
microbiologique,
améliore
66
bord
flacon,
offre
réalis@@
-t-il
contre-indiqué
enregistré
scientifiques,
NE
approprié.
Finlande,
d.
actuelle
prévu
multi@@
Ab@@
7,
008
allaitement
Taux
intramusculaire
me@@
sécurité.
ets
ents.
décider
constituer
établie.
lier
alimentation
accepter
d'im@@
s'avère
tard,
ettes
L'importance
Tel
s"
dégâts
travailler
donn@@
e-t-elle
/99):
'es
ciprofloxacine
(comme
STELARA
qu'après
nécessaires,
favorable
41%
stavudine
96
44@@
9,@@
appelés
at,
Bar@@
naissance
s).
Trevaclyn
0,0@@
positive
AC@@
acceptable
interagir
ris@@
trouvent
intérêt
fluoxétine
4,5
statistiquement
comprennent
glycérol,
évalués
coll@@
densité
0,3
us,
compter
5)
insuffisant
10,
contribue
proviennent
l'emploi
(ex.:
ologie
connue.
AG@@
log
ressentez
TR@@
diabète,
outils
Val@@
ambiante
ques)
*,
commercialisation.
SE@@
documentation
européennes.
ères.
6.@@
Médicaments
accept@@
DI@@
sions
sciences
diplôme
mouvement
agissant
m2
be@@
it
D'un
U.
+46
SARL
PRENDRE
affecter
aff@@
jeté
bloque
h,
conclu@@
120
BMS
respect
prérempli,
respiratoire,
Fréquence
011
373/
(%)
monosodique
iste
EXP
réalisé
AAAA}
Mal@@
laiteux.
sources
souffrez
inactivés
k,
faible,
demandé
arrive
enne.
modifiés
intervention
conception
fumer
ment
l'impression
L'examen
appareils
Lorsqu'il
dira
Puh/Tel:
quement,
air@@
cont@@
Ses
n’auriez
Union
z,
terre
jouets
�
réalité
re?
(
Str@@
2/
d'événements
d'acide
d'administrer
intraveineuse.
pégylé
Lu@@
prurit
CT@@
actif.
ose,
Starlix
excès
tique.
»)
1997,
gorge
4)
initi@@
souris
l'espèce
indi@@
ue
ennes
muscles
vaccinés
douleur,
(200
périodiques
solides
incolore.
subit
50,
ouverture
exemple:
ulcères
198@@
ard@@
interaction
destruction
exposés
(tels
int@@
maternel,
présentes
chien
cours.
Allemagne,
tubulaire
systémiques
1998.
+49
grammes
para@@
dexaméthasone
disodique
92
Saint
français
dépassant
aliment@@
conditionn@@
sie
Candida
chlorhydrique
conditionnement
86
Infections
poumons
étudiés
Norge
Emballage
Humalog
destinées
endroits
national
internationales
NovoRapid
placé
issue
crème
d'assurer
Sebivo
variabilités
LIBERATION
Car@@
excipients,
d,
précurseurs
r.
publi@@
allaitez
recombinant
celles-ci
rappeler
situe
celle-ci
chaînes
saurait
fixer
ten@@
constatez
rénale:
restera
considère
port
soutenir
bouteille
ve
étudiés.
réellement
etc.
L'introduction
chois@@
tard
ille
est-ce
laisse
Suomi/Finland
ville
trafic
commerce
milliards
voit
l'amendement
Parallèlement,
(A4-0@@
tard.
précédemment
sang,
f,
ox@@
contraceptifs
foie,
nouveau-nés
1).
l'espace
spéciales
inférieurs
sensible
prophylaxie
induite
0,2
97
AF
numération
Riprazo
Tekturna
écrasé,
dépôt
TE
topotécan
ess@@
Pa@@
bonnes
concentr@@
compétentes
main
contacter
détection
(utilisé
mineure
possède
Plan
els,
(cf.
Communautés
n'importe
che,
pouvaient
fréquences
yeux,
2005,
Danemark,
ciclosporine
maux
(qui
d'âge
disponible.
européen,
peau.
au-delà
chroniques
sodium.
antirétroviraux
d'arrêter
71
marqué
New
prérempli.
fréquents:
Prenez
+372
BRISTOL-MYERS
SQUIBB
accumulation
lutter
couche
l'expression
Bruxelles
et.
maximales
heures,
jeter
concernées
Rapports
n'avez
Enfants
maladie,
da
83
364/
77
endroit
{MM/
paumes
Gélules
í@@
é:
allaitez.
poissons
l'en@@
psychiatriques
don@@
catégories
agissent
naturellement
80@@
ez.
qu'au
bles
tive.
l'Allemagne,
signaler
l’égout
fournit
auront
passagers
celui-ci
not@@
d'éducation
moins,
ingrédients
restrictions
appelle
deviennent
possibilités
plans
Qu’est-ce
faudrait
genre
l'internet
voitures
vote
vingt
propose
interdit
choix
habitants
veulent
ité?
(vote)
Prenons
Quatrièmement,
liberté
ER@@
ation)
oedème
(n=@@
des,
ves
col
4,9
instable
LE@@
hebdomadaire
0,25
(10
réductions
dépressifs
disparaître
rivastigmine
posologies
super@@
d'intensité
mesurée
strictement
tabagisme
distance
Pegasys
résumés
grippe
résonance
magnétique
léger
lymphocytes
appliquée
%),
nor@@
l’insuline
tumorale
'e
ellement
rash
acquis
warfarine
pharmaceutique
Bo@@
per
démangeaisons
néanmoins
idée
recevront
réalisation
mars
d'injection.
discussion
cirrhose
T.
lég@@
direction
glioblastome
complémentaires
issues
physique,
IntronA
serez
membrane
tampon
figurent
H
reprendre
experts
adultes.
Ελλάδα
Dose
visage,
malabsorption
d’eau
potassium,
sel
évolution
secondes
ane
rechercher
Elévation
100@@
Pl@@
VI@@
Elles
EU@@
effet,
régulière
suppression
persistent
équilibre
rées.
compos@@
vaccin,
procédé
suite.
considérablement
012
Tritace
Ireland
ah@@
nucléosidiques
évident
faudra
United
télé@@
concernent
alternative
rés.
l'UE.
proposés
matériaux
ouv@@
travaill@@
parl@@
développez
soit,
D'ELIMINATION
Conseil,
considér@@
homme
pay@@
sont-elles
capit@@
terroristes
guerre
e-t-il
génétiquement
Or
ée?
(A5-0@@
ler
graves.
pres@@
CVMP
réagir
358
avancé
vertébrale
(2,@@
2,0
ratio
amine
caillots
pulmonaire,
ase,
nécrose
d'équilibre
quelconque
disparaissent
ulcère
pied
adop@@
international
immédiate
l'utiliser
met@@
efforts
financier
communautaires
Programme
bri@@
Kineret
76
-0@@
BYETTA
amin@@
tique,
habituelle
négatifs
rémission
fumarate
échec
64
d'ac@@
ut@@
mère.
67@@
ol,
P450
jeunes.
neurologiques
diverses
méthadone
sac
générale,
transdermiques
titane
ta
ite.
eu.
produits.
corps,
sal@@
formulation
sexuels
Sch@@
ents,
nouvellement
l'inhibition
Her@@
l'O@@
ain@@
l'agence
étroitement
indépendante
II.
risquent
bouffées
ca@@
don
venir
chevaux
l'oreille
dihydraté,
accompagnée
tourner
Expérience
rejoint
associ@@
auxquels
chang@@
réduisant
passant
ches
vendus
TA@@
Nespo
causés
l'allaitement.
soumises
d'en
d'anomalies
calcul
EL@@
tent
modèles
tour@@
Madrid,
do
stylos,
Excipients:
LIBÉRATION
actuelle,
devrez
(souches
431
réservé
do@@
excrétée
sain
explique
Pologne,
vent
compétences
iser
Iscover
(appelée
sérieuse
entr@@
différente
fon@@
L'analyse
jouer
comporter
constaté
l'a
considérer
possible.
marchés
es»
lui-même
l'opération
L'État
Sou@@
passé,
force
article
Tant
bon@@
suis
revient
décisions
ages,
stocks
volonté
alisme
aides
pire
ées?
Novartis
sang.
ton
tubulure
obtenue
vasculaires
l'adolescent
lorsqu'une
ce,
tumeur
ré,
manqu@@
T,
nicotinique
nouvel
cm
antidiabétiques
α
inhalée
disponibilité
définis
prurit,
jours)
d'antibiotiques
restant
LDL
visible
PRO@@
Si@@
VHB
adolescents.
respiration
exposées
terme.
l'éfavirenz
irbésartan
sildénafil
jambes
d’insuline
grumeaux
MabThera
um.
d'application
TE@@
publications
ot
2000,
impression
vir@@
ES
trouble,
année,
uri@@
Ph@@
appuyer
din@@
NO@@
proches
poser
audi@@
décembre
euses,
sensations
ates
vaccination.
Paxene
secrétariat
men@@
m,
web
ats
représentants
alité,
essentiels
veaux
d'habitude.
consultation
cap@@
Tr@@
Réaction
rendu
026
pose
côtes
Réactions
terfénadine
hépatique,
ation:
OptiSet
permanent
durer
Col@@
conseils
provoquée
PR@@
population,
individuelles,
maintenue
contrôlé
013
thermoformées
ente.
créer
ó@@
reçoivent
néfastes
Malta
KOGENATE
soja
exposé
stratégie
(SIDA).
n’y
recevez
l'Italie,
moins.
considérable
lin@@
tre,
Latvija
positif
isme.
mort.
Système
ailleurs
L'évaluation
Malgré
Parfois,
organis@@
justifi@@
pratiquement
pièces
subventions
familles
penser
l'interdiction
vaut
rapport,
elle?
68
arrê@@
l'emballage.
comprendre
l’objet
osseuses
99@@
GONAL-f
l'I@@
transitoires
sévérité
Fr@@
l'UE,
hémorragiques
graduée
concept
(2@@
répondu
digitaux
L-@@
Données
perdu
injectable,
58
LSN
ines.
ziconotide
II,
Humira
hypo@@
d'entraîner
HPV
clinique,
lendemain
contrôl@@
images
d'étude
Londres
grossesses
incidence
sion,
abilité
n,
pic
nommé
ca
ard
l'angiotensine
connues.
détérioration
cellulaire
apport
réception
ois@@
sion@@
(V@@
la@@
squelettiques
ques@@
antiviraux
Bi@@
ences.
d'insuline,
diagnostiqué
l'irbésartan
gastro-intestinales
surviennent
cal
démontrer
minimale
diminuée
repos
isation,
(R@@
plantes
eant
l.
cé@@
ir,
(des)
d'apparition
E,
artérielle.
SOLUTION
ren@@
systématiquement
Uni@@
physiques
ences
musculo-
fonctionn@@
goût
Es@@
gl@@
étrangers
finale
secteurs
bêta
appliqu@@
l'eau.
compartiment
oli@@
prochain
Neoclarityn
l'énergie
2007,
lactique
β
demi-@@
informé
mer@@
ven@@
locale
dites
seringues,
015
016
021
146/
369/
375/
377/
SoloStar
Evitez
surfaces
ci-dessous.
ouverture,
économie
por@@
AB@@
organisation
élevé,
lit
remplacer
transport@@
fruits
continuent
fs
manger
rejets
L'âge
comprend
code
mètres
Mode
zéro
vide
actes
atteint,
N’utilisez
MARCHE
Près
Regardez
quinze
agriculteurs
nation@@
ais.
armes
votes
bles.
pourtant
monnaie
est-elle
Qu'avons-nous
+45
Orphan
lévodopa
attentive
évènement
7)
(6@@
rapportés.
lésion
abcès
maintenu
asi@@
hommes.
heur@@
x.
Karvea
P,
(p
OPTISON
expositions
pen@@
blessures
l'organisme.
osseuse.
VIH-1
aci@@
termin@@
plaquettaire
significatives
6%
inadéquate
sensibles
l'an@@
bilirubine
PO@@
sevrage
additifs
(N@@
que).
Parkinson,
affectant
ib@@
probabilité
ate,
molécule
actu@@
orale,
chev@@
rapport@@
197@@
conseiller
pourrez
patient,
feu
prennent
causer
décrites
ci-dessus
os.
émulsion
l'huile
Dès
sée.
vaccinale
transparence
Gr@@
RO@@
d'augmentation
AV@@
My@@
nasale,
l'hydrochlorothiazide
rat
sains.
m.
ne,
PVC
EX@@
Pays-Bas,
IV@@
le.
que@@
transcriptase
d'interrompre
Rom@@
substituts
PL
puissance
gé@@
tubes
bénéficiant
..@@
nez
centrale
oire.
-vous
ines,
souffre
atrice
Etats
adéquat
organisé
empêche
donnez
ADROVANCE
l'indication
prévoir
ateurs.
indéterminée:
027
vaccin@@
one.
solvant)
017
018
024
376/
97/
ON
tif
sulfate
rec@@
Sol@@
Ser@@
retourner
FHV
cam@@
],
Trans@@
Oy
gros
bil@@
ne.
fier
1998
matin.
oublier
dos@@
BI@@
as,
PC
S'@@
sion.
Interactions
électronique
a-@@
tro@@
Ne@@
CO2
d'aucune
d’être
directives
imputables
courant
territoire
équivalent
L’objectif
dépasser
Lietuva
définitif
Neurontin
compli@@
reprises
paiement
istes,
méthoxy
glycol-epoetin
conclusions
L’un
tés
suppose
ais,
faut-il
victime
Sous
l’article
ment.
là.
crédits
mots
publicité
bateau
justice
dangereux
48@@
PI@@
u.
disposer
sh@@
ds
vide.
ose.
hypoglycémie
sains,
l’étude
Pelzont
V,
fatigue,
T-@@
agences
l'homme,
performances
surcharge
insuffisante
thrombose
CEPROTIN
suivis
l'inflammation
march@@
(50
rats
céphalées
d'inter@@
gemcitabine
hor@@
cardiovasculaires
protéique
0,
mg/@@
initié
graves,
base,
ventre
favorise
mercure
agent
6)
givré.
T)
ministère
vérification
ed@@
professeur
6-@@
retiré
biliaire
inconnue.
écou@@
électrique
ORACEA
d'hémophilie
trouv@@
ate.
d'h@@
l'étude.
augment@@
paclitaxel
Du@@
chromosomiques
ins,
d'agents
sor@@
hémophiles
rupture
6,@@
pan@@
l'injection.
infarctus
entes
Centre
(200@@
(utilisés
s/
prim@@
cuillère-mesure
dev@@
contraire
99
issement
épargneurs
mille
alimentaire.
MA@@
baisser
compromis
rom@@
réfrigérateur.
persister
inhibant
rénal
rare:
héréditaires
développent
0/
028
023
boîte.
ra,
Kent
l'étiquette
Grèce
alt@@
í
organisme
les@@
médi@@
pauvre
établir
urines
fusion
sés.
ra.
isme,
prescrire
valide
global
tiv@@
t-@@
Information
Toujours
ordre
rem@@
retrouve
travaillent
gue
pér@@
contrat
paquet
rée,
l'heure
es-@@
figurant
recommandation
conçues
désormais
pe@@
utilisent
animaux,
étape.
Rue
d'y
L'insuline
règlements
si,
période,
allez
parvenir
eur?
S’IL
exemples
mes,
e»
commissaire
police
vol
denrées
écoles
s".
message
a-t-on
rait
père
pétrole
d'ici
disposons
/200@@
ques?
Non,
1/2001)
voi@@
recevrez
place.
égales.
circul@@
l'hypoglycémie.
sup@@
professionnelle
aigu
disparu
requis
ira
1.@@
re,
fabriqués
spécialement
CYP3A4,
médicamenteuses
document@@
acte
confusion,
sortie
(au
53
indésirables.
(et
pointe
P)
109/
70%
IV
d'en@@
bactéri@@
moyennes
indiqué.
CH@@
l'amélioration
aveugle,
répétée
minim@@
Betaferon
patch
méthotrexate.
disoproxil
ine)
ol.
ement@@
ure.
initiatives
ist@@
vertiges,
Luxembourg,
l'hôpital
Be@@
aspects
réseaux
installations
d'essais
/96)
coloration
”
ch
récupération
cutanées,
d’entre
identifié
gamme
n'avait
vigueur
FI@@
ça
enceinte.
poussées
Dernière
isation.
cher@@
chronique.
botulinique
autoris@@
drogues
résistantes
détermination
pou@@
2006
filgrastim
mais,
dl
officielles
inverse
surpoids
Rapid
MSD
sie,
luttent
glucose-galactose
Londres.
y.
préremplis
ast@@
l'histoire
q
ques:
corporel.
ministre
Hyper@@
ja
charg@@
d'intérêt
visage
vomissements.
aill@@
â@@
diminuant
tur@@
Limited,
2800
radioactif
Chlamydophila
rejet@@
dérivé
l'unité
rue
ouverte
grossesse,
qu’en
question.
soin
my@@
brûl@@
4.2
lé@@
ia
mu@@
Retirez
Me@@
MM@@
marché:
unidose
opérations
film
ü@@
(B@@
production.
ressentir
Informez
MU/
ú@@
ances
mental
glob@@
propos@@
art@@
copie
attaque
portent
disparaît
sexuelle
alimentaire,
retour
l'encontre
démontrent
exclure
s’agit
ini@@
d'ab@@
intoxications
naturel
justifie
demi
personn@@
qualité,
valable
conversion
pén@@
exploit@@
champs
prêt
pleinement
utilise
fut
mort@@
nucléaire
télévision
lues
consommateurs.
temp@@
re:
mission
ignore
dépassé
poisson
Si,
met
handicap@@
s'y
fait.
Vfend
contamin@@
soldats
vivre
acc@@
pauvreté
fond@@
l'idée
amendement
d'ailleurs
ent-elles
!"
Oui,
K
tera
conven@@
suivez
effets.
cardiaque.
gauche
C).
groupes.
oxy@@
il.
buccale,
dor@@
pel@@
suicide
qu'avec
observée.
célécoxib
varie
démangeaisons,
ure
v
aurez
articulations
diminué
c,
interrompre
corporelle
aiguë,
surveillée
indiqué,
-1
diarrhées
chacune
collaboration
exclus
partiellement
malformations
91
ateur.
fréquentes
phosphatases
thromboemboliques
oni@@
démence
colonne
compatible
toux,
traces
Equilis
observés.
fibrose
trouvé
mmol
SUTENT
cau@@
Zonegran
d'interactions
récipient
:@@
{NOM
britannique
meilleures
maraviroc
inclure
litre
1%).
sion
chambre
2).
conclusion
(autre
efficacement
laissez
n'ait
difficilement
prenne
vous,
d'élévation
2005.
induction
COVERSYL
recombinante
éventuel
gliome
corticoïdes
invasive
O.
absorption
ophtalmologiques
gants
survenant
CE.
int
potentielles
lors,
A)
aliment
bilan
réguliers
N,
direc@@
ect@@
péri@@
inform@@
député
65@@
douleurs,
comprim@@
hydroxy@@
Deutschland
l'enfant.
régression
d'intolérance
reconnu
Man@@
ologie,
recherche,
sèche,
crampes
+4@@
62
ana
Durant
d’administration
OL@@
deux.
g.
marqu@@
aire:
potentiels
nouveau.
porcine
DICC50
CYP3A4.
Viani
alimentaires.
faits
Caractéristiques
recommandé.
rincer
PAS
envisagée.
ly@@
cimétidine
Uxbridge
l'intermédiaire
isol@@
amélior@@
variant
HEXAL
montrer
020
022
150/
276/
l'équilibre
l'aspect
bor@@
61
TESLASCAN
Mixtard
03@@
Or@@
ff@@
spécial
l'intervention
ajouter
Temodal
développ@@
obligatoire
autrement
dit,
qualité.
induire
l'importance
son@@
pas@@
Ber@@
coli.
hépatique:
l’aide
(dose
humain@@
essentielle
lan@@
tchèque,
ablement
(Unités
L'augmentation
consult@@
émis
ain
garantie
emploi
observe
dési@@
Ni@@
es"
instruments
l'Allemagne
adopter
tomber
mis@@
MERIAL
Alpes
l'intention
Lisez
quer
tués
sanitaires
Mor@@
+47
151/
Résultats
Puisque
intérêts
Finland
oui,
bénéfici@@
initiative
vivant
contribu@@
l'accord
Européens
tout,
ignor@@
revenus
économiques
interdire
politique.
farines
import@@
acheter
norme
négociations
affaire
accordée
ale?
peuples
Commissaire,
?"
ations?
(A4-04@@
3/2001)
/2002)
88
Cl@@
Healthcare
veineuse
d'urgence
VICH
ologique.
posi@@
ng/
anomalie
éd
prises.
lieux
l’absence
thromboses
(incluant
bouche,
perforation
rat,
75@@
contraceptif
cellul@@
U/
thoracique
vital
oiseaux
sol
SPRYCEL
médiateur
l'ajout
MO@@
d'Effentora
(«
cin@@
pravastatine
parti
EP@@
supplémentaires.
140
cad@@
animales
15%
gra@@
(1@@
otite
révél@@
2.@@
débuté
exclu
5.
Fasturtec
fond,
terminé
ALAT
femme,
Prequenza
paralysie
2001,
1,7
actif,
saine
glucose.
73
origine
analogue
générales
F,
DATE
02@@
1996
dépression,
ences,
chargé
poste
e/@@
Br@@
té@@
yn@@
AL
bleu@@
De@@
M)
l'adulte.
des.
Sécurité
risque,
cité
caoutchouc
l'administration.
Lis@@
hypotension
har@@
cutanés
résumé:
développements
absorbée
ELISA
Av@@
dirigés
comités
RI@@
sélective
augmentée.
répondent
considérables
abl@@
sommet
(2
couramment
fluctuations
act@@
cancer,
ues
visites
dra@@
résistant
Th@@
DG
CON@@
insuline.
(infection
fongique
écoulement
glandes
College
Industrial
dl.
gonflement,
Treatment
A.,
éri@@
somm@@
adulte
isse
moyenne,
l'extrémité
cellules.
Président
tent@@
fourniture
facile
repas,
iste.
d'anti@@
précédente
s'aggravent,
d'expérience
apport@@
rosiglitazone
recyclage
piston
guérison
capital
limit@@
Utilisez
duquel
30,
actuelles
bour@@
019
025
06
046/
comportant
collées
parois,
anhydre,
bru@@
180°
l'indicateur
te)
ow@@
tremblements,
dos
ade
l'ar@@
hypertendus
travaillant
admis
prescrite
(VIH-1),
d'ar@@
d'eau.
sti@@
provoquent
prime
bas.
utile
fonctionner
douloureuse
Hongrie,
pé@@
Lésions,
oxydase
achet@@
Internationales)
anesthésie
fic@@
lev@@
desloratadine
pol@@
active.
est:
l'avis
700
eff@@
génération
répétez
1er
saisine
dur@@
préfér@@
calendrier
déclaration
combinaison
compéti@@
obligations
rac@@
monde,
qu’elles
prochaine
l'attention
abor@@
l'existence
atten@@
bâtiments
qués
défense
Tor@@
ADRESSE
choisir
soci@@
ts.
ités,
Bel@@
D’ÉLIMINATION
oubli@@
Sinon,
campagne
Soyez
commerci@@
retrouver
sols
proposées
investissements
autre.
discours
vieux
plein
crédit
communauté
collecte
euro
clonage
autres,
énergétique
pri@@
j’ai
j’@@
e-t-on
estimations,
eurs?
Trop
sanofi-aventis
prendra
glycémique
3).
urique
identiques
tive,
lymph@@
sarcome
cuisse
intestinale
comportements
mous
menace
indépendant
l'insuffisance
conjointement
l’année
évaluations
injectée
dépend
pénétrer
IC
d'ulcères
relatifs
ologiques,
lettres
douze
60%
581
ts,
signal@@
employ@@
6.
hy@@
82
exclu.
ation;
dialyse
hommes,
2,6
aggrav@@
2004
attribu@@
affecté
l'amlodipine
-M@@
médicaux
inhibition
duloxétine
d'expiration
administrations
inducteurs
céphalées,
Saint-@@
enregistr@@
Medicines
chlor@@
stades
délivrée
cur@@
nou@@
hoc
souples.
final
soumise
Lorsqu'une
alement
ue.
femmes.
janvier
Soliris
transmis
presse
sions,
45@@
sées.
pt@@
concomit@@
plaie
éventuelle
génétique
mort,
Italie,
réside
l’augmentation
variable
qui@@
l'examen
recherches
paresthésie,
virales
93
S-@@
cutané
digoxine
ologie.
maîtrise
ois
-je
aid@@
Hémorragie
AS
arg@@
Trouble
selles
San
change
métacrésol,
ili@@
4-@@
Services
Roche
uti@@
Prévenez
fongique,
CD@@
ant:
appropriés
W
spectre
cli@@
euses.
ains
Pen
spécialisé
d'avis
totalité
Cal@@
observer
um,
antiacides
ue,
ultérieure
importante,
d'ajuster
conformité
statistique
cy@@
Street
Sil@@
prévenez
favorables
opérationnel
l'administration,
Via
soulager
Est@@
couvre
pelliculé
alu@@
Eviter
oir.
compr@@
fenêtre
direct
Thyrogen
chats
journal
Fréquents:
dys@@
tifs,
inst@@
créé
tives
ération
Rou@@
douloureux
convi@@
lettre
radio@@
l'usage
fiable
stimulation
table.
s’assurer
vouloir
au-dessus
rage
ures
garder
décrite
antigènes
égard
forces
tion@@
figurer
monoamine
d’utilisation
Aucun
L'exposition
vétérinaires.
subir
color@@
Janssen-Cilag
sign@@
ène,
longtemps,
également.
pris@@
ami@@
.)
tolérée
sie.
dangereuse
image
11.
rée.
versions
adopté
approuvées
retarder
couverture
européennes,
●
erie
Ver@@
Tri@@
ophtalmologique
rés,
de:
l'anémie.
seules
L'intervalle
style
lourds
agricoles
Modification
Haarlem
N’@@
N’arrêtez
Lib@@
/9@@
rendez-vous
attitude
publié
page
transportent
Suite
ê@@
mur
uniforme
issent
négoci@@
pollu@@
procès
citoyen
dangereuses
paiements
fraude
gouvern@@
kilomètres
voy@@
prison
frontière
dialogue
libér@@
évidemment
vivent
c'était
intéress@@
L'étiquetage
chréti@@
d’euros
l'argent
e",
fr@@
ez-@@
cri@@
impos@@
d'autres.
avions
dirait
Récemment,
(A4-02@@
Seule
Voici
90%
alternatives
AMMONAPS
immédiat
explicative
cependant,
dèmes
sous-groupe
dés
ce.
colite
effectuées
ganglions
atives
carcinogénicité
l'ac@@
récent
Type
(3@@
air
ras@@
Glivec
appropriées
Cetrotide
ation).
appelées
OM@@
microgrammes.
situent
perturber
thyroïde
neur@@
déterminé
atteignant
contre-@@
3.@@
mat@@
les.
scores
Health
jour),
oxyde
04@@
proté@@
AI@@
2%)
applications
d’environ
pharmacologique
tolcapone
identique
0)
ath@@
ajouté
NovoLet
-9@@
second
maxim@@
P-@@
gastro-intestinal
évalu@@
Ad@@
satisfaisant
relations
myocarde
main,
acné,
ber@@
VOIE(S)
avertis
quotidiennement
ä@@
ée:
février
tifs
commercialisées.
'œ
d’éviter
situation.
uniques
opération
carcinogène
orthopédique
ml).
gastro-
spécifiques.
Espagne,
Irlande,
appropriées.
retards
nés
fil
ellement.
J.
l'injection,
fs,
9-@@
err@@
chute
jus
nasale
bruit
ss@@
européenn@@
issez
Tél.:
E-mail:
6.1
prolong@@
ett@@
autre,
ouverture.
reconstitué,
conservation,
Keppra
bactérie
Ac@@
d'évènements
malin
spécifi@@
tourn@@
viennent
1000)
paupières,
gn@@
El@@
accidentellement
felis
accroît
Voir
d'informations.
chinois
thrombine
paroi
inf@@
boite
muscle.
London,
ats,
d'arrêt
auquel
s'attendre
envisagez
VIH,
compatibilité
Risque
données,
dangers
remplir
Erbitux
dois
g/@@
357/
358/
ZYPREXA
divergences
Tél:
our
personnes.
Fréquent
sil@@
0.@@
ö@@
retirée
Glustin
enceinte,
né
annuel
monoclonal
pH
-B@@
nourriture.
longs
introduite
problème,
TRISENOX
ros@@
pon@@
95@@
maïs
quez
précis@@
Insuffisants
durée.
puissant
collègues
ait@@
Kingdom
fabricant(s)
aliments.
âge,
observ@@
entreprises.
incluse
apporté
ep@@
d'incidence
compte-gouttes
intervenir
-on
trait
introduit
conserv@@
tiers.
vend@@
voyage
chant@@
l'Irlande,
amen@@
propagation
offrir
ajoutée
rées,
l'Autriche,
Européen
Porte
sée,
buvez
produc@@
Mac@@
lou@@
oir
grand@@
Pe@@
Ramsgate
Prendre
maladies,
Puis
Qu'en
pages
Se
moment,
juridique
ajou@@
Vingt-@@
Αγίου
Δημητρίου
GR-174
Άλιμος
30-210
attend@@
emplois
sont-ils
drapeau
aujourd'hui,
es".
tir@@
transports
peuple
métaux
meurent
voient
vols
aujourd’hui
l'an
libéralisation
aï@@
mobil@@
ent?
là,
?@@
Parlement.
servir
ai-je
démocratie
bois
dollars
arriver@@
l'intérêt
entendu
danger.
sera-t-il
connaissez
erons
ait-il
aire?
tion?
/1999)
Souvent,
enlever
ouver@@
tés.
canal
(8@@
randomisée,
inhal@@
benzodiazépines
agoniste
sommeil,
avaler
ome
sévères,
sensibilisation
combin@@
ique,
contrôle.
respectivement,
DMO
1,4
comparée
préparer
MS@@
manuel
(non
h.
fos@@
sert
traités.
(pharmacovigilance
clé
A-@@
gastro-intestinaux
doses.
25,
(100
l'amprénavir
affinité
cardiovasculaires,
ente,
M,
sérotonine
gastrique
l'anesthésie
persistante
%@@
avi@@
h/
on;
féline.
l'organisme,
thromb@@
retrouvé
IONSYS
profils
vessie
apparue
D3
calci@@
eth@@
croisée
pal@@
aveugle
support
post@@
d'I@@
litres
ure,
ASC
phot@@
cra@@
érythème,
déficits
4.3
employé
1987,
Berlin
bovine
licence
tez
indication
ANT
isés
w
RE
autorisées
trac@@
lymphoïde
médicamenteuse
bébé.
(F@@
évoqué
aliser
renforcer
produites
examiner
paragraphes
présents
omes
Sal@@
l'asthme
Rare:
aire@@
altérations
informations.
défini@@
grasse
internes
atténuer
cerveau
nez,
d'hypoglycémie
correc@@
humaines
hamster
initiales
clon@@
vétérinaire.
bronchite,
occasionnellement
benzalkonium,
protéinurie
ner
d'am@@
Is@@
Animal
CP
atif
pâ@@
d'éventuelles
Diacomit
cœur
Veterinary
région@@
d'association
dernier,
université
(0)@@
automatique
l’administration
cou
Douleurs
Ger@@
élevé.
Produit
ennes,
veill@@
pH)
disparition
Tallinn
glande
rapides
virale,
simplex,
nom@@
cycl@@
omb@@
ong@@
complexe
yeux.
auto-@@
approuvé?
tif,
2006,
ent:
Viread
introduire
lumière.
touche
spécifiques,
BeneFIX
règle
fabrique
combiné
médian
gues
chiff@@
risques.
motifs
134/
152/
XXX
415/
orodispersibles)
températures
solution.
couvrir
Nor@@
stabilité
Espagne.
PRINCIPE
ACTIF
eng@@
annonciateurs
Wilzin
complet
l'ouverture
dit@@
ance@@
matéri@@
l'environnement,
AN
Grande-Bretagne
L.
N'utilisez
tre.
Office
ité@@
No@@
Herpèsvirus
Seringue
Hu@@
blanche.
thi@@
Nobilis
supprimer
prot@@
s'applique
aval@@
sinon
p.
d'autant
journée.
variations
spécialistes
vaches
rejet
revenir
Suède.
Intervet
Sa@@
aires@@
ites,
écar@@
l'h@@
mélang@@
test@@
cer@@
conçue
dépendante
doseur
clair@@
pren@@
évitée.
hu@@
circulant
puis@@
êtres
d'unités
l’heure
examin@@
bande
réussi
chemin
précis
point@@
blessure
titulaires
ages.
délais
comparer
annu@@
enquêtes
l'UE@@
ve.
bra@@
eusement
Roumanie
l'obésité
foyer
Cour
L'im@@
formul@@
repose
L'olanzapine
bien-être
niveau.
recev@@
Métabolisme
arr@@
ers@@
a?
études?
Sh@@
Lam@@
Sujets
tar@@
résultats.
proposer
accor@@
elle-même
marchandises
villes
entend@@
profit@@
problème.
non,
Communauté
encourager
quotas
moi
donc,
construire
.»
législ@@
données.
histoire
qu’on
détention
néglig@@
bientôt
vrai
m'a
malheureusement
électeurs
L’UE
!@@
Permettez-moi
interrompue
instauré.
retirez
accorder
auparavant
récemment,
compl@@
(ex:
composant
3/
om
capables
cis@@
Kivexa
menés
EC@@
78@@
tradu@@
avérée
d'1
Tredaptive
noté
applicables
angor
prothrombine
l’Agence
AT
contexte
inflammatoire
pancréas
obten@@
siège
4.
organismes
corticostéroïdes
excrétés
contrôles.
total,
cale
130
35%
venlafaxine
ond@@
d'imagerie
(soit
ans).
af@@
veineuses
LU@@
Lucentis
été,
Rebetol
spondylarthrite
eri@@
neutralisants
l’in@@
radioactivité
ologique
Zometa
faible.
l'éfavirenz,
4).
EVRA
ide,
agn@@
han@@
ones
odi@@
RENOUVELLEMENT
Médicament
ambi@@
grav@@
moteur
ellement,
retrouvés
convulsions,
conférences
Pierre
Nord
gie
prolongée.
vésicule
76@@
plac@@
rouge,
“
adi@@
langue,
légères
é)
80,
mod@@
modérément
ne@@
(syndrome
exerce
tres
formulations
diffuse
l'entecavir
tou@@
anticoagulants
accompagnés
aboutir
publiés
complexes
concours
placés
période.
visuels,
vertiges
antirétroviral
8.
pharmacodynamiques
ex
pratiquer
Ces
inflammatoires
apparus
allaite.
surveiller
créatininémie
immunosuppresseurs
millepertuis
suc@@
volontaire
bilité
co-
supervision
nourrisson
buccal
ig@@
glycine,
d'eau,
Diminution
Pays-Bas.
d'H@@
peux
connaiss@@
allergies
délégation
PL@@
combinés
kg,
onnement
AU
l'immunisation
Vis@@
heure,
dysphonie,
sommeil
SA@@
GE
Novo
enfant@@
rapide,
soleil,
basse
bactérienne,
herpes
thiazidiques
arrière
transparente
prophylactique
infectées
di
path@@
hom@@
ovarienne
@@@
aqu@@
aggraver
l'économie
l'équipe
française
exécu@@
d'administration,
affirm@@
ser.
alpha
accidentelle,
d'effectuer
l'aiguille.
molécules
NovoSeven
CE,
qualifié
développe
cide
altern@@
circonstances.
(E
B)
glycoprotéine
suicides
popul@@
her@@
différ@@
(0,2%
Madrid
l'extérieur
029
stylo,
54
426/
vêtements
thrombocytopénie
Chaque
monohydraté,
avenue
l'ampoule
PD@@
Actraphane
ans@@
soign@@
Ru@@
accords
ci
fil@@
sentiment
man
Un@@
l'inscription
08
Puh/
u,
attaques
ki
Antigènes
hydr@@
Hypo@@
envers
mesurés
transformation
bloqu@@
r,
financières
const@@
recommander
indispensable
d'adapter
nourriture,
mes.
log@@
résoudre
pro-@@
pass@@
protège
issant
mandat
sais@@
pli@@
lign@@
ie@@
7.
oy@@
ateurs,
l'année.
Kar@@
allemand
faciliter
fabriquer
registre
mener
suggère
Clopidogrel
probénécide
équivalentes
longueur
conten@@
opportun@@
écrit
envisag@@
signaux
excepté
prouvé
l'hypoglycémie
marche
objec@@
scrupuleusement
tribunal
existantes
endra
consommateurs,
Ros@@
remboursement
structures
garantissant
au,
ther@@
(pourcentage
fixées
cinquième
dépendance
traduit
précise
combattre
MARCHÉ
congélateur
Peut
co
numéro
entend
table
Sandwich
9NJ
Hampshire
assi@@
dois-je
sem@@
Dan@@
assu@@
ç@@
té.
Question
n’êtes
aliste
exception
même.
trouverez
verrez
limitation
provenance
mondial
clim@@
équipements
c'
exploitation
croy@@
définir
payer
vain@@
filles
jeunes,
label
habit@@
coûte
chos@@
ju@@
politique,
d'euros
frontières
brevet@@
fondament@@
ONG
arriver
dire,
sport
chasse
peut-on
déclar@@
el?
militaire
confi@@
faisait
livres
automobile
sanctions
laissé
question,
ant?
export@@
que!
pensez-vous
(A5-03@@
(A5-02@@
(A4-03@@
(A5-04@@
Résultat:
Danmark
après.
injectez
symptôme
uns
majeurs
mg).
observé.
22%
α@@
mesuré
chromosome
divisée
anxiété,
chol@@
réalisée.
compar@@
cytarabine
minute
tolérance,
modérés
oti@@
normalisation
d'infections
surdosage,
pent@@
gêne
sions.
grade
analy@@
micro-@@
l'issue
d'induction
fréquente.
visite
plan@@
profonde
oedèmes
mé
utilisées.
CYP1A2,
ritonavir,
7-@@
contracter
flu@@
cisplatine
J
viv@@
additionn@@
8-@@
III.
(le
320
d'aggravation
naturelle
stimulant
urin@@
Remicade
deux,
enregistrée
posaconazole
l'hyper@@
d'hyper@@
trou@@
a/
jour).
ô@@
orales
d'insuline.
obèses
absorbé
examinés
survenir.
photosensibilité,
légers
lin
France.
chargée
fix@@
alo@@
prob@@
be
bloc
grippal,
déshydrogénase
visuelle,
allergique,
quatrième
certificats
désignation
mani@@
urinaires
démontr@@
D'@@
cat@@
°C
correspondantes
caoutchouc.
Lda
eux@@
approuv@@
août
médicamenteux
hormon@@
accroître
lactation.
hématomes
ature
maculaire
érythropoïétine
o-
monothérapie,
pneumonie
ins.
sueurs
somnolence
transporteur
recommandés,
rétinopathies
primaire
Mises
Fuzeon
alcool@@
tête,
l’information
dées
notifications
côté,
définies
produire.
introduites
fluor@@
Inter@@
confirmés
aigus
ène
its
Fort
tée
déterminera
d'Insuman
(patients
européens,
Evénements
tifs.
corporelle.
épidermique
constipation,
bouch@@
plaies
on:
Pradaxa
ur,
servent
jug@@
He@@
eons
pharmacie
gal@@
n.
(9
…
Warszawa
Marché
ités.
liquides
gastro-intestinale
.,
O,
UR@@
sacs
Holdings
tee
plaçant
pensées
sèche
épuisé,
muscle
oculaires:
l’œil,
tomb@@
tis@@
étranger
Mont@@
év@@
(PLI
1995
hôpital
Am@@
pré-remplie
EMADINE
s.@@
CV@@
Bor@@
“@@
étudi@@
ouvert.
une,
quart
d'installation
périodique
guère
l'Annexe
Aprovel
ac
zonisamide
er:
lunettes
maintenance
AND@@
d'appliquer
constituti@@
posé
d'amélioration
positions
intervenant
d'épargne
voici
spéciale
acétate
Sar@@
Diskus
Ter@@
régul@@
indépendamment
aine
rant
Parkinson
indépendants
031
orodispersibles
366/
59
81
425/
08/
484/
récentes
éventuels
artifici@@
EV@@
suivantes.
d'acides
Exforge
Har@@
urg@@
bal@@
SUBSTANCE
TIN
Vol@@
déc@@
Filgrastim
enceintes.
ém@@
fine
demeure
l'AMM
tabl@@
extérieur.
noir
jaune,
constitu@@
tre@@
PE@@
str@@
km
l'érythropoïèse
d'impact
sulfamides
inactivé
HEXAVAC
opaque.
ik@@
Maladie
extr@@
IB
division
causées
thyroïdiennes
quée
conducteurs
bras.
conséquence.
différents.
iez
era.
REYATAZ
discu@@
d'immunodéficience
atoire
claire
TH@@
échou@@
gén@@
prélèvement
différemment
compét@@
commencent
partenaires
vérifi@@
poules
tan@@
lents
d'habitude
go
sérotoninergique,
L'ELIMINATION
hémorragique
tel@@
communes
l’eau
asse@@
Viraferon,
loratadine
darbepoetin
Nobivac
oblig@@
L'activité
émise
Ziagen
pesant
leucose
passent
fixée
composée
croissance,
pratiquée
chauff@@
sé.
session
supporter
l'adoption
Ranexa
varier
quement.
l’ensemble
important.
réponse.
engagements
basées
social
dossier
compétence
hér@@
lénalidomide
erreurs
sensiblement
énorme
fs.
bris@@
co-rapporteur
sav@@
caractéris@@
secondes,
vaste
équip@@
bien.
tif.
RA@@
financière
vite
part,
l'Irlande
prévisions
existent
Tevagrastim
l'avenir
relève
Lin@@
accompagn@@
dre.
reven@@
1/@@
ch,
identiques,
mètre
références
Rec@@
situé
Orale
abs@@
tra
sujet,
Placer
composition
l’autre
indiquer
Précautions
ordonnance
pain
assist@@
terres
Slovenija
identifiées,
priv@@
voyag@@
2010
directive.
connaî@@
Vu
décharge
compagnies
réfugiés
alarm@@
ont-elles
plafond
catastrophe
considération.
innov@@
religi@@
banques
autres.
venez
contraign@@
élections
biens
salaire
lacunes
civil@@
mentionn@@
vies
commiss@@
États-Unis,
Afrique
terrorisme
importations
clandestin@@
bateaux
discrimination
ance?
crée
gagn@@
sida
cesse
L'exemple
prison,
voudrais
absur@@
sens.
l’ex@@
judici@@
L'interdiction
îles
l'autre.
lieu,
remarque
devrait-elle
l'exemple
croit
voulons
ence?
brevet
6/98)
Savez-vous
Qu'a
/00)
2/2001)
Vient
Voyez
contribué
émie
l’effet
âg@@
articulation
arrêts
7/
iste,
l'obtention
hypertension,
continu
que),
consci@@
Ev@@
ok@@
correspondante
ID@@
51
comparés
répartie
immunoglobulines
mémantine
envisagé.
fluvastatine
libérer
risque)
l'atteinte
existant
sujet@@
interruption
anti-
alfa.
VE@@
mati@@
traités,
dique
exprim@@
kg.
6/
urinaires,
antérieure
mois)
Interféron
musculaire,
se,
pulmonaires,
tax@@
comparant
hémorragies
104
mère,
reproduc@@
touchant
Levemir
5).
modéré
graisse
antihypertenseur
cité,
ide.
individuels
MIRAPEXIN
al)
L,
écrasé
iv@@
Date
2001.
ologi@@
69
critiques
1995,
immun@@
conseill@@
1990
impliqué
d'at@@
C-@@
urie
(jusqu'à
ATION
Mo@@
enc@@
LMR
D'ADMINISTRATION
ct@@
d'experts
aériennes
n'inhibe
convenablement
spéci@@
hautes
l'ab@@
spécifications
méningite
Produtos
micro@@
infiltrats
pulmonaires
trop@@
extension
-00@@
envisagées
aller@@
oses
lig@@
rongeurs
biotechnologie
employés
applicable
atta@@
d'après
ies,
heure.
suivies
produisent
temporaire
amide
sitagliptine
contribution
l'hypertension.
conservateur
rénales
immuno@@
transmises
avérés
contin@@
dons
périphérique,
oeuvre
comport@@
T).
en-@@
mil@@
Ltd.
Deux
R.
sociales
VI
erg@@
accélération
hépatiques.
distinction
chirurgien
vre.
EUR
affectent
San@@
2005
virémie
environ.
150@@
kilogramme
's
ore
épidémi@@
collyre
mg/ml
transféré
administration,
coli
clo@@
l'ajustement
Recommandation
6676
+370
SARL,
anormale,
ris
d'inhibiteurs
risques,
oire,
rétro@@
permanence
micr@@
S)
l'éducation
l’environnement.
complément@@
FS@@
outil
d'O@@
chercher
suivant.
veine.
mono@@
poches
habitu@@
trice
alisé
5.@@
sive
transformé
l'adolescent.
correspondent
compatibles
déconseillé
ateur,
manipul@@
identifi@@
signifi@@
herpès
immunitaires
permet@@
c.
l'anti@@
vertu
50.
§
globulaire
l'apport
030
032
033
137/
exposer
nuire
sorbitol
chlorhydrate
ACTIVE
suspension,
ci-dessous:
renversez
quer@@
sp@@
oï@@
88@@
anglais

caractérisée
isant
activation
occlusion
Gar@@
positives
atifs
divis@@
diamètre
JAMAIS
vou@@
rie
lévétiracétam
nie,
objective
justifier
enseign@@
SIDA
publics
technologique
venant
pseudoéphédrine
évité
individuel
positifs
lè@@
adéquat@@
faussement
d'accident
sérum
ois,
l'eau,
Lituanie,
Pays
agi
manifest@@
correctement.
vérifiera
207
concern@@
contenues
b,
za
Cette
Ultratard
á
Stockholm
qu’à
juge
Qu'il
[N
nie
réussite
cigarettes
coups
stock@@
née
bureaux
Rap@@
annuelle
procédure.
stimul@@
régulateur
fur
ets.
substitutions
jet@@
ennes.
étude.
instrument
Bal@@
salle
poulets
lam@@
auto@@
comprom@@
195@@
recommand@@
NutropinAq
édi@@
appropri@@
décision.
budgétaire
plomb
id
campagnes
rage.
are
précédent
aussi,
exigent
blanc-cassé
d'Utilisation
compensation
soumettre
recherch@@
conf@@
bons
élev@@
atif,
unité
Ori@@
command@@
anci@@
Rus@@
garanti@@
l,
révèle
érer
terminé,
apparemment
Tél/
mou@@
réel
congélation.
nocifs
mot@@
peur
essi@@
l'Europe.
l'avez
paix
consul@@
Prac-tic
pauvres
Puis,
Questions
serv@@
remplac@@
Europ@@
S'assurer
motiv@@
psychiatrique
position,
comment@@
bles@@
appris
préoccup@@
passi@@
bâti@@
orient@@
d'élevage
directive,
taxes
proportionn@@
lois
commis@@
production,
dérogations
connaissances
rues
oppos@@
garanties
appréci@@
Euro@@
empreintes
appel@@
notion
présid@@
onne
navire
tuées
allégations
plaintes
anim@@
peines
prouver
agricole
OGM
trente
touchées
mérite
l'espérance
erai
crimin@@
L'industrie
croire
l'est
avion
"?
objet
assassin@@
places
plaît,
avez-vous
connaissons
expul@@
Puis-je
(H-04@@
Telle
Combivir
réduite.
VIH@@
c)
GL@@
circonstances,
demandera
élevée,
82@@
incluses
d'utilisation.
0,8
ic
répartis
Philadelphie
désigné
malnutrition
situation,
ischémie
cheveux,
fat@@
44%
es/
sain@@
visuel
07
courbe
diminuent
ous
rhumatoïde,
plus)
fé@@
69@@
g,
répond@@
semaines)
fibres
constatée
approfondie
diminu@@
abatt@@
amid@@
cerveau,
répon@@
filtration
8)
physi@@
timolol
d'acuité
minime
possiblement
concerné
amélioré
consécu@@
phénylbutyrate
patient@@
observées.
individuelle
Sur@@
hist@@
mesurées
ative,
gemfibrozil
intolérants
CP@@
5/
habituels
ankylosante
17,
hématologiques
GANFORT
oraux,
≤
prasugrel
(score
modifie
gabapentine
jeûne
calories
nilotinib
pramipexole
attendue
R,
C),
ST@@
sérotoninergique
Dar@@
l'Organisation
................................................................@@
occasionn@@
poils
malaise
Gi@@
Santé
ologiques
requise
sér@@
l'enregistrement
supplémentation
Avis
orphelins
infirmière.
d'action.
(intervalle
lithium
chapitre
régulation
buccale
contest@@
II@@
notice.
ricin
mét@@
déposée
2:
peut,
instabilité
2002,
pathie
(dont
poussière
ves.
purpura
auricul@@
XX@@
mes@@
traduction
ary
(ou
artérielle,
survi@@
nausée,
évaluant
embryons
métabolisés
nég@@
cardiaque,
œil
expériences
thèmes
alfa-2b,
nt
European
))
âge.
orphelin
rar@@
microsphères
cohér@@
de)
conventionn@@
révis@@
1997.
engag@@
consist@@
Tra@@
l'initiation
constante
(s)
entes.
Dodge
ases
aires:
ture
prati@@
Em@@
OU@@
tal@@
sac@@
lèvres
fructose,
chimie
floue,
exiger
Estate
Docétaxel
...@@
Ou@@
l’Autorisation
flacon)
diffuseur
Tou@@
sanguine)
zi@@
del@@
Hol@@
Rome
Neulasta
bov@@
human@@
DuoTrav
réfrigérateur
ement:
Pré@@
sexuel
rhinorrhée,
top@@
agiss@@
hal@@
Au
mains,
envie
coup@@
aux@@
paupière,
chu@@
Né@@
allergie
(pouvant
phases
pousse
L'acide
Hongrie
individuellement
oly@@
bro@@
Élimination
sous-cutané.
transdermique.
réglementations

intégré
emballages
substrats
liaisons
Produits
connu,
Fer@@
ovi@@
centralis@@
Evaluation
EMEND
1996,
1998,
pous@@
sévèrement
explor@@
Gliolan
Silapo
défaut
métabolique
opénie,
enfant.
respecté
prévu.
hydratation
d'utilisation,
l'ag@@
E-@@
arri@@
actuels
l'ap@@
cellulaires
tives,
nouveau-né.
Facteur
pleine
press@@
cheval
cation
+351
Km
Etant
ostéoporose
034
AIGUILLES
98/
expériment@@
hanche.
Martin
{@@
Insuline
PRINCIPE(S)
ACTIF(S)
Lane
affich@@
ern@@
féline,
ons@@
Fin@@
seringue-doseuse
eux-mêmes
initialement
porteurs
l'initiative
mentions
possédant
Solution
rés@@
industrie
lim@@
greffe
accélérée
ensuite,
cite
souhaitent
Cardoreg
d'allaiter.
VISTIDE
d'alerte
historique
(maladie
pathogènes
Hydrochlorothiazide
dée
belge
occupe
infection,
émission
cho@@
correctement,
tif@@
élimin@@
conn@@
réforme
posologique.
diluée
liens
as.
sein.
n’existe
ons-@@
bé@@
follitropine
lait,
bénéficient
donneur
transmettre
fur@@
Escherichia
prothèse
aise
emment
protég@@
CELSENTRI
agré@@
Er@@
vers@@
part@@
systémique).
ard,
Tel@@
č@@
ell
développée
étudiée.
modifi@@
majeur
somme
Protaphane
européens.
d'éliminer
Norvir
l'abri
usuelle
permette
l’A@@
infantile
agence
analys@@
tives.
présentée
fois@@
(CEE)
importance
étiquette
quotidien
rétablissement
milli@@
confusion
soulevé
déplac@@
problèmes,
cyanure
renfor@@
Far@@
kin@@
duré
apporte
séance
Shire
sortir
participer
corps)
rest@@
conteneurs
réfléch@@
cach@@
malades,
enregistre
répertoriées
modes
d'al@@
abilité.
sau@@
réserves
provoqu@@
appliquées
1999
domaine,
sont,
étendue
rempl@@
zone.
qu'aucune
préven@@
LISTE
ti
-ci.
dernier.
aille
bâtiment
+35@@
Ma@@
options
ÉCHÉANT
nocif.
MODE
économies
d'autre,
mélangez
N'oubliez
lent
longues
CT13
réserv@@
fié
nationale.
Protection
utilisé,
rez-vous
éliminer
Ti@@
Seules
tonn@@
apparaissent,
disposez
l’a
entendre
es",
vous-même
inacceptable.
conflit
agus
ances.
four@@
sé,
financi@@
varient
centaines
recycl@@
publiques
taxe
violences
faç@@
stock
savent
appro@@
stratégi@@
ain.
univers@@
arrivent
chose.
ailleurs.
certes
d'aide
fille
recettes
profit
te!
soigner
C'est
ait-elle
attend
panneaux
espér@@
S'agit-il
tonnes,
prix.
alisme,
souci@@
L'heure
imagin@@
prend@@
Constitution
Premier
ain,
autr@@
dernière,
pêcheurs
l’amendement
t?
fait@@
Objet
-elle
l'instant,
Soit
Ce@@
DK
suffisant
qu’au
56%
95%
vein@@
atoires
rétention
hépat@@
situ@@
irritation,
accompagné
gonfl@@
correspond@@
conduites
adjuvant
rougeur,
ocyt@@
seringue.
]@@
longtemps.
d'atteinte
ont@@
peau).
1%)
répondant
locaux
Myozyme
contraire,
maximum,
cutanée.
CS@@
ferme
livre
bortézomib
affecte
rein
ques).
émie,
suivant:
missions
metformine,
12,
transaminases
osseu@@
d'accidents
montelukast
améliorations
(moins
réversible
individuelles
isoenzymes
chronique,
4/
l'essai
pharmacologiques
comprises
plaques,
puissants
eczéma,
rougeurs
(N
mol@@
lopinavir/
MAR@@
FIRMAGON
te-@@
mois).
handicap
causant
évalué.
partielle
l’efficacité
compare
0,5@@
Tarceva.
trom@@
insuline,
ASC@@
gh@@
rais@@
tol@@
(tous
publication
familiale
café
supplément@@
T),
jugée
pandémie
prolonger
incluent
noti@@
décoloration
mélangés
ys@@
alopécie,
apparition
itu@@
phén@@
1986,
directrice
ball@@
évolutive
partenariat
lement
neuromusculaire
VHC
s'effectue
Parkinson)
EMENT
95%)
fications
corrig@@
onie
homm@@
clini@@
sections
infecté
soumis:
suivent
prélevé
altérée,
Pra@@
utilisés.
masculin.
médicament@@
détermin@@
its.
ée@@
atri@@
2008
ost@@
détectés
lovastatine
abdominales,
suicide,
(se
bureau
radiothérapie
intracellulaire
d'Enbrel
lap@@
entraînent
l'animal.
4%)
neurotoxine
l'ambrisentan
absorb@@
ites.
CYP2C@@
qu'aucun
TRAVATAN
pes@@
choc,
cardi@@
pneumonies,
fatals,
INSTRUCTIONS
Emselex
diviser
greff@@
(hyper@@
vac@@
hémat@@
implications
reins,
éti@@
séri@@
les,
land@@
irréversibles
l'appétit
vaccination,
émi@@
ony@@
gramme
poitrine
hépatiques,
sous-cutané
Rash
paupières
CM@@
Ven@@
Royal
OptiClik.
tion)
arch@@
ska
spontanées
mine
abilité,
intestinales
musculaires,
OS@@
Char@@
validité
Symptômes
q@@
linéaire
Polysorbate
000@@
654
Kau@@
l’é@@
obstruction
écoul@@
organe
ase.
alpha@@
durable
CU@@
peste
01
d'aboutir
pati@@
by
Royaume
fa@@
L'élimination
contribuent
FeLV
ck@@
lignée
NovoLet,
gen@@
mettant
industries
chose,
commercial
chefs
prévus
gli@@
résist@@
couverts
kaliémie
ez-en
d’A@@
dépit
élevée.
l'étiquette.
médicale.
mm3
proximité
n'aura
FANTAISIE}
gel@@
performance
bétail
interventions
nourrisson,
collabor@@
carb@@
gravité
expliquer
éventuelles
olo@@
000,
isée
fermement
Entre
productive
sauvage
anciennes
que;
surveillance.
benz@@
Etude
ative.
43
endommagé.
inutile
SC@@
6.1.
èn@@
oire
⋅
secondairement
ène.
Dublin
La@@
rouges,
général.
EF@@
aw@@
Notez
muni
nomin@@
49@@
Cam@@
pouce
rev@@
Eckenheimer
retard@@
Bratislava
ral
z-@@
ange
Fi@@
née.
Gra@@
ov
spécifique.
scientifiques.
Jac@@
permanente
barrière
essayez
réuni
nº
normal@@
Ham@@
rich@@
dirigée
Mari@@
Ram@@
l'insuffisant
cons@@
ing,
nationaux
gne
l'In@@
AUC
britanni@@
d'État
visi@@
dé.
l/
apparu
ards
restriction
consomm@@
indu@@
précon@@
spor@@
correcte.
s'ag@@
cancéreux
intravitréenne
fibr@@
prendre.
bénéfique
perdre
s'en@@
suit
indiquera
monter
industri@@
L'EMEA
bactériennes
Vimpat
lact@@
vacciner
nimésulide
courrier
sk@@
+39
01@@
appareil
adaptées
mondi@@
d'aberrations
natur@@
bles,
exacte
nie.
prématurés
2004.
priorités
l'établissement
officiel
tement
dite
diminués
disposent
(90Y)
thé@@
sexe,
fémin@@
superficie
istes.
domin@@
éni@@
aur@@
potenti@@
correcte
report@@
strict
accessible
correct
rassembl@@
gaz@@
refus
regard
sérotype
n'atteint
discuté
l’annexe
donnés
sy@@
l'hypertension
divisé
adoptée
élu
prépar@@
convenu
")
fermer
pressions
échanges
On@@
annon@@
cab@@
citrate
fri@@
difficultés,
avantage
isées
REACH
aines
naturels
allemand@@
ront
informés
degrés
atives.
es».
mobilité
fonctionnent
dépend@@
commercialisé
vise
vois
lactique,
traite
poursuit
L’expérience
L'expression
ki@@
refuse
accepte
Nouvelles
aj@@
surface.
Observez-les
accompli
ire
suivante.
Personnes
ise.
retournez
ation"
arti@@
is?
QU’@@
inadvertance
Suomi/
fre@@
sanitaire
parfait
ment,
faus@@
date,
riez
n'aurait
sexu@@
l'exercice
fabri@@
l'ont
plaignant
Toxicité
Troisième
bien@@
que"
autoriser
Au@@
Tηλ.:
assisté
céréales
exemple.
pouvoirs
partout
siècle
autorise
natalité
offici@@
aient,
impressionn@@
tue
dangereux.
tombent
sanctionn@@
carburant
routes
cru@@
État@@
usines
?u@@
l'époque
aient.
obstacles
hausse.
mène
place,
l'enseignement
économ@@
venu
collec@@
étiquetage
confis@@
quitter
polluants
piles
jeux
auteurs
oir,
voilà
acteurs
hab@@
revenu
pensons
participants
diversité
dissimul@@
onner
gaspill@@
conducteur
suffis@@
L'Italie
filets
L'on
Cela
condamné
cartes
étiez
habitant
peut-elle
erais
découverte
eux?
souligner
pêch@@
ce?
chance
Qu'entend@@
(A4-016@@
03
compresse
implant@@
noter
rez
dernière.
significatifs
rén@@
lansoprazole
carcin@@
és:
ml),
qué
H,
l'hom@@
articulations,
cyt@@
IT@@
ron@@
l'adjonction
prolongé
mé,
Rel@@
SP@@
aire)
chélateurs
DT@@
d'yttrium
osté@@
graiss@@
matern@@
75%
5%)
suivi.
osseuse,
entière
4.6
ologique,
entér@@
NeoRecormon
INVEGA
57
l'ad@@
alcal@@
chiens.
(principalement
CYP2C9,
CYP2C19,
saquinavir
préexistants
microgramme/
l’état
kg)
%;
quent
IV,
pivot
oxi@@
LMC
stables
augmenté.
virus,
hémorragiques.
cardiovasculaire
rétine
aire).
Te
métaboliseurs
intensité
ement;
transition
intranasale
retrouvée
extrêmes
µ@@
jeun,
Rasilez
semblable
(-@@
N.
tard@@
brutal
bosentan
polypose
masquer
D'après
conforme
chaleur,
cules
photosensibilité
croûtes
bronch@@
universitaire
Dublin.
laboratoire,
onc@@
y-@@
1999,
l'organisation
↔
Cmin
forment
été:
PAR@@
AU@@
d'hypo@@
normal,
équilib@@
NI@@
l'érythropoïétine
ions
d'accès
détect@@
libres
l'at@@
emi@@
Hep@@
chirurgicale
soumise:
constitution
d'éfavirenz
CR@@
eau,
terr@@
spontanés
protégés
d'anémie
cutané,
l'émergence
tionn@@
teur
DO@@
lèvres,
portées
mie
ole
fois)
conditionnements
cours,
persist@@
dyspepsie,
répétées.
inhibent
stiripentol
(13@@
incontinence
empêchant
retarde
préalable.
sour@@
précliniques
buprénorphine
intravasculaire
omy@@
site,
euro@@
modalités
Finlande
transférase
œdème
analysés
présidé
inc@@
l'appareil
fol@@
ORENCIA
tru@@
Genzyme
SHARP
GMBH
Fax:@@
Copenhague
l'entreprise
potentielle
montr@@
jetez
didanosine
chlorhydrate)
eli@@
consistant
conférence
licenci@@
professionnelle:
Liste
conti@@
(300
Dou@@
impéri@@
ón
Agence
boisson
soupl@@
bains
Dys@@
vertige
hé@@
un,
doubl@@
Acide
destination
d'informer
alli@@
artéri@@
inflammation,
cot@@
ation),
être,
d’1
lumière,
jambes,
mie,
d'ét@@
res,
Perte
(vus
(augmentation
colorée
FORSTEO
composite
(EPAR).
OT@@
métabolisée
1995.
pré-rempli
enf@@
centralisée.
cop@@
public,
atténu@@
Ge@@
org@@
opaques
reç@@
Temps
métabolisées
publique,
pharmaceutiques.
planification
importants,
proportionnellement
attentif.
abondamment
l'induction
Panretin
inqui@@
ées:
pom@@
é"
tendon
probable.
CAR@@
House
ge@@
préférable
identifier
favoriser
dée.
étiquet@@
fondamental
valences
liv@@
potassique,
e*
Avonex
ó
aval
tératogène
origin@@
Et
ht@@
SERINGUES
PREREMPLIES
386/
EU/1/98/069/00@@
EU/1/98/070/00@@
X/
XX/
XXX/
PRE@@
chaussures
tionner
bénéfice-risque
contracté
incolore,
Excipients
zinc,
éthyl@@
40,
All@@
of@@
Pas@@
Pharmaceutical
preniez
lic@@
ici@@
frissons,
électroniques
UN@@
polypropylène.
(3,@@
1),
elle@@
ailles
Merz
Landstraße
revi@@
étrang@@
propriété
reins
Mil@@
l’emballage
clair,
Général
B-@@
Allemagne.
stimuler
mm
ité"
osi@@
cro@@
OC@@
maniaques
dic@@
nationalité
Met@@
séparées
tric@@
éch@@
ats.
promouvoir
ralentit
accident@@
ode
diabétique,
l'approvisionnement
nécessairement
textes
laboratoires
expert
compren@@
solvant.
chrom@@
mesure,
répond
Optisulin
avé@@
recourir
générale.
cavités
lecture
sévoflurane
tombe
Norvège,
aisément
CV
après,
Vaccin
Incidence
croissance.
OptiSet.
stéril@@
claires
23@@
373
doseuse
inv@@
ments.
téléphone
AB,
Je
copi@@
apparent@@
cha@@
Rua
alimentaires,
coucher
fraction
ella
neu@@
sulf@@
dét@@
paraît
IB@@
présentait
encourag@@
central.
né,
conjointe
iné
tus,
‘
d'atteindre
bénéfiques
régulièrement.
solution,
accessibles
engagement
disposant
L'aiguille
automatiquement
référ@@
additif
faux
dégradée
l’interféron
annexes
Tritazide
fabriqué
physiologique
correspondre
applic@@
l'aggravation
charges
consultations
gras
aviaire
appartenant
Patient
devenus
4-91
2008,
cellule
avancé@@
défis
affaibli@@
ée;
RA
Reconcile
lisi@@
groupe.
exister
l'es@@
aine,
atis@@
divers@@
l'Italie
notez
risqu@@
poids)
éli@@
ènes,
solvants
dél@@
nationales.
-P@@
assur@@
mineurs
l’hépatite
compréhension
ek
d'Al@@
ménag@@
possèdent
travaille
pag@@
courir
précaution.
surveillés
ête
At@@
modifiés,
intenses
peti@@
éclat@@
propag@@
prouve
requiert
commentaires
coopér@@
importante.
d’Humalog
F-69800
Malte
(première
Pologne
vider
n'êtes
Waarderweg
Lyon
régler
emb@@
+44
UE
obtient
d'approvisionnement
centi@@
diagnosti@@
parent@@
prévu,
iner
reten@@
POSOLOGIE
Pou@@
Synagis
Pour@@
z.
VÉTÉRINAIRES
bouteilles
»?
QUELS
Respectez
utilité
décide
Parl@@
iter
certific@@
devenue
Toutefois
accord@@
psych@@
PME
accorde
élevés.
ordinateur
(alu)
l'écart
militaires
tonnes.
erreur.
vingt-@@
condamnés
coloni@@
souti@@
vit
travailleur
français,
mérit@@
far@@
e»,
introduits
tortu@@
k.
beau
traçabilité
travailleurs,
réclam@@
conflits
processus.
opposition
PIB
Chine
hectares
Traité
tourisme
Mc@@
surtout,
é!
vieillissement
démocrati@@
esse.
faute
contraintes
déclarer
tu
intégr@@
interdite.
nucléaires
bienven@@
dirigeants
brill@@
colorants
régl@@
pesticides.
L'obligation
OCM
dispos@@
on!
L'ordre
di,
sauver
jusqu'
mer,
décider@@
village
serait-ce
avons-nous
compagnie
s'agit-il
serait-il
vendre
reconnaiss@@
ons-nous?
Quelque
Rappelez-vous
9/2001)
(A4-035@@
(A5-020@@
6/2001)
5/2001)
ps
94
DK-2@@
l’infection
aéri@@
calculées
administration.
agon@@
adéquate.
rares,
intestinale,
agressivité,
alopécie
d'application.
s'accompagner
ement).
Copalia
traitement)
0,1
articulaires
suffisante.
27,@@
Vir@@
protéase.
acétylsalicylique
5000
l'H@@
ances,
suivants,
oraux.
ED@@
TA
agit@@
tine
souhaite
inhalation
77@@
zona
quotidiennes
agitation
ES,
contrôlés,
èse
11,1%
réduites
pulmonaire)
LT@@
tolérance.
(nombre
association,
catabolisme
és;
observez
TORISEL
avéré
lipo@@
9)
SO@@
favorable.
satisfais@@
visuel,
unique)
respectivement.
ges@@
passionn@@
abattus
morph@@
Sprimeo
doses,
furent
fact@@
15,@@
e-
110
74@@
adénomateuse
similaire.
d'application,
D’@@
ceftriaxone
PREMIERE
détaillée
antagonistes
brûlure,
apparues
listés
ke@@
ax
1990,
Bruxelles.
cellulaire.
employée
hôpitaux
1994,
d’abord
02
**
Annexe
ongles
papier
rocuronium
poitrine,
faim
PC@@
ènes
capsule
conjonctivite,
Del@@
Demandes
adoptées
nés.
coul@@
nourrir
chél@@
sclérodermie
d’effets
myélosuppression
yl
c’est-à-dire
c-@@
épilepsie
public@@
machines,
anticoagul@@
thrombotique
souffr@@
soyez
actuelles,
assure
réservoir
nocturnes,
nervosité,
Anti@@
inhalés
pneumopathies
suggérant
réduction,
05@@
identifiées
l’accès
estimations
angi@@
supplémentaire.
ASAT
RC@@
donneurs
l’impact
G.
éc@@
pharmac@@
significatifs.
inconnue
blancs,
avaler,
condu@@
peptide
injectés
(test
lymphome
lyse
argu@@
suspect@@
--
org
Suède,
Bio@@
4.8.
solide
rash,
prise,
EMEA
d'établir
résistances
15,
provoquant
rage,
vomissement,
hypoesthésie,
intestin@@
BV
recommandé@@
réévaluation
bases
l'urine
Houtenlaan
GmbH,
DOHME
4561
2612
with
spécialis@@
jusqu’au
externe
bleu
Industri@@
valproate
rêves
asthme
opi@@
dabigatran
hydro@@
12.
e);
doctorat
OR
Doctorat
ew@@
n'e
microgrammes,
dos,
ace
dème,
causée
tylvalosine
dilué,
nébulisation
d'immunité
IL
métr@@
épistaxis,
rhinite,
l'anémie
....
disodique,
Effet
100,
doigts
sec
marques
Vision
EUR@@
suicide.
FR@@
flot@@
nerf
pigmentation
paupière
conjonc@@
Cat@@
classique
dul@@
manifester
détecté
tester
168
Porto
1999.
l'EMEA,
scientifique,
d’obtenir
deux@@
personne.
incrétines
actives,
cérébr@@
d'ap@@
née,
d’apparition
entes,
(tel
l’avis
d'hyperstimulation
suspicion
vin@@
ub@@
ribavirine,
insul@@
imagerie
IV.
demandeur
d'origine.
manifestement
sion:
Vérifiez
tuer
cep@@
bloquer
traiter.
service.
hanche,
arité
publiée
sein,
d'induire
Luveris
rob@@
acceptable.
ouvrir
rhinotrachéite,
Bas@@
kaliémie,
conservateur,
OX@@
nes
ures,
Neu@@
Plaquettes
FA@@
d'assistance
Yttriga
ver
HA@@
cent@@
huile
d’action
és@@
341/
111
Medi@@
porc
ale@@
lampes
oires,
persistante,
dilu@@
anné@@
nécessitent
Cr@@
aig@@
SUBSTANCES
180@@
cs
de?
Ath@@
gue,
vre,
Fendrix
2.0
transplantation,
mangez
weg
employées
compléments
vertébrales
eti@@
Italia
rend@@
équival@@
ches,
400@@
CYSTAGON
filet
Généralement,
manifestent
dure
batterie
CB@@
E)
500@@
Italie.
pertinente
adéquates
menaces
Im@@
mixte
vice-président
hum@@
mann
hol@@
deltoïde
rose
ester
poul@@
9.
cher.
progressi@@
ve,
l'activation
aujourd'hui.
entraîn@@
pertinentes
sévères.
Pos@@
présidents
intégrer
purement
intervient
visibles.
actuel.
d'ad@@
prête
avancées
impératif
substanti@@
ane.
total.
prenez:
médicales
corriger
instaurer
fiables
(type
procède
considérant
craindre
souffert
l'Espagne,
examinées
atif.
convention
regardez
Infanrix
AF@@
dépendant
Syn@@
ser,
L'ÉLIMINATION
'
hémodialyse.
SoloStar,
systémique.
Ljubljana
+386
olé@@
PHARMA
mines
(0)8
Á@@
doc@@
moment.
Ren@@
tonne
cicatr@@
isi@@
tige
cass@@
augmentera
EEIG
bes
am,
20.
l'inter@@
(15
(400
Pri@@
entier
support@@
touchés
ajout
cibl@@
témoin
contribuera
migr@@
mettent
certificat
out@@
mineures
croiss@@
recherche.
utilisée.
prévision
pacte
sec@@
L'apparition
VIII.
institution
TW@@
spécul@@
US
impose
partie,
compenser
qu'aux
L'avis
hydroxyl@@
candid@@
souligné
lorsqu’il
sûre
ek@@
relever
l'autorité
études.
arme
défin@@
s'ét@@
préjudice
obtention
terrain.
l'introduction
l'animal,
sujet.
substances,
exercer
budg@@
dé,
changé
chinois@@
dispar@@
jur@@
ces@@
consacré
approuvé
équipe
entrant
cos@@
aérienne
comptes
feront
rag@@
2010@@
sci@@
exceptions
excessive.
appliqués
installation
numérique
ethnique
équipés
isent
organiques
d'OptiSet.
contourn@@
responsable.
journaux
infectieuses
résume
79@@
sérieuses
réduits
fonctionnel
L'état
supprim@@
Effentora
Cas@@
Autri@@
l'Aviation
Bu@@
OG@@
L'inhibition
l'innocuité
collect@@
(DES)
applique
atives,
protéine)
détru@@
individu
PV@@
peut-être,
comptabil@@
Luxembour@@
ino
côtés
Merci
Priest
subissent
propriétaires
sch@@
confiance.
mour@@
sépar@@
Ni
analyser
ca,
+358
chroniques.
âgés:
ports
aine.
presser
hauteur
invit@@
auriez
Point@@
let@@
CHAQUE
oul@@
denti@@
utilisés,
tap@@
assumer
répar@@
D'ÉLIMINATION
Première
cosmétiques
rencontr@@
abus
l'abattage
confirmer
conseillers
tabac,
S’@@
l’opération
dre
Tenir
S'ils
pièce
expos@@
souven@@
vous.
ë@@
Succursale
+32
MSDBelgium_info@merck.
PS
équivaut
die
Trait@@
blé
soi
jeun@@
respect@@
d’Insulin
assistant(e)
industrielle
démocratique
problèmes.
traditionnelles
effray@@
vins
rembour@@
mesures,
allou@@
naz@@
fédér@@
l'Union,
aux?
n'avons
"S@@
raient
constitutionn@@
prisonniers
just@@
transferts
ains,
mauvaises
l&#x02BC;@@
Sommet
référendum
producteur
allég@@
d'étiquetage
élément@@
congé
vulnérables
pauvreté.
soulign@@
d'inflation
d'"@@
Tim@@
prê@@
catastrophes
fils
fausses
exig@@
constru@@
imparti@@
alisme.
téléphones
affirme
s'agisse
être.
concrè@@
entre@@
tué
sociale
ajoute
L'histoire
ablement.
interdite
religion
haine
arguments
films
honor@@
L'obésité
commerciaux
ici,
cigarettes.
re!
phrase
imaginer
ak
tâche
m’@@
existe-t-il
orientation
2003,
rai
permettrait
l’histoire
sanc@@
réalité,
pur
vous?
sais
match
incit@@
qui?
criminels
ez-vous,
souffrance
ens?
êtes-vous
tions?
/2002
situation?
me?
pas?
ons?
Nombreux
protest@@
détaill@@
infractions
Nul
Projet
irait
l'heure,
Ont-ils
coque
vous-@@
aires?
ez-vous?
procès-verbal
Pensez
rapport?
faites-vous
conséquences?
Procédure
Qu'ils
1/98)
Trente-@@
Ferring
moxifloxacine
sinusite,
pharyngite
granul@@
robinet
acceptables
découvertes
consécutive
9/
passée
sus@@
déshydratation,
eus@@
gne,
affec@@
agi@@
calculs
bexarotène
desquels
allongement
AINS
sélectifs,
immédiate.
d'hommes
mann@@
optimal
aspir@@
Figure
ail@@
III,
abat@@
suffisant.
sous-
17,@@
3,3
0,001).
INOmax
insomnie,
réagit
Posaconazole
UI@@
off@@
auriculaires
concentration.
progéniture
perform@@
d'hé@@
repris
dl)
GIST
marquer
survécu
suivantes,
d'Atripla
l'amphotéricine
pegaptanib
ab,
variation
individus
(IRM)
causé
formés
chuter
17%
l'intervalle
reli@@
(5,@@
ections
(5@@
latente
maximal
l'inhalation
cholinergiques
adrénergiques
8/
plas@@
(O@@
nitr@@
éduc@@
van@@
A).
monocentrique
commencez
alcalines
embolies
INTI@@
,5
l'adéfovir
protéin@@
enregistrés
OSSEOR
bêta-@@
a;
chat,
miques
incluaient
62@@
ciclosporine.
plasie
l'emtricitabine
mutations
pré-
CY@@
randomisés,
dasatinib
LDL-@@
18,@@
CT
12,@@
nov@@
constatés
toxique
parois
diabétique
multiplication
hydrolyse
out
effectu@@
yl-@@
improbable.
comprimés.
eur:
ides,
courants
infect@@
linguistique
exclu@@
produit@@
soif,
joint
ker
docteur
Ly@@
microbi@@
1993
secrétaire
Semaine
contenue
lar@@
caus@@
routine
excessive,
eure,
0,9
réglementaire
Demandez
ajuster
délivrance
l'hypo@@
ale:
SI
ative@@
particulières.
dissou@@
hydrogénée
articul@@
ant)
Ris@@
l'ét@@
ép@@
Princi@@
Farmacêuticos,
MR@@
apa@@
logiciel
face,
14,@@
infliximab
surven@@
similaires.
mécanique
dépres@@
ologiques.
5),
LDL-cholestérol
rédig@@
aiss@@
déf@@
73@@
comprennent:
séqu@@
transporter
ensemble,
irrit@@
infectieux
fibrillation
LM@@
vascularite
alpha,
}
élimination
ay
cholestérol,
modè@@
patiente
pharmaceutiques,
ini,
voix,
syndromes
atif@@
cé.
gan@@
isez
Str.
uc@@
courent
concentration,
cardia@@
amm@@
sanguine,
raideur
seulement,
Wat@@
pharmacien,
abdominale,
appeler
ñ@@
autonome
organique
échéant,
d'iloprost
Inflammation
articulaire,
abdominales
Mel@@
EE@@
servi@@
SIDA.
(boîte
pharmaci@@
(notamment
dilué
corporel,
ité:
Dynastat
Hé@@
SA*
l'intestin
ase)
a),
Mu@@
estonia@gsk.
667
COM@@
oles
azol@@
oires.
seins
10):
augmentée,
agressi@@
illes
soudain
(taux
l'arrière
optique,
cornéenne,
ement)
eil
mangent
Uni
l'as@@
AT,
ga@@
tran@@
Norvège
ampli@@
jusqu'en
inique
pepti@@
atteint@@
l'élaboration
l'interruption
thoraciques
spécialités
berg
choisi
joué
b)
Agency
interférer
atique
mélangée
résidu@@
indicateurs
alpha-@@
telmisartan
papill@@
appropriée,
ique.
délicatement
produisant
l'hôpital.
passé.
justifié
remplissage
anti
III@@
gradué
EX
notification
fractures.
IS
UB8
public.
de-@@
d'an@@
laissant
Betaferon.
accr@@
fondé
dépos@@
informatique
significative.
TS@@
alcoolique
lip@@
congénitale
sélectivement
l'extension
verre,
ette,
Environ
unes
prost@@
monoclonal.
plu@@
Jos@@
thiazidiques,
tab@@
Étant
l'utilisation,
Fixez
teront
(70
post-ménopausique
applicateur
036
ampou@@
285/
08@@
383/
EU/1/07/435/00@@
respectant
Survie
né.
Z
endommag@@
bulles
2003.
Examinez
Statut
oxyd@@
és)
cides
–@@
poign@@
can
Aldurazyme
Fermez
Pol@@
optique
MUI/
mesure.
ité)
Indi@@
pli
2,4
re)
irrigation
esti@@
2100
labyrinthe
commercialisation:
coordination,
agu@@
conscience,
constitué
Gal@@
suiv@@
Garder
sûr@@
pieds
découver@@
bandes
MA
organizač
glimépiride
lutropine
tus
dents
efficac@@
DE,
IP@@
Hy@@
torémifène
Ig@@
chè@@
bit@@
ho@@
Eur@@
d'interféron
vivo,
3),
gène,
lav@@
cassure
résul@@
Pen@@
d'identifier
indiqu@@
Bro@@
adhésion
sentez
ration
nécess@@
pertinente.
rappelé
prescripteurs
nélarabine
d'EXJADE
Vectibix
G,
donnent
partiel
vivo.
b.
ont.
].
antérieur
l'adaptation
existe,
Penta
habitudes
148
autorité
l'Estonie,
Lettonie,
d'ordre
ogène
achev@@
conditionnement.
seize
(IMAO)
ques;
ès,
simplex
péti@@
d'administration:
bac@@
mées
(0,9%)
l'assistance
équipé
Insuffisant
L'indinavir
surveill@@
lactase
app@@
In
ent)
LY@@
ères@@
connaissance.
Itali@@
reti@@
ini
KG
administratif
axe
ka,
barre
sélectif
aminé
compromettre
iques.
Global
Journal
tenue
évaluée.
revanche
propager
prémédication
èmes
bot@@
neutrophiles
L’administration
rapide.
position.
implants
phényl@@
primo-vaccination
assurée
diffère
tées
rentr@@
éré
Parkinson.
essentiel.
Sub@@
requ@@
l'immunité
tra@@
sé
concrets
l'harmonisation
croissante
tumor@@
action@@
ture,
cule
demi-heure
illustr@@
minimal
sensibil@@
priorité
d'hydrates
trophique
discrimin@@
résistante
ferait
examinée
examiné
vigabatrin
seulement.
motif
Latvijā
air.
arc@@
soi@@
structur@@
graduation
d'harmoniser
l'em@@
infrarouge
ché
fournissent
préserv@@
Bus@@
tom@@
détruire
mentionner
contrôle,
fumeurs
ète
ses,
rares.
asy@@
ses.
envoyer
mi-@@
communautaire.
cuisse.
Chris@@
éclair@@
automati@@
ai,
beta
13,@@
ia@@
ci.
Orfadin
apprendre
mas@@
interprétation
L'érythropoïétine
ane,
a:
pénétration
énergie
boivent
roul@@
ager
sés,
Merial
insuffisantes.
rendue
annoncé
téléph@@
ca.
42@@
repos@@
l'intégration
SoloStar.
agira
irlandais
poursuiv@@
sex@@
d'antirétroviraux,
développant
verti@@
séjour
tôt
dossiers
per.
baissé
systématique
commercialiser
pac@@
ank@@
bert
nettoyage
étrangères
L'excrétion
investi@@
pir@@
L'influence
L'interaction
l'utilis@@
ez-les
Cast@@
douce
désigne
qué,
eaux,
d'An@@
affaiblis
organisée
entamer
Belgi@@
bus
rég@@
š@@
considèrent
ettes.
l’ar@@
Rotigotine
déchets,
projet@@
OPATANOL
bébé
système.
d'autres,
Pu@@
lit@@
der,
afric@@
Placez
cell@@
rit@@
adressez
install@@
bénéficié
rappel@@
expressément
ambiti@@
famili@@
TELS
prudence,
Réduction
infectieuses.
sécur@@
Strada
mg/L
renouvel@@
constamment
aidera
Sin@@
dû,
souhaitez
ná
Suivre
indicateur
sin
intolér@@
départ.
d’Insuman
akis
entendu,
important@@
hier
minéraux
précision
rav@@
stress
déterminant
pierre
révolution
autor@@
partis
listes
tarifs
restric@@
annonc@@
e».
l'ESB
nord
prosp@@
reposer
recour@@
égalité
baiss@@
l'euro
véritables
crois@@
civils
guerre.
symbole
abol@@
craign@@
feux
camp
meurt
débats
parfait@@
compte,
infrastructures
auxquelles
fis@@
maintenant,
établit
Commission@@
attribué
chercheurs
planète
décharg@@
tragédie
orientations
esse,
thème
science
climatiques
cô@@
maritime
décès.
ressort
êt@@
préoccupations
végét@@
fou@@
dignité
investiss@@
forêts
mar
morts,
passeports
meurtre
d’enfants
vign@@
ori
définitive
exemp@@
tellement
Conseil@@
milieux
voiture,
tons
euros,
alisation,
capitale
èrement
national.
économique,
indé@@
prétend
infraction
citoy@@
exige
d'OGM
justement
biocarburants
l'avenir,
obligation
l'É@@
ains.
effac@@
essay@@
aim@@
qualifications
ues,
Lorsqu'on
s'attend
billet
arrach@@
L'Ukraine
détruit
tez-@@
-t-elle
musique
vérité
retrouvent
contref@@
hâ@@
israéli@@
d'accord
certitude
torture
aient-ils
fais@@
parlons
doivent-ils
âgée
bien,
proposons
proverbe
mont@@
applaudissements
Parallèlement
ir?
Partout
Peut-on
B5-0@@
(H-06@@
Quoi
7/2001)
8/2001)
4/2001)
3/98)
æ@@
102
désinfectant
séparée
Trizivir
administré.
cesser
besoin.
Cyanokit
suivants.
servi
pneumopathie
immunologiques.
cir@@
ulcération
localis@@
(SNC)
métastases
indésirable,
intestinal
l'enfuvirtide
Prof@@
transitoire,
respirer,
dose-dépendante
pil@@
s'accompagne
infiltr@@
(entre
mitotane
substituti@@
combinée
globalement
vomissement
précédée
anti-TNF
durables
viral
points,
vasomoteurs
titration
2),
recevaient
gouttes
rufinamide
4,6
administrera
ion@@
som@@
»),
11,@@
restée
128
perfu@@
puiss@@
l'al@@
plasma,
bras,
réag@@
carboxy@@
Médi@@
d'essai
touch@@
prévention,
mg),
tigécycline
embolie
l'insuline.
l'image
douloureuses
CYP2D6,
antiviral)
avir.
l'olanzapine
Vaniqa
(Cmax
semaines).
génit@@
lib@@
révélés
recapture
Sim@@
associant
capsules
dipivoxil
aire),
prédominance
classi@@
myalgies,
élévations
PT@@
l'herpèsvirus
calicivirus
gastro@@
FSH
poli@@
ger@@
démangeaison
suffisants
Xolair
ultérieurs
(7,5
fac@@
ménopausées
calcémie
d'as@@
sélection
Enbrel,
cancér@@
TVP
traduisant
mur@@
amine.
9%,
hydrochlorothiazide
SIFROL
intensification
123
collagène
cations
er)
immédiat@@
influencer
alisés
renouvellement
reconnaissance
mutu@@
plante
dent
tin
fragilité
David
ford
l’industrie
confér@@
1976
Te@@
chin@@
on)
Mat@@
1992,
détach@@
ation/
colon@@
ity
ocy@@
potable
l'oxyde
saccharose,
COMP
facilement.
effets,
fournisseur
continué
alités
osseux
reflux
ts@@
sélectifs
Porcilis
Por@@
avance
-3@@
signific@@
Réunions
sang),
loc@@
ale;
Protéine
chimi@@
l'étravirine
vigueur,
pharmacovigilance,
quel@@
eau.
émotionn@@
cine
F.
exceptionn@@
d’insuffisance
ces.
l’EMEA,
TO@@
amide.
cris@@
néphro@@
hépatites
servant
ère@@
ll@@
antibiotiques,
adoptés
dosages
contacts
prenez.
vir.
vaccinés.
squelette
43@@
aux)
fum@@
volont@@
Lanc@@
2000@@
probables.
su
dissémin@@
d)
digestif
respec@@
mutag@@
bovins.
l'oxygène
encéphalopathie
tadalafil
CYP2C9
toutefois,
rat@@
tus.
réalisées.
cub@@
filtres
environnementale
courte.
iodés
Désinfectez
IntronA.
conduisant
tine,
option
solaire
fréquentes.
triglycérides,
dans@@
fixés
l’évaluation
QT
indépendantes
itaire
(phase
assurance
d'analyse
inhiber
ulcérations
toxiques,
Weesp
io@@
abaiss@@
,,
190
calcul@@
deçà
soif
toxique,
Flatulence
floxacine,
amine,
méthyl@@
ves,
battements
corné@@
fication.
Gestion
opie,
yr@@
Direction
Dis@@
privés
accumul@@
d'équilibre.
ande
dex
8).
ives
Internet,
maintenus
Indications
d’efficacité
Sup@@
UN
actionn@@
cm)
Lon@@
abdomin@@
ations)
ada
CH
ister@@
itaire.
reconstitution.
reconstituées
trav@@
Trav@@
cutanées.
13%
surnageant
utilisation:
cti@@
UNE
l'agrégation
coagul@@
retardée
perversion
Ery@@
MD@@
ECALTA
candi@@
échang@@
CG@@
exploitations
d’application
édétate
ind@@
9750
182
405
Ban@@
dri@@
souffle
suicid@@
cès
droit,
dentaire,
caractères
Ceplene
désir
toucher,
active)
sexuelles
ménopause.
aises
d'AD@@
lomb@@
endocrini@@
aire;
cellules,
nées,
Impression
d'ABILIFY
émie.
ine@@
LD@@
oire@@
87
CPK
ere
inchangée
approuvés
contrefaç@@
constituée
génie
commercialis@@
glyco@@
gly@@
L)
Validation
(ex@@
allemande
l’environnement
atiques.
concentrer
Suisse
chimiothérapie,
d'hormones
récepteurs,
alcool
infection.
prolongée,
olog@@
(e)
CRIXIVAN
accidentel,
Rev@@
ci-après.
MP,
rayonnement
Bondenza
ois.
l'i@@
final.
paroxétine
vis
nouveaux-nés
pist@@
favoris@@
rapporter
médecin:
natéglinide
monothérapie.
disponibles,
perspective
pommes
représenter
YMDD
transplantés
consommer
l'entrée
MTX
raisons.
officielle
placer
0,00@@
heures)
chevaux.
acét@@
érosion
8%),
cel@@
rémittente-récurrente
atifs,
ise,
PERFUSION
démar@@
dopa
042
044
363/
EU/1/07/435/0@@
001/
critique
pla@@
fragilise
os)
opérat@@
exceptionnelles
efficaces.
apathie,
H.
calcium,
méth@@
azole
Utiliser
Lev@@
Fab@@
S.@@
ud@@
myalgie,
instruc@@
CHMP,
accepté
voisines
d'exercice
lon@@
vér@@
onine
rati@@
fem@@
Pourcentage
affirmé
poussoir
contenance
Royaume-Uni@@
ction
No
EP
Holland
réparation
Lituanie
Slovaquie
Fruebjergvej
UC@@
médullaire
auriculaire
orange,
MY@@
125
hydrat@@
ea
doit,
accomplis
jet
abil@@
OS
d’information
HB@@
Hel@@
amor@@
euse@@
e*,
tot@@
F2):
G1):
j
omm@@
aspar@@
tat@@
déconseillée.
gues.
Pal@@
agité
belg@@
eau@@
entrée
satisfaisante
apparente
structuraux
fondée
signalé
Conférence
l'élargissement
héréditaire
te;
confirmation
ier
touchés.
FORCALTONIN
adaptés
CIALIS
n'agit
établi@@
anticoagulant
littérature
tranche
perfusions
adhér@@
(VIH),
vas@@
globale.
maximum.
risquerait
vigilance
ty@@
avant@@
ologues
qualifiés
approvisionnement
personne,
n’était
alisée
l'hé@@
un.
recrutement
tré@@
ationn@@
nommés
éventu@@
gènes.
fibrinogène
Pedea
INCRELEX
Tumeurs
enter@@
Institut
York
post-
essenti@@
hémodialyse
supérieur.
isophane
oph@@
LO@@
galactose,
oires
(0)1
désinfect@@
τ@@
ú
192
19,
Do@@
re-@@
-20@@
SU@@
Ten@@
we@@
tyrosine
variabilité
amment
du(es)
poursuivra
ministres
Bb
IG@@
MicardisPlus
arrête
contrainte
rapporte
IC@@
tolérée.
Nplate
02)
équi@@
lyophilisée
Laisser
recombinant,
L'amélioration
de;
Lan@@
Paris
annonce
4.5
cassé
agrég@@
blanc,
néphrotique
allergiques.
réparti
otte
consign@@
éventail
l'ampleur
margin@@
apparent.
questions.
proportionnalité
l'U@@
diffus@@
contrairement
dépendent
granulés
çant
concerné@@
Xeomin
muqueuse
prof@@
Zyrtec
noy@@
corticothérapie
races
alfa@@
tizanidine
L’augmentation
l’im@@
VIRACEPT
moyenne.
teneurs
dé
défectueux
thérapeutique,
diver@@
harmonis@@
seul@@
continuera
travail@@
morbidité
time
incapable
addi@@
envah@@
pronon@@
protectrice
réuni@@
thè@@
bre@@
mang@@
Can@@
Chine,
l'aéroport
cibles
stéroïdes
répété
seuils
demandés
d-@@
sodique,
noyau
époïétine
ta@@
cohérente
l'année,
corde
erie,
démontre
alement.
marketing
secondaires,
coma,
bois.
ches.
discuter
ence@@
ouvertes
PA@@
révèlent
salariés
Membres
engager
Macugen
commercialisées
sées,
oirs.
PRIVIGEN
ème,
sit@@
fiés
osph@@
enveloppés
VH@@
tiens
amélioré,
impliqués
cornée
VII,
coût@@
levée
raisons,
autrichi@@
Des@@
aliments,
ates,
notamment,
carton
apprenant
concernés.
flor@@
d’emploi
ologue
explication
crise,
Ab
dûment
dangereuse.
poi@@
fécondité
transactions
parvient
ram@@
Lorsqu'elle
touchent
détérior@@
L'ouverture
l’objectif
pression.
Tony
600@@
tribu@@
fie
L'O@@
tournez,
pousser
réparer
er"
texte.
den
REGISTRE
COMMUNAUTAIRE
N'utiliser
Objectifs
(passage,
Oc@@
Ur@@
ethni@@
Immeuble
Paraffine
importance.
ré
brû@@
certain@@
Parti@@
del
Espoo/Esbo
358-(0)20-7570
ferm@@
PLAQUETTES
7/@@
n'avaient
adressez-vous
reconstitution,
consensus
DERIVES
vétérinaires,
DÉRIVÉS
continuez
Presque
UTILISÉ?
soulev@@
resté
ras
Réponses
rapidement,
Réunion
exist@@
différente.
fonctionnaire
Bos@@
contre@@
Selamectine
Seulement
Sk@@
toujours,
achetez
ramenez
Simultanément,
généralis@@
vacances
zlož
Soixante-@@
Suivez
œuvre.
tac@@
avr@@
sent@@
prét@@
Chi@@
codes
bio-activité
protéine).
Russie,
récipro@@
imposer
l'obligation
justifiée
renforcement
ours
interrog@@
NovoLet.
FlexPen.
sucre,
te:
adapt@@
voulu
grand-@@
souffrances
çons
faill@@
contrats
drogue
stratégies
d'accueil
sud
ère?
coûts.
2004,
histori@@
constructeurs
symboles
débar@@
Terr@@
prévoient
blessées
cancers,
tensions
navig@@
cancérigènes
simpli@@
choqu@@
thérapies
épuis@@
condam@@
l'île
vill@@
d'agir
venir.
avan@@
identité
ventes
déstabil@@
déb@@
rien.
civilisation
sembl@@
d’aide
tout.
refu@@
abandonn@@
dis
réform@@
culturel
simplification
onnées
pourrait-il
jeunesse
techniques,
euros.
s’élève
s'élève
transport.
crime
encore.
connaissent
gagner
circonscription
primes
intéressant
l'influence
ation".
articl@@
secret
vague
Nord-@@
dit:
captures
l'étranger
détenus
découvert
brevets
journalistes
fin.
salu@@
occu@@
tunnel
1/97)
financer
précoce,
tend
.000
cela!
marins
enfin,
journ@@
lancer
moments
exprimer
Parlement,
premi@@
candidats
confront@@
justice.
lois@@
Pakistan
cents
dout@@
politiquement
élargissement
pens@@
directiv@@
ement!
l’État
Convention
illégale
l'esprit
Inde
indépendance
salari@@
légale
l'école
s»
l'affaire
carrière
demande.
parlement
Al-@@
inacceptable
L'Irlande
milliard
consacrer
crédit@@
allergènes
combat
obstacle
géographique
privé
bâ@@
onné
scandal@@
era-t-il
dimension
déclare
direct@@
chômage.
chers
époque
L’une
terait
abus@@
Lutte
terroris@@
me!
transmet@@
députés.
Maintenant,
entreten@@
emprisonn@@
doit-il
?uvre
prétexte
gouvernement@@
pensi@@
aurait-il
en?
guer@@
loy@@
d'affaires
Malheureusement
Air@@
découl@@
disait
simpl@@
balle
avoc@@
voter
allons
franc@@
faudrait-il
mettez
peut-il
Strasbourg
Afri@@
liste,
N'oublions
habitants,
revue
décr@@
comprend@@
cela.
alors?
pomme
ans?
(PT)
elles?
(Protestations
va-t-il
Qu'y
6/97)
(A5-016@@
(A5-035@@
(A5-017@@
Reste
Sixièmement,
Vingt
WI@@
Cer@@
recouvrir
er;
couv@@
conformes
)).
dro@@
arthrite
groupes,
analyse,
6%)
(DS
3000
égal
cytogénétique
tombé
au-@@
4,6%
d'hygiène
comportement.
utilisée,
vaginite,
hyperesthésie,
algie,
mie.
rapportés:
neutropéni@@
d'opposition
58%
pré
postnatal
attendue.
mortels.
47%
pied@@
dermatite
affect@@
Kaplan-Meier
19,@@
seul.
ga
protéine.
confir@@
antivir@@
ACT
l'intensité
décev@@
R)
électronique.
faibles.
Exubera
mée,
surveillé.
120@@
l'end@@
migration
perpétu@@
profondément
alté@@
3/@@
ome,
2,3
dermat@@
taille.
questionnaire
(N=@@
injections.
AX@@
SP
anormales
majeurs,
fragments
traitements.
l'autre,
cumul@@
initiale.
s'étaient
thérapeutique.
en-dessous
gastro-@@
16%
OPTRUMA
14,
(9@@
constipation
QUADRAMET
(thrombose
cohérents
contrôlées.
90%.
98@@
exacerbation
511).
514).
505).
l'étude,
l’évolution
cét@@
NV@@
(équivalent
és).
C/
lipoprotéines
HER@@
25,@@
injection,
Tasigna
onze
établis
glucocorticoïdes,
oïde
l'oreille,
macrolides
maintient
Tél.
l’association
MB@@
TS
1,3
semain@@
470
MMSE
métabol@@
intra-@@
leucocyt@@
(TVP)
néfaste
n’apparaît
InnoLet
Actrap@@
zumab,
glucuron@@
UL@@
CYP4@@
d’ex@@
commercialisation,
AUTORISATION/
anémie,
vésicules
incar@@
plasma.
nodules
cid@@
prescrit@@
ch.
pharmaceutique.
Paris.
hospitalier
Mou@@
suédois
ae
cherche
spécialisée
atr@@
essentielles
l’EMEA.
vessie,
réguli@@
kaliémie.
allaite
immune
diarrhée.
ès
d'erreur
g)
/0@@
identique,
lactate
passagers,
fini
roug@@
ors
Fréqu@@
MR
(E171)
2000-@@
anticancér@@
internation@@
meningitidis
AIRE
impossible.
excrétion
précipit@@
liné@@
vag@@
multiples.
dre,
benzalkonium
périphériques.
GLP-1
mit@@
augmentées
anticancéreux.
actif(s)
ha
auto-immunes
pancytopénie
hépati@@
audition
Malin
Neuroleptiques
hypertrophie
Ras@@
adaptations
épi@@
d’infection
allong@@
pertin@@
traductions
apportées
bos@@
fondant
ISENTRESS
globule
cervi@@
EXJADE
mycophénolate
d’œ
pioglitazone.
plaquett@@
ensi@@
verrouill@@
hostile
étendre
eté
97@@
ventilation
contractions
élabor@@
nécessit@@
préliminaires
conclure
précises
ues.
apportent
138
excessives
UI)
dopamine
antiépileptiques
10)
irréguli@@
d’interaction
ton.
créatine
(c@@
5.3).
multi-@@
sérique.
érythrocytes
Foscan
Chin@@
sauvetage
l’ac@@
faibl@@
sensibl@@
Web
H1
Aclasta
(médicament
appropriées,
involontaires
émises
conjugués
intraveineuse,
diagnostics
volumes
électri@@
refuser
rapproch@@
entrepris@@
sec,
vaccins,
génique
désignés
tiques,
(ex.
proliférative
O-@@
acétyl@@
hésit@@
onnel
participé
mique.
]).
demandeurs
BP@@
démarche
rai@@
d'asthme
glucos@@
confidenti@@
anormaux
habituelles
transfusions
l'él@@
gastriques
57@@
successi@@
décou@@
Tel:@@
grammes.
évoluti@@
l'adaptateur
protégée
quées
oi,
ENT
l'adulte,
lorsqu'elles
Stevens
transitoire.
Dyspepsie
préparation.
prol@@
vaisseaux
issu
tis
Dublin,
détenteur
Pharmac@@
Disponible
d'humidité
apparent
hormonaux
élaborer
AVE@@
oct@@
…@@
pertechnétate
coccidi@@
d'évaluer
ribavirine)
PHAR@@
RAP@@
(CE)
m)
m2)
alentours
thoracique,
AZ@@
mix@@
IN
F-@@
ks
rendant
semestre
É
coagulation,
anémi@@
Guadalix
chanti@@
d'air
échantillon
eil.
sus
adhésine
ac,
adhé@@
feuille
SL@@
uk_medinfo@allergan.com
6900
.com
eux:
ash@@
aux:
allergiques,
10-@@
récidive
vési@@
sudation
aph@@
masculins
l'appétit,
infections,
ées).
l’intérêt
H).
méning@@
émerg@@
nasal
métaboliques
14%
mâles
30-@@
matériau
Elimination
canarypox
recombiné
Nations
(30
aison
faiblement
inactiv@@
suit:
raid@@
fiabilité
iront
ura
pandémie.
Bureau
kil@@
européenne:
info@@@
exprimant
(contenant
provi@@
suspendu
établissement
(LMR)
chirurgi@@
°
liqu@@
d'actions
argument
mainten@@
ile.
issons
septicémie
antidote
définitivement
persistantes
impérativement
souff@@
traumatisme
Savene
tuberculose,
(deux
ateur@@
plani@@
légère,
commençant
oubli
ci-dessous).
PO
ativ@@
IRM
d'allaitement.
450
CoAprovel
VOUS
Az@@
limitées,
domaine.
fonc@@
stabilis@@
nerveuses
connu@@
l’allaitement
RELISTOR
terminal
dégra@@
lever
certification
d'alcool@@
particuli@@
hydroxylation
naturelle,
AME@@
d'intoxication
conscient
ralenti@@
abaisser
revanche,
277
pot
urée
se.
temporaires
intégrée
enz@@
0,2%),
Vas@@
Leu@@
Stylo
l'estimation
410
Nacional
es/@@
semblables
Neisseria
souffrir
MIN@@
muqueuses.
HC@@
Etudes
photosensibil@@
rig@@
035
050
BIOSET®
SERINGUE
153/
103
78
Neopharma
2.5
95/
................................@@
isolé
sè@@
SK
othérapie
lymphoblastique
NU@@
limpide,
d'albumine
acryl@@
réplication
réfractaires
Tηλ:
F-9@@
nul
entis
Vall@@
ton,
300@@
2NG
myalgie
ez:
fécondation
chem@@
ina
FER@@
félin
Cy@@
connexion
comp@@
(HDPE)
formation.
Règlement
Formation:
politiques,
FOSAVANCE
glomérulaire
Cour@@
ated
tabletten
film@@
Jean-@@
D-60318
Frankfurt
(0)69
1503
Ísland
fongiques
exempl@@
l’oreille
indéterminée
post
soudaine
+421
ants:
ons:
225
EM@@
to@@
NEU@@
ME
Bulgar@@
imit@@
Bulgarie
relevant
inchangée.
prescriptions
synthétique
Grâce
mm@@
Jean-Louis
Rubrique
TAXOTERE
itation
pani@@
naiss@@
sw@@
BR@@
Bon@@
cérébrale,
estr@@
précisera
ule
ème.
ogènes
phy@@
(réaction
Ibraxion
objectives
on-@@
distinguer
acceptable,
d'Alzheimer.
dopamine,
budgets
antigène)
tumeur.
poursuivre/
insulines
dess@@
permanence.
han
auparavant.
tern@@
cerveau.
achevé
couper
subissant
intern@@
évit@@
ns
orang@@
blanc@@
ci-dessus.
Organ@@
vite.
l'enf@@
sexuelle.
prescription.
Warfarine
HCT
antibiotique
transportés
TNF
l’homme
EST
bomb@@
au.
lat@@
convainc@@
simples
radiothérapie.
cité.
magnésium
protéase
Paxene.
survie.
classification
brutale
séquence
crédibilité
généralement.
Suè@@
multiplier
occasion
mée.
biologiques.
espace
eur)
haut.
conservateur.
métallique
lé
bactérienne
REACH@@
sc@@
bimatoprost
cités
gên@@
protons
verse
se:
tez-vous
Insérer
suffisantes
Pugh
AUTRES
delta.
Lapp
tion:
TRO@@
l’aptitude
cyclique
biom@@
opération.
Ir@@
Jo@@
commencer@@
na@@
Lundbeck
Rey@@
Jalra
Bir@@
las
embre
jugés
ova
421
soir,
Α@@
Lang@@
jection
facilite
exprimé
el:
Bien
Farma
minér@@
doublement
guérir
composante
idité
remplacée
m²
modifiées
cohérence
évid@@
fibrine
antivirale
cuve
enregistrées
30°C.
ération.
décision,
antirétrovir@@
portait
connus.
PegIntron.
prudence.
ajust@@
valence
harmonisé
quer.
site.
à@@
l’âge
doxazosine
(Amplicor)
placebo/
tenus
d'hydr@@
épo@@
algi@@
vidéo
salles
séparer
ette.
experts,
naloxone
tabac.
programmation
gér@@
élevage
continuellement
écarts
(exemple:
(inhibiteurs)
lorsqu'elle
bloc@@
prochains
troupeau
concernées.
échelles
spécialisés
potassiques
établies
leucopénie
amide,
d'où
Autriche,
SE
vivante
libérant
chant
exagé@@
éradication
respiratoires.
examen.
+371
bes@@
tiré
brom@@
Sandoz
examine
finales
antérieurs
existants
touristes
spectrométrie
l’Europe.
entamé
tête.
révisé
s'arrê@@
protection.
d’avoir
wi@@
rapporteur,
(plus
renforcée
verticale
Bou@@
urgence
désign@@
Manipulation
Matériel
issait
nat@@
exercé
calculé
notable
l'hy@@
arrivé
l’application
paille
sous-groupes
ancien
remplie
era,
ng@@
Pir@@
communaut@@
fœtal
classés
volailles
d'Insulin
concernaient
ayez
partag@@
phénothiazines
augmente.
dériv@@
distribu@@
émanant
associés,
indiquées
assuré
direction.
profiter
seul:
équipes
procédés
intentionn@@
EXELON
vert.
inspections
dist@@
l'instillation
dés,
conscients
usées
parvovirus
d’in@@
ressor@@
compte.
expression
hémoglobine
anti-allergique.
complet.
suppos@@
sauv@@
intégration
absents
individu@@
hauts
prolongation
d'enregistrement
66@@
rent
den@@
scolaire
vues
appartiennent
converti@@
traduire
inquiétude
spécialiste
ote
avertissement
soutenu
international.
reconstruction
bis@@
tron@@
métabolique/
redistribution
pris,
médical.
accordé
accu@@
hypothèse
FRANCE
l'or@@
boug@@
effectuent
conseillée
ards,
virus.
ire.
Lors@@
Cependant,
Maîtrise
ades
durablement
pul@@
Poly@@
Israël
théori@@
itali@@
lement,
froid
espèce
Mag@@
relevé
complète.
sortira.
oss@@
Normalement,
expliqu@@
travail:
mécan@@
techni@@
endommagé,
bien-@@
énergétiques
adéquate,
comm@@
sol,
grasses
asth@@
ole,
s'ajouter
351
derrière
cache
Présentation
débat@@
chau@@
taille,
d’ag@@
erron@@
arômes
SPOT-ON
CHIENS
VETERINAIRES
ECHEANT
Mad@@
Purevax
impliqu@@
an?
dur
Rappel@@
Réduire
minutes,
Retourner
án@@
Sept
engendrer
présent,
entreprise.
produira
inquiét@@
besoin,
Sinusite,
danger@@
(HAART),
s'amincit
s'épaissit
ley
scientifiquement
Wor@@
Bell@@
méditerrané@@
Sanderson
1DH
réflexion
troupeaux
mémoire
d'or@@
ï@@
cigarette
car,
excessif
concili@@
famille.
présent.
stratégique
entraînerait
quill@@
Var@@
l’infection),
l’oxygène),
peu,
tenter
nocive
cher,
économique.
démograph@@
déplor@@
l'uranium
déser@@
sondages
souten@@
polonais
"Les
accroissement
jouent
l'identité
portés
équitable
combat@@
visent
chimiques,
alistes
distances
environnementales
mailles
brev@@
ets,
menac@@
décri@@
règlement,
offri@@
politi@@
demeurent
citoyens.
côté.
sûreté
soupç@@
ent!
tracteurs
trafiquants
trains
construc@@
recul@@
mourir
s».
d'aut@@
musi@@
diverg@@
troupes
argent
mée
poumon,
4/@@
obti@@
édulcor@@
émis@@
œu@@
peupl@@
épouse
aussi.
portes
barbarie
publique.
technologi@@
vet@@
solidarité
ign@@
invent@@
directeurs
étonn@@
subvention
vote,
réalité.
valoris@@
fication,
aérien
mafi@@
bureaucratie.
charger
précis,
montagne
communications
demi-million
dictature
d'affichage
réjou@@
célèbre
crimes
pensions
budgétaires
d’euros.
rémuné@@
j'en
révol@@
bran@@
on"
territori@@
droite
vallée
ation!
facilit@@
jec@@
lui,
tex@@
cyber@@
Zimbabwe
commis
lourde
l'Union.
accus@@
parent
Amnesty
urb@@
montants
appauvri
l'ESB,
scand@@
endr@@
ennu@@
cultur@@
démocratie.
francs
Kh@@
réchauffement
trouvée
répondu.
disent
résolution,
homme,
vin,
effor@@
ainsi?
financ@@
région,
pesticides,
côte
L'extension
dérogation
Soud@@
ami
parlementaire
lourd
transform@@
règne
parven@@
L'idée
identification
sa@@
L'image
couvert
parc
it?
régions,
d'ESB
maîtriser
clause
victoire
rémunération
morts.
siècles
cadmium
avenir
L'inflation
crise.
tous.
fruit
modifications.
or,
fasse
patri@@
L'internet
intellig@@
carburants
n’en
Ira@@
palestini@@
réfugi@@
citoyens,
2010.
biocides
relance
illég@@
compétitivité
dangereuses,
importantes.
mondial.
région.
concert@@
responsabilité.
teurs
législation.
bombar@@
particip@@
Assemblée
diffu@@
arriv@@
formulaire
protestations
interven@@
coupable
gérer
britanniques
excus@@
demandent
rencontre
allez-vous
strictes
quasiment
rien,
ci,
Adam@@
attentats
cham@@
Nap@@
collè@@
Moham@@
pense@@
senti@@
nullement
informations,
assortie
qu'est-ce
Barros@@
partie),
course
(M.
paroles
agriculteur
innoc@@
incidents
préci@@
réaliste
Moins
motion
présidence,
sollicit@@
perspectives
journaliste
voté
cée.
aveugl@@
fau@@
faisons
européenne?
permettez
pouvons-nous
u?
votants:
trouver@@
fragment@@
céder
British
terroristes.
restaur@@
l'accent
l'inflation
gens,
millions,
perdus
oublie
admettre
service,
obtiennent
se?
avantag@@
aviez
proposée.
Pensons
Peut-@@
/2005)
exportations
reste,
d’abord,
al?
mes?
ait-on
Qu'
Quiconque
Quid
(A4-018@@
(A4-037@@
(A4-038@@
(A4-01@@
3/97)
Tandis
Plads
RIS@@
SEN
th
Wil@@
bronchite
envisagées.
sachant
diphtérie,
ferez
hypoglycémi@@
réduit.
92%
1,0%
2%,
méthadone.
classes
dysphagie,
poursuivis
Trizivir,
cérébro@@
stri@@
d'hémorragie
particuliers
gastr@@
0%
colère)
chiots
comparateurs
lymphatiques
convertie
descendance
4.6).
complication
caractérise
faiblesses
glucocorticoïdes
d'extension
détruites
modéré,
Flebogammadif
paliers
randomisation
tox@@
surcroît
tremblements
42%
lancé
Evoltra
d’évaluation
suspectée
développés
extrême
coma
néphr@@
amino@@
M-@@
leucocytes
transparence,
invalid@@
extrêmes:
133
survenues
comptabilité
topique
myél@@
9).
sélectionn@@
1,25
franchie
thy@@
RES@@
poumon
proportions
ophtalmique
déprim@@
montrée
réalisées,
inhibé
ventricule
rasburicase
stable.
CR
I-@@
épisode
indétectable
pneumonies
Ketek
endémi@@
1.530
dépendants
d'azote
classiques
ine).
IR@@
l’activité
cérébral
noradrénaline
gras,
(ASAT
kg@@
1%.
09
principale.
1.200
conse@@
lipides,
87@@
A),
pure
3%)
Comm@@
870
Forsteo
diminuée,
vitr@@
Luminity
tipranavir
Protopic
l'az@@
cica@@
desquamation
millimètres
perman@@
IDflu
ci-dessous)
l'AUC
nourrissons,
l'atazanavir
s'étant
radiographie
cen@@
l'étude)
cohorte
185
144
optimisation
0-@@
ales;
maternelle
dirigé
fam@@
SC
AF.
reproduction,
gue.
Actraphane)
Mixtard)
Penfill
Mix@@
rimonabant
YENTREVE
24%
la,
25)
6),
class@@
véhicule,
lab@@
UD@@
exact
inactifs.
equ@@
avir/
EMEA/@@
produire,
picotements,
sine
biotechnologie.
inémie
irritabilité
Service
John@@
pédiatre
département
rejoindre
chercheur
espagnol
Efficacité
SN@@
1,0@@
étravirine
anthracyclines
Inf@@
façon,
manière,
adoption
RÉ@@
ez-le
attendu@@
culaire
(c'est-à-dire
alcool,
net
l'emploi.
iri@@
conjonctivite
oculaires,
photophobie,
Autriche
concomitant
décurarisation
yt@@
centrales
traits
reçues
tub@@
me)
soleil.
clam@@
d'affections
IMAO.
fragil@@
ET,
hyperglycémie
évités
échéant.
(traitement
mill@@
cavité
cien
anormal
CA
tableau.
connue,
impacter
solidar@@
lente
E2
este
1-4@@
°@@
Depuis
introdu@@
ement),
(SMN)
inclure:
anaphylactique
Ulc@@
sueurs,
herpès,
contusion,
plant@@
anth@@
poll@@
fournis
résistance.
l'imagerie
]-@@
leucopénie,
leucocytose
cale.
post-commercialisation
sul@@
Aranesp
susceptibilité
édu@@
blocs
spéciaux
RT
K)
28,@@
cytomégalovirus
alk@@
tolérer
éth@@
neuro@@
organ@@
recommandées.
aires)
pneumonie,
incluent:
SEP
gadolinium
39%
rapporteurs
phosphokinase
4.4),
hyperuricémie,
CoA
résultats,
bét@@
glucosamine
ocytes
demi-vies
poursuivent
bactériens
161
vec@@
formations
phosphat@@
nettoy@@
isé.
ée),
gastro-entérite,
y)
(EMEA):
AUX
Celgene
myélo@@
alcalines,
Men@@
5.1)
l'exclusion
IE@@
attribués
jour@@
s’avérer
Viracept
prélèvements
saignements,
établi.
1:
72@@
croisées
organisées
nationales,
aiguë.
insomnie
ogène,
hépatique)
aboutissant
constituants
consommé
chargés
1381
Barcelone
continuité
muscl@@
inject@@
Dévissez
séd@@
Sci@@
situées
généralisées
insuffisamment
antiépilepti@@
Johnson,
langu@@
Efavirenz
gorg@@
nasal,
aiguës
vasodilat@@
e):
ution
totale,
traitement:
plaquettes,
jaun@@
Lun@@
l'indi@@
Trinity
Berlin.
and,
l'Institut
Dun@@
ate)
catalogue
oit
[99mTc]
Acti@@
Hépatite
en)
(UI/
veine,
darifénacine
nausée
az
abondantes
hématurie,
musculo-squelettiques
transit@@
dix-huit
Wi@@
Organisation
GR-@@
ari
IMAO
travoprost
phénytoïne
apportée
l’injection
flacon:
mam@@
vite,
sophage
sinus,
éternu@@
848
(ES@@
T:
attendus
F4@@
KFT.
filiaal
estonia@gsk.com
Järvevana
EE-11314
States
613
328
230
fili@@
177
Efexor
hallucinations,
citation
états
ESS@@
d'engourdissement
augmenté,
règles,
taches
désordre
grippe,
classe@@
1000):
flam@@
bruy@@
insensibilité
Tremblement
entretien
aque
confu@@
emtricitabine
QUE@@
larmes
oculaire.
gués
cornéen,
û@@
(inhibiteur
HMG-CoA
fulvestrant
VIII@@
avant,
ques),
B-1180
Gly@@
yst@@
1400
Mos@@
hypokaliémie,
aiguill@@
usagés
éliminée
contient:
recombin@@
protéines,
exerçant
souligne
consommateur@@
stipule
protocole
présentant:
1986
projets,
informatiques
représentation
1993,
audits
appuyant
d'UI
TES@@
l'insuline,
sid@@
congel@@
11%
ées@@
malaise.
possibl@@
(selon
l’eau.
informez
persistant
idi@@
arrêtée
inactive
approprié,
arrêtée.
attribuée
tiers,
AN,
aly@@
fractionnée
avertir
pe,
ille.
événements,
Tolérance
Direc@@
cardio@@
oris@@
Noti@@
termes,
invers@@
blessure,
œ@@
basses
portug@@
(glycémie)
Zavesca
spécifique,
LH
d'alcool,
retar@@
bul@@
rhabdomyolyse.
botu@@
bébés
nourris
optimis@@
potentialise
agiter
catabol@@
l'endroit
rendement
correction
asepti@@
flanc
QU@@
lots:
faci@@
alimentation.
one)
cine,
module
bénéfic@@
écraser
acqu@@
sionn@@
cogni@@
zal@@
MENTIONS
second@@
obligatoirement
2,5@@
internationale,
nettoyant)
038
041
292/
293/
EU/1/06/344/00@@
354/
421/
EU/1/08/464/00@@
EU/1/08/465/00@@
2b
tée.
Aff@@
environnemental
cardio-vasculaires
Grade
†
hypovolémie
hypotension,
Éviter
pipette.
V)
chaud
fesse,
libère
hormonal
reconstituée
Posi@@
(E420),
425
malt@@
histidine,
dihydrogéné
)-@@
intégralement
soja,
empl@@
invasives
ör@@
GR@@
ham
Avda.
28108
Dam@@
strasse
Pot@@
d'Am@@
Havant
PO9
arthralgie,
Faire
Wilson
confirmée
ar,
800@@
Som@@
dér@@
immunité
(≤
ée).
prud@@
conçus
%)@@
protecteurs
complète,
City
USA
FOR@@
membre,
expertise
Activelle
tablet@@
78163
TAR@@
ection
♦
Gadovist
territoires
Gall@@
North
assomb@@
cruci@@
chaus@@
Gy@@
inférieure.
conventionnelles
NL-@@
ATI@@
et-@@
ribavirine.
GLU@@
ke
0,75
musculo-squelettique,
allergi@@
algie
mamm@@
nerv@@
mê@@
UR
(CHO)
Bl@@
aus@@
18,
)*
parentérale.
maturation
Ho@@
neutralis@@
Chinois
structu@@
exi@@
dérivée
0%)
tension,
d'hormone
sauvages
agression
IgG@@
aî@@
Ag@@
suspensions
jugé
ale),
Kaletra
tivement,
1989,
l'int@@
porcin
d'information.
conformer
d'oxygène
PM@@
SIS
Cholestagel
entraînera
portaient
000.
souple
Sau@@
suivi@@
périodiquement
positifs.
financé
disposi@@
reçoive
compétition
d'Aldurazyme
PER@@
journée,
médicale,
l'obésité.
sens@@
d'envisager
d'épilepsie
grave)
èr@@
extern@@
COX@@
théorique
d'exposer
alcoolisées
procurer
s'appliqu@@
sév@@
réc@@
clastogène
pertinents
systémati@@
d'OPTISON
identifiée
9,9
onde
restructur@@
passez
s'agissait
sectori@@
transforme
logique
semblerait
deviez
jusque
coupés
désagré@@
cloque
miction
mg/ml,
Mé@@
naturel,
grandi@@
forum
quanti@@
suspectée.
ations:
fongi@@
moy@@
(23
Humaine
d'Aerius
10.
202
l’une
μ
d’Avonex
totale.
SS@@
CONSERV@@
caux
dyspnée,
déférasirox
OptiSet,
ent-@@
D'AUTRES
LIF@@
op
inférieures
Radi@@
ographie
matique
l'imatinib.
intermédiaire
paraly@@
p.@@
Pres@@
mac@@
DH@@
adul@@
em
tchèque
mad@@
comprimé,
l’homme.
L'absorption
cause.
déclench@@
écl@@
reconnue
actuellement.
opérationn@@
facilité
lancement
ondes
floxacine
substantielle
2000.
Limit@@
imposé
valnémuline
irréversible
d’origine
détérioration.
femme.
le:
d'i@@
multiplié
adé@@
amélioration.
pompes
d'EXUBERA
périphérique.
d'É@@
alisation.
J,
limitant
kilo
5,0
électriques
capture
Puregon
plage
électroni@@
participent
située
l'addition
demeurer
inée
évitant
dien
fournie.
dissoudre
posant
L'alcool
intensifier
ADN
soulagement
endogène
avancée
aspect@@
riluzole
vois@@
Tabletten
modeste
l'âge,
rale
comptent
manifeste
pertinent
antigène
intensif
ciel
connues
recueillir
SID@@
médico-chirurgicale
autologues
endogène:
emp@@
humide
poussée
L’apparition
secondes.
onie.
l'étendue
résid@@
manu@@
quotidien.
tâ@@
rigueur
indirec@@
favor@@
UV@@
existante.
réalisés.
réduite,
l’usage
restauration
rifabutine
L'arrêt
détectée
4.2,
Slovaquie,
Fe@@
ill
(facteur
placée
ci-@@
aboutit
médical,
dégénér@@
L'atorvastatine
humaines.
pylori
Bauskas
ga,
LV-1004
gouvernementales
échange
proposition.
exigé
l'av@@
laboratoire.
gain
compara@@
prématuré
psoriasis
Vent@@
restes
("@@
jugement
suspendre
compose
marchés.
Juli@@
{fax}
(p.
participant
rejeter
L’effet
TAC
assimil@@
antimicrobi@@
desquelles
Bab@@
préval@@
antéri@@
propriétaire
RILUTEK
(analyse
vitro.
anes
grou@@
Rob@@
formuler
logo
ada,
Londres,
abond@@
interférons
multipli@@
gélatine,
noir,
éducatif
crucial
âgé
pair
omati@@
visiteurs
équivalente
the@@
préciser
intra-oculaire
tiendra
communautaire@@
s’y
échecs.
irradi@@
bilité,
contaminées
posés
d’am@@
impliquent
proch@@
détail
souhaité
géri@@
adapter
vraisemblablement
céphalées.
l'alimentation,
indépend@@
perturbations
le-@@
Gam@@
complets
étiquettes
détr@@
secondaire.
batt@@
(particulièrement
expérimentations
713
(utilisées
dysfonctionnements
Héparine
locale,
(abdomen),
6.6).
aves
toi@@
lett@@
B19.
l'occasion
identi@@
soulevées
rayon
(SHO)
transporte
hydratés
pondérale
calori@@
améliorés
rétinopathie
oniques
aut
CF@@
détruits
glucidiques
VEGFR@@
alé@@
salmon@@
Angl@@
estimés
intensi@@
Liprolo@@
suspects
passif
c'@@
collecter
explications
d'éléments
continu.
d'hépatomégalie
retire
consac@@
TVA
organiser
dem@@
l'Al@@
sap@@
liquid@@
confirme
l’ordre
L'évolution
inflation
93@@
stat@@
cér@@
administratives
commune.
":
114@@
l'absorption.
plantes,
médicaux,
Tur@@
équipement
envoie
positif@@
contrôlée,
derni@@
gâ@@
courante
(hyperglycémie),
+40
nés,
s.r.o.
mentaux
12,5
gradu@@
insuline-protéase
PRODUITS
financiers
portez
(Norge)
Mus@@
Nau@@
-même
oublié
N'injectez
bre
l’expérience
890
da.
près,
facial,
eaux.
allonger
conduct@@
fines
droit.
montée
PB
Sw@@
remplacé
étudier
administrative
procé@@
cer,
voie,
ressenti@@
Vomissements
SUL@@
Basingstoke
préc@@
adéquats.
ESPÈCE,
39,
té,
fuites
succès,
dysenterie
d'informations,
rez-@@
bar
MÉDICAMENTS,
VETERINAIRES,
ko
règlement@@
caractérisé
pes
Hus@@
Prob@@
Vari@@
m'administrer
et?
im
actualis@@
fourni@@
amend@@
z-vous
Res@@
n’hésitez
sect@@
Vo@@
Ste@@
mo
difficiles.
prévue,
intitulée
rog@@
remar@@
envisage@@
péni@@
hôpital,
hospit@@
n’avez
répondez
éducation
mondial,
autom@@
mentale
appell@@
écart
tel.
Tit@@
Tot@@
dangereuse,
admissible
manque.
casse
négatives
permettront
eront.
abilité@@
fumée
consent@@
incident
domestique
dépens@@
automobiles
communication,
enlevé
Veillez
Vers
parvenu
apprendront
montrera
normales.
ablement,
constaterez
récupérer
pend@@
produis@@
frapp@@
pun@@
privée
abord@@
budgét@@
maisons
franch@@
Eurobaromètre
biodiversité
traditionn@@
d'Alzheimer,
indispensables
imposées
partout,
supermarchés
ces,
juridique.
PNR
attr@@
crim@@
Kosovo
ises
portation
l'avortement
allemand,
conciliation
tués.
dits
"de
textiles
nature,
russe
toxicomanes
bureaucratie
d'importants
trajets
marchandis@@
dizaines
cer.
société.
inondations
routes,
financés
psychologiques
Sud
der.
l'au@@
régn@@
fra@@
opérateurs
celui-@@
jeu.
communautés
autorités.
pénurie
utiles
cadavres
dat@@
évidemment,
automobile,
actuel,
camp@@
compromis.
autrefois
fonde
requise.
regar@@
judiciaire
police,
musulmans
digitales
défavoris@@
montagn@@
ant!
condi@@
tenté
serre
Fonds
abeilles
sociaux
ède
attribuer
donc.
montagnes
écrit@@
radic@@
négociation
paraphraser
réelle
précis.
reviendrait
d'échange
éthique
nutri@@
provient
blessé
affirmer
institutionn@@
Internet.
dit.
bêtes
carcasses
combatt@@
d'entrer
triomph@@
alistes.
siècle.
concerné.
taire
d'accéder
opérer
courage
dégag@@
er»
Lisbonn@@
habitants.
vieille
assiste
individus,
défaill@@
Jean
prétendre
américain
s",
retrouver@@
spiritu@@
matin,
Mas@@
vendeur
clients
combl@@
libéré
terrible
VIH/@@
t!
déboucher
voyez-vous
whisky
d'asile
équit@@
Iran
al-@@
L'exigence
tachygraphe
l'instar
échec.
trace
unanim@@
travailleurs.
m’a
qualific@@
ophobie,
concurrence.
L'harmonisation
fête
cultiv@@
l'humanité
sacrifi@@
combustible
mer.
d'embryons
symbol@@
Europa@@
ence!
devrions
ressembl@@
institutions,
exag@@
alban@@
Sant@@
archi@@
L’industrie
tiss@@
radioactifs
sûrs
voudrait
bataille
cim@@
catégori@@
Turquie
dépas@@
billets
engendre
loi@@
irréalis@@
soi,
persécu@@
septembre,
zz@@
s’en
l’énergie
etc.,
que-@@
140@@
transformer
portail
L’on
Tch@@
l'islam@@
ă@@
consommateur.
l'époque,
proposition,
genre,
félicit@@
maill@@
rationn@@
belle
législative
productivité
football@@
disparaî@@
baign@@
famill@@
pots
atteignent
récol@@
commencer,
œuvres
climat
prisonnier
doit-elle
opposer
tonnes;
file
convaincre
l'Europe,
empêché
chass@@
che-@@
congrès
Lundi
chocolat
remarques
satisfait
démocratie?
objectif,
enquê@@
travail?
bombes
aéropor@@
1999)
parol@@
demeur@@
résultats?
objectif@@
décel@@
langage
aime
peine.
finan@@
access@@
Majorité
animales.
outi@@
Blokland
essayé
Russie
morceau
sièges
Mes
Mettez
télévis@@
ski
all
censés
il?
applaudissements)
hô@@
porte-@@
Naturellement,
consisterait
vement
bénéficiaires
arrivée
croyez
années?
prix,
châ@@
N'est-ce
signature
intérêts.
ag
refusé
concrètes
citoyenneté
d'autr@@
légumes
dérog@@
ai.
pourrions
créée
l’affaire
tez,
minute,
ser
viande,
Tchernob@@
l’avez
Ou,
devraient-ils
flotte
Paradoxalement,
désir@@
laiti@@
gouvernements
gué
récentes,
pneumatiques
emball@@
débat,
Permet@@
diront
environnement@@
tes?
terminer,
Pouv@@
Proposition
abordées.
Qu'attendons-nous
Qu'est-il
9/97)
Médiateur
(A5-012@@
2/2000)
(A4-015@@
9/98)
(A4-010@@
4/2000)
(A5-005@@
Katiforis
5/97)
Sachez
S’agissant
Souvenez-vous
Tá
eh@@
Kay
Fiskers
Serono
eru@@
interprét@@
zidovudine,
interrompu@@
poursuivie
tétanos,
LeukoScan
notes
apparaître.
(RVP)
conditions,
coron@@
genou.
carcinome
courtes
37%
ouvert,
(DS)
FS
IF@@
névirapine
initiale,
mesu@@
(telle
folliculaire
veines
FSH/
névr@@
palpitations,
bili@@
encéphalopathie,
H)
-1.
affectées
placebo@@
antidépress@@
péri
arth@@
2300
possibles.
pics
ules
rix,
auditif
dipl@@
d'équilibre,
l'ASC@@
oration
déficiences
articulaires,
stéroï@@
(ACTH)
11,
consacrée
tan
eurs)
alis
détresse
nerveuses.
IDM
système,
ventil@@
désirudine
molécul@@
SMD/
heure)
PA
pat@@
indiqués
l'adhésion
VICH@@
isants
®
(7,@@
sain,
LL@@
lymphatique
diarrhé@@
(1-@@
Allaitement
Thelin
durable.
prolactine
700@@
fixe,
(25
contrôlées,
pédiatrie,
FABLYN
bêta-bloquants
actions.
nal
0,4%
SonoVue
méthotrexate,
histaminiques
4ème
fréqu@@
ion
X.
èse,
31%
randomis@@
FL@@
4.4@@
Ci@@
Herceptin
MP
2,3%
grades
1%,
l'alendronate.
2,5%
d'ADN
(J@@
ce:
résiduelle
nez.
(inflammation
mois;
allergie,
normaux.
indice
8%)
ranitidine
chromosomique
sif
aminotransférase
cystéamine
émergentes
estim@@
hypertendus,
fertilité.
pomm@@
maternisé,
(3%)
rayons
chut@@
112@@
naissance,
action,
couch@@
répondaient
pes.
nuit.
21@@
(comprenant
79
7).
(valeur
intermédiaires
d'aliment
sucré
goût,
aires).
UG@@
Safety
détails
avir
Kaposi@@
hypotension.
fistule
0,1%
Muni@@
1985
assistant
Rome,
Abadi@@
vétérinaire,
National
1988
toxicologie
impliquée
coordinateur
capuchon.
chimiothérapie.
s'accumulent
cs,
majeur@@
4.8)
angine
DÉ@@
TRE
ménager
profond@@
métrique
fai@@
froid,
vement,
macrogol
passive
l'épithélium
conjonctiv@@
H/
T1
T2
Cu@@
can.
Modi@@
(données
eur).
extraction
vé@@
avertissez
démarré
comptant
serveur
MAO
d'ostéoporose
amlodipine
phosphate)
influenzae
tétanique
MEDICAMENT
g-@@
préalable,
Atripla
disoproxil,
(22%)
d'opération
ainsi,
l'infirmière
glucagon
hypercalcémie
CE50
actualisation
actualisée
qu'est
préparé
d'ur@@
maligne
PRM
pathies
congénitales
utér@@
diges@@
couvercle
Valeur
génotypique
och@@
ham@@
cutan@@
tes@@
soumission
firmes
posées
délégués
extrémités,
détectées
immunologiques
l’exposition
hebdomadaire.
hémarthroses
d’augmentation
prétraités
lamotrigine
ecchymoses
asymptomatiques
fluoroquinolones
d'épilepsie.
5%).
prélevés
(10@@
biochimiques
TI.
actif@@
instillation
varicell@@
valdécoxib
anormalement
étudiées.
1200
(Ph@@
dose-dépendants
Atri@@
champign@@
INTELENCE
n'affecte
onique
déplacer
l'albumine
ine-@@
l'anagrélide
compartiment@@
congestive
akinra
l'ami@@
trophi@@
injecteurs
compatibles,
http://www.@@
inspecteurs
kératopathies
ciclosporine,
Thalidomide
réversibles
cheveux
référence,
ryth@@
corrél@@
phénomènes
reins.
d'amprénavir
notables
accompl@@
trices.
vital.
rite
saturation
provisoires
centaine
retrait@@
Pr
LOCF
psychiatriques).
engourdissement,
installés
hémorragique,
d'âges
évacuation
Stev@@
classiquement
botulique
évaluera
d'émulsion
2002@@
auth@@
ogénique
l’aiguille.
rang@@
corpor@@
biologi@@
insulin@@
dens@@
clobazam
et)
osin@@
cauchemar@@
Difficultés
respirer
ine:
pieds,
urticaire
0,000@@
Intervalle
exceptionnelles.
ge.
faculté
d'U@@
disease
potassiques,
diriger
Docteur
de(s)
567
È@@
1,9
37,5
Tension
liber@@
Michael
dy@@
Laboratories
Organon
DULOXETINE
BOEHRINGER
INGELHEIM
cils
rentrer
récipient:
parentér@@
ale)
TIN@@
induits
purpura,
sis,
Agustín
34-91
bloquant
pulmonaire.
d’expiration
MP.
ks,
GYÓGYSZERKERESKEDELMI
esto
Baltic
Tu@@
Inc.
Stock@@
112
tartrate
d'intérêt,
boutons
l'ongle,
palpitations
sexuel,
apparaissant
l’estomac
provoqués
pseudo-grippal,
gastro-entérite
cou,
incontrôl@@
biliaire.
atoire,
utilisateur
nas@@
l’œil
Cou@@
sombre
Ass@@
l'efalizumab
femelles.
Guid@@
208
ict@@
stad@@
DIO50
internationaux
nommée
(UE)
hydrolys@@
ine/
omo@@
RU
d'affinité
ergi@@
dépendantes
l'endomètre
informe
pur@@
exécutif
2009
strict@@
"Temps
cus
ale).
(VIH)
cales
Grèce.
gestion.
activité,
commerciale
Januvia
pharmaceutique,
gluco@@
secou@@
glucagon,
améliorant
indic@@
d’au
adress@@
réac@@
cela@@
d'auto-injection
recherchée.
rez.
cémie,
fréquents.
azole,
reconsidéré
digestif.
pression,
fiée
massive
alco@@
céphal@@
(PSUR).
Aut@@
mainti@@
opération,
que»
fin,
intervenus
grec
extrapyramid@@
perfusion,
ampleur
InductOs
sous-types
l'erlotinib
découvrir
haut@@
préoccupé
eur;
d'alimentation
virale.
lignées
majoré
act
malign@@
α,
existait
Xa
Placebo
Vers@@
transférer
ultérieur
fill@@
limites.
matrice
Krka
inhibitrice
actifs.
Purgez
eptacog
(activé)
fluoxétine)
sulfon@@
ab
tumorales
0%),
(0,3%
l’apparition
España
(2)
Fernando
Nouveau
º
sympath@@
pharmaceuti@@
charge.
limité.
fondamentale
YTRACIS
rési@@
EU
FIGURER
MON@@
ALU@@
formée
cardiaques,
manifes@@
DEX
intr@@
d'ADROVANCE
ml@@
variables
043
PREREMPLIE
SANS
gélul@@
sachets
EU/1/05/329/00@@
343/
(14
107
101
gélules)
50x1
360
085/
086/
107/
cancer@@
suspectés
évocateurs
l'IRM
opa@@
l'opération.
strogènes
bronz@@
entourant
bain
évitez
effort
tend@@
er-@@
chlorhydrique,
trométamol,
pH),
lique
polyester
pouls
compensée
d'enseignement
aar@@
AA@@
ν@@
Co
Route
oco@@
vais
agin@@
Park,
ire,
AIRES
Industria
mbH
8006
intérieure
Signalez
Avant
-le
Fertavid
J/
épargn@@
délivrer
mag@@
graisses.
Pandemrix
Fl@@
gardé
Procédures
Rapport@@
précaution,
nettoyage,
gants,
tres,
ock@@
nier
fractu@@
enter
consolidation
Islande
mom@@
ona
Cedex,
TopoTarget
+33
US@@
Fréquente
impuissance,
rie,
brûlures,
complètes
populations.
gad@@
°C.
intég@@
orange
PGN
blanches,
opaque,
ail
TB@@
noire
Alban@@
1A@@
shire,
Gen@@
BV,
stylo.
Ferr@@
myéloïde
diagnostiquée
réfractaire
Globalement,
zinc
re),
Gmb@@
1,75
nes.
me).
ls
culture,
rétinoï@@
Flor@@
prévoyez
I)
hypoglycémiants
années-patients),
1.000
EN,
SOLVANT
Habituellement,
ADVATE
pensée
Halocur
ance;
jaune.
Wie@@
Peter
31@@
harmonisation
érez
remplies.
névrite
épa@@
F2)..........................
IV):
manifestation
AG,
d'Haemophilus
génériques
entam@@
L'hydrochlorothiazide
nau@@
quinolones.
gues,
Gau@@
calcémie.
d'hypokaliémie
graphie
atin@@
dispersion
atique,
agressif
Maladies
lors@@
États-Unis.
Preotact
attaché
provis@@
euti@@
énergie,
hémorragi@@
précipité
d'hypertension
préexist@@
librement.
contracep@@
res.
sous-jacente
fébrile
longue.
alim@@
ting
d'Europe
apports
essayer
SINGULAIR
recommande
antirétroviraux,
mousse.
aler@@
lait@@
parallèlement
prévisible
oz@@
mal.
progres@@
évolu@@
µm.
déversement
visuellement
écu@@
situés
(autres
récurrentes
pénicill@@
VEG@@
Gol@@
opér@@
sen@@
vil@@
reb@@
fen@@
envelop@@
cessé
sion).
cétirizine
féminine
acr@@
échoué.
dispara@@
Unité
allum@@
d'accroître
nerfs
lorsqu'un
évalue
graduellement
alité@@
prescri@@
d'apporter
0.
communiquer
85@@
1996.
cassés
ecti@@
bursite
blessés
ycl@@
stéréoty@@
pé
utilisations
signal
Optimark
lac@@
Op@@
coquelu@@
Candidose
urie,
sang@@
supérieur@@
guer
acquises
en:
dor
pharyngite,
Helicobacter
Toxine
Botulique
U,
REV@@
UE@@
IMPORTANTES
vant
(IMAO):
inver@@
INE
Initi@@
(ml)
INJECTION
prés@@
inspir@@
eille
adaptateur
l'opercule
ANCE
Associ@@
réti@@
Insulatard
........................................@@
INTANZA
l'après-@@
ast
amp@@
combiner
avec,
(20000
confirmées
corrigé
Po@@
nica
Slovénie
ée)
sis
INVANZ
étique
ONS
rang
conditionnelle
situaient
Luigi
censu@@
05
Gor@@
7073
Ju@@
ASE
remerci@@
valid@@
ON.
Kam@@
Karad@@
ach
DOIT
Kr@@
esta
rus@@
9.@@
90.
déterminée.
neutr@@
envoyée
GlaxoSmithKline,
FAR@@
El
Vit@@
conjugaison
mutagène.
quasi-@@
blanchâtre.
transparent
assembl@@
progressivement,
refléter
gastri@@
fran@@
15.
kétoconazole,
SOMAVERT
s'était
PP@@
avis,
l'ADN,
obac@@
clopidogrel
Ciprofloxacine
violet
laissés
sée
retardé
séparation
local.
d'Azomyr
gy@@
(11,@@
désamin@@
menacer
résultera
sés
salbutamol
pneumococcique
calculée
Métalyse
d'In@@
Siklos
g).
pin@@
ovins
lénalidomide/
secteur.
antérieurement
méthyl-@@
caucasi@@
ments
progresser
achè@@
aigu@@
bas,
rare,
déséquilibre
gastro-intestinal.
clivage
contact@@
étiques
lépirudine
vérifications
mettra
ance:
L'allaitement
graph@@
2B@@
décès,
centralisée
comparais@@
pharmacocinéti@@
inféri@@
BPCO
G-CSF
(IEC),
compétitif
format
pation
trices
avertissements
consultati@@
chien.
raison.
155
PN@@
nuit,
ponction
dérivées
jo@@
douc@@
bénéfiques.
nourrissons.
î@@
minor@@
cm2
journalier
concernait
quarts
Tasmar
standard.
lyophilisat
difficile.
prestation
entrainer
directions
Disease
graisses,
exécution
(p=0,00@@
accueilli@@
radiation
compens@@
Communauté,
l'iode
rotigotine
neuroleptiques
sélectivité
Bulgarie,
25°C,
postopératoire
bronchiseptica
L'association
l'enfant,
offres
Kor@@
hospitali@@
Rh@@
M).
génétiques
mobile
oc
371-7
(0@@
dénomination
séparés.
band@@
écrite.
mètres.
blocage
traitez
usages
signale
perd@@
Retard
mm3)
équivalence
ac.
CCR
mineur
couver@@
succès.
ing.
satellites
totaux
causes.
contraire.
survenu
adresse}
activé
instance
prouv@@
concentré
sûr.
cent.
F)
observateurs
Suiv@@
neutrophiles,
tam@@
riers
n'étant
d'hom@@
visible,
CC@@
découlant
l’être
tasse
cohérent
é;
ouvre
me;
moléculaire
Twinrix
propre.
isti@@
drogu@@
quitté
t)
venti@@
érique
génération.
Porter
analgé@@
enveloppe
état@@
directe.
modifié,
d'activités
minimales
documents,
lax@@
métal
carbonique
recueilli
mascul@@
(thromb@@
appâ@@
virologiques
cellulose
trim@@
couches
cris
terre,
fumier
OptiClik
sévère).
clair.
re;
ajustées
intentions
fermés
psychiatriques),
l'Office
Franç@@
200/
limitées.
reflètent
futures
deg@@
soutiennent
quée,
évaluation.
(numération
7%),
traduits
délibé@@
enregistrements
numérique,
procédu@@
sure
influ@@
jour;
main@@
munis
retirées
ENA
inscription
communiqué
alternatifs
provo@@
embl@@
l'avant
issement,
affin@@
ols
égouts
s'appliquent
débor@@
existante
entraver
plastiques
surrénales,
interdits.
exclues
rénaux,
sucrase-isomaltase
tardi@@
légalement
vision.
d'urgence.
information.
substance.
fourniss@@
attirent
("symptômes
si:
N-glycosidiques
O-glycosidique
tration
invités
promett@@
Ont
tout-@@
47@@
probables
rendent
gauche,
êtes,
âgés,
titres
revêtement
amélioré.
claire.
visit@@
confirm@@
automatique,
l’équilibre
lancées
fermé
memb@@
four
ple
adap@@
tées,
d'hyperlactatémie
transaminases.
(P02080),
ignorance
plus@@
correct@@
L'événement
ément
oter
carg@@
véhicul@@
enci@@
SWEDISH
ORPHAN
tian
s'amélior@@
équilibré,
L'inclusion
auto-injection
l’issue
minimum.
effectue
lu
d'examiner
5/@@
descendants
ambul@@
tenez
spécial,
intense
nouveau,
recevra
rer
instaurée
nocturne
disulfure
isomérase.
rie.
préventive
opénie
Maintenant
Maintenir
Maj@@
@merck.
estations
Mol@@
presse,
cident
bourg,
5-0@@
ena
soluti@@
anger
fruits,
Bruxelles,
effondrement
lang@@
spasmes
lem@@
626
pes,
l’alimentation
irlandaise,
Public
ordin@@
Arthralgie,
pe.
(0)10
âgées.
soir.
laitiers
poussant
sensible,
(vaisseau
œufs
d’en
introduction
partager
meurtri@@
H5N@@
sorti@@
Note
enda
doses)
NUMERO(S)
technique,
disperser
l'intéri@@
Oprymea
clauses
Ouvrir
Pack
englob@@
saine.
Paramètres
identifiés.
connus,
accordées
calculer
citons
indre
déroul@@
151
naï@@
jau@@
télévision,
ade,
Nico@@
do,
factu@@
Bru@@
fun@@
FIN-02151
berg@@
paroxystique
Polyoside
Moy@@
rénine-angiotensine,
suivante,
pointée
Tapotez
réponse,
emploi,
opérationnelle
glac@@
information,
uk@@
-t-on
assurez
regarder
incision
386
rendez
humaines,
ender
ano,
Quatre-vingt
age?
in?
TEVA
RECEVOIR
ZY@@
HUMALOG
KWIKPEN
d'identification
QU’HUMALOG
Rarement,
maculo-papulaire,
excessi@@
Ul@@
eni@@
effectifs
8/@@
VHC-VIH
peuvent,
rô@@
Nav@@
ui
ao
Lisbonne
atlanti@@
Amsterdam@@
Espagn@@
ascend@@
mammaire,
Sé@@
ries
lanc@@
stes
vide,
impossible,
compétent
demi@@
répét@@
liés,
or.
isée.
quelqu’un
primer
sachez
devienne
al:
anti-rétroviral
espaces
cess@@
règl@@
barr@@
organizačná
zložka
san@@
Ke@@
elli
Sont
Nat@@
Vil@@
Statale
Suboxone
bel@@
Abbott
gen
raisonnable
entielle
intérieur.
cht
deviendra
sérieusement
titr@@
Treize
nutritionnels
urgent
Mah@@
abu@@
unique,
6.2mmol/
continent
accompagner
réflexes
excessivement
possibil@@
verso
(insuline)
modification.
adulte,
Voi@@
di.
atte@@
avant.
boulevers@@
eriez
imprim@@
Camp@@
interdites
réus@@
différentes.
iraki@@
homme.
agricult@@
accidents,
discré@@
mû@@
dég@@
environnement.
affir@@
vodka
chrétiens
goû@@
allusion
réussit@@
éthi@@
aisons
jouets.
entrepren@@
réformes
plong@@
entrent
droits,
ceinture
prestations
déten@@
d’électricité
fiables.
accomplir
estation
ordinateurs
pratique.
quelques-uns
fes@@
technique.
augmentation,
remarqu@@
tendances
temps?
l'égalité
Constituti@@
payés
hongrois
budget,
décennies
parents.
annex@@
coûteux
atoire.
lav
partage
Go@@
fameux
soi.
annul@@
erry
Méditerran@@
l'"@@
atures
renvoy@@
&#x02BC;@@
défen@@
trib@@
confronté
sud-@@
ouest
désespoir
estiment
concurr@@
content@@
pirat@@
vagues
relèvent
l'exploitation
personnelle
frustr@@
aché@@
volontaire.
camions
entrav@@
techniquement
signat@@
effondr@@
protectionn@@
élis@@
librement
vulnér@@
spécialistes,
financement.
l'échec
assassiné
ici.
légal
pourr@@
tier
prison.
escompt@@
économi@@
partici@@
allocations
agricoles,
monté
incendies
vert
monét@@
distributeur
panne
alloué
chargement
mari@@
poignée
accident.
rapport.
américain@@
synonyme
anciens
signifier
Serbi@@
chef@@
sensibles.
d’énergie
thon
écologique
construit
paru
ques"
pétroli@@
convergence
d'argent
Euro
bon,
appellation
embryon
jui@@
Europe@@
soutient
conting@@
2020.
enrich@@
saut@@
entreprises,
écosystèmes
recense
province
clonés
valable.
combustibles
monte
dossi@@
Américains
joie
marée
lut@@
l'art
uniform@@
espoirs
contradic@@
baser
accep@@
«»
alités.
xénophob@@
euro.
plain@@
millén@@
commande
responsabilités
massacre
Atlanti@@
ple@@
contradiction
élever
cultiver
démence.
Tom@@
décharge.
coordonn@@
titude
milit@@
civi@@
exigence
appréciation
existence
satell@@
aurais
garanti
défense.
injustifi@@
extrémistes
treize
véritablement
L’heure
timid@@
L’histoire
mémor@@
alliance
hiver@@
glace
L'homme
déchets.
erait-elle
l'usine
acheté
L'humanité
balay@@
laiss@@
l'aff@@
pont
commissaires
ivre
aider@@
psychologique
c’était
conventi@@
L’in@@
L'incinération
tract@@
Canari@@
contex@@
confrontée
main-d'@@
infl@@
scandale
modern@@
médias.
d'ozone
ango@@
plainte
issage
répercu@@
handicapées
immigrants
L’interdiction
malheur@@
imposée
inventions
faut@@
rons
concurrence,
dépen@@
L'investissement
quotas.
chaî@@
monopol@@
2010,
n'aient
union
accord,
négociations.
l'acheteur
l'effondrement
diplô@@
/CEE
client
ste
méritent
Milosevic
suscite
crois
oi
d'aller
ime
l’OM@@
falsifiés
ie?
res?
opérateur
ution.
Sab@@
carte.
élec@@
pêches
sortes
l'accroissement
législatif
satis@@
meur@@
particulier.
informé@@
caiss@@
fallait
Assemblée,
après-@@
contaminés
soldat
barri@@
qualifier
enthousias@@
intéri@@
dette
Ari@@
siècle,
achète
passera
suffi@@
aide,
conséqu@@
aide.
terri@@
eux!
répression
désor@@
institutions.
voul@@
frères
aménag@@
Sand@@
auv@@
échap@@
d'épi@@
L'urgence
l'avion
diesel
aphteuse
renseignements
l'Assemblée
Présidente,
préoccupation
défic@@
environs
émiss@@
plus!
proposez
coû@@
a-t-@@
immigr@@
rent@@
eté,
page,
occupent
guérir.
ants?
obligés
maintenant?
voit@@
prévisions,
oir@@
pourrait-on
ah
superflu@@
insiste
tempête
Manifestement,
(B5-0@@
(RO)
sexuellement
Conseil.
pathogène
technologiques
Mercredi
Mesures
er!
ka.
Mieux
Martínez
!".
chiffres.
sélec@@
magnifi@@
Lulling
Moi,
nappes
autru@@
rum@@
ez-leur
échapper
Balk@@
Pirker
inutil@@
leçons
ignorez
entendu@@
ça.
États.
là-@@
système?
animale.
d'équi@@
cabillau@@
(NL)
abstenti@@
l'élargissement.
alité?
réels
flexibilité
craintes
serons
erions
aéron@@
statistiques,
blement
l'EFSA
Orlando
destruc@@
patrimoine
détenues
d'accises
Lange
éleveurs
quiconque
inventé
enregistrer
dénombre
fant@@
ession
jette
rê@@
pensé
paix.
souveraineté
cacher?
qualités
décisi@@
explosi@@
proposition?
sion?
seront-ils
sera-t-elle
rions-nous
phtalates
arrang@@
restructuration
impliquerait
camion
stocks,
UE/@@
dites-@@
précisément,
pilotes
Peu@@
n'est-il
-j@@
liberté@@
Séance
important?
s'est-il
us?
matière?
mesures?
directive?
plus?
ue?
crise?
Pourriez-vous
2007)
Niebler
Qu'a-t-elle
licences
ine?
démarches
Qu’en
passerait-il
1/99)
8/97)
7/2000)
(A5-015@@
(A4-019@@
7/98)
(A4-013@@
(A5-028@@
(A4-024@@
(A4-039@@
(A5-034@@
(A5-027@@
(A5-037@@
(A6-0@@
2/98)
4/97)
(A4-017@@
(A5-018@@
Reven@@
International,
Serait-ce
décharges
S’ils
obtiendrez
Souhait@@
Techniquement,
о@@
Vrai@@
gem@@
Denmark
Swedish
s'accumule
Not@@
antipsychotiques,
secours
ol)
sulfam@@
Ziagen.
coqueluch@@
cérébrovasculaires
sous-groupe,
positive.
pivo@@
animal,
tuméfaction
antérieures
400/
27).
l'accident
%].
sédation,
signalée
gastroentérite,
racine
ner@@
cystite,
SNC
neuropathie,
atrophi@@
transfusion
normales,
GF@@
Circadin
3%,
ère)
l’origine
troubles.
dyspnée
stati@@
bétaïne
16,@@
(57%)
l'infliximab
statine)
l'aspergillose
l'enoxaparine
décentralis@@
(Q@@
fractionn@@
correspondante.
SMP
cidofo@@
buvable.
attendues
issement.
cérébral,
harmoniser
sanguin.
rayonnements
39,@@
79,
(valeurs
H-@@
gemcitabine,
logici@@
pimécrolimus
AL,
omes.
67%
comparateur
(17
p=0,00@@
candidose,
agitation,
34%
poursuivi.
réadministrer
l'abacavir,
accessible.
fumer.
55%
passées
domicile
vision,
indications,
mentionnée.
10,7%
thyrotropine
(AL@@
AT)
(6,@@
concentre
intrarachidienne
L/
semaines),
sorties
ograph@@
fertilité,
sérotoninergiques
5;
tardive
(n=
59@@
ans),
ASC)
adolescents,
3,1%
normalement,
initial.
monoxyde
cill@@
connaissances,
ile,
gastrique,
VF@@
(1.000/
ase).
AgHBe
d'efficacité.
apolipoprotéine
K.
d'Humira
RP@@
leu@@
Crit@@
5%,
suites
déplacement
ovul@@
étine
ell.
fallu
grippal@@
d’allergie
0-24
incluait
(faible
simultanément,
33%
partate
UC
m²@@
l'inclu@@
néphropathie,
ovariennes
3,75
raisin
longu@@
pattes
respectivement),
AF,
II)
passagère
récente,
étape,
familiale,
γ
ajoutez
varénicline
l’am@@
recueillies
Up@@
t:
CPMP/@@
Prépar@@
blancs),
saign@@
émétiques
épaississement
personnel.
CYP3A4)
co-administrés
anorexie,
disparaître.
excit@@
1980,
britannique.
pratiqué
menti@@
multinationale
espagnol,
0,9@@
allaitent.
nocives
d'AINS
MI
ose)
placez
um:
défaillance
déficience
fini@@
CLINIQUES
Erythème
ms
escence
rétinienne,
postéri@@
03/
carbamazépine
glotte
réapparition
avir@@
magnésium,
abouti
Autres
orphelin@@
nébulis@@
pilosité
dentaire
pare-@@
Alim@@
contrôlera
actifs,
l’action
éthinylestradiol
C:
ISR@@
lisiez
notices
inspect@@
modérée,
teinter
bradykinine.
microtubules
malade.
INN@@
description
céphalo-rachidien
lombaire.
6.2).
davantage.
Comme
désorient@@
révélée
dan@@
l’HMG-CoA
d'étiologie
indéterminée,
DRA@@
vaginal
Der@@
inage
sudation,
cz@@
CPMP.
héparine
d’hépatite
d'abus
agranulocytose,
gestion,
dysphagie
K,
MP)
macul@@
END@@
bilité.
extrasyst@@
pause
(concentration
assurant
Aranesp.
Description
9),
ACT@@
Stu@@
sep@@
N-dés@@
chirurgicales
soir
parécoxib
ramener
rhumatoïde)
évitées
n'augmente
cholestyramine
lient
(16@@
probable,
sifflement
cales,
malaise,
signalées
négatifs.
HMG
réduisait
mous.
bile
CYP2A6,
humains.
(insuffisance
radiologiques
l'halopéridol
pureté
finalisation
(2,4%
sécher
cholé@@
l'inhalateur
irrégularités
sélectionnés
queue
idiopathique
réduit,
crème.
courri@@
contraste.
myopathie,
l’UE.
modifications,
LDL-cholestérol,
objections
dégénérescence
humi@@
045
imputable
relais
médicales.
(Hypericum
poumon@@
résol@@
progressives,
anaphylac@@
isch@@
céfuroxime
eux)
cognitives
urticaire,
exprimés
contact.
ard.
pâleur
léthargie
sym@@
cessation
papillaire,
Crohn,
objectifs,
dissous
commen@@
stromales
d'auto@@
inique.
ith@@
lansoprazole.
asthmatiques
boî@@
bleue
contenaient
this
Développement
e(s)
isser
capuch@@
Poli@@
souhaité.
biliaires
osine
(In@@
Emtricitabine
BYETTA.
Glob@@
acti@@
acidose
froi@@
sang)
Mer@@
(E171),
etan@@
ge,
toxic@@
King@@
ire@@
S),
l'exénatide
déséquilibres
glucose,
lombaire
General
Produ@@
Don@@
........@@
feu,
injection?
Kivexa,
Dom@@
chroni@@
MENT
stro@@
Dosage
175
guid@@
dose-@@
135
Lé@@
gastro-intestinale,
Selles
Faiblesse
Sécheresse
dermati@@
ton@@
Spasmes
oires@@
écri@@
ze
So@@
Director
Mes@@
BO@@
Directorate
Surrey
ley,
morceaux
extérieur@@
que/
l'utilisatrice
rifampicine
acceptables,
stockage,
o:
arrêter.
lique.
thrombocytopéni@@
rhin@@
Dyspnée,
diplopie,
E-28750
démie
démie.
expir@@
Groupe
(n@@
fonctionnelle
majeure,
Hydr@@
Allergan
1628
940
EE
SK@@
Trading
139
Strasse
Efectin
depot
(e.
nourriture:
Rétention
lumin@@
Maux
court,
sinus
adult@@
QUES
infestations
mal,
faiblesse,
thyroïdienne
trembl@@
difficile,
bruits
aident
Vomiss@@
tracé
osité,
granulocyt@@
brun@@
ruption
thyroïde.
mâch@@
éfavirenz,
foi@@
larmes,
endocriniens
conjonctival,
dépôts
mélan@@
Pau@@
HI@@
hyperten@@
choléra
IX@@
Ker@@
Budapest
quit@@
Hun@@
γ@@
vej
Lyng@@
sl@@
effective
circuits
DICC501
DICC
LDL.
d'Advagraf
l'agriculture
MS
Opti@@
fabriquée
(toutes
5-hydroxy@@
coagulation.
cataly@@
issent,
incl@@
réun@@
lévodopa,
off
eudra.
l'égard
d'Aranesp
scellé
EMEA@@
56@@
dg@@
renforcé
pêcher
scientifique.
transférée
maîtr@@
Évaluation
délégations
demandé@@
édition
l'information,
personnel,
finances
celui-ci,
myélome
d'initier
généralisation
gardez
réveill@@
Etanercept
avir,
sous-cutanée,
fluoroquinol@@
rincée
Teva.
dépist@@
rincez
EXUBERA,
préexistant
anti-tuberculeux
isoler
Avastin
cure
caractéristique
ater
LEMP
prolongé,
montrez
acari@@
mensu@@
otoxicit@@
comparaison,
spontanée
caspofungine
complémentaires.
suffit.
Reg@@
»;
Enfant
chac@@
pédiatrie.
sorafénib
ans:
Adul@@
éris@@
recommandées:
otype
débu@@
(rapport
normalis@@
GIP
d’Agopton
intraveineux
align@@
masque
implication
d'avant
octobre,
sp.
clari@@
d'ajouter
corporation
otide
résidu
détectable
délivrée.
lique,
variante
méthod@@
normales
Tru@@
rares)
Cozaar
d'action,
polyvin@@
test.
protection,
estimation
conservée
d'observer
quotidiennes.
héparine)
transformés
Eudra@@
que*,
(sur
fonctionnelles
Epivir
ectine
vinyl
la.
thrombocytopénique
allaitez,
E-0@@
Ess@@
blastique
d'Extavia
Onsenal
d'att@@
collectées
Martin@@
R-@@
d’atteinte
similitudes
sacchar@@
IX.
bactérie.
défici@@
Conserv@@
mus
ETI@@
DEVANT
ATIONS
diss@@
bague
--------@@
métastati@@
potentialisation
vardénafil
Études
l'hydroxy@@
cateurs
039
048
unitaires
FLACON
FLACONS
337/
(plaquette
comprimés)
108
387/
7.5
EU/1/08/464/0@@
EU/1/08/465/0@@
3:
5:
réglementaires
anticancéreux
médecin@@
thrombotiques
Év@@
déposé
SER@@
excessives.
dispositif.
VEN@@
solaires
fantaisie}.
Zomarist
précédents
bière
propylène
199
aminés,
glycér@@
hex@@
ene@@
étate
silicon@@
l'intestin.
foli@@
moutons
fer.
Paris,
Py@@
conservés
année}
commercialisé.
775
ο@@
Fablyn
rm@@
Pharm@@
South
Phar@@
PG@@
AG
infecter
corporels
transfert.
Fait
Gre@@
shire
ens-@@
Lami@@
matique.
rosiglitazone.
Patrick
cle
préremplie.
élix
implant
Luer
rotation
500,
moroctocog
inviolable
RIS
infirmi@@
histoires
Hambourg.
Forme
con
mul@@
l'alendronate
arrivés
nir
Pre@@
fracture.
Noviana
ė
ster@@
anie
(0)810
Hughes
Top@@
Tél@@
rhume
Loc@@
ear@@
ophilie
photosensibilité.
proxim@@
blépharite,
aise,
ponctu@@
amnésie,
l'attention,
pseudo-@@
1,1
mos@@
Green
d’entraîner
EPAR
Jap@@
ettes,
Blan@@
coiffe
fantaisie
érique.
vert@@
mg@@
lèvre
malades.
fondées
Generics
V.,
TIQUE
GEN@@
OO@@
Finland.
tuoteinfo@gsk.
anaplasi@@
rechute
métastatique
chirurgical@@
ention.
blas@@
plat@@
s'adresse
PH@@
0,50
menstru@@
eb@@
-Strasse
nul@@
ROBERT
Ka@@
trimestre
inconnus.
conduisez
partenaire
monothérapies
explic@@
onnes
Tar@@
D-
ald
ef
José
Manuel
CAN@@
Kal@@
(5)
Mary
immunisation
anam@@
pulmon@@
visu@@
Prim@@
Kur@@
GA@@
vre
positif,
ger
administrer,
Hycamtin
sulph@@
prévenus
isés.
opie
thyroïdie
diurétique
périphéri@@
RIB
gène.
confiance,
déli@@
vité
4-9@@
arthro@@
majeures
apparaiss@@
fonctionnelles.
messag@@
messager
ec
circovirus
substance,
radioactive
traitements,
d'instaurer
Stat@@
persistent.
epti@@
choc@@
ulation
d'interdire
dormir
d’infections
d'antirétroviraux
spécifié
converti
mélange.
Levviax
contributions
allaitent
Fun@@
blanc)
peptides
intègre
doute.
chent
application.
médecin/@@
insister
l'interprétation
Thé@@
conjoint@@
tétracyclines,
sessions
négatif,
usuelles
retenir
l’ag@@
indurée.
dates
prélever
contraception.
résultat.
(VIH).
pénicilline
variétés
manières
dialy@@
NVC
estro@@
superfici@@
canaux
mique
trioxyde
substrat
justification
avalé
scintigraphie
coronaire
diabéti@@
sus,
soulag@@
l'aspir@@
-les
plaques.
hormis
Tandemact
réduc@@
9,5
organes.
més.
réglementation.
l'occurrence
véni@@
substitut
4.8
surviennent.
consolider
excellent
nies,
d'ulcérations
recouvrement
silice
Immunisation
Zona
Tacrolimus
Med@@
purifi@@
zona,
Infec@@
Nas@@
cellulite,
tions:
sinus@@
difficil@@
gastro-intestin@@
d’Information
NeuroBloc
Volibris
extéri@@
Aerius
d'AMMONAPS
délivrent
administre
dés.
ator@@
irréversibles,
CYP3A4@@
d’air
user
angle
ecter
spir@@
PREPARATION
rot@@
Child-Pugh
dialysés
négligeable
40%
B).
(ADNr).
±
autorisation.
sérologiques
transférés
6000
l'avenir.
associés.
Bil@@
mb@@
uz@@
Invirase
pneu@@
étique.
Hann@@
I/
subs@@
l’arrêt
AX
détection.
Marché:
.:
Act@@
170
eo
Ca@@
HIV
GI@@
än@@
ker@@
intér@@
Jer@@
Jetez
infirmier.
(saquinavir
boosté
(kg)
Ε@@
semaine).
Agu@@
i-@@
ρ@@
api@@
Paul-@@
kinase
1ère
conserve
divise
seule.
gobelet
d'instauration
Versailles,
huiles
indifféremment
anesthésiques
homologues
prodrogue
méthyl
résum@@
cée,
peur,
HDL@@
VIRAMUNE
cation@@
porteuses
réchauff@@
augmentent.
6.2
Rati@@
Registration
cel
Baraclude
Opgenra
d'équipements
évitées.
énor@@
adhési@@
exten@@
torsion
VIH-2
20/
clapet
disque
anormale.
cysté@@
tôt,
induites
fumer,
abî@@
original
CIBIC-@@
L'adéfovir
matique,
(0-@@
aux).
119
(Pro@@
écrite
MT@@
l'aluminium
fan@@
substance(s)
gp@@
progressive.
satisfait@@
cible.
prises,
aprépitant
azole.
métabolis@@
éruption,
(re-)vaccination
800.000
cérébrale
résine
contrôlée.
catéchol@@
compression
squelettiques,
opathie
généralisée
toni@@
major@@
national,
recru@@
l'hist@@
cartilage
L'agomélatine
l’embout
œil.
Tenez
attach@@
jetée
casser
remettez
oh@@
écra@@
l’expression
SM@@
TAMM
distales
BSC
(95%
RS
Lamictal
ym@@
bag@@
liés.
L'ampleur
absolu
MPS
contenait
5,0%
inclusion
réévaluée
pencher
bêta-sympathomimétiques,
East
l’initiative
marquée
énum@@
contre-indication
réseau,
dura@@
plaquettes.
numér@@
enlev@@
l'environn@@
plaquettes).
heures).
différencié
terminée
séch@@
progression.
discr@@
intensité.
l'anxiété
retenue
agitée
animal.
cassé.
apparence
uniforme.
prouvée
ur.
chim@@
cultu@@
antibiotiques.
l'examen.
l'identification
97%
(CV@@
témoins
affectés
Kir@@
cérébrales
terminaisons
elier
(équivalant
radiomarqué
ectomie
-8@@
IT
alfa-
rispéridone
BE@@
mentionnée
incid@@
prépa@@
Procé@@
défauts
vastes
homogène
forcé
ars
thrombo-
emboliques
(K@@
8),
communément
58a
-401
ba
zo@@
d’hypersensibilité
ex,
poulets.
O-
déméthyl@@
ß-@@
linguistiques
réévalué
d'ovaire
perfor@@
mini-@@
porcin@@
ex-@@
spot
harmonisée
gence
distingu@@
rapporteur.
avis.
simil@@
sonores
pouv@@
agonistes
Revatio
rémittente-récurrente,
progressive,
Kaposi
Us@@
entière.
ture.
indiffér@@
versé
corp@@
suffisent
réunir
moyen.
Daily
proximales
diurèse
génotoxique
sixième
externes
Spar@@
arrêté,
moteurs
cédé
adaptée,
Genetic
comparti@@
travers@@
juridiction
confidentialité
négligence
prononcé
inconnu@@
TV@@
Plavix
infectées.
eusement.
entan@@
biotechn@@
172@@
modifiés.
individuelles.
classé
logiciels
MC
maropitant
d'Information
Surveillance
fir@@
distribué
mé.
l'OMS
parten@@
AM@@
entiel
clarifi@@
attentif
remarquer
boire.
Chypre,
restreint@@
prév@@
monophosphate
M1
des-@@
"à
implanté
écr@@
digestifs,
bénéficie
sorbit@@
méti@@
adopté,
l'ess@@
nuclé@@
Prot@@
silicone.
observation.
Ta@@
arrêtés
stin@@
Da@@
ado@@
bilatér@@
Dieu
hémodialysés
onnés
messages
libellé
officiels
contrib@@
ICH
adjuvants
émet
dine,
d'appétit
régressé
l-@@
terrestre
Slovénie,
institu@@
glutamique,
thrombocyt@@
finit
blister
ings
insulinothérapie
res;
poussés
prévisibles
program@@
solid@@
annuels
Müll@@
ête,
physiques,
ates.
encl@@
reproduction.
donnée.
Roug@@
AZOPT
péd@@
individuels.
involont@@
code-barre
Berg@@
manipuler
engagées
entier,
6,0
supplémentaires,
exercent
localisée
quelquefois
douloureuse.
l'ég@@
danois
néerlandais
conduire,
angoisse
couvertes
incapables
exposés.
rechuté
éventualité.
(800-1.200
inclus@@
TYSABRI
fiable.
Infusat
ques-@@
cherie
achat
d'hypoglycémie")
vendues
rempli
d'années
VII@@
bass@@
espèces.
FR-@@
fournisseurs
tenait
commun.
ints
massi@@
TAP@@
répéti@@
préco@@
éloign@@
atique.
salicyl@@
disposition.
auton@@
équ@@
isée,
supervisé
juillet.
facil@@
Humalog@@
l'ent@@
l'organisme)
vivants
3'-@@
dom@@
Quixidar
ame
l'implication
4,3%
augmenter.
OP
seule,
dépendance.
ité;
conventionnelle
précédentes
l'inf@@
alise
PNN
anie.
part.
batter@@
Sev@@
concernée.
bure@@
d'huile
boiss@@
conver@@
congelé.
vaiss@@
194
diluée,
guérison.
fal@@
ibafloxacine
PRIEST
Š@@
MAC@@
Alcobendas,
86@@
prévoyait
étayée
latér@@
d'erreurs
conséquences.
atrices
L’injection
vache
6.3
Ty@@
OPI@@
arrêtées
SEN@@
d'émission
'hémoglobine
teaux
débutez
maintenant.
coch@@
s'effectuer
fois/
L'usage
Ben@@
transpar@@
atteint.
Lew@@
antipsychotiques.
gérée
31-@@
ding
Kuh@@
diagnostiqués
jointe
Mél@@
ι@@
atan
Nik@@
Postbus
2031
Bas
MERIAL,
69007
land
69800
Min@@
électrique,
ades,
appelez
propriét@@
rhinite
partez
bol@@
sanguin).
d'aiguille
piston.
Bri@@
outil@@
Neutr@@
Nic@@
utilisées,
principe(s)
oll@@
repér@@
suggérons
Nowogrodzka
02-
Proportion
rouges@@
NUMÉRO(S)
clusion
qualification
naître,
lorsqu'on
survivre
l'utiliser.
dera
avec@@
naturelle.
Total
Défense
16,
d'inf@@
requièrent
Tas@@
parentérale,
500/@@
Ara@@
Prés@@
Paul
clois@@
Mark@@
national@@
fréquent@@
opneumon@@
tie
Sandwich,
-C@@
Boulevard
ello
Santa
PVC/
THERMOFORMEES
Chineham,
RG24
ry@@
Poids
Point
erci@@
omme
d'ouverture
Açores
Sec@@
Post@@
projet,
1992.
jusqu
'ce
tours
conviendrait
l'hémorragie
d’im@@
préparation,
UE,
eil,
répéter
refroidissement
sélectionner
che?
groupe,
fabricant:
emballage.
DECHETS,
renver@@
cicatrice
vacciné
décidera
dez
Prophylaxie
Quinta
Edifício
purg@@
Quatorze
remet@@
)?
humaine?
CIPROFLOXACINE
FA
TAC@@
euse?
Quinze
Ra@@
pandémi@@
conséquences,
différents,
bord,
veillant
its,
eck@@
cercle
rencontrez
cu
ti,
don,
2015
ret@@
soumis@@
Septi@@
compati@@
Sérotype
ètes
compétente
retrouv@@
informera.
produisent,
fièvre)
particules,
n'utilise
s'aggrave,
accél@@
incorpor@@
déchi@@
remplit
tombe,
pre
poursuivez
faille
non@@
diff@@
joign@@
merci
malad@@
(angor
cardiaque),
eu,
abaissement
éprouv@@
prescrira
transit
l’ajout
lâ@@
5500
igh@@
1N@@
mutagènes
Bre@@
bourg
Rod@@
ara
Mich@@
Belgisch
bijhuis
l’emploi
l'internet,
fe@@
autorisation,
Tat@@
Partie
blo@@
frein@@
action.
prendre,
centre,
escompté.
vrais
féminin.
assurés
potentielles.
retir@@
commercialisés
adolesc@@
futur
pleur@@
(SK)
Transférer
fus@@
sel@@
nav@@
abordé
ant;
résoluti@@
barres
scientifi@@
distribuée
fluctuation
ands
piég@@
ès@@
FD@@
américaine
incendie
utile,
terminer
pilot@@
beta*
indispensable.
beta*.
élevées.
sme
tées.
tati@@
souhaitable
aider.
solv@@
d’OptiSet.
Franco
flou@@
compléter
durabl@@
fort@@
endre,
spr@@
eter@@
rab@@
Prom@@
force,
stations
échapp@@
l’argent
causent
connexions
justi@@
cohésion
marchand@@
marchandise.
appauvri@@
paix,
muni@@
bulldoz@@
chars
dress@@
mais@@
route.
l'acceptation
ressource
publicités
rendus
soufre
spécificités
SPFO
Eurostat
ables:
appels
désastr@@
contaminations
celle-ci.
parlent
fonctionné
chemin.
prétex@@
rages
directes
super-@@
d'additifs
récupér@@
générations
obligatoires
répandu@@
réutilisation
hôpitaux,
bénévol@@
exécutées
cohé@@
Fond@@
hausses
attendent
orateurs
l’heure,
ordres
modernes
laissent
expédi@@
forêt
oirs
Colombi@@
raisonn@@
";
sens,
collectés
fusionn@@
consolidé@@
l'auto@@
atroc@@
tempor@@
rivières
pluies
Nig@@
essions
histoire,
tragi@@
agress@@
joueurs
pourraient-elles
finir
confrontés
tribunaux
vendus.
alisés.
devise
armée
gouvernement.
coutu@@
dangereux,
démographique
réfléchir
dirige@@
supranation@@
facteurs,
commerç@@
yer
cancéri@@
fondamentales
anéanti@@
phytopharmaceutiques
Laek@@
vibrations
án
reconstru@@
l’impression
viols
armé@@
viol
multitude
subventions.
l'installation
deviendront
ainsi@@
apportera
PAC@@
professionnel.
d’alerte
mesures.
co.
ologation
passeport@@
différemment.
d'autoriser
re"
délits
fonder
handicaps
hectare,
récolte
onnée
vente,
victimes.
faction
prisons
L'établissement
professionnelles
silence
talent
s'accél@@
l'OTAN
fonctionner,
peu@@
étisation
industrialisés.
agricole.
d'euros.
Brési@@
équilibrée
chemins
remédier
dictat@@
demie
contraint
sûrs,
tables
viendra
ravag@@
placement
e-t-il?
conç@@
qualifi@@
vocabulaire
exper@@
"les
nationalis@@
éché@@
soig@@
larg@@
eutroph@@
forti@@
dialo@@
l'human@@
technologie.
illu@@
consommation,
tir
hélas
défensi@@
franchir
juridi@@
tribun@@
conditions.
ionisation
stigmatis@@
l’Autriche
occa@@
stupéfiants
entités
confl@@
salaires
d'arriver
préparatoire
consentement
tests.
État,
désigner
comb@@
ra-t-il
principe,
tronçon
d'uranium
faisabilité
personnalité
béné@@
réacteurs
caduques.
bonne,
racines
s'écroul@@
cani@@
L'Europe,
marchands
ce!
tés,
cac@@
énergie.
veu@@
explos@@
prospér@@
peser
disant
faire@@
choix,
biotechnologies
Philipp@@
l'attitude
taxation
ultralibér@@
d'au@@
incontest@@
blessés,
résulter
ela
puisqu'il
manière.
devr@@
renom@@
mondiale.
betterave
réacteur
météorologiques
spectaculaire
insignifi@@
historiques
envoyé
investissement
vraie
vot@@
vieill@@
semences
législatives
bagages
collectiv@@
d'investiss@@
néerlandais,
assin
exhaus@@
musulman@@
pansion
2011
début,
carotte
voulu@@
Mur@@
l'exportation
États,
professionn@@
pétrole,
français.
maintes
dépassement
espérons
sucre.
Sharon
palestinien
communiquée
tort
formidable
horreur
hôtel
théâtre
voulait
jamais.
moi.
futur@@
évoque
société,
blâ@@
figurait
ray@@
L’idée
évoqu@@
fe
campagn@@
distorsion
faits,
ménages
littéralement
publicit@@
rédu@@
régimes
iment
Limiter
immigration
L’impact
nutritionnelles
sondage
cole
ich@@
sensible.
légitime
l'information.
puits
dissi@@
mers
l'instrument
condamn@@
l’Europe,
évo@@
l'espoir
dissémination
pel
incohérence
maternité
nouveaut@@
Indonésie
néerland@@
admet
prétendu
innovation
PME,
Eurostat,
négative.
climatique
L'initiative
slogan
offrant
L'inquiétude
employer
rur@@
réduira
réclamé
pers@@
hypocris@@
dis,
L’introduction
l'exécution
autocar@@
vrai@@
preuve.
ambassad@@
Irak
ratifi@@
enfou@@
nations
préférable.
humanitaire
d'alcoolémie
capturés
Paci@@
limite.
occup@@
exploiter
livraison
juridiques
fiscale
sag@@
retenu
fixé.
valorisation
formulaires
obsol@@
allemandes
bel
re»
octroi
élèves
L'OLAF
cigarill@@
forcément
glis@@
preuve,
OGM@@
ité".
dénon@@
débat.
français@@
Lord
rét@@
malheureusement,
l'épidémie
vent,
miel,
azoï@@
mai,
devons-nous
armés
glaci@@
s'effor@@
stabil@@
amis
interdisant
tous,
adoptée,
Hong@@
programme,
géograph@@
loin,
pire,
ots
invo@@
opprim@@
cuis@@
accusé
faim.
fiscal@@
èrent.
victi@@
choses.
kilos
soviétique,
juridique,
étonnant
responsables.
pistes
réalise
acceptées.
retard,
L'OTAN
ouragan
ambiant
visions
Premi@@
décourag@@
incul@@
gol@@
Ibra@@
domaine?
contenter
Morg@@
sovi@@
détenu
terroristes,
tente
exemples,
assassins
horaires
refuge
l’Union.
pacifi@@
veille
Shal@@
réfu@@
pied.
migrants
missiles
L'uranium
grande,
Air
Boeing
espoir
merveill@@
posent
considérations
bruit,
chauffage
privilégi@@
sulfites
autant,
L&#x02BC;@@
célè@@
j'estime
gouvernement,
attrap@@
herbes
coup,
buts
ed,
Sy@@
"Mais
secret@@
mout@@
définition,
aire!
démocratie,
foul@@
ales?
aband@@
retombées
saisies
scène
paradox@@
consomme
caf@@
européens@@
racon@@
paie
auri@@
transposition
Washing@@
commune,
confin@@
succomb@@
islam@@
extensi@@
savoir,
connais
irré@@
polonais,
anticip@@
puce
(EN)
œuvre,
pages.
catalo@@
l'offre
condamnation
chan@@
2009,
d’accidents
Brux@@
Sz@@
seront-elles
Miguel
ko@@
également,
courag@@
Berger
trouvait
Dybkjær
privées
démissionn@@
interrogées
procur@@
bh@@
passeport
rédigé
ourir
seo
mili@@
cube
procès.
l'armée
Clar@@
honte
qué.
monétaire
phoques
traî@@
souverain@@
accord.
controvers@@
2013
exact@@
cherch@@
égal@@
Société
prô@@
aborder
mépris
pouvez-vous
autre?
e»?
satisfaire
Franc@@
communautés.
Votes
l'approche
ang
tion!
parfois,
l'émission
poulet
piè@@
cathol@@
minérales
accueill@@
admet@@
atteindr@@
non?
affaire,
anda
poursuites
dissid@@
d'enfants,
banque,
donné.
empêch@@
cent,
estimons
aromati@@
jambon
violation
concession
danger,
spécialisées
peintures
respecte
sûre,
is!
forcer
européen@@
importantes,
commer@@
eté.
recul
douter
déris@@
en!
fume
mines.
qualifiées
impôts
artisan@@
incite
hypothè@@
pensait
faire?
dot.@@
balles
Bah@@
inoffensi@@
coupe
vendre,
participer@@
école
VI,
Tam@@
kilogrammes
inévitablement
dévas@@
risque?
ré?
consommateurs?
le?
ération,
ez!
transfrontali@@
refusée.
examinée.
tant,
rigoureux
cogénération
ences?
statisti@@
Parfois
magasin
Varela
Israë@@
euros@@
Pense@@
Pensez-vous
Personn@@
advenu
attent@@
déploy@@
incendi@@
perdur@@
réuss@@
digne
emprunteurs
jeu?
place?
ent-elle
ons-nous,
appart@@
Précisément
Pren@@
Prix
2/200@@
Qu'allons-nous
Qu'avez-vous
Quelqu’un
era-t-elle
nº@@
Cederschiöld
Thi@@
Quoi@@
Rappelons-nous
4/98)
(A4-040@@
5/98)
1/96)
(A5-010@@
(A4-020@@
(A4-028@@
(A5-025@@
1/2000)
Ghilardotti
(A4-034@@
Harrison
(A4-036@@
Read
ons-en
Réveill@@
Simplement
décibels
agissez
obtenez
Soit.
Soixante-dix
Soyons
Suffrages
Troisièmement:
(Tumulte
Vou@@
feriez
men
København
TEN@@
(1)
ders
saigner
d'HbA1c
explicatives
CVMP@@
d'inhibiteur
capacité.
+,
tivité
inopér@@
MS)
ostéoporotiques
ci-des@@
47,@@
sunitinib
modifié.
35,@@
102@@
l'od@@
[IC
7%,
mortalité.
partielle.
conjugué
ion.
thr@@
engourdissement
buccal@@
vasculaires,
gastrite,
ain-@@
tissus,
37,@@
rect@@
pemetrexed.
1,2%
QTc
aryth@@
aison.
postnat@@
accrues
ence)
rende
oïdes
5'-@@
sécher@@
gravides
périm@@
cinétique
cortico@@
d'altération
Livensa
NC
sortis
lymphomes
maintenues
48,
vertébrales,
Privigen
(16
autorisé,
(formulation
3,1
SCA
chés
remplis.
coupures
anormal@@
abats
SH@@
(14@@
Ca-@@
postérieure
boiterie
carn@@
vir,
buv@@
GAB@@
participe
l'alimentation.
3,0%
contrôleur
financier.
virale)
MED@@
ORT@@
(>
LSN)
placebo;
mus@@
complètement.
secondaire,
Vel@@
ate:
5.3
essais,
SP)
bupropion
mmHg
d'heures
OF@@
l'instant
normale)
saignement,
douz@@
suggérer
restre@@
d’intensité
ées)
d'anxiété
EVISTA
62%
82%
rapportant
(ASAT)
7%)
LUMIGAN
romiplostim
longs,
pivots
composantes
CYP2E1
(Ki
nM)
5HT@@
D3,
sinusite
ylase
communautaires,
usu@@
mes)
1.25
confirment
85%
érat@@
tissulaires
Alzheimer,
cognitifs
2,9
glycogène,
olyse,
ALAT)
oreilles,
auditif.
18)
l).
0,6
NovoNorm
21,
Max@@
HD@@
néovascularisation
simul@@
AIN@@
325
70.
(29@@
ancer
156
9%)
adéquats
86%
décédé
évocateur
Extavi@@
d'adultes
rap@@
vertébrale,
(groupe
concord@@
précédentes.
poumons.
traité,
sperme
ectom@@
allait
neuropathies
injection)
laps
exclus.
pratiques,
trois,
28).
totales
(respectivement
oc,
alendron@@
midazolam
1,6
radiographique
témozolomide
occlu@@
relevées
INTI
post-prandiale,
absorbés
retardée,
599
optimisé,
albumine/
(RAC
urinaire),
mmol.
VEMS
darunavir
diminutions
examinés.
malformation
initial,
glycémi@@
seul,
respectivement)
HA
femelles,
génération,
méta-analyse
166
215@@
retraités
précédent.
30)
50)
group@@
randomisé
rosiglitazone,
intracellul@@
(AD@@
um)
l'ef@@
transférases
carcinogène.
officiellement
(OMS)
PREMIÈRE
L'A@@
eure
__________________
réfrigérat@@
ante:
administrés.
démangeais@@
complex@@
(âge
mâle,
formation,
fiées
impliqués.
diabétiques.
ataxie,
piques
estomac
l’
1972
l'office
statistique.
d'assist@@
1977
1982
Irlande.
1988,
1987
ory
Vienne,
l’organisation
pinc@@
grave@@
séances
Déc@@
retenus
souvent.
*.
TES
contaminer
renvers@@
trou
visag@@
vécuroni@@
logi@@
rétinien,
capsul@@
cornée,
dal@@
hyperhémie
Sév@@
signalement
min)
Délai
profond
DS
sanguin@@
l'efavirenz
inscrire
oïdes,
aisons,
kit.
bronchi@@
ale/
bisphosphonat@@
accentu@@
95%,
jours).
souhaiterais
allaiter
d’insuline.
préal@@
DENOMINATION
principa@@
ration@@
Département
ambulatoires
congénital
coumarine
fiant
phosph@@
tript@@
tram@@
zol@@
perforatum)
sérotoninergique:
d'enlever
tolé@@
attein@@
dra
modul@@
dégrade
ters
consol@@
polyoxyl
gram@@
Specification
d'emploi,
Pharmacovigilance,
asti@@
actualisé
Spéci@@
lymphomat@@
irritabilité,
activement
10.000
départ,
réductase.
anti-TNF.
interstiti@@
hypokaliémie
d'évolution
mictions
Dermatite
exfoli@@
généralisé,
busulfan
gèn@@
d'IntronA
saines
sper@@
prématurée
tendin@@
traitent
suggestions
altérer
zumab
Bronch@@
récidi@@
modérées
traitées,
muscul@@
opéni@@
épileptiques
maculaires
conduction
splénique
P:
supr@@
ventriculaires
suicidaire
dosés
rigour@@
dy
tabagique
initiaux
±@@
10,@@
corporel@@
lorsqu’elle
chir@@
vertigineuses,
déterminées
cyl@@
réduisent
digestives
erlotinib
parentérale
tremblement
biliaire,
fausse
évanou@@
compétentes.
délétère
lipidiques
iso@@
CYP2C8
l’albumine
isoformes
affecté.
O/
GPR@@
tigécycline.
non-hodgkinien
relargage
dilat@@
contrôlés.
mâchoire,
ponctuelles
trap@@
bur@@
rite,
septicémie,
infectée.
Viraferon.
---------------------------------------------------------------------------------------------------------------------------
----@@
SUI@@
SAN@@
opé@@
medagencies.
envisagées,
cationique
triméthoprime).
zolédronique
tubulaires
dar@@
multiplier.
lacticodéshydrogénase
devenant
5.17
dose-dépend@@
exprimées
trophie
géni@@
calculés
SW@@
vascul@@
d'actu@@
anaphylactoïdes
long-terme
vasomotrices,
osine.
développées
lésion,
sensibles,
intéressées
uré@@
97,@@
-0,@@
glycoprotéine-P
mark
essoufflement
auc@@
tisme
énergi@@
antipsychotiques
exac@@
tacrolimus.
l’équipe
hémoglob@@
TNFα
déposées
verre.
fibrin@@
irrégulière
d'urin@@
caractérisés
convulsives.
d'auto-@@
macr@@
rare.
remises
bovins,
Groupes
LLC
Κύπρος
-Pl@@
1-
espagnole
toxi@@
séjourn@@
tournant
jetez-la
dotés
Agri@@
MEDI@@
Sélectifs
(ISRS)
glu@@
l'épilepsie
myoclonique
nécrolyse
d'appétit,
Diarrhé@@
dinavir
eur-@@
terminaux
L-Isoleucine,
L-Thréonine,
DILUER
(diminution
fœ@@
pâle
1;
significatif.
vo,
Sam@@
microbiologie
Liverpo@@
Ley@@
196@@
(Royaume-Uni@@
Stras@@
ty
245
rosuvastatine
majoritairement
l'organe
potassium:
Norvège.
IRA
(UAB).
philosophie
philosophi@@
(l')autorisation(s)
phar@@
sous@@
se).
exa.
DONNEES
4.1
oses.
AVIS
SAISINE
ètre.
(75
350
symptômes.
4,0
bler
dyspepsie
pollaki@@
te/
Fièvre
d'(auto-)injection
frissons
grip@@
nerveux.
Executive
ADI@@
155@@
Jacques
Directeur
UT@@
TER
Lane,
193@@
336@@
(U@@
River@@
cidofovir
rétinite
fosamprénavir
DU@@
piqûres
D'une
d'injections
dilution.
microgrammes/ml
décol@@
°C,
234
faux.
d'utilisation:
dise
hypercalcémie.
DES@@
mictionn@@
ulcér@@
molles,
rectale
ett
l'arrière-@@
Pneumonie,
hautes,
surie
lymphoprolifératives,
ufs
glutamate
bolus
renseign@@
redevances
Echinococcus
immat@@
moins...................................................................................................
Econor
cholest@@
esthésie
rendra
Marlow
Centr@@
+37@@
Estonia
676
Ares
Zamenhofo
LT-44287
37320603
msdeesti@merck.
msdeesti@merck.com
401
380
VIRACEPT.
obi@@
SUSTIVA
sonde
co-administré
gris
noirs,
généralisée,
hématome,
courants:
connue:
(EI)
douloureuse,
acide,
nocturne,
bactériennes,
eczéma
douloureux,
productive,
100)
immobil@@
concerner
(lésions
ante)
vagin@@
connaissance,
ralentissement
bivalirudine
(oedème
érythr@@
(concernent
agressivité
long@@
ocul@@
l’intérieur
recouvre
Peti@@
double,
gross@@
médicaments)
l'os
Banglades@@
field,
électro@@
créatin@@
bilirubin@@
ALAT@@
urique,
sanguin,
Hampshire,
RG@@
5-ALA
pré-remplies
L'ivabradine
54@@
905@@
7,2
façon.
motivé
1994
investig@@
pulsion
transfér@@
l'écou@@
absente
lipides
saquinavir.
P-g@@
injecteur
adapté.
labori@@
exercices
activités.
l'arch@@
catalytique
sent
Seretide
cal.
mouv@@
e.@@
prodi@@
a.@@
perfusion)
efs
EMEA-@@
Wharf
Soutien
occupant
Chef
entré
tropi@@
infecti@@
d'administr@@
pharmaco-@@
”.
-ci,
celle-ci,
melphalan
d’UI
d'abaisser
des),
révélées
attendant
endogènes
0,01
23%
auto-immun@@
dissoute
granulomatose
d’augmenter
augmentait
hyperthermie,
d'apnée
respiratoire.
l’an@@
pseudomembraneuse
restau@@
LS@@
l'étiquetage.
récurr@@
répétées,
insérer
instau@@
bêta@@
rein,
symptomatiques
reconstituée.
précipités
amalgam@@
anaphylactique,
tableaux
gadoversétamide
fourni,
Valtrop@@
me),
symptomati@@
quinolones
déroulement
répétition
LIN
dec@@
précautions.
nettoyé
d'ingestion
l'intervention.
EMS@@
d'épisodes
déterminés
indépendant,
Périodique
igne
Systèmes
égales
allaiter.
VIH/
préserver
GRAN@@
IL@@
GAR@@
ADMINISTRATION
Oxford
fén@@
tissus.
kératite,
bêt@@
233
énerv@@
pathologi@@
es»,
Enfants:
traduite
AL)
corporelle,
donnée,
suff@@
diminuera
résorption
cancéreuses.
ganciclovir
Kineret.
interrom@@
tubulopathie
disoproxil.
tat
atmosphère
protec@@
démontrant
document.
corrélation
protéines.
risques;
onique.
l'interfér@@
l’utiliser.
thyroïdi@@
l'acquisition
prolifération
leucémiques
jeûne,
ophil@@
rénal@@
Nether@@
coagulopathie
ssant
oestroprogest@@
retardant
taient
liant
thrombine,
kit
inspecteur
carton.
)].
sécurisé
quelques-@@
Infiltrats
Epoetin
tine.
cabin@@
yle,
(EGFR)
0,3%),
ocl@@
ons;
sombres
thrombopénique
idiopathique,
coï@@
sar@@
Lymph@@
Laboratorios
Sclérose
marcher
mation
filgrastim.
219
bitu@@
l’inflammation
l’allaitement.
présu@@
VII
harmon@@
infectée
PAR
glucides
coordin@@
Canada
oate
céphalée,
étourdiss@@
L’aiguille
prédisposer
(S)
oral,
06@@
D3)
l'entacapone
hypotenseur
contact,
industrielle,
solvant@@
046
047
049
blisters
155/
2500
367/
90/
EU/1/07/398/00@@
30/
EU/2/05/054/@@
Noël
décès)
population@@
Gem@@
démyélinisant
silenci@@
post-ménopau@@
er).
pansements
d'introduire
Eucre@@
dentaires,
auto-immun
Tchè@@
ene
notoire:
d'éthanol
lécithine
soja.
mmol)
phénol,
étin@@
(dermatite
amlodipine/
B:
Ray@@
mond
pédiatrique
ck
AA
Jeter
endu@@
670
Fabrazyme
ry
Beau@@
ey
Hay@@
Pac@@
Lt@@
Medical
4103
Tafarnaubach
Gwent
NP22
3AA
récoltes
Sä@@
Dresden
myos@@
illustration
compte-@@
itaires.
rasburicase.
dation
(saquinavir/ritonavir)
hémodialy@@
cos
Ak@@
172
til@@
Fevaxyn
Pentofel
asse
ratiopharm
alement,
mées.
Fixer
appuyé
intravitréenne.
Prepandrix
teri@@
VER@@
OB@@
réserve:
sous-cutané:
Nordisk
Proposal
core-data
masque,
Göteborg.
Virlix,
solu@@
disponibl@@
épiphyses
We@@
carence
is)
opor@@
grosse
bres
lam
aberr@@
accélérer
etta
low
ā
ert
ana@@
ž
(3)
roi
TT@@
Hen@@
moin@@
picotements
surpoids.
thyroï@@
l'audition,
endront
(effets
Bronchite
fréquentes:
conjonctivale,
Pneumonie
Gri@@
Rhin@@
Sinusite
(sans
flatulence,
urinaires:
pancréatite
l'isoenzyme
CYP1A@@
50-@@
contraste,
dosé
mol/
Yorkshire
accent
gueu@@
dification
comprimé.
Gastrite
opaques,
Lansoprazole
Alu@@
Herstellung
Potters
EN6
Hertford@@
Gooimeer
DD
Naard@@
GESTION
réticul@@
YN@@
mesuré@@
Gl@@
diagnostiqué.
cerve@@
tum@@
ques/
CE)
PDGFR@@
jac@@
acquis,
l'éjaculation,
comblement
supplémentaire,
atteindra
standardis@@
no,
respir@@
Hist@@
ar.
l'être.
naître.
traverser
célécoxib.
(AR@@
WP),
rup@@
atiques
FR-C,
Carte
Hypercalcémie
Street,
n'entraîne
déversé
élevages
oïque
Allemagn@@
tél.
ham,
EI@@
ão
MARK
ann
(6)
fatale,
opti@@
ministères
CCID50
sertie
favorisant
Bed@@
orbit@@
Factor
épon@@
trate
d'Av@@
bilité@@
céphalosporines
tétanique,
urines.
intraveineux,
Hypertension
elle:
émotionnelle,
hyperlipi@@
inactivé,
elle),
surviv@@
Idées
mand@@
12-@@
J.@@
joi@@
myopathies
chap@@
nucléotidiques
permettait
maintenues,
airement
cine.
l’Annexe
masculine
multinationales
circule
ogéni@@
MP-@@
lacos@@
amines
radiomar@@
l'élément
sives
d’agents
(90@@
activement.
aériennes,
tait
reposant
AC
suspectée,
LA@@
l'étoricoxib.
courant,
scanner
photograph@@
résumer
(20
Cli@@
(1,3
libell@@
Econom@@
multiplient
Cel@@
vad@@
manipulation,
protégé
d'hypersensibilité.
Xeom@@
amalgames
sulfamides,
dermique
tumorale.
ADMINISTR@@
TRITACE
lame
>@@
Cerezyme
l'avoir
Rotateq
endraient
incontrôlée.
ocytaire
antifongiques
puissante
l'équ@@
majeur.
occul@@
angiographie
gènes,
thromboembolique
l'aliment
emplacement
synaptique
pondérale.
reconnus
instable.
cassé,
erb@@
able)
d'alcoolisme
ambigu@@
Kent@@
désiré.
thérapeutiques.
ole.
CT.
japonais
justifiant
NY@@
eut
juger
d’améliorer
artères
(des
gauche)
d’arrêter
incontrôlée
(19@@
lancée
d'accorder
d’autorisation
indésirabl@@
mine,
engagé
empêchent
translocation
synthétiques
imprimée
d'indiquer
mince
compris.
GARDE
ZI@@
impul@@
d'innocuité
quin@@
l'étiquet@@
universités
exa
ocoque
l'hôpital,
Sens@@
zon@@
psychiatri@@
humeur
nerveuse
vestig@@
laryng@@
pè@@
L’UTILISATEUR
Karvezide
Ret@@
comprimés:
compil@@
T-1
volet
d’IntronA
sucr@@
préparés
SUPPLEMENTAIRES
graves:
SUSTIVA.
prévoy@@
trouvez
UP@@
chapi@@
prazole
injectables,
LAN@@
Inovelon
spec@@
tions@@
l'aut@@
extérieur,
séparément
MANIPULATION
(classe
légère.
néphrite
d'atazanavir
représentait
rénaux:
biphasique
dissoute)
Observ@@
INTER@@
ACTIONS
tat,
Internation@@
QTc@@
vention
an-@@
PERF
l'adresse
Introduire
tél@@
LS
Cit@@
paré@@
durcissement
pace
Β
Solna
+357
Export
Walter
Tob@@
azole/
Ches@@
incompatible
atu@@
persiste
treatment
moder@@
acqui@@
ken
56,
ki,
75,
Paseo
Jan@@
VAN
Rol@@
septemb@@
particulièrement,
usagées.
Paço
10.@@
véralipride
Juste
TRA
principales.
Main
Ρ@@
STR@@
agglomérat,
BA@@
je@@
š
ferr@@
zk@@
Ku@@
(intervalle:
Nouvelle
L'abacavir
activer
chinois.
5600
seringu@@
analyse.
Marly-le-Roi
main-@@
Ribeiro
Nova
vo
l’or@@
dénuée
maligne.
vertigineuses
sévoflurane,
contrac@@
hétér@@
Aspergillus
intrinsèque
publics,
ya
Barcelona
irritant
cicatrisation
A-I
marginale
antipsychotique
+.
gest@@
l/@@
able;
dose-
20,6
linéaire.
responsabilités.
améliorée.
Piro
AR-@@
Kin@@
(PDE@@
38,@@
9,7%
cortex
boîtier
salés
thymidine
circulatoire
antagoniste
fourche
Salmon@@
affectées.
nulle
cyclo-oxygénase-2
cyclosporine
d'origine,
25°C)
RT,
continuer/interrompre
administrant
ponts
plasmatiques.
ViraferonPeg.
ciblée
poursuivi@@
ones,
évitée
rifampicine)
digestif,
saccharose
d'ambrisentan
résiduelles
DPP-4
pemetrexed
reporté
lactique.
contre-
15-@@
6).
pulvérisations
cellules/
Sustiva
progresse
réparties
âgés.
déjeuner.
besoins.
inchang@@
d'aliments,
é),
PRODUIT}
calicivirose,
recevait
genou@@
ambrisentan
témoign@@
séroton@@
FED@@
N-
entité
l'ustekinumab
évoquer
e.»
L'Agence
cytochromes
récipi@@
biais@@
onnage
dir
remonter
front
nerveux,
Laissez
Aldara
-2-@@
traitant
l’alcool
hypoglycémiant
doiv@@
bandelette
-1b
supposés
médiateurs
β@@
antihistaminique
éluci@@
contrôlent
l'extéri@@
large.
dimensions
perceptible
surpoids,
maj@@
(IMAO@@
normaliser
SK-@@
encour@@
214
sées;
MM-009
8,3
poolée
586
astr@@
interrompt
hel@@
pro-drogue
esthési@@
anabolisants,
semi-@@
étis@@
fermentation
amont
configuration
antigénique
Lantus
ation-@@
Ox@@
2005-@@
tasonermine
porcins
proportionnelle
influenc@@
pilote
verra
2C@@
ajoutés
20-@@
étage
(stade
reconnues
métri@@
dose).
(quantité
ingestion
cir
abine
idine
l'appar@@
évite
L'apport
glut@@
MG@@
d'hépatite
échéant
laser
clé@@
n’aurez
thyroglobuline
d'Yttriga
délais.
iques,
gri@@
seuls,
vitesse,
ran@@
significative,
antimicrobiens
envisagent
d'arbitrage
désinfection
parasites
produisait
profondeur
inspirée
RCyM
s’impose
prescrits
radiomarquage
rapid@@
inadéquate.
APTIV@@
transmise
ultérieur@@
reliqu@@
multipliées
priorité.
exacte.
réservée
onie,
avaler.
minutieusement
retournant
réfrigé@@
INTR@@
approfondie.
yl,
µg.
ant).
nos@@
3,9
pharmacovigilance@@
d'effort
Cox
apparaîtra
tailles)
diffusée
terminologie
décidée
libre,
proposés.
jum@@
lité
obsessionnels
lié.
Mir@@
acceptée
sous-type
nicotiniques
distribution.
DV@@
projet.
Posez
d'administration.
l'éventuelle
r-HuEPO
osyl@@
audition,
toxique.
froide
elles)
PSUR
géné@@
tiques.
(COX-2)
adsorbé
énoncé
qualit@@
is).
alin
CD4
itude
polaire
MPLI@@
inconvéni@@
pris.
Tractocile
Tysabri
essentielle.
institutionnel
ulaire
tirant
février,
juin,
essentiels.
aseptique
sachet
citées
formé
organisationn@@
P).
vities
Tylvalosine
septième
comptable
ométrie
surveillé
éthanol
anhydre.
Eric
Zone
isse,
Therapies
alizumab
séquences
nationale,
tétra@@
secondaires.
PRI@@
Masivet
Suvaxyn
fermes
guide
intégrante
validation
posséder
transformé@@
ancienne
l'ES@@
régulières
ogènes.
trouble.
pyri@@
transports.
masitinib
contaminé
yo
Ukra@@
garantira
octroie
py@@
inactive.
étag@@
étroit
considérable.
L'ensemble
maintenu,
connect@@
CD
L'entacapone
L'enveloppe
traver@@
puis,
taill@@
diplômes
recruté
arbitr@@
plats
fèces.
vom@@
anes,
exil@@
var@@
présentée.
DE.
mic@@
huil@@
examiné.
notera
livré
satisfaisante.
IONSYS.
Binocrit
Robert
dre@@
son,
figu@@
tissu@@
TMZ,
O)
fournie,
21%
classifiées
substitu@@
eront,
Qualité
réflexi@@
ajustements
héparin@@
d'organ@@
syn@@
reconnaissent
eva
Roumanie,
stéarate
exemple).
douleur/
ostéo-@@
oeufs
démographiques
coulé
bassins
fondés
écras@@
séc@@
trique
faces
étu@@
comparable.
Millepertuis
journées
cortis@@
différence.
globales
budget.
etés
comptaient
instauration
3,6
structurelles
génicité
scénarios
sinistr@@
µl
2008)
idation
noirs
épidémiologiques
soutenant
moindres
pratiques.
ariat
1715
l’intervention
lui-même,
étourdissements.
c’@@
transfu@@
diarrhées.
accélé@@
mycose
pédiatrie
atifs.
testées
stockés
interprètes
isolées
biologiquement
set
-1).
ner,
schémas
va@@
forte.
isations
sensori@@
personnalité,
proposées.
embryonn@@
allaitantes
figures
VASOVIST
°C)
intervention.
id,
d'Exelon
semi-translucides
CRIXIVAN™
bleu.
infections.
joindre
6,9%
millepertuis,
fas@@
ait:
sim@@
inactivent
(épaule).
éro@@
spontané
Q
l'utérus
rétrécissement
tout-à-l'égout
80%
inhabituel
deront
elle-même,
basés
libre.
vent.
Retacrit
optimal@@
soins.
soignants
attest@@
eux-mêmes,
NEVANAC
10,0
Tev@@
DAS
HAQ
(résultats
exclusion
traduc@@
traitement),
d'exacerbations
enceintes,
dées,
visiter
technologie,
DAS@@
d'abattage.
quotidiennement.
demi.
ments,
Kat@@
fourn@@
d'abatt@@
suit.
l'approbation
conform@@
seringues)
uniquement).
représentés
cées.
ètres
usag@@
fragmenté,
danazol.
84@@
l'allergie
choi@@
coeur
subit@@
modulation
L'estimation
diennes
inclu@@
supplément
eux;
nature.
radical
yri@@
élaboré
supprime
ologies
lande.
ultra-@@
Tum@@
MT-@@
panel
répertori@@
usage.
Meda
esc@@
282
RT.
quad@@
prudente
viser
monitoring
digit@@
clér@@
manie
ophtalm@@
avancée,
inaccept@@
régulières.
Pergoveris
administrer.
adéqu@@
domaines,
italien
nM
fond.
aidant
]:
Panc@@
techn@@
fréquence,
couvrent
ologiquement
amené
l’importance
L’évaluation
GB@@
voyant
allu@@
minuti@@
circonst@@
L'existence
(PR@@
rtv
dépense
énergétique.
extrêmes,
doté
Lic@@
l'Uni@@
complexe,
Jun@@
Nycomed
2649600
versées
cétose,
accidentelle/
main.
non.
L'interféron
L'inter@@
L'interruption
correcte,
respectez
dynamique
med
élevées,
veau
comité,
entrave
95-@@
ultéri@@
brè@@
obligatoire.
naître:
signalisation
Menitorix
radioactif,
perturbée,
regard@@
revenez
sortez
réussir
frais@@
tués,
coller
V/
nette
Ot@@
Danemark.
l'un@@
pleu@@
élect@@
(0)21
L-2@@
rin@@
prévisi@@
envisagée,
limités.
visée
curi@@
d'Internet
INTERNATIONAL
xi@@
Dyspnée
aki
Wal@@
6-2@@
fi
Kingdom@@
Gaulle
asser
copies/ml
Blo@@
en),
mini@@
ive
ouff@@
LIMITES
MAXIMALES
Κ@@
Post
Chaussée
COZAAR
PLUS
Waterloo
1135
lands
Shar@@
Estonie
nier,
l'aviation
Mesure
Metalyse
solutés
BAS@@
Litu@@
Nuttall
l’Organisation
l’agriculture
mobilisation
décollé
Boîte
MOTIFS
sz@@
’@@
hypogammaglobulinémie
reconstitu@@
appliquez
N'arrêtez
").
COR@@
régime.
ß@@
manger,
souvenir
cardiovasculaires.
chat@@
d’aiguille
d'emballage
Pen,
Ratiograstim
nag@@
Neuropathie
opénie/
inquiétez
esses
from
ler@@
recommencez
Symbole
resse
quet
{tel}
e-mail@@
Pin@@
415@@
Notons
UB@@
Nouv@@
absol@@
347/
amas
Europé@@
Mercier
RIX
l'OMS,
brus@@
l’ap@@
s'arrête
Velmeti@@
entendez
remplies
Os@@
Turk@@
pied,
parlements
oit@@
actuelle.
décompos@@
transformées
l'amantadine,
pramipexole.
mar,
retrouvée.
nécessitera
000/@@
Amsterdam
dufacteur
BER@@
nes,
alfa-2a@@
PEG
d'apo
Way
scoliose
noires
confort
Peuvent
Phosphate
gil@@
repli
clinical
86/@@
Cérivastatine
mass@@
écran
ALU
(Pour
8EP
Bret@@
lyn@@
Farmacêuti@@
S.A.
May@@
Portug@@
Doh@@
va-@@
box
limités
incluses.
antérieur.
envisage
Ko@@
l’adresse
mélanges
ell,
immédiatement,
l’avenir
électriques,
bouill@@
guérir,
considé@@
t-il
recruter
l'étiquetage/
275
L’ÉLIMINATION
préféré
lèvement
prélev@@
médication
Pen:
"la
acné
programmée
che:
Problèmes
apht@@
dentaires
l'échange
(article
d’exécution
Protég@@
0,03%
Vasco
Publi@@
pâtes).
réelles
herpèsvirus
(affaibli)
F2),
(tués)
RC
Quarante
Quarante-@@
jugées
o?
parvi@@
incorrecte
appuie
l'industrie.
HELI@@
FE@@
SO
NT
HANE
TEC
KIN@@
NOVOMIX
Quel@@
rond@@
Xenical
REPONSES
américains
péridurale
f-@@
Zyrtec@@
parallè@@
provisoire
ettre
Rhumatisme
suivant@@
redistribution,
PATIENTS
porte@@
Résistance
illes,
féri@@
capr@@
schizophrénie
agricoles.
ţ@@
din
ida
ş@@
ana,
Copenhag@@
extrémité
va,
la-@@
Whitehall
consom@@
Sauf
Scot@@
ajoutant
tolér@@
Sels
soixante
l’aiguille,
arrive,
changent
(toux
venaient
apparaî@@
fatale.
dévers@@
temporaire,
aviaire,
atteints,
s’aggrave
s'aggrav@@
répertoriés
chevau@@
los@@
risquez
doutes
agri@@
d’analyse
imaginez
vécu
pratici@@
découv@@
songez
souhaitez,
essouflé,
manipulateur
doive
ètre
hospitalisation
(réduction
ète,
transfert,
triste
+421@@
d'échanges
Sem@@
concevoir
rand@@
équilibr@@
princi@@
duc@@
VII.
s'appelle
inutilisé
publiées
Cardiff
67019
Scoppito
tailles
Substances
Suc@@
belge/
SE-169
d'adopter
rigoureusement
finland@@
7414
730
acouphènes,
attribution
écoss@@
remarquerez
prolongés
cus@@
encourus
Viande
minu@@
te"
plastique.
enk@@
Tex@@
Tietgens
DK-5220
Odense
SØ
sor
Vaccin@@
Garnier
ich
conc@@
arrive.
carences
d'avort@@
urgence.
délai,
priorit@@
Traités
6%,
Tabletten,
5-hydroxy
symptomes
ception.
Tube
(stratifié)
war@@
contrôlé,
internationales,
avortement
adéquat.
prononcée
7mmol/
sport,
circulation.
l'assur@@
arité,
Géorgie,
Ouzbékist@@
istance
masses
sémin@@
maz@@
industriel,
complètes,
endant
ones.
prodigués
régulier
autorisé.
gam@@
local,
pallier
rappel
supérieure.
tunn@@
quantité.
man,
entreti@@
Tran@@
fort.
pratiqu@@
jamb@@
trez
cer
d'efforts
Zarzio
euphorie
CONSTA®
attitu@@
Galileo
langues.
polici@@
extraordin@@
s’attaquer
rejettent
exclusi@@
voyait
enlevés
transforment
précieux
embouteillages
internationales.
défi@@
éloqu@@
aise.
une.
défavor@@
misér@@
contagi@@
sous-produits
ille,
restaurant
stein
remplacés
lass@@
d'acheter
s'effondr@@
erait.
travailler.
essaient
elles-@@
mêmes,
ingér@@
chimiques.
flamme
plaines
l'inefficacité
océ@@
bureaucrati@@
construct@@
qués.
e."
entach@@
captu@@
mêmes.
acquit@@
renégoci@@
clones
l'économ@@
suicides,
social,
consomment
d'installations
domestiques
consommation.
cocktail
Staline.
l’air
déj@@
avocats
tempêtes
hebdomadaires
toxines
étouff@@
é".
cre@@
s»,
établissant
McC@@
garçon
perç@@
ingéni@@
chair
novembre.
fiables,
n'auront
méditerranéenne
subis
able"
théories
contradict@@
Tigres
choisit
quota
he
dauphins
Tan@@
mènent
cadmium,
pénalis@@
décourager
Schum@@
joueur
voyages,
radio
sab@@
d'organes
certi@@
sig@@
scènes
pionni@@
incendies,
infra@@
Ukraine
ceptions
d'apprendre
hou@@
trich@@
rectific@@
kov@@
arab@@
excell@@
dessin@@
sme,
mensong@@
pollution.
1991
dirig@@
constituerait
Sud-@@
urgent.
nécessiterait
procédures.
déplacées
m'est
désas@@
veul@@
existe.
proprement
printemps
sûrement
embar@@
onnent
main-d'œuvre
numériques
romanti@@
vainqueurs
industriels
plomb,
tranquill@@
illés
vend
vents
précédent,
inond@@
sements
vendre.
quasi
journalis@@
cyc@@
retraite.
cour
champagn@@
visas
brève
viti@@
proposant
pratique,
intermin@@
voyageurs
convain@@
SRAS
erie.
différent.
définit
l'effort
d'entr@@
POP
engendr@@
sanction
résolutions
générateurs
dérogation.
tier@@
intergouvernement@@
mauvais@@
opportun
poursuit@@
juste.
actuellement,
gratuit
alisée.
Zimbabw@@
poissons,
règlement.
civile,
somb@@
merlu
honneur
L’État
étouffer
censur@@
alphab@@
énormément
retomb@@
chômage,
l'immigration
pères
s'élever
VIH/SIDA
douani@@
cocaï@@
volcan
dédu@@
long.
chanc@@
Schröder
reconnaî@@
saumons
d'Europe.
opinions,
problématique
fru@@
négociations,
soulever
brou@@
d’animaux
Ouest
fonds,
désespoir,
haine.
sociét@@
terroriste
acquérir
restations
biomasse
Tibet
préjudiciable
trans
Costa
aujourd’hui,
respectée.
cabillaud
décisions.
ín
Alis@@
BCE
climat,
passager
frontière.
approuver
persu@@
bibliothèques
méthodologie
difficultés.
frontali@@
circulation,
communic@@
rémunéré
originaires
disponible,
vrer
second.
contingent
précoce.
brebis
institut
organisation.
résolus
sauvages,
Ah@@
parents,
l'Est
étudiants
colère
ébran@@
dign@@
coût.
dollar
sait,
Galile@@
rumeurs
record
échouer
riv@@
âme.
fratern@@
discipl@@
socialisme.
interpell@@
PIB.
bre,
?".
identité.
destin@@
intéres@@
polémique
grossi@@
défend@@
traverse
esses.
l'histoire,
OGM.
lourds.
Erasmus
farine
rumin@@
Terre
embarcations
l'inform@@
ation».
bétail,
accessoires
minute.
répres@@
paraî@@
dicton
coupé
café@@
Alb@@
transmet
reviennent
Messi@@
nickel
dévastat@@
figur@@
ettent
préf@@
motivations
livres,
continent@@
l'agriculture.
Hom@@
fondamentalement
frappant
l’esprit
détour@@
dommage
ESB
fondement
renouvelable
ï
délicat@@
égard.
taureau
bâton.
accompagnement
d'États
ensuite?
scrupul@@
frau@@
importateur
vive
s'agir
ville.
Mario
L’expression
néocoloni@@
refusée
radiations
retraite
biodégradabilité
d'emplois
députée
louable.
compréhension.
frais.
Afghanist@@
trah@@
défaut@@
paquets
humanité
mettr@@
hypocrisie
nous.
t-elle
renoncer
bres.
autonomie
élite
ectes
démocrates
de!
peu.
urgence,
Ja@@
L'île
formid@@
admissi@@
conventions
figure.
rentabilité
eur!
liste.
autant.
désarm@@
prendrait
l'Internet
sida,
dangers.
retirés
nocives.
L'importation
Voï@@
L'incertitude
attir@@
concessionn@@
résolu
impliquait
dioxines
L'incitation
Juifs
matériaux.
l'AP@@
juri@@
d'ingrédients
indemnité
dialogue.
décim@@
doter
investir
L'infrastructure
États-Un@@
oscill@@
Coca
savait
Omar
subventionn@@
revu
L'intégration
pourcentage.
d'empêcher
transmission,
tradition
L'intérêt
parra@@
représenté
traditions
admira@@
internet,
amène
ladite
timidation
assassinats
biocarburants,
raisonnable,
"zone
signer
tues
occuper
exécute
aujourd’hui.
espoir.
L’Italie
catastroph@@
ée!
publiques.
ney
problémati@@
ressources.
récompen@@
violence.
numéris@@
d'enrichissement
déclarés
financièrement
rad@@
légifér@@
miel
l'avi@@
préjudices
d’États
l'Afrique
déchet@@
ons-le
successeur
viable
texte,
contrebande
recourt
complais@@
prudent
affronter
cause,
ONU
L'opération
L'opinion
L’opinion
désol@@
homosexu@@
opinion
ège.
autorisée,
(L'or@@
orateur
Présid@@
nombr@@
ey@@
déchargement
avel
arbres
donc@@
coûts,
L'origine
controversée.
justifiée.
police.
dissidents
hier,
mauv@@
volati@@
banque
interrogé
carbur@@
?»
discrimination.
existent,
ayer
j'étais
shi@@
compagnie.
Monténégr@@
posséd@@
État.
n’aurait
restaurants
élections,
vendu
marteau
patrie
Tu
regardent
imperfections
printemps.
Lorsqu'
guerre,
empris@@
appréh@@
poub@@
laxisme
morale
qualifiée
arrivez
mortes
centimes
dévalu@@
aborde
Lorsqu’on
ètr@@
voisin
regarde
constructeur
mandat@@
eh
L'OSCE
légiti@@
Mit@@
subventi@@
cancérigènes,
l'idé@@
aniens
L’Ukraine
extraordinaires.
unanimité
Isra@@
empois@@
onnements
endre
générique
hormones,
Europol
sache
Thaï@@
tsun@@
appu@@
budget?
disposait
Russi@@
Airbu@@
parer
serait-elle
construite
compréhensi@@
dramatique
licenciements,
ouvri@@
drasti@@
accident,
santé?
énergies
minimum,
textil@@
brut
d&#x02BC;@@
tch@@
ête.
mirac@@
plais@@
femmes@@
brésili@@
atti@@
échéance
réput@@
consommateur,
contrain@@
condamnées
saisissez
famille,
moines
obtenu?
prôn@@
s’agit-il
concr@@
déplore
l'hémicycl@@
és".
est-@@
ambiguï@@
coordonnée.
mascar@@
Réfléchiss@@
te-t-elle
tous?
bouc
6/@@
meurtres
indemn@@
euro-@@
flagr@@
s'appliquer
élève
Markov
étern@@
ingrédients.
bombe
travailler,
pourriez-vous
ob.
argent,
pornograph@@
ra-t-on
Jérusalem@@
rassur@@
tirés
ait-@@
ra-t-@@
parviennent
chance.
fautes
trafi@@
CIEM
d'Européens
roy@@
Eri@@
internationaux,
l’avion
anie,
ures.
Loukachenko
l'industrie,
l’allocation
pourquoi,
capitalis@@
ń@@
Médec@@
saint
Meill@@
effacer
rencontré
classées
proposé,
avantages,
concept@@
çaient
vote.
Mercredi:
cong@@
atisation
us!
brut@@
auer
Mettre
licenciements
Hongr@@
parlement@@
Mladi@@
enseignement
Berès
Quisthoudt-Rowohl
san
Gallagher
atá
fonds.
immig@@
simple,
nom,
Cohn-Bendit,
sanitaire.
j'espère
eriez-vous
piège
Sénég@@
hont@@
Birmani@@
plaisant@@
à,
miracle
Mugabe
ca-@@
horribles
députés,
Gargani
Giuseppe
décid@@
Paasilinna
Herzégov@@
cercl@@
N'avez-vous
agressive
prouver@@
débatt@@
refus@@
bons,
motocycl@@
abusif
illégalement
Temp@@
notions
pension
entrées
phénomène,
d'énergie,
gaz,
critiqu@@
l’est
injusti@@
fais
Nord,
querelles
Guant@@
vor@@
pourrait-elle
prenons
certes,
circons@@
sommes-nous
soyons
Améric@@
humili@@
N’est-il
est-on
contentez
règles.
Nice
bhfuil
N'importe
rime
amendements,
indul@@
intégrées
discrimination,
concitoyens
emploi.
s'occuper
convaincr@@
démol@@
ingrédients,
riposte
falsi@@
ford,
massacres
mosquées
vin.
Turqui@@
bombard@@
parfum@@
abusi@@
justice,
retraité
sous-estimer
dées.
simplifiée
l'expiration
embau@@
navire,
Fre@@
mendi@@
pavillon
syndi@@
fourrages
apte
hiérarchie
véhicules,
souscri@@
l'enlèvement
l'assassinat
barbar@@
s’avère
Nulle
N’y
bouger
apposer
Spencer
établissements
perturbateurs
%?
Observez
comman@@
jusqu'@@
placées
simplement,
recrudescence
rachat
énormes
omni@@
Polonais
l'institution
dévoi@@
distill@@
rêver!
occident@@
2050.
ECH@@
communautaire,
celles-ci,
imagine
corrom@@
végétaux
lati@@
rép@@
navi@@
herbi@@
possibilité,
mess@@
suffisance
l'euro@@
l'enquête
capacit@@
pêche,
impér@@
possession
défi
demander@@
beaucoup,
mourront
cofinancement
scrutin
autoroute
averti@@
bois,
èmement
savez,
tront
banc@@
détail@@
coupa@@
DHA
effet.
européennes?
l'Europe?
étiez-vous
Haï@@
blessées.
résolue
ent-ils?
l’avortement
Pakist@@
ent-il
marché?
l’influenza
d'Euro@@
handicapés
immobili@@
l'exigence
teurs,
Français
malentendu@@
Brésil
transposition.
réglementé
aboutir@@
courses
Géorgie
cigar@@
chaluti@@
élè@@
espagn@@
piste
poussières
compag@@
garde-@@
réagir.
démocratie!
cides,
héritiers
condamnations
exactement?
paquet@@
oeu@@
Partout,
visé
enfer@@
allons-nous
ville,
fût-ce
Personne.
(B6-0@@
offens@@
améric@@
Pire,
l'OMC
(Plus
phytosan@@
voudr@@
Rése@@
communi@@
compensations
dot@@
Tampere.
ski,
aéroports
autorisés,
l’instant,
quantité,
mesur@@
résultat?
tre?
l?
-t-il?
re-t-il
ment?
able?
vie?
priorités?
veut-@@
els?
Palestiniens
fait-on
supermarché
iste@@
lobby
génocide
z!
se!
Wol@@
pai@@
deuxièmement,
Fron@@
Prenez,
2009)
débat)
Primo,
additifs,
/2001
Promouvoir
ter?
Quatre-vingt-@@
Quatri@@
point:
Qu'attend@@
problème?
honte!
intervi@@
page.
Camisón
Qu'on
récents
alor@@
(A)
Contrôleur
(A5-014@@
2/97)
(A5-01@@
(A4-014@@
(A5-026@@
6/99)
Sánchez
7/97)
0/2001)
(A5-006@@
(A5-009@@
(A5-036@@
9/2000)
(A5-038@@
Leinen
(A4-027@@
(A5-019@@
octroyée
(A5-039@@
(A4-030@@
Haug
Hautala
(A5@@
Suanzes-Carpegna
Trakatellis
Regarde@@
Résolution
Rest@@
relati@@
soignées
(Rires,
S'
interdites.
solennelle
souffriront
Septièmement,
Seront-ils
j'aurais
"Si
seriez
Traité.
angle,
endrez
Soixante
Songez
Souvent
exprimés:
Tels
suivre.
Transport
.-
Va-t-elle
Véhicules
Viennent
Voul@@
souhaitez.
Vue
A/S
lus@@
DK-2300
itte
enia
bée
initiée
guéri.
inscrite
(glucose)
lopin@@
appliqué,
-même.
(EMEA@@
vergetures
hypox@@
inhabituels,
1,3%
(28@@
HER2
patient-années
ajustée
localement
5,8%,
levetiracetam
toléré,
d'exclusion
parin@@
95%]
rables.
quotidiens
prédisposant
essai,
GnRH
cytaphér@@
sténose
sentir
hCG.
ophie
béni@@
paresthésie
péri-@@
hypertonie,
migraine,
chéil@@
kyste
occultes
suintement
nécr@@
paralysie,
se/
similaires,
lévo@@
(dans
BYETTA,
Dafiro
d'Exforge
constantes
triphosphate
surproduction
esse)
thor@@
ax.
expl@@
étri@@
durent
engendré
l'altération
réversibles.
symptô@@
d'ARN
aprè@@
Humira.
T-score
vertébrale.
extrême,
4,1
olanzapine.
catapl@@
4,3
acept,
istor
douloureus@@
secon@@
l'isol@@
référence.
d'inhalation,
interférence
QT,
partenariats
HBVAXPRO
anaphylacti@@
(en%
30%.
inévit@@
sirop@@
l'intégr@@
proposera
représentaient
72%
catar@@
PDT
iloprost
omat@@
(charge
approximative
701
PR
aminotransférases
risques);
risques)
(2,5
surdos@@
inconnue,
proximale
ré-@@
Ziagen,
prophylaxie,
étés
écoulé
trastuzumab
étroite,
(érythème
patient-années)
stimulants
l'érythr@@
PREZ@@
Clomicalm
ménopausées,
enregistrés.
adalimumab
370
varié
sibutramine
88%
6%).
l'abacavir.
tuberculose.
2,7%
ales).
Thyman@@
broncho@@
plus),
gauche.
ogénèse
InductOs.
I-IV,
PR,
glucuroconjugaison
CYP2D6
Reyat@@
précliniques,
2C,
dopaminergiques
D1,
5-HT@@
acerbation
18%
d'ARN-VHC
24ème
importante:
mmHg,
11/
néo@@
vu@@
Dir@@
seu@@
biologiques,
Cubicin
oxac@@
illine,
analogique
consolid@@
pivotale
5-fluorouracile,
gale
189@@
56,@@
Zocord
parcour@@
TM@@
BR.@@
CHAR@@
(499/
854)
INNTI
(12@@
durée,
intermédi@@
ally
occulte
protocoles
(18/
(20@@
(7@@
acuité
périodiquement.
calicivir@@
fel@@
principale,
d'Ad@@
enrôlés
thromboemboli@@
PROTELOS
rechutes
32%
pourcentages
50,@@
EMEN@@
D)
WV1624@@
foetus
régule
testicul@@
(0,5%
distinctes
12),
3,4
trici@@
Knodell
ultérieures
d'IgE
rétrospec@@
comparées
monométhyl
carboxamide
(MTI@@
pect@@
1-9@@
Cmax)
mol
hémi@@
(15@@
NG@@
complémentaire,
l'hypertriglycéridémie
synthétisés
d'aliskiren
exagéré
faites.
femelles
oreill@@
coupl@@
classement
albinos
178
3ème
dose-dépendant
dilatation
stern@@
anges
7%.
l'HbA1c
défériprone
HDL-C
titre,
ophtalmie,
(30%)
(18%)
(15%)
Insulatard)
cartouche,
Levem@@
334
(PAF),
colon.
grippale
dex@@
raz@@
chélateur
mélanger.
rinçage
significatives.
(CYP@@
crétion
circulants
pharmacologiquement
d'inhibition
l'orlistat
réversible.
PSUR@@
couvrant
RCP.
(0,9@@
Das@@
glab@@
AUTORISATION
21/22
EMEA
renouvellement:
_
par:
__@@
d'hémorragies
paume
ons),
tilité
inquiétudes
cutanés,
bilirub@@
}@@
antidiabétiques.
comportaient
insom@@
foc@@
miction,
tachycardie,
d'évaluation.
fistule,
urogénit@@
1974,
Purves
Españ@@
l'Université
généraliste
1983,
1984,
1981
lle
Bénéfice
cabinets
l’hôpital
Mis@@
ologiste
Ash@@
gs
l’actuel
osch
oxic@@
WP
Santé,
ateliers
sembler
cular@@
aign@@
fications,
tériparatide
l'administrer
Lignes
Déclaration
PRINCIPES
TOR@@
ÉS
COMP@@
EUROPÉ@@
ENNE
régissant
(ne
curares
modéré@@
fréquentes,
visuels
ciprofloxacine.
FIN@@
TION
new
iritis,
kératite
abra@@
sécrétions
photopsie,
passage,
bisphosph@@
onate
Remicade.
Schéma
783
5.2
durera
érythémat@@
Mois
can,
done
douleur)
lorazépa@@
(E172),
(médicaments
Demandeur
d'allaiter
croû@@
cisplatine,
concentrés
électrolytes
cobalamines-(III)
exposée
pell@@
anti-convulsivants
régress@@
ribos@@
aemophilus
NECESSAIRE,
actuelles.
validées
)/
Pharmacopée
ATION@@
ELLES
convulsives
réhydratation
immin@@
l'uricémie
prévient
passage.
étuis
l'intern@@
d'échantillons
activée
µ
d'importance
démonstration
kininase
max
ations).
pico@@
multipliée
risque).
Lorsqu’une
recueil
reçue
Minimisation
intrathécale.
LCR
cytarabine,
t"
voie.
cémi@@
Dépression,
fonctionnement.
d’anomalies
gio@@
aplasique
orthostatique
fatale)
otoxicité,
olanzapine
eurs@@
cuir
2007.
2009.
EDSS
nettoyants
sitagliptine.
matiques
immédiat,
quantitative
gamma
Zeval@@
IEC,
exposées.
palatin@@
rani@@
dose-dépendantes
constatées
thrombopénie,
signalés.
bradycardie
Pneumopathie
glomérul@@
thrombopénie
eux).
néphropathie
leucoencéphalopathie
immunosuppress@@
occasions
thiazolidinediones,
pioglitazone,
cin.
menaçant
cyst@@
rate
isolés
érythropoï@@
étine,
diagnostiquée,
souche.
communiqués
aven@@
sinusale
organisés
secrét@@
établis@@
tutelle
chevauchement
définitions
Group
eria
observées,
CI50
carbamazépine.
polymérase
K103N
l'aci@@
déconseillée
Riprazo.
tolérées.
supérieure,
vision)
ogenèse
entrainé
tale
folinate
anti-tumorale
neuromuscul@@
ocytes.
d’erlotinib
injectable;
(8,@@
anormales,
voisins.
(chez
000):
râ@@
2g
malin,
hyperglycémie,
modérées,
matiques,
anion
Oxyglob@@
acétylsalicylique,
expérimentales
synovi@@
(37@@
plasma@@
BH@@
micronucleus
ese
guanine
l’ASC
néphrotoxicité
épistax@@
exacerbations
pré-existants
cytokines,
prendrez
radiochimique
constitués
créés
gingiv@@
Administration
d'emploi).
sept@@
foscarnet
antisepti@@
infectieuse,
diverticulite,
Agenc@@
www.
VAN@@
}.
post-ménopausique.
passages
ponctuées
expérimental
confirmée.
rhabdomyolyse,
ajoutées
peg@@
d’hypersensibilité,
Quinck@@
différenti@@
REYATAZ/
vaginales
dentaire.
s'imposent
recueillis
LIS@@
Traduction
constant
intégrité
protecteur
5%),
précurseur
gestationnel
infliximab.
distribuées
amides
last
forw@@
profess@@
rougeurs,
pot@@
Gad@@
myoglobinurie
(rhabdomyolyse)
savoir:
bénign@@
NutropinAq.
ements)
myélodysplasi@@
gérés
neurotransmetteurs
validé@@
IGF-1
commenceront
(GIS@@
recommandés
Dét@@
acher
l’acide
d'antirétroviraux.
l’instauration
antirétroviraux.
dû@@
dose:
approxim@@
l'angle
LN@@
Churg-Strauss
Infocenter@msd.
Infocenter@msd.de
S-2@@
précédent@@
pluridisciplin@@
xén@@
Immunoglobuline
Turner
aprépitant,
dexaméthasone,
két@@
industrielles
recherchées.
IM@@
goutte,
Recapture
Sérotonine
l'hydro@@
Drav@@
viez
Didan@@
-1,@@
type)
fluticas@@
dormir,
dig@@
diffusé
Alcool
benzylique
dodécahydraté,
L-Acide
L-Phénylalan@@
étr@@
DILU@@
que*
sion)
fébr@@
bourdonn@@
diabétiques,
isomaltase
Diovan
chimiste
ano@@
instances
chester
Barcel@@
ppsala
Milan.
DIRECT@@
VE
Thomas
suit@@
cartouches.
étiqu@@
Roon@@
straße
Nuremberg
Distrib@@
Division
Corporation
Maria
Farmac@@
oug@@
....................@@
....@@
7),
cardiologie
développement@@
Technologies
d'octobre
Dox@@
doivent,
Trizivir@@
606-10-50
Ran@@
2.000
DONNÉES
d'estimer
expon@@
L'ARTICLE
13,
SION
progestogène
3,8
d'entreti@@
cirrh@@
flatul@@
gastro-oesophagi@@
eur/
faciale,
pharyng@@
Douleur,
Irrit@@
duodén@@
ales)
basse,
doulour@@
comprimidos
cin
ENT@@
für
ring
BRO@@
P.@@
Drug
.1.@@
Chief
Romano
pte,
sucré@@
x1
Oxy@@
Cab@@
délégué
nombre,
(PI@@
épaiss@@
infection@@
évités.
l’année,
styl@@
bénéfi@@
éventuellement,
lymphocyt@@
l'éjaculation
érectile,
entérite,
stomatite
gencives,
êne
Barr@@
opharyngite,
gastro-intestinales:
(ADNr),
Eau
neurotransmetteur
ostéomyélite
24)
(g/
eil@@
F4
moins................................................................@@
............................@@
sin@@
pH).
EDTMP
H2@@
intramuscul@@
Buc@@
YL-@@
621
gsk.
KRK@@
C/o
Badener
A-2514
Traiskirchen
.5
DEPO@@
otiques
5.2)
périphériques,
Convulsions
artificielle
quants
ocar@@
noire.
résection
rouill@@
ABLES
COUR@@
d'auto-agression
epistaxis,
hémoptysie,
tivement
vagin,
fongiques,
coule,
suint@@
goutte)
volum@@
douloureuses,
psoriasis,
(ils
évoluant
cristall@@
repos,
(pneumoni@@
l'hémoglobine
duction
ruption,
Thrombocytopénie,
poid@@
pus
interstitielle
alie
blanchâ@@
infec@@
fatigu@@
tristesse,
l'intestin,
Gonflement
protègent
Ceux
l'oeil
opénie)
(pancyt@@
ôme
âtres
Règles
l’endroit
(trouble
colère.
Mauvaise
Contr@@
sion),
inappropriée
GS@@
vessi@@
statin@@
perception
cils,
ère;
systémi@@
l'iris
Irritation
soluble
évidence,
UTILISER
lipidique
l'exénati@@
Van
straat
trice,
Way,
Hat@@
anor@@
gas@@
laprase
mucopolysaccharidose
triple
épaisseur
d'argent,
créatininémie,
Baisse
Élévation
alcalin@@
(AS@@
gamma-@@
CPK,
GP@@
phosphore
d'ALAT
Road,
métabolites.
l’urine
(70@@
l'AS@@
incinération
NL-2@@
353
ider@@
+31
)................................@@
..............................
Excipient:
.............................
hépatocytes,
capt@@
Insp@@
monohydraté
cathéter
céphalospor@@
l'AD@@
principal,
Maroteaux-Lam@@
olyse
inhabitu@@
bibliothèque
ivage
millili@@
d'indicateurs
eptide
formant
prédire
Fédération
As@@
standards.
DR@@
client@@
URL:
Mun@@
@emea.
d'entreprises
EXT@@
ERI@@
EMBALLAGE
©EMEA
Quadrisol
EMEA/MB/002/97
Secteur
qu’après
Emergence
baigner
endi@@
ago@@
Emulsion
III)
d'unité
1991.
(TI@@
londoni@@
auspices
ICH@@
tenues
revues
étudiant
3;
d’injection,
nis@@
capécitabine
0,08%
glycémique.
tini@@
épilepsi@@
partagées
40%,
50).
50:
benzylique,
Wegener,
carton,
corticostéroï@@
Calcich@@
fluorure
mono
changera
superficielle
adaptée.
se)
thal@@
médic@@
revienne
énol@@
sangl@@
d’effet
ralenti
transaminases,
causes,
myopathie
achi@@
récidiv@@
antihistaminiques
paracétamol
corticoï@@
mg/kg
stop@@
pera
GA
(SN@@
FOSAVAN@@
étroite.
lithiase
ine),
tétracyclines
d'antibioti@@
OSSEOR.
PROTELOS.
Mét@@
arythmi@@
Intrinsa
d’hypoglycémie
notifi@@
GP
présente,
alternance
d'intervention
parasit@@
l'oubli
uvé@@
])
rougeoleux
rétablir
préoccupantes
Zerene.
diminuées
171),
carmin
prévu@@
distribue
sie@@
patchs
mois@@
½
Bondronat
COMMERCI@@
multiplicité
kits
ViraferonPeg,
2,25
progestér@@
recherché
ENGERIX
ostéocl@@
-like
suffisantes,
d'AV@@
Kepivance
prin@@
causale
levez
(flacons
couliss@@
atelier
saisine,
synthéti@@
remarqué
consigne
-2
examinera
transparence.
réductase,
décisive
els;
opathie,
5-F@@
(RCP@@
age)
consacr@@
soutien,
l'imatinib,
formé@@
12C
liquide,
transports,
primaires
LMC.
l'angl@@
l'immunosuppression
n'exclut
intra-individuelles,
mous,
Aden@@
enregistrement
regroupant
0,2@@
immunoglobul@@
détruisent
Ensuite
lis
touchée
étiqueté
test,
enfoncez
ôter
perforer
ases,
12-16
1992
ir:
d'Irbesartan
sant,
(p@@
circulante
Envir@@
unes:
fournies).
zy@@
se;
arma
co,
pilepsie
symptômes,
cellulaire,
x)
KUI/
flacon),
gravides.
unités)
pâte
d'hydrochlorure
éthyl
sulfone,
dénommé
ents:
migra@@
desquamation,
èm@@
ptions
contu@@
oblast@@
89@@
Parque
Tecnologico
Calle
Severo
Ochoa
28760,
Tres
Cantos,
VAR@@
ma.
25-@@
estrogènes
Propriétés
potentiel,
ri
més,
IX,
discutable
MABTHERA
Etat
entation
asie,
36,
Huile
’s
DOS@@
PRIM@@
bouffée
fixée.
TITUL@@
RESPONSAB@@
---
Enbrel@@
vastatin@@
376
lévodopa/
Phase
sublingu@@
037
040
flacons)
/00@@
4/00@@
(28
(56
unidose)
055
(35
Flac@@
quettes
4a
/011@@
116/
multidose
Astellas
révisée
Per-protocole
Ratio@@
citabine
orth@@
vicel
déshydratés,
doigts.
exagérée
Icandra
nouveau-né
blancs).
(LAL)
pilule
Evrop@@
ská
mucovisci@@
Examin@@
vr@@
régulièrement,
13C
4.4)
CO-@@
minéraux,
ethyl@@
pyrrolidone
exam@@
chimiothérap@@
tivité,
seuls.
émies
stage
(199@@
Expert
MM/
Extavia
ero,
ero
insulinothérapie.
371
η@@
las@@
fractures,
Fabry@@
ough
EL
Rain@@
550
PG
svägen
laï@@
Madri@@
Mul@@
Gesellschaft
klinische
Spezialpräparate
The@@
Penn
Tredegar
37530
FABRICANTS
favorisent
énumérées
administré,
CONSTA.
contaminés.
gouttes.
Close,
l'hyperuricémie
asthénie
courbatures
free
tic@@
delt@@
pré-hémodialysés
Laur@@
Flu@@
SE-@@
ł
l'Homme
immuniser
l'her@@
G1)........................................
ballonnet
indem@@
Fis@@
o-œ
µm
pistolet
LOR@@
(PEHD)
scellage
essoufflement,
449
Fol@@
affaiblis@@
9/9@@
esp@@
Four@@
fourmillements,
(RP
Fractu@@
Lettonie
Estr@@
sko
TROUVIN
O'@@
François
MET@@
froids
ence:
oïde.
prurit.
basse.
vertigineuse,
nerveux:
‡
sclérale,
Rhinite
paros@@
acouphène
eurs:
Fus@@
reconstituer
neutre
Cod
sk,
SK-821
04
tise
Eructation
ut
gan,
dimensi@@
imprimées
(Nom
face.
resist@@
zur
einer
slo@@
peau@@
opératoires
langue.
modé@@
athi@@
Station
1L@@
génotoxicité
aver@@
ATIVE
TROP@@
Gianmartino
Ó@@
line
Rix@@
(100@@
astrocytome
déclic
liss@@
Dari@@
MC)
Ph+
ved
Pioglitazone
Freib@@
joint.
(h@@
fér@@
occasionner
tante
osseux.
complic@@
Dai@@
ingen
mm.
MES
lumiracoxib
Conduite
(29,8
années-@@
(43,3
PRÉPARATION
MG,
Salomone
Simpson
anxiété
Cryptosporidium
parv@@
164
Unit
MAN@@
chal@@
Carlos
SCH@@
Fried@@
LER
CO
mi
l'Ag@@
Hém@@
glutin@@
appauvr@@
nes@@
vascularite,
cyan@@
l'artère
émie)
Philippe
905):
provoquées
ib
Ve@@
Freder@@
prostati@@
adulte.
pourcent
10).
adine
Adalimumab
Midd@@
cortisone
methyl@@
forme,
hépar@@
etc.)
Hyperkinésie,
(plaquettes
moxi@@
évolution.
diques
osti@@
gadoversétamide,
macrolides.
us),
ténectéplase
formaldéhyde
NeoS@@
diphtérique,
sensi@@
Hypotension,
capillaire
vasomotrices
adjuvé
OX
ld
Kil@@
intradermique
.2
prolonge
d’enregistrement
spection
chef,
Française
Sanitaire
l'alliance
Forcaltonin
catégorie,
d'activité.
entraînent,
maintenue,
demandeurs,
qu'Humira
toxicomanie
descend@@
NAP@@
d'éradication
l’immunodéficience
AT1
sique,
l'énergie,
françaises
ovari@@
1%),
1-2@@
s'agissant
généri@@
calorique
basi@@
ab.
continuer@@
déceler
panded
ability
trope
vêt@@
santé@@
recouv@@
ci-
susp@@
compris,
orienter
térat@@
[...]
