<blank>
<s>
</s>
the
of
and
to
in
is
a
be
for
with
or
not
that
are
The
on
as
have
it
you
should
this
by
has
been
at
was
will
patients
an
-
from
which
If
use
may
your
were
can
(@@
if
other
A
must
any
In
these
there
also
than
more
no
they
one
used
It
What
European
all
treatment
but
only
who
mg
•
You
dose
their
such
after
1
do
into
when
For
its
would
I
risk
,
.
'@@
blood
1/
take
people
EU/
during
There
However,
up
effects
about
injection
very
section
doctor
we
time
(see
information
number
new
what
–
two
-@@
out
report
those
3
Commission
being
product
This
had
given
2
does
active
first
before
tablets
medicinal
some
products
human
clinical
need
10
between
over
taken
system
increase
?
same
IS
without
treated
so
then
solution
WHAT
recommended
increased
where
Do
children
could
insulin
Why
cannot
years
s,
following
FOR
because
ml
per
We
)
/
taking
study
three
s
side
studies
most
One
less
When
Member
5
under
made
s.
un@@
All
Oral
them
4
important
in@@
even
re@@
case
:
available
including
against
EU
example,
6
ing
S@@
both
Europe
least
Union
using
data
women
Patients
able
administration
many
renal
order
therefore
reported
severe
therapy
see
;
health
within
06/
100
B@@
safety
further
).
es
possible
well
known
AND
skin
administered
how
C@@
work
last
combination
No
adverse
symptoms
rate
effect
disease
ed
age
through
oral
every
reactions
P@@
30
make
weeks
much
Mr
levels
patient
day
medicines
@@
contains
level
e.
50
just
result
7
cases
high
too
type
whether
es,
cause
however,
mg/
hepatic
days
way
once
considered
'
each
+
like
es.
),
associated
due
000
D@@
As
M@@
us
substance
daily
Tel:
States
times
tell
T@@
he
12
measures
20
IT
million
period
compared
A@@
water
!
long
single
necessary
change
results
development
infusion
certain
L@@
months
end
body
market
t
H@@
did
E@@
G@@
8
's
USED
ensure
get
conditions
response
e,
food
observed
reduced
different
doses
events
total
specific
er
ed.
R@@
o
part
x
problems
e@@
F@@
s@@
15
e
set
medicine
b@@
serious
already
site
containing
reduction
year
means
ed,
place
week
<
it.
OF
ation.
care
liver
ing.
experience
until
become
working
another
hours
p@@
control
N@@
few
treat
To
impairment
four
based
put
ing,
animals
child
y
small
al@@
40
patients.
ation
4@@
‘@@
An
i@@
United
medical
main
i
while
provided
group
25
good
vial
Council
5@@
white
K@@
reduce
disorders
point
either
9
2@@
>
substances
de
ation,
know
receiving
ate
country
shown
please
n@@
Your
Marketing
potential
m@@
24
done
received
needs
Medicines
h@@
down
population
an@@
Treatment
o@@
t@@
needle
3@@
greater
treatment.
a,
g@@
infection
still
give
impact
virus
significant
y,
B
ar@@
6@@
low
area
I@@
start
changes
support
clear
k@@
syringe
higher
Use
right
particularly
growth
second
s?
our
vaccine
notice
plasma
V@@
lead
approximately
Therefore,
pain
7@@
required
er@@
cells
often
THE
appropriate
since
form
come
But
benefit
on@@
called
example
now
non-@@
prevent
en@@
pre-filled
individual
major
waste
/@@
red
might
effective
production
Human
14
contact
similar
efficacy
activity
found
go
immediately
expected
al
special
g.
seen
ask
mean
carried
sugar
lower
included
studied
help
a.
around
better
young
eye
breast
c@@
back
60
amount
d@@
pharmacist.
O@@
large
Please
stop
‘
8@@
0@@
y@@
caused
via
quality
local
always
allergic
sodium
ingredients
public
listed
common
countries
UK
continue
exposure
terms
read
five
own
animal
C
According
it@@
monitoring
g
Report
next
1@@
current
cell
y.
ch@@
ated
leaflet
function
particular
de@@
prior
present
ia
signs
ml)
2.
allow
longer
cancer
a@@
l@@
especially
er,
yet
f@@
11
time.
years.
ers
Annex
Not
(e.
as@@
management
weight
%
EMEA
life
authorisation
hepatitis
acid
18
chronic
areas
Any
related
Committee
national
receive
is@@
Agency
W@@
and/
measure
and,
drug
marketing
pressure
scientific
powder
over@@
heart
protein
package
They
use.
third
at@@
t,
them.
am@@
additional
300
Only
loss
im@@
protection
factor
veterinary
having
procedure
far
effectiveness
affect
day.
causes
provide
dis@@
tablet
his
reports
trials
include
9@@
long-term
average
pain,
These
off
account
recent
state
limited
"@@
healthy
reaction
Authorisation
controlled
decision
t.
want
maximum
occur
ations
infection,
according
whole
placebo
immune
Al@@
'.
ts
list
ability
think
di@@
el@@
diseases
responsible
r@@
D
ating
general
or@@
es@@
currently
process
Where
time,
question
full
six
be@@
Kingdom
access
moderate
research
U@@
il@@
difficult
avoid
le@@
ic
situation
dosage
suspension
produced
recommended.
At
►
normal
li@@
damage
absorption
pen
So
basis
’s
best
fact
S
gets
al,
serum
ag@@
disposed
bone
usually
ol@@
ri@@
200
little
men
80
decrease
adult
standard
00/
00
enough
pack
course
significantly
year.
ti@@
21
ly
MEDICINAL
indicated
France
=
assessment
pregnancy
show
never
bleeding
4.4).
pro@@
ro@@
risks
ine
co@@
.@@
s:
limit
w@@
below
adults
rare
concentrations
experienced
st@@
rates
groups
How
Z@@
patients,
achieved
term
proposed
[@@
likely
aid
ers,
instructions
tion.
above
In@@
evidence
IU
mixed
subject
it,
ten
28
er.
established
objective
among
s)
20@@
injection.
ab@@
Mrs
great
transport
recently
en
J@@
continued
my
clearly
YOU
line
several
alcohol
z@@
rules
e?
developing
ant
needed
cartridges
acute
regard
subjects
issues
allowed
obtained
infected
tests
16
adjustment
test
concentration
duration
old
antibodies
le
key
activities
estimated
≥
serious,
values
respiratory
70
left
years,
London
kg
decreased
overall
is,
release
therapeutic
ting
0.@@
develop
remain
pre@@
various
monitored
inhibitors
itself
BEFORE
j@@
op@@
date
baseline
leaflet,
failure
2.5
event
excreted
carefully
increases
applied
solvent
factors
infections
negative
os@@
Detailed
vials
tion,
Another
es?
again
produce
free
v@@
lack
h
diabetes
56
alone
together
ent@@
demonstrated
pharmacokinetics
rather
influence
position
ted
Medicinal
caution
syndrome
m
involved
ex@@
disease.
ad@@
energy
half
E
agents
ates
primary
action
ac@@
breast-feeding
whose
analysis
twice
paediatric
milk
concomitant
incidence
10@@
ap@@
milk.
1,
developed
se@@
points
makes
increasing
ers.
Liprolog
product,
EUR
ribavirin
cap
say
ritonavir
pharmacokinetic
sometimes
3,
interferon
material
enzyme
resulting
lo@@
48
13
ic@@
early
addition
appears
Report:
complete
Many
Tel.
subcutaneous
names
designed
film-coated
light
State
vaccination
adequate
affected
gastrointestinal
OR
http:
region
Winthrop
led
Dr
accordance
Re@@
completely
s;
d,
Holder
progress
k
needles
On
fully
types
no@@
month
months.
showed
appear
you.
regulation
Eesti
close
75
d
anti-@@
u@@
emea.
om@@
L
l
mild
2000
(a
“
al.
products.
approved
hard
again.
Teva
initial
vitro
th@@
ir@@
19@@
authorities
Once
comes
final
fall
relevant
me@@
ar
tion
b
/www.
problem
us@@
evaluated
international
07/
clearance
request
AUTHORISATION
Spain
act
concerned
countries.
method
visual
evaluation
particles
positive
described
Germany
CHMP
that,
doctor.
study,
improvement
e-@@
prescribed
glucose
remains
d.
history
con@@
proportion
400
Safety
From
household
starting
150
labelling
not,
mentioned
368/
apply
used.
application
reached
Name
whom
volume
mis@@
shows
protect
Is
minutes
par@@
500
require
clinically
medicine.
addition,
therefore,
Comb
person
going
intravenous
Products
systemic
adolescents
directly
tract
held
storage
ated.
out.
previous
multiple
General
USE
follow-up
performed
one.
22
natural
ent
(EMEA)
europa.
Internet
questions
ed@@
0.5
AUC
dry
Parliament
ren@@
days.
17
occurred
therapy.
Canary
viral
35
staff
intended
immediately.
drugs
assessed
2,
Y@@
website
ha@@
Ireland
reconstituted
role
waste.
said
HIV
presence
short
extent
in.
in,
available.
inter@@
an,
throughout
Information
sp@@
look
Hypersensitivity
them,
cases,
necessary.
sure
hours.
et@@
range
Westferry
field
followed
feline
n
Very
placed
proposals
treatment,
criteria
IF
costs
ing@@
product.
contain
&
way.
generally
dose.
E14
pregnant
13@@
University
pharmacist
ec@@
market.
Summary
id@@
inflammation
suffering
prevention
p
alfa-2b
reason
possibility
system.
(A5-00@@
14@@
re-@@
inject
1.@@
measured
inhibitor
Circus,
ot@@
level.
air
pl@@
age.
antibiotics
anti@@
value
service
past
Insuman
Insulin
ra@@
training
Wharf,
P
day,
ur@@
ate.
she
T
death
Take
food.
why
me
hormone
Such
4HB,
bottle
vitamin
ous
oc@@
direct
impairment.
’
RE@@
carry
drive
ratio
Its
65
age,
muscle
23
(C@@
projects
ations.
potassium
essential
am
45
keep
frequency
survival
surface
usual
17@@
cloudy
improve
technical
Product
preparation
differences
Renal
aware
ov@@
rise
2.@@
mechanism
out@@
introduced
something
s).
studies,
label
difficulty
testing
forms
(E@@
hypersensitivity
peripheral
upper
SPECIAL
reasons
others
That
discontinued
products,
600
10%
capsules
on.
Netherlands
attention
ine,
target
III
step
ally
ne@@
disease,
ate,
15@@
find
open
’.
frequently
(for
tissue
administration.
presented
identified
updated
Section
unknown.
DISPOSAL
WASTE
action.
elderly
Three
benefits
status
difference
s),
tions
measuring
16@@
bo@@
em@@
Humalog
thus
questions,
s'
weeks.
(used
dosing
per@@
condition
defined
abnormal
interaction
content
PRECAUTIONS
UNUSED
systems
Even
25@@
resistance
c
able.
An@@
*
talk
follow
3%
0
plus
12@@
M
phase
26
S.
undergoing
ly,
"
regards
ated,
3.
Portugal
Limited
authorised
he@@
ans
Of
ed?
combined
feel
end@@
submitted
monotherapy
pe@@
feed
oil
consider
work.
man
alternative
Article
started
ance
%.
divided
equal
medicines,
4.@@
ine.
surgery
(1
therapy,
programme
contents
ou@@
Because
proposal
French
HOLDER
takes
crisis
political
medicines.
observed.
Pro@@
micrograms
determined
giving
seek
Working
except
reach
mon@@
requirements
excessive
maintain
ity,
Let
/2001)
closely
R
(including
Since
resistant
30@@
Based
bi@@
F
stored
us,
ts,
kind
Pharma
hour
soft
IU/
consumption
overdose
one,
rash
qu@@
exposed
creatinine
toxic
although
internal
children.
referred
suffer
away
”
(P@@
regular
biological
binding
hands
existing
(A@@
pre-@@
e:
solutions
Question
',
maintenance
minimum
mg)
ity
Par@@
check
fat
...
ant@@
Olanzapine
wastewater
28@@
200@@
involving
o,
During
body.
infection.
store
distribution
up@@
impaired
Ex@@
equivalent
recommendations
consideration
States,
si@@
issue
her
ban
circumstances
previously
toxicity
disorder,
central
ter
3.@@
4.5).
skin,
interest
dogs
conducted
physical
concluded
PRODUCTS
New
Con@@
cleansing
face
proper
35@@
determine
hyper@@
ations,
%,
tic
mainly
ation@@
growing
50%
urinary
Some
Uncommon
27
on,
technology
é@@
outside
immediate
e)
-2@@
reducing
International
minor
1000
uniformly
advice
est
diagnosis
od@@
ob@@
view
poor
96/
social
5-@@
C.
cl@@
ia,
withdrawal
r
injections
aged
ter@@
te@@
pass
relating
recombinant
name
ent.
sexual
Italy
quickly
actually
(A4-00@@
32
cover
rapid
es:
kidney
slightly
initiated
ment
sufficient
injected
Invented
granted
document
particular,
Subject:
et
leading
replacement
relevance
environment.
19
%)
th
added
degree
calcium
ul@@
return
acceptable
secondary
sh@@
x@@
U
Ar@@
VIII
sections
az@@
Health
pharmaceutical
ma@@
−
joint
decided
Then
plan
Firstly,
84
effects.
Other
top
RISPERDAL
oedema
(the
nurse
upon
II
fl@@
Table
patch
tive
bioavailability
business
Mar@@
ts.
water.
á@@
matter
39
sub@@
ph@@
ho@@
tumour
placebo.
fewer
5%
across
);
og@@
contraindicated
industry
progressive
temperature
supervision
pens
ary
address
regarding
car@@
ings
car
excipients.
dec@@
legal
simply
la@@
swelling
50@@
metabolites
arthritis
vs
5,
entire
someone
phosphate
harm
holder
29
INFORMATION
Before
ver@@
ies
system,
Our
36@@
species
versus
global
children,
doctor,
A,
confirmed
man@@
36
assistance
rapidly
ism
(CHMP)
vaccines
pigs
poly@@
steps
ally,
coated
Manufacturer
Pfizer
EU/1/00/131/0@@
kept
parts
pulmonary
receptor
independent
possible,
information.
almost
male
(3
Common
98
use,
prolonged
materials
5.2).
operation
marked
examined
u
stage
AB
trial
18@@
group.
possibly
period.
6,
class
stomach
eyes
adequately
providing
feeling
als
let
fin@@
healthcare
diseases.
goes
capacity
Nevertheless,
separate
remove
4.8).
initiation
1-@@
4,
X@@
damaged
correctly
summary
room
GmbH
o.
majority
indicate
abdominal
ent,
en,
liquid
killed
42
parameters
hip
balance
46
intake
considered.
CYP3A4
setting
percentage
id
improved
month.
ak@@
es)
consequences
thyroid
tion@@
financial
ty
self-@@
po@@
Who
here
really
Read
price
y?
ing?
amounts
quite
rec@@
women,
AL@@
ted.
an.
ised
well.
vivo
um
pay
potentially
ill
correct
90
thought
along
importance
alfa
O
dangerous
drink
purpose
antibody
for@@
sustained
1)
tri@@
corresponding
animals.
6.@@
N
Cmax
min@@
brought
subsequent
fold
FROM
as,
insufficiency
Therefore
advised
Community
becoming
humans
environmental
achieve
Luxembourg
Common:
principle
driving
warning
family
consumers
economic
perhaps
/99)
stopped
expiry
doses.
extremely
IN@@
dependent
(5
Trudexa
com@@
original
progression
pa@@
strong
MATERIALS
PRODUCTS,
nausea,
y-@@
Clinical
tr@@
After
formation
):
col@@
making
gen@@
prescription
chloride,
(0)
ion@@
view,
provision
requirements.
him
tions.
powder,
EU/1/00/132/0@@
speaking
exactly
/98)
5.@@
median
3-@@
land
reference
solution.
33
onset
DNA
Enbrel
DERIVED
SUCH
CPMP
tic@@
ia.
ise
safe
word
Will
2-@@
resulted
ml.
it's
concentrate
vein
co-@@
smoking
actions
services
red,
recovery
disorder
anc@@
studied.
AR@@
022/
up.
to@@
discontinuation
outcome
oedema,
rheumatoid
Com@@
ins
reductase
are@@
PegIntron
40@@
female
enzymes
tip
supply
derived
mofetil
members
used,
unused
Euro@@
live
fracture
chemical
site.
ist@@
cattle
excluded
rel@@
g/
commonly
(S@@
um@@
34
2006.
Furthermore,
drop
resolution
done.
haemoglobin
Uncommon:
plastic
specifically
red.
highly
aim
this,
words
Merck
outer
guidelines
Within
successful
(95%
ide@@
ters
cor@@
20%
able,
diet
Study
year,
frozen
1997
profile
yellow
works
process.
supplied
October
ever
St@@
Road
Consequently,
Ch@@
27@@
media
forget
things
Unfortunately,
(such
model
osteoporosis
mouth
birth
respectively.
digital
off@@
injections.
Adverse
250
ying
1%
metabolite
160
alisation
mix
APPROPRIATE
drinking
June
antiretroviral
difficulties
May
37
Di@@
es;
power
obtain
Although
told
else
world
49
happens
Under
nervous
8%
]
rarely
deaths
however
fondaparinux
favour
deficiency
37@@
soon
unless
ari@@
(as
vi@@
solid
structure
raised
suitable
Severe
2002.
chloride
af@@
France,
ded.
yourself
ist
ge@@
all,
du@@
fight
Se@@
Experience
Sweden
believe
course,
this.
V
yl@@
or,
maintained
ACR
a-@@
weekly
HMG-CoA
sensitive
cost
S,
stable
1.5
cholesterol
cartridge
occurs
removed
sterile
recognised
fi@@
(M@@
*,
Dose
Regulation
tions,
ass@@
easily
is.
ly.
bacterial
Th@@
Le@@
under@@
provides
k,
002
policy
nothing
money
ps
NovoMix
causing
+@@
relative
I.
mortality
chest
frequent
antiviral
brain
levels.
8,
Alzheimer's
repeated
form@@
refers
rash,
os
ative
mental
ev@@
agreed
Tell
representative
stated
ation?
A/
G
findings
needed.
half-life
kg/
lung
transient
relationship
2%
passed
34@@
gl@@
suggest
a)
na
capsule
AN@@
wall
ness
cr@@
king
CO@@
cardiac
directive
physician
ant.
Mix25
report,
countries,
ted,
ks
se
front
doing
probably
des
001
Instructions
themselves
opinion
ence
living
real
s!
and@@
case,
29@@
contained
post
fever
der
elevated
viruses
Pharmacovigilance
ca@@
X
o-@@
laboratory
mo@@
blister
transdermal
il
ig@@
Mycophenolate
Viraferon
Germany,
GlaxoSmithKline
41
heavy
law
us.
wa@@
strict
valid
gener@@
broken
pen,
consumer
amendment
call
.'
My
Thirdly,
7%
-related
groups.
definition
empty
itis,
behaviour
800
weight.
31
seven
metabolism
amino
ge
Per@@
ors
stick
Prevention
He
allows
documents
transfer
users
z
en.
“@@
ence,
all@@
ati@@
Using
4.2).
German
ut@@
BATCH
RELEASE
glass
el
workers
thing
certainly
(A4-0@@
38
lowest
depression
inhibition
metabolised
patients)
consistent
le,
post-@@
counts
cardiovascular
des@@
repeat
En@@
mal@@
ste@@
eu/.
worked
Party
De@@
confidence
ach@@
persons
sa@@
investigated
ial
ants
card
com
cre@@
Factor
MANUFACTURING
RESPONSIBLE
food,
alone,
More
our@@
syndrome,
necessary,
so@@
suspected
30%
ast@@
ear
worse
While
eye,
urine
applications
opening
highest
excretion
Europe.
na@@
leukaemia
deal
work@@
chance
mar@@
herpes
failure,
contrast
parties
trade
apparent
quantity
Lilly
OÜ
ance.
acts
disposal
falling
legislation
decide
looks
die
harmful
and/or
acting
study.
responses
injection,
38@@
25%
inhibits
studies.
Ribavirin
ta@@
November
efavirenz
ling
ten@@
ess@@
hospital
September
reduces
Package
route
bacteria
salt
ud@@
ine@@
26@@
CONSTA
Pen
amendments
cancer.
ru@@
04/
fish
functioning
happen
approach
changed
idea
treating
speak
lesions
simvastatin
conditions,
ra
s/
8.@@
ment,
Tarceva
exercise
titration
serotonin
acquired
RI@@
Parkinson's
rest
took
63
ic,
Mon@@
ally.
With
old.
e;
hal@@
shall
onto
le.
swabs)
Avoid
av@@
ACTIVE
Sverige
ity.
competition
the@@
requires
vehicles
agricultural
so-called
vote
te
noted
metformin
Veterinary
suicide
sites
EC@@
converted
weakness
4%
ation)
opened
meat
inadequate
ni@@
post@@
ox@@
ill@@
ol
w
ages
body,
centre
function.
effect.
Un@@
2001
whereas
ments
syringes
population.
res@@
sk@@
numbers
web
head@@
milk,
published
ve
diluted
gu@@
Sharp
Pharmaceuticals
mother
plant
ment.
everything
AD@@
air@@
comparable
ang@@
suicidal
nor
percent
lat@@
Q@@
diabetes,
diarrhoea
vision,
none
tuberculosis
inhibit
(4
inside
i.
irbesartan
ath@@
compatible
companies
f
Increased
strain
passes
company
spread
Skin
ents
increased.
count
Co@@
up,
Mix50
lin@@
size
procedure.
ampoule
result,
Members
Important
continues
coming
USER
respect
text
environment
e!
And
cases.
zidovudine
excess
%).
ib@@
CI:
1,@@
situations
painful
44
elimination
cells.
(range
regimen
eight
bottom
iron
April
occur.
medication
vomiting,
Taking
IC@@
ar,
dioxide
les
gradually
Dis@@
SE@@
organic
MA@@
psychiatric
me,
6.6.
Characteristics,
UN@@
swelling,
problems,
pen.
re,
demonstrate
Ne@@
Authorisations
Irbesartan
uses
MARKETING
bring
immunodeficiency
ans,
future
education
6.3.
market,
ve@@
iti@@
(H@@
trials.
CI@@
woman
Studies
later
milestone
mg.
careful
cent
are:
Be@@
um,
granting
4.3).
anaemia
ep@@
cartridge.
Basal
Italy,
nature
Pregnancy
Pol@@
ding
Hepatic
B.
mothers
resources
try
professional
procedures
Commission's
(debate)
times.
control.
reproductive
fe@@
ded
comparison
sha@@
minimisation)
(0.@@
mat@@
33@@
do@@
pol@@
2)
permanent
infants
RMP
meal
EXUBERA
language
reconstitution
ful
DE@@
black
conditions.
2007
precautions
ance,
5.1).
Chinese
night
sal@@
normally
Dohme
dose,
003
Powder
ality
manufacturer
established.
spoon
est@@
inform
demand
leads
security
road
24@@
consult
required.
fast
9%
9.@@
radi@@
head
Protopy
es).
extension
framework
week.
radiation
fixed
nausea
Plan
unknown
m,
relation
basic
breathing
individuals
der@@
delay
ide
include:
ology
sion
post-marketing
4.4
asthma
dic@@
multi@@
accompanied
AP@@
involves
act@@
reaction,
turn
water,
at.
vaccine.
chain
effects,
004
k.
Their
Both
citizens
es'
votes
osis
ion.
hypoglycaemia
ous@@
(≥
7.@@
discontinue
Ac@@
inhaled
(pharmacovigilance
SA@@
ering
reactions.
ViraferonPeg
includes
persistent
recorded
ReFacto
we@@
Among
70@@
complications
rat@@
characteristics
ch
Efficacy
ed;
in-@@
D-@@
detected
extra
enc@@
meeting
sector
land@@
vial.
inf@@
’,
lactic
excipients
)@@
ous,
persist
operating
syrup
if@@
um.
ard
tor@@
Car@@
ann@@
covered
parents
people,
rights
employment
accidents
/99):
can@@
res
A.
platelet
round
47
39@@
randomised
origin
nine
imaging
I).
VI@@
(N@@
95
absorbed
finding
low.
known.
ite
agent
implementation
her@@
yl
t-@@
MAH
ical
Side
AT@@
symptomatic
Blood
running
Each
é
bro@@
diseases,
concerns
ship
so,
den@@
ants.
ence.
objectives
choose
introduction
Look
danger
nuclear
d?
treatments
ure@@
6%
hi@@
terminal
su@@
trials,
methotrexate
score
delayed
receptors
el,
EMEA.
de.
re
begin
l)
Most
co-administered
2003
tics
TI@@
SI@@
st
DepoCyte
lowering
C,
assess
adults.
States.
cap@@
non@@
President
pen@@
disorders:
function,
tube
infectious
concern
TE@@
re.
paid
ically
í@@
create
British
impairment:
hope
Europe,
sort
Perhaps
Treaty
Everything
900
way,
Raptiva
regularly
(n=@@
decreases
fertility
optimal
respond
7,
micro@@
minimisation
revealed
Ab@@
peginterferon
6-@@
ointment
device
IntronA
cooperation
Cor@@
Y
competent
sensitivity
July
al-@@
rubber
(B@@
women.
ci@@
gene
development.
increased,
ON
expenditure
whilst
ed:
Österreich
Box
accidentally
push
source
transmission
industrial
Are
official
risk.
Just
sound
cut
indeed
a?
country,
President,
/2000)
note
attached
group,
exercised
(4@@
vis@@
vertebral
losartan
interactions
amine
polyethylene
nerve
ion,
Acute
undesirable
por@@
alised
performance
IX
%),
interact
00@@
i,
placebo-controlled
67
MIU
lost
ell@@
leakage
World
pharmac@@
are,
eyelid
ml/
ad
cycle
Ad@@
nasal
results.
unlikely
ies,
mmol/
linked
review
forward
met
equ@@
organisations
Park
pH
Food
br@@
Belgium
box
depending
standards
House
equipment
stem
ash@@
ing:
restrictions
concerning
Commission,
that.
recognise
plans
Can
job
alism
stri@@
3)
reported.
(G@@
intervals
peak
I,
ulcers
(another
days,
deep
ocular
vomiting
Following
iv@@
s-@@
getting
abnormalities
calcitonin
cy@@
machines.
55
mit@@
ard@@
helps
adopted
NAME
slowly
2008.
house
attempts
induce
Belgium,
ons
cur@@
IN
wear
avoided.
produc@@
ment@@
eliminated
Telzir
tablets,
examination
White
closed
button
budget
bas@@
mention
understand
over-@@
seems
annual
ir
Questions
which,
obvious
death.
informed
figure
came
/97)
Denmark
90%
arm
OR@@
itis
cer@@
irritation
weeks,
adding
stat@@
older
S)
haemorrhage,
load
wor@@
Humira
180
fasting
at,
hasn't
ones
val@@
m2
Preparation
Pre@@
microbiological
th,
hand
quantities
corneal
units
ml,
leave
expert
Characteristics
agreement
Special
double
fungal
Public
Injection
requirement
ions
my@@
gently
SA
information,
E.
joined
thereby
reverse
au@@
Neupro
amended
Co-administration
pipette
people.
Suspension
visible
well-@@
ways
debate
Response
sign
basis.
intervention
ising
happened
buy
though
work,
hol@@
ER@@
machines
partial
mg,
short-term
non
(6
trans@@
topical
induction
acuity
formed
accidental
reg@@
men@@
4-@@
ongoing
naïve
(1.5
manner
surrounding
worsening
affecting
vaccinated
LDL
despite
ear@@
absolute
flu@@
component
SPC
diarrhoea,
conventional
project
Leaflet
Fax:
ities
limits
IT@@
ia@@
appointed
cancer,
enlargement
should:
.,
Children
contribute
radioactive
ampoules
Czech
Yondelis
006
applying
bl@@
break
rotated
building
che@@
go@@
fa@@
step.
methods
comm@@
ality.
bodies
hop@@
instance,
e'
Amendment
Tlf:
lamivudine
abacavir
calculated
haemophilia
response.
surveillance
insufficient
dosing.
str@@
(with
star@@
20,
58@@
MP@@
minimise
imp@@
interval
sing
populations
diabetic
thromboembolic
min
excluded.
sclerosis
-1@@
d-@@
C)
ological
fer@@
ce@@
properties
hair
breast-feeding.
polysorbate
greatly
cul@@
carcinogenic
transplant
today
becomes
Number
Ma@@
ani@@
labelled
liber@@
60@@
ure
period,
Eli
ing;
allowing
future,
disappear
carbon
discussed
No@@
urg@@
BIOLOGICAL
ris@@
hold
activity.
ings.
nation@@
impression
(hypersensitive)
answer
violence
statistics
fact,
larger
severe,
virological
3/
(I@@
achieving
advanced
,@@
ple@@
leg@@
ST@@
fluid
15%
concurrently
concomitantly
(<
tenofovir
slight
pal@@
mixture
untreated
y:
animals,
uc
fever,
useful
ice
coordination
(1.@@
OP@@
malignant
corticosteroids
dysfunction
Sol@@
packs
avoided
ton@@
ranging
Mal@@
package.
Portugal,
Finland
US
Administration
bio@@
de,
primarily
gi@@
expression
only.
war@@
waiting
By
cream
mixing
issued
KwikPen
common:
as.
Over
indication
feeding.
others.
hormones
area,
read@@
ded,
Greece,
agre@@
tion?
victims
(e.g.
oper@@
74
2.0
top@@
OPTISON
1.
circulating
multi-@@
invasive
reductions
-1
build
fatal

died
morning
flow
genotype
Tritanrix
(n
enti@@
rhinotracheitis
table
purposes
ive
(F@@
dropped,
palms
ates,
headache,
199@@
Bo@@
arm@@
ement
detection
tu@@
sc@@
efficient
agree
Sch@@
ities,
bur@@
ser@@
below.
Inter@@
harmon@@
characterised
-f@@
gra@@
AIDS
reliable
colour
gas
ish@@
states
controls
towards
fun@@
paragraph
bu@@
handling
sed.
005
ver,
He@@
ton
ka
erythropoietin
considerable
fentanyl
commun@@
objec@@
urgent
burden
euro
illegal
Every
Without
EN@@
B,
indications
given.
circumstances.
react
(800
α
il.
binds
stimulates
respectively,
ion
(2@@
marrow
AL
Specification,
hy@@
cessation
60%
blocking
70%
ALT
lo
9,
Additional
returned
magnetic
ped
week@@
bladder
high-@@
subsequently
ide.
ters,
hydrochlorothiazide
observation
Further
sides
2002
Free
ub@@
hypo@@
alert
involvement
tumours
appropriate.
Management
Pulmonary
ings,
clotting
discussion
85
evaluate
pri@@
isolates
tasks
party
list@@
Dosage
areas.
dri@@
Ltd
moving
professionals
vaccine,
TH@@
MANUFACTURER
administer
initiative
items
antigens
administrative
eg@@
vessels
wish
exist
ry
mutagenic
seriously
mechanisms
health.
school
programmes
ably
t?
traditional
government
tax
lives
sold
fishing
Yet
low-@@
patient's
44@@
accident
appeared
modification
site,
withdrawn
10-@@
years)
0.0@@
orphan
sufficiently
looked
ingredient
life.
finally
adults,
ax@@
vehicle
adolescents.
mor@@
chemotherapy
1.0
*@@
AS@@
recurrent
ys
pharmacovigilance
ves
Irish
ros@@
permitted
effectively
force
ó@@
Rare
x,
2006
face,
MIRCERA
ities.
ies.
bind
liver.
affected.
hypertension.
sor@@
Her@@
failure.
sion.
metabolic
infections,
but@@
breath
ase
Kingdom.
ds
ff@@
ale
container
changes.
372
da@@
ey@@
Brussels
sts
sale
Attenuated
cop@@
sudden
commercial
unit
present,
life,
temporary
batch
prescription.
ys@@
tim@@
elec@@
del@@
former
St
health,
-based
move
labour
practice.
forced
gives
accept
achieved,
production.
ian
ism.
anything
concerned,
saying
unemployment
Ingelheim
normal.
Note
requiring
protease
methadone
rac@@
Risk
vo@@
ick@@
missing
neck
3.5
enrolled
Quality
insulin.
-free
completed
et,
dos@@
m.
HepB
acid,
ON@@
LU@@
predominantly
occurring
one-@@
90@@
11@@
experiencing
directed
-M@@
pumps
irritation,
motor
positions
responsibility
availability
spontaneous
induced
ates.
slow
minutes.
RO@@
procedural
clean
Botulinum
showing
ty@@
proof
net
undertaken
100@@
van
carton
light.
ref@@
Business
72
seconds
general,
coloured
RA@@
beta
areas,
120
substances,
properly
says
lines
monoclonal
mil@@
Me@@
solvent,
SUBSTANCE
hel@@
Metabolism
Bayer
ik@@
connection
eating
opportunity
speed
Ver@@
regime
success
gr@@
got
scale
ground
sense
ban@@
human@@
police
farmers
traffic
Europeans
funds
all.
ity?
Boehringer
Healthcare
open@@
vision
fractures
pneumonia,
ness,
reactions,
U/
y)
swollen
inhibitors.
propose
CHAMPIX
Cl@@
,000
55@@
-0@@
statistically
younger
pre-existing
clo@@
day)
L.
disoproxil
fo@@
ation:
los@@
st.
198@@
Board
break@@
BYETTA
stages
heat
bul@@
ade
iting
regulatory
baby.
diagnosed
child's
PRODUCT
ideation
65@@
ency
age@@
cont@@
pegylated
premature
user
Serious
od
tissues
establish
filter
mouth,
dem@@
Naglazyme
wide
Ph@@
out,
conjunction
log@@
places
80@@
Tel.:
anaesthesia
travel
isation
marketed
foreign
ly@@
vary
low@@
orally
app@@
problem,
co-infected
Tritace
child@@
nutrition
r.
guarantee
let@@
ter.
emp@@
sign@@
son
wh@@
regions
Or@@
figures
run
private
emissions
sea
true
Assessment
vascular
41%
ant,
chromosome
02@@
addressed
ess
cat@@
tal@@
AC@@
administration,
(called
inten@@
sit@@
ster@@
4)
endpoint
52
ing)
plan@@
ties
V,
rit@@
laid
thrombotic
steady
tacrolimus
cal@@
somewhat
hydro@@
ic.
John's
analogues
blisters
olog@@
involved.
you,
int
AG@@
ble@@
kill@@
guidance
L)
daily.
S-@@
developments
Bi@@
ses
macular
lactation.
cycles
ases
eyes,
hom@@
eu/
eat
revision
residues
1998.
doctors
tolerance
horses
belongs
me.
diuretics,
substitutes
sin@@
is:
ism,
El@@
ke
share
stopping
inverted
gel
ADROVANCE
protective
identify
als,
009
371/
372/
373/
EU/1/99/127/0@@
(%)
clear,
hydrochloric
Gen@@
Feline
LE@@
Slovenská
elements
Decision
born
implemented
accepted
stock
recommendation
world.
category
remember
freezer
huge
prices
tonnes
credit
inv@@
it?
68
Orphan
K
SP@@
operate
95%
g.,
ose
contraceptive
ory
50,
months,
week,
indicating
modified
potent
favourable
weight,
4.5
initi@@
disorders,
super@@
97
w,
sed,
cross-@@
indic@@
generation
FlexPen
Official
Pharmaceutical
error
AN
Stat@@
retinal
ut
log
thoroughly
ta
83
emulsion
DI@@
severely
association
hearing
bus@@
officials
neuro@@
congestion,
TA@@
SU@@
Periodic
Denmark,
Spain,
voriconazole
white,
hand@@
ics
back@@
Wyeth
Qualified
eri@@
supplements
ire
humans.
intramuscular
packaging
ce
ting,
Ra@@
blocks
OptiSet
Pack
office
tablets.
NovoRapid
medium
removal
enter
HBV
BMS
seem
Ri@@
ants,
problems.
rig@@
G1
cour@@
ili@@
tic.
play
minority
border
competitive
Europe@@
contract
mind
cha@@
gre@@
acc@@
ds.
ingly
wrong
matters
contamination
place.
ers'
BSE
har@@
Directive
(H-0@@
moment
y!
(A5-0@@
ders
occurs,
infusion.
ed)
64
(6@@
discharge
89
in)
osis,
Effects
overweight
ators
uc@@
0.25
tissue.
Ag@@
neurological
(9@@
2,@@
76
atory
supporting
rod
synthesis
analysis.
went
flu
men,
neuropathy
e),
Six
e).
TMZ
somatropin
AB@@
crushed
approval
author@@
9-@@
lungs
topotecan
ase.
hypertension
evaluated.
ORACEA
Office
oul@@
Dosing
adjust
symptoms,
particles.
dys@@
Wh@@
pressure.
subcutaneously
Gastrointestinal
cough,
P.
nursing
warnings
common.
tro@@
ME@@
Rapid
blue
sion,
Disorders
otherwise
pregnancy.
Candida
gland
tive,
ning
changing
71
Ba@@
became
als.
attack
suspension.
hor@@
water@@
ish
Val@@
regulated
hereditary
Po@@
wine
dihydrogen
EXP
resuspend
Inactivated
republika
person@@
se.
Qu@@
detect
bed
int@@
ors.
sent
shared
Union,
here.
achiev@@
defend
place,
knowledge
big
hours,
jobs
ago
Nos
justified
STELARA
2/
examination.
advisable
placebo-treated
trial,
sto@@
22@@
uric
absence
%@@
clots
haemorrhage
fat@@
CT@@
disorders.
liver,
HA@@
extreme
attacks
1).
electronic
Lam@@
medi@@
inflammatory
paper
ving
ended
92
prophylaxis
home
alis@@
itching,
mediated
au
strictly
7.5
L,
performed.
(one
ised.
salmon
estimate
courses
NovoLet
Events
add
impair
plas@@
asthenia,
dizziness,
posts
Research
specialised
before.
angina
fac@@
recovery.
began
advantages
86
closure
mi@@
formulations
ina
December
See
poisoning
block
multiforme
ness.
Urinary
of@@
site:
Ireland,
art@@
tools
wort
voice
platelets
nucleoside
Tel@@
se,
Pharmac@@
pain@@
ium
Ro@@
ure,
ines
ality,
],
CCID50
complex
EU@@
additives
1998
endogenous
patient.
copy
case.
canc@@
ack@@
limited.
pens,
007
surgical
valsartan
la
beginning
Always
preferably
dr@@
planning
trying
survey
miss
anyone
Or
T)
ately
Ber@@
recognises
forgotten
Patient
off-white
ch,
Whether
tically
sizes
fed
increasingly
society
military
thousands
Commissioner
fire
fuel
s'.
(
Would
there.
(vote)
ler
53
Str@@
le-@@
358
monitored.
routine
sleep
bleeding,
awareness
care.
5)
gastric
aemia
determin@@
episodes
ron@@
Tracleer
ability,
CE@@
HIV-1
emergency
ator@@
subjects.
alkaline
μ
venous
daily,
unstable
D,
tiv@@
panleucopenia
(200
ine)
volunteers
gain
infant
Venous
lon
ba@@
tested
(D@@
pos@@
BE@@
principles
Disease
Starlix
ber@@
75@@
Moreover,
Am@@
table.
made.
ens@@
Man@@
ide,
Sustained
delays
Interaction
VE@@
membrane
2005,
Netherlands,
LI@@
V.
constitu@@
CP
investigation
turning
discard
disodium
ia),
OS@@
PL@@
known:
arms
Bar@@
pruritus,
Im@@
+372
SQUIBB
n,
+46
movement
mer@@
database
”.
ay@@
sirolimus
System
cup
committee
Sebivo
straight
4.2
exception
manufacturer(s)
variability,
minimal
ats
diet.
sm@@
008
364/
ments,
easy
Method
Holder.
er's
down.
ping
plants
funding
scope
ability.
design@@
end.
impossible
injury
carrying
expensive
link
less.
Gu@@
deb@@
Could
war
inflation
/200@@
use@@
96
syringe,
carton.
blood.
Ziagen
pivotal
nit@@
N-@@
fallen
pr@@
GONAL-f
rat
ine-@@
symptoms.
T-@@
nicotinic
cm
inhal@@
virus,
thrombosis
tin
l.
ranged
3).
readily
seizures
otitis
rivastigmine
ulcer
redness
scores
(12
a;
practical
ciclosporin
mellitus
6)
amlodipine
movements
appearance.
MabThera
taste
latest
bar@@
erythema
Evaluation
Spanish
susceptibility
angiotensin
immunity
Also,
77
public@@
version
dealt
tis
documentation
underlying
ful@@
62
surgery.
dro@@
res.
pressure,
amongst
export
pump
occasionally
ol,
●
alpha
led.
glycoprotein
behind
tion:
methyl@@
WITH
ution
alist
Preparing
transferred
BRISTOL-MYERS
tra@@
NE@@
tur@@
Sa@@
centralised
ty.
ne
opaque
focus
lit@@
carefully.
pan@@
core
gar@@
referral
cent@@
hot
014
010
pack.
milky.
Fe@@
a's
microgram
middle
ends
asked
Commission@@
simple
beneficial
ble
Finland,
Poland,
i.e.
extended
rap@@
ole
lies
ents.
Elderly
tobacco
instead
Reference
legislative
book@@
payments
country.
tic,
om
be.
eng@@
România
Now
possible.
oun@@
provisions
harm@@
pesticides
Union.
lot
y'
namely
cultural
law@@
billion
pollution
ago.
interests
Commissioner,
this?
(A4-04@@
minute
sec@@
groups,
CH@@
stavudine
Unit
Symptoms
haem@@
loss,
regardless
µg
birds
severity
II,
flushing
Type
Effentora
maternal
patient@@
ma
micrograms/
throat
illness
extensively
length
ments.
Kineret
stimulating
12.@@
Phase
osis.
ogen@@
ol.
mg/day)
functional
docetaxel
(1@@
(V@@
ity@@
IV
73
parent
sion@@
10,
resuspended.
clumps
smaller
P450
cells,
discussions
depression,
sen@@
Scientific
C-@@
disease)
one@@
development,
tolerated
seal
T.
switched
amin@@
ds,
ase,
lam@@
lp
eu
w.
:@@
syndrome.
sive
anticipated
ens
skin.
iness
/9@@
cold
pi@@
noise
intolerance,
malabsorption
applic@@
les,
dizziness
da
66
Due
artificial
a:
ere@@
mu@@
activity,
muscle.
Nespo
assessing
affinity
economy
ator.
more,
proved
or.
communication
transparency
touch
tin@@
occurrence
grounds
carbohydrate
check@@
excipients,
bon@@
h,
ously
Ho@@
languages
ú@@
rol@@
Puh/Tel:
euro@@
watch
Malta
F2
contraceptives
accordingly.
cas@@
false
reflect
tive.
accumulation
ö@@
path@@
sen
Iscover
sun@@
ate@@
offer
measures,
ans.
Austria,
red@@
sed
regarded
putting
mg/24
Remember
fear
igh@@
ANY
don@@
expect
suffered
Does
/96)
ciprofloxacin
inclusion
medicine,
myocardial
ga@@
arthritis,
Trevaclyn
ID@@
psoriatic
Pi@@
os,
vildagliptin
mic@@
adi@@
amprenavir
standing
week)
threshold
0.2
decreasing
mg/@@
vitamins
LD@@
tax@@
mov@@
marrow.
part@@
observ@@
ef@@
cytochrome
P-@@
unlikely.
197@@
acted
4.
v
dehydrogenase
ides
designated
Joint
tak@@
il,
(approximately
agents.
prepared
-00@@
vaccination.
dust
detailed
ELISA
effect,
glioblastoma
thoughts
Specific
Single
men.
examinations
eu.
woman.
cholesterol,
Council,
dissolved
+49
charge
epidermal
Keep
dihydrate,
T,
ked
Total
thousand
Vi@@
Sal@@
p,
worth
represent
SARL
condition@@
Met@@
Norge
vial,
Rue
bag
brand
instructed
substantial
syringes,
practic@@
fil@@
solvent)
011
hydroxide,
inc@@
opposite
capable
connec@@
care@@
Fondaparinux
film
Li@@
Suomi/Finland
ar.
unborn
ric@@
iz@@
mid@@
regulations
practice
(AIDS).
understanding
obesity
ture
-C@@
promotion
led,
Is@@
aspect
absolutely
ous.
relatively
Clopidogrel
ARE
believed
y;
soil
again,
meet
decision.
meant
built
processed
by-@@
mass
actual
ty,
say,
flight
damaging
sw@@
any@@
ending
travelling
however.
decisions
income
banned
cars
goods
now,
/1999)
do?
(A5-04@@
Novartis
(T@@
VICH
emia
margin
(2.@@
-treated
les@@
loc@@
continuous
foetal
breathing,
carcinogenicity
rats
aud@@
life-threatening
ized
1.0@@
measurement
x.
destroyed
(3@@
1%)
51
EM@@
interested
(i.
CEPROTIN
process,
99@@
headache
reaction.
methotrexate.
components
tests,
PE
d:
ran@@
essentially
ip@@
NA@@
0.3
paclitaxel
resonance
rati@@
D3
EVRA
levels,
6-month
incidences
restricted
phot@@
1996
cell@@
Development
Group
titanium
patches
selective
49@@
ADMINISTRATION
preventing
pic@@
professional.
dysfunction,
anaemia.
data.
ting.
ental
registered
Changes
EU,
needle.
bovine
Hyper@@
mark
irreversible
Mean
physicians
ely
Rare:
ances
Madrid
Wor@@
ain@@
Du@@
coun@@
immunisation
OL@@
ks,
monitor
Republic,
acids
ative,
stops
inactive
compartment
Neoclarityn
damage.
hand,
manufacturers
keeping
potassium-sparing
adjustments
(R@@
tics,
fundamental
valu@@
North
146/
369/
375/
377/
reduc@@
off.
foot@@
ner
Kent
U.
ain
sil@@
Put
English
bre@@
feeding
released
fur@@
odi@@
session
morning.
equipped
varies
Hungary,
crucial
record
ile
mobil@@
cit@@
De
intention
replaced
context
appe@@
picture
pro-@@
Col@@
pat@@
draft
zero
stress
lif@@
ess.
ents,
unwanted
Follow
conver@@
down@@
then,
payment
ing'
identity
electricity
everyone
power@@
existence
acy
capit@@
board
quot@@
bit
ts?
bad
aircraft
patent@@
occur,
ready
tis@@
CE
pioglitazone
randomized
hypertension,
lymph@@
stand@@
pooled
formulation
tical
uri@@
events,
ED@@
implemented.
otic
responded
spent
58
clar@@
Pegasys
periodic
looking
pra@@
herpesvirus
hum@@
activ@@
Peripheral
fol@@
ret@@
AF
µg/
0)
67@@
frosted
colourless.
bit@@
declared
March
tendency
initiatives
organisation
neutr@@
illness,
chamber
Non-@@
medicin@@
bones
administr@@
Ear
erythema,
ET@@
ä@@
mus@@
Injury,
ours
RT
Doses
organ@@
Concomitant
tolerated.
Paxene
amide
shock,
ro
ures
-like
dl
collected
grow@@
transmitted
ligh@@
meetings
inform@@
experts
factor@@
CON@@
ok@@
swallowing
fication
glycerol,
genetic
supplements,
document@@
ences
thereafter.
ore
t:
finger
TAKE
dementia
vomiting.
production,
advice.
vein.
ises
arch@@
scheme
an-@@
assessment.
IONSYS
once.
Ap@@
high@@
refer
producing
Should
Women
widely
hence
gradual
press
376/
97/
SoloStar
sun
Subjects
La@@
180°
ors,
Oy
long-@@
PD@@
KOGENATE
sel@@
contraception
oxidase
periodically
fruit
personal
ists
near
tre@@
e's
p.
exchange
L-@@
emb@@
CO2
choice
written
rejection
pointing
lan@@
later.
happening
Latvija
ie@@
exceed
glob@@
Cal@@
methoxy
ships
communic@@
American
television
ars
change,
late
identi@@
First,
port
farm@@
prison
duty
million.
play@@
not.
?'
ations?
know,
levodopa
Viani
shock
CVMP
7)
82@@
am,
Prometax
intestinal
trac@@
offspring
69@@
body's
4.6
β
efforts
gemcitabine
affects
confusion,
interfere
25,
restric@@
fluoxetine
12,
(50
EF@@
LT@@
4/
minim@@
Equilis
eye.
D)
eration
ovarian
mice
bra@@
double-blind
influenza
ring
vari@@
covering
experience.
employed
Conference
advis@@
registration
prove
lik@@
ach
ating.
sugammadex
appearance
2).
fic@@
Centre
59
point@@
’@@
Ukraine
congenital
trend
pres@@
program
18.@@
Hol@@
toxic@@
Post-marketing
competi@@
conduct
My@@
triglycerides
mut@@
meth@@
Adequate
1,000
pe
431
met@@
rest@@
filgrastim
relates
EX@@
Care
programme,
reli@@
As@@
Industrial
continu@@
flow@@
so.
remaining
research,
/1@@
cough
hundred
AS
Saint
entering
ja
nose
ages,
simplex,
Elimination
comp@@
ches
Commission.
continued.
attention.
sa
quickly.
ke@@
infants,
vel@@
acidosis
claim
gone
network
child,
(10
012
/0@@
Mo@@
inst@@
ken
nic@@
virus.
tion)
ship@@
Romania
activation
Glustin
Hydrochlorothiazide
categories
continue/
made,
correc@@
protected
institutions
space
Key
accoun@@
concerned.
Lietuva
specified
collec@@
vital
lead@@
ch.
claims
11.
ism@@
sitting
inspec@@
Vaccines
rule
ary.
created
efficiency
deficit
ery
MATERIALS,
sur@@
win@@
gh@@
stand
interest@@
problem.
producers
abuse
Dutch
metres
allotted
saw
passengers
es!
run@@
today,
democracy
be?
pull
AMMONAPS
infection)
Part
H
latter
blood,
older.
population,
immunological
secretion
mark@@
A-@@
ct
couple
produces
tics.
Karvea
(p
Ca@@
indicated,
desired
bound
140
administered.
visits
postmenopausal
AST
infection@@
dogs.
7-@@
pharmacology
density
q@@
PI@@
good@@
popul@@
benefit/
itching
fumarate
pharmacological
SUTENT
ational
ane
iso@@
exact
February
samples
Le
1995
ur
Berlin
practices
Head
pink
Time
ths
Cent@@
ts@@
coli
improv@@
provided.
benzalkonium
less@@
Place
leuc@@
Av@@
concurrent
ole@@
altered
nose,
kin@@
oxygen
irrit@@
cardi@@
sol@@
electric
distributed
ently
fresh
”).
hydroxy@@
statistical
Ελλάδα
MSD
61
Pl@@
EL@@
enter@@
digoxin
(blood
TO
Maintenance
problem@@
ana
schedule
culture
fu@@
aggressive
conf@@
sex
weak
elected
Bur@@
authorities.
eth@@
Chlamydophila

member
exten@@
holding
agency
pregnant,
NOT
neutropenia
measurements
position,
stabil@@
operational
Avonex
life@@
Intravenous
ow@@
heal@@
sectors
que
í
Bel@@
whatever
IR@@
(FCV
identified,
chickens
origin.
text.
Sometimes
exists
solutions.
to,
nevertheless
accurate
processing
gender
Few
foreign'and
For@@
warfarin
ich
suggests
design
significance
applies
ist.
ms
goal
gri@@
comply
dist@@
extensive
largely
dead
diver@@
own@@
tors
imprint
enormous
Which
ak
glycol-epoetin
Kar@@
Those
coordin@@
abol@@
thinking
market@@
+47
ush@@
totally
ash
PVC
litre
Everyone
Vfend
too,
crops
criminal
fair
poverty
merely
families
millions
compensation
agenda
imagine
s’
motor@@
buildings
words,
investment
enable
do,
explo@@
Fourthly,
1/2001)
(A4-02@@
preparations
glycaemic
ae
D.
posi@@
dat@@
altered.
wording
0%
regional
78@@
hour@@
peri@@
reason,
day@@
alone.
placebo,
fine
hormonal
solution,
time@@
software
35%
elevations
image
aff@@
erg@@
Results
Interferon
ual
itch@@
adjusted
ther@@
ankylosing
reduced.
ogenic
norm@@
baby
satisfactory
muscles
hem@@
ator
ions.
involve
manag@@
industry,
1999
maraviroc
micro-@@
organised
clin@@
°C
lenses.
finished
formul@@
Virus
A.,
exceptional
isation.
companies.
manufacture
diagnosed,
meaning
fre@@
controlled,
situation.
.)
Muscle
pel@@
ations:
Long-term
oz@@
gloves
BASAL
du
med@@
inspection
el.
precautionary
representatives
consultation
Bre@@
level@@
irregular
Pri@@
Animal
need,
93
ision
id,
calves
thing,
Fr@@
glucose-galactose
output
arm.
O.
ella
hydrox@@
ven@@
eliminate
026
glo@@
infections.
periods
sick
optic
2800
discarded
rejec@@
topic
peptide
Opinion
talking
coagulation
self
hospital.
stimul@@
cat
conclus@@
(E
Street
Uxbridge
diseas@@
limit@@
alter
ements.
variant
alization
recycling
dra@@
lu@@
150/
276/
435/
damaged.
soya
aluminium
sheep
ü@@
d'@@
Aldurazyme
Thyrogen
al?
Mixtard
abil@@
000,
erup@@
tw@@
Direc@@
ement.
ou
structural
H,
(L@@
dog@@
question@@
ides,
tubular
last@@
ES@@
ization
jo@@
dialysis
priority
floor
Bro@@
Austria
2005.
carries
follows:
meals
precisely
exc@@
Almost
thrown
psychological
Bal@@
carrier
obviously
Tra@@
area.
defences)
Several
be,
alism,
vulnerable
First
net@@
capital
policies
151/
city
ought
health@@
Polish
every@@
cred@@
His
screening
ship.
toys
mak@@
invest@@
Maybe
though,
!'
/2002)
rate.
patent
unusual
immuno@@
you@@
followed,
numbness
attempt
(and
ing).
Exforge
]@@
BMD
Pelzont
toxin
1.4
ation).
pent@@
concept
54
point.
RA
selected
order@@
(100
(5@@
reversible
dur@@
6/
las@@
radio@@
blood@@
Betaferon
st,
antidiabetic
meaningful
≤
2004
subjects,
mmol
8-@@
examined.
raz@@
id.
lab@@
rin@@
Department
1990
Luxembourg,
Pap@@
Te@@
research@@
H.
nail
block@@
familiar
January
ben@@
ROUTE(S)
formal
deterioration
supplementary
propos@@
fit
visit
ure.
ger@@
awa@@
sub-@@
embryos
orthopaedic
ambrisentan
drug@@
ited
line,
exceeding
Pharmacokinetic
legs
too.
(200@@
EXJADE
intensity.
els
sions
d)
wise
Pradaxa
fields
bottle.
San@@
computer
science
PL
interim
eye@@
Pal@@
performed,
66@@
TRI@@
tooth
Less
upset
terfenadine
és
Pen@@
establishment
moved
physician.
withdrawn.
plunger
maintaining
system@@
level,
BeneFIX
synthetic
ties,
Via
E-@@
Ter@@
IV@@
013
046/
Republic
Excipients:
dig@@
state,
South
Laboratoire
Data
requested
TESLASCAN
amp@@
haemodialysis
Sh@@
mas@@
MU/
elements:
idi@@
ich@@
battery
wood
accelerated
divide
Pioglitazone
ler@@
ination
financing
ins.
pit@@
increase,
necessarily
qualified
rich
drinks
tly
half-@@
shape
er-@@
Franc@@
piece
measures.
systems.
ious
secure
appreci@@
distance
Accidental
consider@@
chair@@
raw
d;
connected
report.
unacceptable
cut@@
rou@@
side,
char@@
line.
scheme.
weakened
Tor@@
provided,
domin@@
CT13
9NJ
threat
replace
industri@@
spe@@
uniform
turned
Nor
checked
heard
reason@@
ese
alism.
climate
message
discrimination
govern@@
ers?
presidency
disabled
genetically
worst
ent?
!@@
er?
+45
Ms
event,
capac@@
non-
IF@@
included.
aspir@@
Kivexa
anxiety,
nec@@
uncommonly
postnatal
sites.
dy@@
exposure.
compar@@
Syndrome
hear@@
6.1
4.3
12-@@
body@@
tom@@
measure@@
earlier
period@@
Atripla
altern@@
75%
controls.
proximal
actions.
82
dopamine
atin@@
(O@@
Vis@@
ket@@
ULN
Fasturtec
lip@@
Rap@@
PA@@
National
remission
Op@@
104
Prequenza
1.7
aminotransferase
tor
squ@@
hair@@
hypertensive
F,
Penfill
Thromboembolic
rosiglitazone
l,
litres
thi@@
DATE
NAME}
phen@@
ker
assistant
aspects
Technical
1997,
etravirine
arc@@
facilities
statement
destruction
caus@@
assay
passive
tongue,
technique
Reg@@
ia/
proteins
consciousness,
hypotension
HCV
Min@@
environment,
COVERSYL
Ob@@
Cy@@
applicable
routes
t)
neurotoxin
43
erlotinib
CD@@
MS
30-@@
transferase
investig@@
PV@@
(at
comprehensive
EU.
lic@@
Caution
appetite
antipsychotic
GI@@
aring
apart
German@@
not@@
(which
dexamethasone
faster
hydrochloride
Units)
pressed
vial)
ily
prompt
writing
+4@@
Ha@@
ham
colourless
adjustment)
flo@@
pas@@
ary,
lad@@
urticaria
and.
cycl@@
UN
marketed.
manufacturing
soci@@
lock
arrangements
ions,
Never
manner.
nam@@
tel@@
cimetidine
Greece
selectively
product@@
sing@@
ters.
ab
thro@@
027
metal
BA@@
eu@@
land.
015
021
028
016
orodispersible
(2
81
unnecessary
anhydrous,
disp@@
contaminated
comprising
fill
enhance
trained
orange
ino
TIW)
ring@@
pregnant.
Cam@@
budgetary
inducing
killing
hazardous
fall@@
assessments
regul@@
caught
ative.
aw@@
sum
travel@@
OptiSet.
ched
23@@
SoloStar,
Bas@@
700
misleading
Yes,
Jo@@
NG@@
avi@@
diuretics
Bri@@
presents
more.
series
opinion,
consult@@
pig@@
direc@@
permit
other@@
external
nutritional
teaching'the
managed
consumption.
substances.
IB@@
complaints
ve.
placing
ort@@
Porte
at-@@
promote
Haarlem
ley
constantly
Union@@
Vol@@
hot@@
knows
Sen@@
illnesses
there,
excessively
plac@@
represent@@
virtually
fish@@
chemicals
flag
quota
some@@
beyond
here,
?@@
bank
slaughter
beings
game
imposed
GMOs
citizen@@
it!
four@@
discontinued,
tly.
three-@@
%;
to-@@
shorter
achieved.
hepat@@
lansoprazole
ell
respon@@
medicine)
4.9
were:
fatigue,
Posaconazole
exposures
Cetrotide
firm
Financial
reporting
1.25
candidiasis,
depressive
is-@@
exp@@
(Cmax
community
oxide
compound
myalgia,
felis
PRO@@
PRE@@
unchanged
allergy
two-@@
fractures.
slaughtered
91
dil@@
SPRYCEL
reproduction
strength
data,
duloxetine
9.
acetate
covers
Paediatric
present.
ement,
senior
tation
STATEMENT
surpris@@
ini@@
doc@@
proc@@
Alcohol
80,
acne,
II@@
emotional
TNF
ham@@
sweating,
2005
Br@@
on-@@
wound
P)
investigations
liv@@
pur@@
es),
Handling
3.0
titrated
offered
heart,
targets
interrup@@
Professor
pir@@
pregnancies
Objective
J.
Deutschland
osi@@
alise
Bec@@
Protection
res,
in-line
surgeon
Mil@@
ate)
ids
oph@@
E-mail:
tem@@
advantage
mean@@
epidemic
deposit
Keppra
mal
Abnormal
Sodium
Estonia
II.
after@@
TS
shar@@
sensation
region@@
ai
Limited,
ris
rapporteur
She
lose
inactivated
approved?
s/@@
quality,
operation.
sample
enhancing
doubt
disrup@@
NovoSeven
breast-feed.
Sil@@
recommend
accounts
ize
et.
Erbitux
n.
righ@@
017
358/
cartridge,
yl-@@
)-@@
fast@@
transplantation
Route
contain@@
ie
FCV
haemat@@
Articles
ert
Programme
lap@@
need@@
speech
ná
resolve
Slovenija
epoetin
500@@
ech@@
extr@@
served
Nobilis
articles
integr@@
metre
emission
wid@@
monoamine
images
tly,
infants.
transported
prevented
Four
explains
differ
lives.
Can@@
wild
Change
atic
ek@@
optim@@
fail@@
OptiSet,
E,
Ste@@
apparently
ics,
date.
unable
On@@
smoke
reaching
centres
construction
lim@@
origin@@
exceeded
relevant.
team
likelihood
by@@
identification
adoption
(2)
favour@@
pul@@
ing-@@
Rapporteur
answers
statements
aimed
cho@@
der,
wait
Africa
t;
end,
ank@@
y's
Court
MERIAL
consideration.
dealing
easier
man,
gave
raise
vit@@
Ramsgate
studies?
enough.
stra@@
embryo
develop@@
Romani@@
Russian
sources
Αγίου
Δημητρίου
democratic
cross-border
children's
technologies
addi@@
compulsory
directive.
Europe's
z,
combat
people's
civil
welcome
phrase
mistak@@
EU's
wind
ideas
later,
question,
employees
No,
(H-04@@
3/2001)
2/2001)
88
these,
fore@@
agonist
gastroenteritis,
colitis
pre-
lymph
enlarg@@
comparator
constant
grade
Hum@@
substitution
moderate,
weeks)
infliximab
joints
trace
compare
pravastatin
bringing
leuk@@
fatty
inhalation
8)
aemia,
aries
hospit@@
tap@@
17%
techniques
separ@@
pill@@
improving
dic
avir.
IU/@@
heart@@
VA@@
cisplatin
ation;
99
PO@@
Survival
additive
blin@@
response,
seizure
EMEND
Remicade
lymphocytes
vaccinated.
efavirenz,
(N=@@
antihypertensive
tolcapone
sildenafil
toxicity.
fib@@
literature
reports,
details
extend
Mag@@
examples
ess,
ñ@@
ras@@
Gre@@
ology.
Ben@@
Ministry
networks
Over@@
Rev@@
breakdown
Sk@@
PC@@
MRLs
advise
sweating
thin@@
rib@@
expertise
angi@@
labyrinth
resistance.
lactation
ORENCIA
request@@
cirrhosis
mod@@
confirm
blind
skeletal
defec@@
ocyt@@
(or
events.
dog
ust@@
hamster
retinopathy,
bronchitis,
personnel
label/
chang@@
ay
Radi@@
sick@@
tac@@
characteristic
lasting
tablet@@
even@@
hypersensitive
Del@@
de-@@
refractory
tongue
sore
ome@@
mono@@
eds
College
Docetaxel
Medical
Weight
kilogram
UK@@
Rom@@
parenteral
action,
…
000@@
tee
@@@
Services
ER
SE
vaginal
Fungal
musculoskeletal
spots
repor@@
shot
judg@@
antibodies.
pose
enhanced
reaches
indicators
mer
authorisations
features
b)
Germany.
-up
adap@@
investigated.
flushed
hydration
intolerance
appropriate,
fle@@
chances
tered
ages.
kill
Remove
th.
consequence
ther,
Hold
magnitude
ace
ching
agents,
fundament@@
laws
IU@@
tubes
EU/1/00/132@@
134/
152/
103
XXX
415/
temperatures
film@@
train@@
year}
ses.
30,
Wilzin
indicator
Nor@@
Lis@@
Actraphane
cats
degradation
East
equally
tt@@
ders,
Christian
educational
ail@@
preserv@@
ex
derivatives
avir,
justify
IB
letter
Protaphane
window
regularly.
(HIV-1),
host
incid@@
TRISENOX
remain@@
differently
Sec@@
im
ber
bar
REACH
distribution.
planned
insi@@
solely
action@@
future.
ble.
Janssen-Cilag
thanks
Cer@@
est.
composed
5%,
med
ties.
ists,
counted
til@@
ong@@
mobile
Tri@@
port@@
versions
authority
rates.
ter,
profession@@
sulph@@
sales
safely
ick
view@@
Concerned
ai@@
sell
cri@@
raising
lie
ADDRESS
critic@@
ming
town
motiv@@
Prac-tic
short@@
myself
GIVEN
President@@
vot@@
If,
father
bel@@
instruments
arise
viol@@
programme.
contracts
murdered
stocks
example.
welfare
playing
hardly
killed.
Russi@@
dialogue
court
sentence
justice
election
reality
priv@@
other.
ago,
Amendments
Presidency
spoke
bear
supposed
ted?
square
(A5-03@@
Swedish
evalu@@
HbA1c
formula
ng/
group@@
hygiene
Close
FSH
oma
neuropathy,
H)
necrosis
rats,
allergy,
B-@@
metabolite.
joints,
10,000
insul@@
proportional
met.
injuries
Glivec
eness
memantine
AT
atively
residue
iloprost
remained
load@@
months)
22%
completely.
individuals.
ST
581
improvements
days)
antagon@@
olanzapine
media,
59@@
(1,000/1,200
classified
consolid@@
bilirubin
Rebetol
protein@@
5/
spondylitis
Si@@
imag@@
fibrosis
atazanavir
Zometa
dropped
chromosomal
lact@@
ating,
org@@
ed-@@
effec@@
background
mellitus,
responding
(VTE)
maxim@@
mask
aliz@@
date,
Dar@@
Date
Virological
tingling
field,
photosensitivity
disappear.
industry.
France.
Coun@@
Good
diarrhoea.
chlor@@
neuromuscular
electrical
discharge,
depres@@
write
Agency’s
breaking
tetanus
advance
oro@@
syndrome)
investigate
ram@@
well@@
slow@@
autoimmune
agon@@
urine.
Lo@@
Gr@@
ost@@
f.
2%)
gia
openia,
creation
pneumonia
10.@@
ening
range.
MA
Vascular
voluntary
cattle.
results,
ml).
21@@
ics.
s'@@
diabetes.
low,
sible,
Men@@
dental
Parliament,
lithium
resolved
Trans@@
CR@@
vaccin@@
therapies
Fort
termin@@
Optisulin
Dan@@
strategic
properly.
didanosine
a),
acid@@
Reduction
Su@@
..
ential
meals.
Er@@
compliance
chro@@
pay@@
spinal
Polysorbate
Tallinn
Roche
č@@
transporters
ry,
zz@@
ADRs
layer
multipack
Pre-filled
Spain.
spectrum
identical
concentrations.
business@@
certific@@
EMADINE
Active
hazards
Har@@
Bor@@
USA
inadequate.
ug@@
assistance.
IL@@
occur@@
suspected,
replac@@
organs
Viread
AF@@
expect@@
operation,
available,
centr@@
(particularly
phenomen@@
Industri@@
HEXAL
(0.2%
Madrid,
Soliris
ori@@
Coordination
inserted
cumulative
EU/1/00/131@@
/003
018
019
024
025
01@@
ZYPREXA
box.
transferring
deltoid
rh@@
avenue
aging
below:
exist@@
Oedema
Rec@@
Puh/
(EEC)
breast-
150@@
Ru@@
km
Unless
base
HO@@
NO@@
Calicivirosis
Cap@@
ously,
shaken
Institute
a).
August
fails
dimin@@
Temodal
worthy
flexible
to.
rising
switch
grams
Tevagrastim
G,
els,
hur@@
processes
tap
Intervet
injured
Having
coli.
(0.9%)
40%
human.
implement
cu@@
with,
San
arg@@
systems,
cloudy.
hr@@
ease
ano@@
opinions
historical
entry
encourage
ast
acidosis,
implementing
hu@@
Anti-@@
sl@@
quarter
Fo@@
broad@@
reasons.
Security
integration
clos@@
ze
dres@@
NutropinAq
demonstr@@
destroy
ici@@
understood
bond
markets
Commission’s
allow@@
capsules,
projec@@
there@@
histor@@
neither
Alpes
rates,
ks.
Six@@
opportunities
symbol
appropri@@
kno@@
faced
nu@@
one's
alternatives
Out
Sandwich
catch
ets,
intend
ign@@
charges
spend
care,
green
Western
ically,
track
GR-174
Άλιμος
30-210
dying
calls
consumers.
subsidies
convic@@
banks
funded
weapons
repa@@
world@@
elapsed,
replied
represents
negoti@@
newspaper
agriculture
obligation
Americ@@
contradic@@
fate
al'
ship,
dangers
Islam@@
claim@@
peoples
Israeli
Nonetheless,
compromise
(A4-03@@
03
Trizivir
initiated.
happens,
c)
IS@@
fell
knee
hazard
Philadelphia
-4@@
circumstances,
growth,
Imprida
dysp@@
Oc@@
fying
open-label
helping
test.
(under
Tredaptive
gain.
defence
myel@@
analy@@
old,
thrombin
haemorrhagic
insulin,
(90Y)
amphotericin
fluvastatin
CS@@
’)
in).
falls
frag@@
dep@@
(mean
behavioural
reaction@@
obese
depressed
109/
I-@@
encephalopathy
indicated.
kg@@
mL
8).
eggs
MB@@
transitional
stud@@
g,
oti@@
pramipexole
limb
MIRAPEXIN
aly@@
intracellular
paraesthesia,
pseudoephedrine
complex@@
technological
critical
uro@@
Johnson
Publications
Post@@
Rome
chemotherapy.
5.
governing
ular
lactate
confus@@
concentr@@
redness,
constitute
allerg@@
thin
avir
designation
passing
moderately
gli@@
ement@@
epilepsy
warned
harmonised
isol@@
impaired,
antigen@@
Na@@
tar
heparin
lovastatin
antiepileptic
Aranesp
Tr@@
encies.
ally-@@
ml@@
py@@
ited.
Excessive
Inflammation
somnolence
albumin
experiments
rever@@
humans,
vir@@
organ
specialist
infiltrates,
web@@
ng
ture,
inner
Levemir
aris@@
son@@
salts
weakness,
volunteers.
dose).
Vomiting
Indinavir
mb@@
Placebo
Fri@@
Science
ology,
(300
Produc@@
Guideline
Warszawa
limbs
back,
title
Organisation
Tim@@
Shelf
them@@
ple
loose
sn@@
em
haz@@
effects:
children@@
uncommon
itchy
mur@@
marks
pain.
Viral
candidiasis
procedure,
therap@@
endocrine
risk@@
composite
(PLI
uptake
Gal@@
thromb@@
technology,
transcriptase
greatest
agencies
Harmonisation
education.
point,
Combination
Mic@@
ares
discarded.
gastro-intestinal
displayed
sunlight
Nervous
pac@@
infec@@
delivered
manufactured
pancreatic
continuing
50-@@
CC@@
Cast@@
ac
Age
tou@@
delayed.
32@@
rhinotracheitis,
asis
ith@@
Median
CV@@
shel@@
harmonisation
sum@@
VII
teratogenic
/002
020
022
023
tablets)
366/
ture.
sorbitol
{month/
broached,
Vial
06
Dublin
mir@@
herbal
region.
prevents
scre@@
(HDPE)
collection
Capsule,
City
table@@
consists
organizač
zlož
elling
ark@@
ye@@
erythropoiesis
ive.
VISTIDE
materi@@
newborn
strain):
HEXAVAC
promoting
take,
bor@@
din@@
etc.
proposal.
pathy
together.
naturally
yr@@
shaped
hex@@
form.
def@@
arterial
history,
act.
hour.
207
pieces
bab@@
mg/ml
disorder@@
prime
17,
cloudy,
Stockholm
57
defects
mad@@
mm
army
main@@
plays
6.2
Nobivac
mg/l
foods
intim@@
limiting
b.
800,000
demands
chains
Des@@
antibiotics.
discrimin@@
instrument
worldwide
whe@@
revis@@
ration@@
guaranteed
grow
challeng@@
expec@@
Air@@
offers
path
ta,
Ta@@
ones.
ung@@
Ros@@
containers
gap
implement@@
ances.
pu@@
quality.
om,
tain
allocated
yours.
PC
METHOD
b,
interven@@
withdraw
Turkey
environment@@
technolog@@
pitting
ethnic
Soci@@
è@@
comment
2008
Author@@
companies,
ats,
Barro@@
wife
bs
Tur@@
of,
suddenly
page
costs.
(cells
effective,
ls
arrested
freedom
mercury
them?
powers
felt
sustainable
reserv@@
trading
innov@@
drivers
ethical
famous
perfectly
peac@@
operators
wit@@
Air
flights
voting
accident.
denied
immigr@@
econom@@
currency
writing.
him@@
provis@@
Mc@@
basis,
negotiations
uranium
Have
es’
ing!
hed
island
comments
export@@
Council@@
Palestinian
fact@@
ishing
complain@@
migr@@
friend@@
us?
Be
6/98)
pharyngitis
Combivir
tran@@
stop@@
delay.
(8@@
adjust@@
WHO
6%)
sis
NSAID
pruritus
(15
analysis,
17.@@
acetylsalicylic
O,
2),
intensity
QT
Agency's
MD@@
ES
immunoglobulin
anaphylactic
sleep@@
speci@@
0.8@@
5%)
arm,
×
(N
rashes
ratios
somnolence,
Vel@@
scan@@
progres@@
together,
Az@@
letters
130
models
alfa.
6.
long@@
estr@@
saquinavir
ritonavir,
exacerbation
restriction
7/
111
adefovir
intravitreal
Lucentis
comparing
3%)
320
SS
mother@@
promotes
2.6
5).
disease-modifying
gest@@
µ@@
Sprimeo
PE@@
two-year
appl@@
15.@@
sac@@
FIRST
blurred
hypotension.
degrees
Italian
Pharmacology
ely,
(by
ulation
immun@@
High
act,
conjunctivitis,
CI)
er)
tively
mol@@
(3.@@
mineral
medic@@
values.
C).
castor
-resistant
parti@@
suppli@@
sustain@@
particip@@
MR@@
emphasis
pneumonitis,
ker@@
inhibitors,
away.
ack
presid@@
sinus
Rules
TR@@
qui@@
loaded
ron
emergence
supported
pharmacodynamic
reveal
frequ@@
opath@@
injectable

{@@
secre@@
2001.
microspheres
proteinuria
analysed
Sud@@
rash)
ness@@
thes@@
dissemination
sti@@
aem@@
fus@@
separated
Suomi/
turn@@
fold.
DG
appetite,
dip@@
Diacomit
night,
glycine,
breath@@
lips
istic
CM@@
oil,
ist,
cris@@
(9
potassium-containing
oil@@
allergies
La
rep@@
Inhibitors
humanitarian
acceptable.
storage,
induc@@
Hypo@@
Improvement
4).
improves
monohydrate,
Α@@
Holdings
SK@@
SARL,
dark
light,
breath,
text@@
thickening
kes
ise.
memor@@
mel@@
seeing
Increase
W
OM@@
IM@@
pandemic
kil@@
Fer@@
dimen@@
with:
vial@@
che
combinations
alcohol,
manufacturer@@
molecules
compounds
ino@@
Metalyse
gradu@@
Systems
alized
expose
facing
protein.
coronary
artery
line@@
locked
tub@@
arity
go.
cure
25-@@
for.
radic@@
ets
progenitor
ó
Yttriga
TIONS
/001
137/
broad
revised
events/
worsen,
content.
mix@@
zinc
Mac@@
precise
anda
va@@
though@@
GM
eas@@
Turn
Copenhagen
Manufacturer:
Filgrastim
provi@@
pack@@
bil@@
bags
spo@@
prim@@
mostly
conditions:
ured
Ge@@
est,
Gar@@
shell
l'@@
UC@@
Cardoreg
mann
applied,
gained
Tacrolimus
require@@
Parliament's
lac@@
kidneys
removing
preparing
MI@@
antifungal
wounds
ambient
operations
retro@@
Lithuania,
dispenser
Ren@@
ox
7.
automatic
Pe@@
cautiously
za
OTHER
galactose
protein)
Ultratard
+35@@
extending
bid
Ongoing
loratadine
transparent
[N
tas@@
Ciprofloxacin
creating
darbepoetin
loading
emerg@@
Tran@@
relief
natur@@
ible
soluble
part,
task
40-@@
breeding
Pr@@
thre@@
claimed
factory
Ranexa
US@@
Zyrtec
der.
benefit@@
tail@@
conclusions
Shire
Long
Tenofovir
shell@@
errors
send
legislation.
luc@@
mand@@
packaging.
effectively.
report@@
sever@@
transition
mar
demand.
largest
cancers
surviv@@
fail
fal@@
throw
options
altogether
regulation.
consequences.
closing
surveys
admitted
ask@@
Nic@@
proven
000.
tar@@
decis@@
house@@
arti@@
remind
Atlantic
perfect
happen,
follow.
supplies
Twenty-@@
checks
tried
soldiers
peace
So,
opposed
tragic
domestic
profit@@
fraud
illing
es'.
ation'
terrorists
Mediterranean
Hungarian
ambi@@
People
tun@@
sav@@
beef
girls
charg@@
train
Anyone
shop@@
important.
whereby
rely
year-old
book
addic@@
jum@@
GDP
China
summer
discus@@
protection@@
terrorist
fisheries
import@@
imports
border@@
Convention
farmer
edly
now.
destin@@
forest
genuine
agu@@
undertake
foodstuffs
approach@@
accused
me?
selling
speaker
Category
clim@@
will,
criminals
pleas@@
red?
agus
speaking,
(A5-02@@
Danmark
48@@
gem@@
DK-2@@
HI@@
(glucose)
malnutrition
ation),
aesthesia
CNS
diagnostic
(in
celecoxib
ills
phas@@
represented
ame
comple@@
Privigen
tox@@
foot
ICH
Guidelines
dex@@
cutting
oste@@
som@@
ling.
actively
accounting
oma,
zo@@
p=0.00@@
MRI
4.4@@
adalimumab
8/
ziconotide
beta-@@
IV,
CYP1A2,
unknown,
atory,
mg/day),
releasing
ric
indicates
institution
complic@@
eczema,
h/
87@@
V)
intolerant
Cancer
event@@
sclerosis,
Te
single-dose
dose)
Liver
GM@@
morph@@
attributed
tum@@
embry@@
sy@@
110
ophthalm@@
(U@@
carcinogen@@
TION@@
ATION
inspections
pseud@@
contributes
modi@@
fy
biotechnology
Kaposi's
tumour@@
biliary
graduate
Dublin.
Mis@@
1993
Chem@@
↔
allo@@
Need
EE@@
Ser@@
alcohol@@
reduced,
muscular
irrespective
handed
pressing
Applications
e/
lum@@
arly
oxy@@
partners
hydr@@
ura
submitted:
methyl
discolour
deep@@
ch-@@
ists.
Post
reduction,
Der@@
inated
fur
Significant
Packs
haematomas
Chronic
cervical
thrombocytopenia
vent@@
dul@@
chaired
committees
applicant
LE
Bio@@
flushing,
mid-@@
rab@@
toxicity,
4%)
side-effects
13.@@
carri@@
ton.
adversely
contribution
nephro@@
Infectious
weighed
ja@@
War@@
Fuzeon
ulcer,
fatality,
Interactions
Aclasta
bowel
borderline
rup@@
immunosuppressive
15,
is)
Lev@@
Dodge
radioactivity
Leuk@@
Two
Update
0.2@@
resist@@
Compared
regression
ue
Royal
entation
Estate
Minist@@
(13@@
Musculoskeletal
°C)
region,
Director
Gener@@
Neulasta
prefilled
bottle@@
di
Duration
Like
scale,
egg
SA.
QU@@
6676
Baltic
+370
ency@@
inflammation,
Sub@@
al/
glioma
ovary
tis.
arr@@
atten@@
nel@@
ater@@
thiazide
lic
....
stay
tor.
oured
receiv@@
(44-20)
Organ@@
requests
sector.
manual
clean@@
Pres@@
Metformin
incretin
outcom@@
reaction).
insert
scheduled
calcul@@
important,
of<
Aprovel
expected.
goals
usage,
need.
—
filled
Hel@@
itis)
ene
Diskus
+351
qual@@
proper@@
fructose
zonisamide
recur
Tre@@
thumb
specific,
uncontrolled
metastatic
tising
EU/0/00/000/000
/004
98/
death@@
Res@@
freez@@
exists.
Inspec@@
lamivud@@
{MM/
ica
rightly
ps.
Fendrix
Mat@@
88@@
diff@@
ight
weg
Operation
Latvi@@
REYATAZ
maybe
able@@
Lu@@
genes
wing
rot@@
Ham@@
Vice-@@
pap@@
Hu@@
engine@@
animal@@
guar@@
variable
risk-benefit
ently,
prohibited
element
Alert
direction
barrier
ately,
insufficiency.
carers
forward.
ograph@@
but,
justification
opportun@@
Infanrix
side.
ome
himself
avian
To@@
usual.
DE
ding.
olig@@
CELSENTRI
aling
Yttrium
west
@merck.
á
ok
rose
LV@@
ept@@
KG
dam@@
od,
proportion@@
2000,
fr@@
EEIG
stin@@
combin@@
necessity
conversion
interrupted
P,
Sy@@
massive
characteristics.
degraded
bad@@
Caucas@@
ly:
Memb@@
spac@@
Ul@@
continuation
ers;
innovative
established,
individu@@
addres@@
protec@@
weaker
psych@@
corresponds
wanted
serotype
issu@@
Labelling
obtaining
option
tab@@
appeal
Pierre
committed
known,
Adult
sodium,
whenever
yed
coll@@
saf@@
HIV,
ites
serv@@
infrastructure
state.
bonds
Slovak
ession@@
accur@@
bri@@
compromis@@
news
lifestyle
discuss
tain@@
operator
Mont@@
substance(s)
world,
race
wishes
evol@@
án@@
term,
skills
Spot-on
ij@@
attenuated
bom@@
edi@@
HUMALOG
giv@@
nearly
Otherwise,
ently.
2010
productive
abortion
closer
with.
story
houses
another.
hundreds
refuge@@
tonnes.
approv@@
mere
disaster
haul@@
perfec@@
'S@@
fair@@
f,
foun@@
devast@@
Parliament.
Votes
leaders
businesses
interesting
zone
bureaucracy.
opposition
Afric@@
safe,
advertising
commerci@@
compens@@
politic@@
coast@@
passenger
driver
wonder
taken,
NATO
victim
educ@@
legally
process@@
Wine
inhabitants
weather
ECU
issue.
Pakist@@
losses
entitled
ice,
ion?
crimin@@
cost-@@
livestock
collapse
landfill
aims
customs
director@@
negotiating
sanc@@
ated?
proposing
Despite
report?
ded?
(A4-016@@
69
recently,
yourself.
GL@@
dietary
arter@@
io@@
pertussis
56%
2%,
thigh
placebo@@
consci@@
alopecia,
fatal.
cytarabine
zed
Kaplan-Meier
Figure
27.@@
excretion.
Rel@@
tremor,
⋅
Ti@@
partnership
hepar@@
Otherwise
concern.
plasma,
overdose,
paren@@
77@@
encies,
corticosteroids.
11.@@
5.3).
sib@@
tended
latent
basel@@
CYP2C19,
Rey@@
5;
histamine
AUC)
er:
Form
Sur@@
catabolism
(‘
Cmin
ira
lipoprotein
FIRMAGON
disability
suggestive
fro@@
chemotherapy,
cough@@
function@@
poli@@
paralysis
Eye
application,
GANFORT
air.
hoc
rop@@
))
ine/
selection
meal.
Rasilez
Riprazo
nilotinib
Seven
juvenile
mouth.
bed.
74@@
crushed,
rence
undergoes
attributable
anaemia,
Between
1985
ture@@
cellular
Laboratory
uria
less,
Thus
attack@@
post-operative
TW@@
reversal
tiredness
vinyl
ep
eli@@
conjunctival
bisphosphon@@
0.9
Warfarin
od.
injury,
ab,
Anti@@
ute
54@@
limit.
phosph@@
Jap@@
ner@@
documents.
penetrate
ways.
Losartan
conclusion
respectively
set.
iro@@
fain@@
virologic
extrem@@
gut
cutaneous
donors
disturb@@
committe@@
new@@
Cha@@
begun
CMV
conclude
III@@
e-
rate,
39%
mes
TRAVATAN
reas@@
complications.
al)
conven@@
alfa-2b,
pens.
Cle@@
ies@@
Emselex
taken.
cluding
workload
considering
transi@@
ines,
jec@@
neutropenic
Pot@@
siz@@
points.
take:
Signs
ff
anxiety
ne,
Em@@
ered
Fin@@
facilitate
ographic
he/
temperature.
dom@@
ry@@
12.
interruption
congestion
counts,
London.
assess@@
2004.
cartridges.
qualification
Authorisation(s)
UL@@
Netherlands.
ve,
micrograms,
Dou@@
constipation,
pec@@
tho
Mel@@
pain)
Urine
aci@@
administered,
DuoTrav
leng@@
ital
Shelf-life
m-cresol,
GE
Effect
shortness
menstrual
ying,
lation
surface,
tests.
scar@@
gall@@
ston@@
(shock)
people@@
ia)
H).
eye:
ements,
Pharmacodynamic
ABILIFY
Hungary
aver@@
swe@@
incineration
4.8.
receptors,
os.
opening.
Resistance
l-@@
79@@
doses)
lights
ativ@@
PR@@
Silapo
wiped
stopped,
supervision.
sure.
accompanying
typical
suspended
notify
ons,
entecavir
Cardiac
InductOs
removed.
portion
stopper.
2007,
carb@@
detec@@
changed.
vehicles.
wards
converting
ene,
rosis
usion
dering
Att@@
IU)
blisters)
426/
95/
ps,
bubbles
carefully,
(AL@@
carbon@@
mag@@
Lim@@
Lane
We@@
focused
exercising
lon@@
NEVER
bottle,
ki
syringe.
bottles
anti-
clothing
vol@@
rue
®
metabolism,
Green
White,
pin@@
coma,
newly
integrated
concern@@
gon@@
analogue
aim@@
ses,
pointed
phenyl@@
intoler@@
ord@@
nur@@
starts
4-91
Association
Tylvalosin
linear
Secretariat
HIV.
issues,
pack,
labor@@
orph@@
ely.
road@@
ards
cleared
t's
Vectibix
measure.
virus@@
icity
failed
ators.
molecule
mandate
substitute
donor
sulfate
pric@@
Escherichia
Infusion
Vimpat
Aerius
comfor@@
metabol@@
1%).
changed,
TE
nica
Á@@
Italia
ity-@@
materials.
Ris@@
inser@@
Absolute
Bu@@
potential.
laugh@@
l/
divi@@
often,
sets
exceeds
metabolism.
sions,
(The
smoking,
ones,
Simultaneous
improvement.
weighing
fourth
cigarettes
interpretation
automatically
rolling
135@@
principal
reform
regulator
substitutions
quarters
ished.
entr@@
cyanide
aberration
risk/
Rotigotine
ines.
nitro@@
establish@@
ju@@
VIRACEPT
man.
reviewed
driven
cigarette
entirely
risen
aked
rif@@
desc@@
react@@
stage.
Dem@@
institutions.
announc@@
ruled
art
being,
151
introducing
thinks
themselves,
(3)
apply.
belong
ders.
obstruc@@
F-69800
san@@
dangerous.
ck@@
hard@@
Wel@@
lear@@
clear@@
Ku@@
ei@@
incorrect
sla@@
roun@@
handled
ust
style
ini
analyse
added.
wat@@
gro@@
hon@@
African
amb@@
ith
tanks
Hampshire
sch@@
uk@@
table,
notification
ful.
Synagis
trad@@
ensuring
afraid
Tit@@
valued
Regulations
times,
done,
".
worse,
better.
woman,
holiday
decline
Effective
fru@@
cust@@
famili@@
references
define
Ur@@
budget@@
participants
tool
nobody
print
Tηλ.:
pollut@@
tend
flame
Sou@@
figh@@
sentenced
cru@@
taxes
celebr@@
describe
roc@@
kilometres
exceptions
workplace
rul@@
USD
coast
barbar@@
conflict
urban
food@@
schools
effici@@
Je@@
conc@@
Tobacco
feder@@
Nap@@
stands
crime
arrive
reply
hotel
sive,
hectares
that?
imported
treaty
prisoner
sports
olive
secret
fighting
hab@@
Austrian
rural
ultimately
cloning
Iran
immigrants
unfortunate
directive,
argum@@
right.
wants
trust
provoc@@
infl@@
Iraq
condemned
Islamic
dangerous,
Iraq@@
plain@@
illeg@@
proposal,
minor@@
WTO
others,
question.
forces
say:
writ@@
re?
subsidi@@
detention
bomb@@
come,
er!
then?
impose
that!
Strasbourg
-year-old
ski
quanti@@
tive?
advant@@
preliminary
year?
94
Wil@@
implanted
CVMP@@
inhibitor@@
entered
tivity
mg).
iness,
joint@@
alte@@
in:
ets.
dehydration,
situations.
ated@@
Helicobacter
complete,
proteins,
dasatinib
malignancies
insomnia,
enoxaparin
Norm@@
R)
GIST
injec@@
otoxicity
survived
brain,
small,
0.9@@
H-@@
128
significantly.
bos@@
drowsiness,
add-on
contraindic@@
field.
16%
patient-years
sho@@
venlafaxine
ulceration
grad@@
ical@@
11.1%
bodyweight
phosphatase
pioglitazone.
step@@
esis
antibiotic
cholinergic
ine;
subset
600@@
um-@@
yn@@
Scale
’).
HPV-16
with@@
1,200
NRTI@@
ate-@@
CD
Week
Ka@@
iser
relapses
47%
VTE
circulation
form,
below).
=@@
0.5@@
ologic
intranasal
control@@
consecutive
fat,
a/
tol@@
vo
79
ade@@
relax@@
(to
glucuron@@
sul@@
AUC@@
variation
20/
wn
burning
gender,
inducers
CYP3A4,
its.
ax
lec@@
1987,
director
consultant
sell@@
rocuronium
Haem@@
CL@@
ade.
lymphoblastic
1),
submission
Meeting
Ask
2002,
collect
played
weak@@
polysaccharide
hyperglycaemia
ished
phosphor@@
precipit@@
induces
intern@@
Summaries
ts:
glucagon
anti-cancer
tional
nervousness,
Swine
ws
opathy
diffuse
ho
p-value
fel@@
CYP@@
farm
blood-@@
OB@@
Abdominal
PRCA
extrac@@
pronounced
Multiple
smok@@
probable
incontinence,
hyperuric@@
glyco@@
rodents
foet@@
CP@@
sitagliptin
8.
metabolite,
lor@@
tubing
determination
Infections
tis,
simultaneous
Sweden,
passage
preservative
'(a
cholesterol@@
10)
oedema.
consistency
approach.
Driving
Application
Careful
Photosensitivity
lesion
rats.
clon@@
caution.
(s)
common@@
itic
Monitoring
selec@@
Discard
Genzyme
SHARP
Str.
radiolabelling
assembly
motion
R.
eable
sed@@
Suc@@
aggrav@@
ancy
0.00@@
PhD
chem@@
UK.
Barcelona
46@@
hormon@@
del
Doc@@
ska
month@@
alfa@@
List
aking
tering
mouthpiece
blo@@
ols
epistaxis,
operative
Mé@@
F-@@
Ve@@
Upon
unique
patches.
variations
Hy@@
Gy@@
perversion
maculopapular
eful@@
aps
Global
runny
MP
.com
alli@@
š@@
om.
paroxetine
nerv@@
trouble
eczema
perform@@
len@@
legs,
bleed@@
(Seen
(itchy
fragile
Kon@@
ink@@
(EPAR).
Reproductive
failure@@
sugar,
(905
FeLV
................................................................@@
unit@@
Infection
hydrolys@@
deriv@@
stimulate
rises
highlighted
experiences
about.
CAR@@
pregnancy,
presentations
va
Immunodeficiency
foc@@
opin@@
argument
initiate
kg.
Vildagliptin
long-acting
prothrombin
antidote
develops
pylori
Transferring
plenty
deterior@@
spite
AR
challenge
suggesting
saline
antacids
resolved.
hypoglycaemic
grant
J
fen@@
doses,
breastfeeding
administering
Extavia
resid@@
label@@
gonadotroph@@
The@@
absor@@
Gliolan
matrix
heparin)
].
Epivir
relieve
drawn
dispose
burning,
Sar@@
estimates
oxide,
stag@@
than@@
post-menopausal
0/
/005
101
386/
EU/1/98/069/00@@
EU/1/98/070/00@@
ography
X/
XX/
XXX/
Cardiovascular
stretch
band@@
patients:
preferred
oxid@@
bic@@
6.1.
Py@@
evid@@
α@@
ford
indicator.
Cartridges
deliver
Investigations
phys@@
LO@@
..@@
Staff
risk,
Lithuania
ona
Eckenheimer
Heart
Rh@@
disturbance
Smoking
neutral
cyclic
lets
CYSTAGON
BC
pathway
metal@@
BV
Z
blast
ath
vic@@
lots
life-@@
cot@@
wool
Government
ong
(FHV
Lda
Fre@@
dysphonia,
nationally
Ig@@
components.
cli@@
pover@@
Health@@
Belgian
today.
Mit@@
fix@@
belonging
dementia.
possib@@
antigen)
nat@@
borne
blocked
SINGULAIR
emerge.
above.
manage
receives
COM@@
ish.
ened
feed.
antibiotics,
cetirizine
lay
tan@@
modifications
year@@
Swed@@
Latvia,
Norway,
Community,
challenges
20-@@
West
compatibility
TV
hospital,
oth@@
Eating
(23
sequ@@
markedly
matter.
+386
fluids
ú
adapted
Ga@@
Ol@@
enclosed
ly-@@
summarises
Cas@@
ya
(International
pati@@
electron@@
Norvir
typically
express
fif@@
implants
doub@@
ute.
chosen
ays
nor@@
accessible
commit@@
initially
teleph@@
rooms
ration
whole,
distal
Analysis
steroid@@
past@@
well-known
individually
successfully
80%
questions.
depend
damaged,
relate
yro@@
architec@@
Orfadin
ish,
effort
ix@@
mes@@
B)
wi@@
ot
{Name
Reconcile
Rob@@
located
get@@
deeply
liqu@@
encouraging
accession
twenty
lying
puts
lawy@@
recruited
launched
s’.
(FR)
systematically
Stre@@
gol@@
So@@
directions
excep@@
mechanical
gam@@
retur@@
Frequencies
sely
coverage
safety,
coordinated
tial
ordinary
fulfil
doctor’s
colon@@
relatives
generate
Looking
roughly
clinic
dish@@
fifth
equipment,
safe.
numb@@
poorly
Poland
g/@@
observe
flavour@@
Mol@@
legisl@@
servic@@
Ram@@
Waarderweg
Lyon
part-@@
Mor@@
down,
save
subjected
Lisbon
ori
reserve
fir@@
Espoo/Esbo
Brit@@
bread
definitive
instructions.
intensive
successful,
zones
family,
eless
ty-@@
nigh@@
May@@
prior@@
Soviet
Belar@@
EU-@@
Ven@@
(alu)
example:
alisation.
Union's
commodity.
ches,
'?
sulphur
collap@@
tonnes,
prices.
successes
p.m.
century
driver@@
ill-@@
offici@@
dram@@
cultiv@@
modern
agenda.
hero@@
agreements
involved,
pers
financ@@
bought
batt@@
refugees
cheap
voted
facts
fish,
tradi@@
ise,
sole
country@@
women's
envisaged
Britain
answered
sit
employ@@
Nothing
Constitu@@
Greek
home.
attitude
victim@@
condem@@
cloned
roads
dead@@
polic@@
t!
forest@@
Has
union
blame
million,
door
cadmium
deal@@
refin@@
Liber@@
stig@@
concrete
India
where,
again@@
murder
a'
seat
present@@
respec@@
answ@@
who,
work?
earth
paying
result?
profits
strategy
foreign@@
revolu@@
opol@@
ence?
ment?
Did
not?
in?
ments?
ly?
tions?
introduce
ate?
school@@
market?
(A4-@@
1/98)
/2001):
3/98)
5/2001)
(1)
102
X-@@
discontinued.
lopinavir/
stopped.
required,
restart
sus
cerebrovascular
HC@@
arms.
convulsions,
correspond
(SD)
levetiracetam
3000
response@@
pilot
circum@@
root
neur@@
(CNS)
rectal
aggression,
58%
event.
nodes
des.
Copalia
varying
static
old@@
durable
abat@@
long.
sufficient.
oly@@
(from
past.
skin).
neonates
MS,
'that
babies
Myozyme
management,
chel@@
attaches
2.5@@
bortezomib
myeloma
zoster
123
reach@@
agitation,
pop@@
partially
worsen@@
aspergillosis
baseline.
twelve
NeoRecormon
damage,
(5.@@
(total
intrathecal
montelukast
exacerbations
understood.
C/@@
dl,
monthly
9)
ster
calicivirus
EP@@
OT@@
wom@@
drops
-24
2001,
8%)
documented
profiles
PT@@
-containing
1.3
min)
44%
calorie
populations.
aliskiren
Tekturna
murine
amine.
ED
antibody.
mg@@
R-@@
6),
inactive.
inhibiting
orlistat
learning
plasma.
ency.
ns
advances
mechanism@@
ologist
Brussels,
relations
bladder,
sessions
predictable
MI
(up
ritis,
Neuro@@
5.2
classi@@
baby,
provider
Equ@@
lun@@
predicted
Internet.
Haemophilus
Neisseria
trial.
modul@@
whit@@
tract.
r,
lessen
hepatitis,
map@@
Herpes
ae,
generalised
aller@@
presentation
mucous
rod@@
detectable
itation
e.g.
Dysp@@
nephrotic
's.
ity)
mycophenolate
/4@@
ventricular
contacts
newly-diagnosed
attempting
mp@@
randomised,
n=@@
2000@@
atic,
lipid
medications
exercise,
conducted.
CYP2C9
foetus.
atrial
lysis
devices
buprenorphine
ribavirin,
YYYY}
MS@@
ulcerative
diseases)
myopathy,
ocyte
observations
naive
fluctuations
kidneys.
ral@@
AM@@
pension@@
format
mandatory
CV
disorders),
pale
ia).
vascul@@
acid.
tired
Houtenlaan
1381
DOHME
GMBH
4561
2612
Infocenter@msd.
RAP@@
nucle@@
(these
participate
adopt
Tw@@
Wat@@
substanc@@
VI
decreased,
transport@@
attention,
sucrase-isomaltase
University.
over.
pharmaceuticals
TIVE
sy
Potassium
Don@@
Tél:
......
02
Therapeutic
alfa-2@@
(EC)
oestrogen
alleviate
cirrhosis,
test@@
cramps
gue
ada
und@@
March@@
stone
Ep@@
Minister
drops,
ids.
tide
correct.
Dynastat
openia
rhinitis,
ECALTA
farms
182
estonia@gsk.com
667
11-@@
facial
hepatic,
interest,
asis,
dream@@
Ceplene
tear
ins,
oesophag@@
shift
Mos@@
elimination.
PV
tissues.
childhood
mild,
structures
ires
berg
heads
acknowledged
exclusively
projects.
gluc@@
11%
drugs,
encouraged
rinse
Transfer
Panretin
tives
prescri@@
scler@@
datab@@
{INVENTED
mothers.
corrected
Ensure
barrels
specific@@
column
support,
formed.
simplex
ore@@
spec@@
explain
YMDD
follitropin
consump@@
spreading
calicivirosis
acids,
firmly
ound
Prime
OX@@
blu@@
oid
relapsing-remitting
ma.
pt
Km
acet@@
inappropriate
7%),
CRF
fluctu@@
independ@@
sensi@@
OD@@
029
341/
tight
Fl@@
Too
mul@@
att@@
Examples
compensated
Martin
All@@
1995.
ra,
fracture.
Es@@
Catal@@
ton,
SUBSTANCE(S)
rid@@
sible
per.
Rhinotracheitis
104.9
emo@@
ver.
attach
Fle@@
libr@@
handle
ves.
Holland
Slovakia
Landstraße
Frankfurt
ile@@
injection-site
desire
vent
Psychiatric
card.
feet
Hard
gold
printed
nature.
ov
sulphonylurea
stimulation
Medi@@
cultures
ta.
yp@@
ass
proceedings
restructuring
blister.
Journal
les.
Fab@@
England
-2-@@
Growth
ali@@
ind@@
division
Saf@@
growth.
considers
hyperstimulation
3),
reminded
remembered
Card
Telmisartan
receptor.
solution@@
first-@@
ero@@
ond@@
Stand@@
CIALIS
recommend@@
nas@@
visually
myc@@
crises
swallow
breathe
probenecid
5.0
sevoflurane
plasma-derived
disappears.
Estonia,
fibrin
babies.
Sirolimus
Patients)
contin@@
Repeatedly
allergies.
neph@@
suspen@@
Last
Ljubljana
nominal
(0)8
+39
Pa@@
AB,
regulation,
dedicated
ony
guil@@
-B@@
desloratadine
Produtos
hypoc@@
Individual
search
warm@@
meaning@@
PHARMA
nitrogen
onic
oblig@@
ical,
phase.
distribution,
pathogens
resus@@
Nplate
clarified.
alcoholic
depends
notably
leader
put@@
Gam@@
–@@
12%
meet@@
occup@@
hr
Leave
solvents
wed
ership
Tritazide
widespread
death,
suppression
gel@@
prophylactic
ney
serious@@
medium-sized
far@@
preventive
institutional
antimicrobial
involv@@
Dec@@
crisis,
tig@@
helped
Slovakia,
labels
cau@@
Spec@@
aving
Latvijā
discovered
restrict
Characteristic,
Neurontin
supervisory
support.
incident
help.
heav@@
reinforced
Protec@@
males
e-mail
(7.5
institution@@
oe@@
arbitr@@
dates
40,
erc@@
compart@@
chil@@
poultry
procedures.
ina,
OptiClik.
termed
records
powered
Waste
Sw@@
sight
spon@@
necessitate
TIN
kers
blister@@
consumers,
started.
ano
stric@@
functions
84@@
Fun@@
Malignant
lists
suggested
ades
restaur@@
Twenty
reasonable
marine
spread@@
Vil@@
UK,
idity
content,
ands
disturb
learn
effective.
account.
uff@@
Israel
vessel
land,
drink@@
custom@@
ann
generic
However
profil@@
lessness
product),
frame@@
Thus,
must,
ran
squeeze
reasons,
regist@@
authorization
Strada
street
traces
Scot@@
six@@
Stal@@
sexually
have,
code
burn@@
don
gases
West@@
leaving
person,
swine
honey
sett@@
relation@@
past,
fitted
(first
plant@@
gram@@
sought
depend@@
crossing
do.
stor@@
training.
powerful
erro@@
websites
reject
somewhere
ved
deser@@
summit
banning
minerals
steel
Statistics
fish.
services.
attacked
technically
him.
lives,
mentioned.
discour@@
risks,
explan@@
mot@@
money.
expectancy
deaths.
cros@@
constrain@@
referendum
pla@@
packaging,
brut@@
armed
enthusias@@
thing.
nets
pet@@
aid,
margin@@
hood.
Braz@@
technology.
consum@@
produced.
parliamentary
right,
decisions.
alists
'the
cast
beg@@
door@@
said,
ned
tion!
neighbour@@
asylum
directives
alloc@@
university
pesticide
explanation
politically
serve
a!
ed!
counter-@@
hang@@
catches
metals
ans@@
independence
intensi@@
magaz@@
record@@
construc@@
monopol@@
tuna
rad@@
tackle
Chechny@@
teach@@
yourselves
Finnish
Kosov@@
debt
seats
yet,
rail
resign@@
listen
beautiful
signat@@
whom?
bio-@@
meat,
talked
flag@@
en?
Or,
ement?
hear
Nobody
airport
Why,
mean?
(A5-020@@
8/2001)
5/97)
sinusitis,
ys.
purposes,
two.
decreased.
expi@@
Environmental
manifestations
chemistry
cohort
tremors,
le;
SC@@
indinavir/
0.4@@
cytogenetic
Luveris
following:
thyro@@
oid@@
secretion.
character@@
benzodiazep@@
ardi@@
mann@@
-treatment
inflammation.
fractures,
high-risk
INOmax
tender
fund
non-clinical
(un@@
FS@@
van@@
migration
treated.
fies
pig
filtration
mood
escal@@
5),
losing
metformin,
wn@@
galact@@
umab,
14,
tigecycline
7%)
ine).
safety.
III,
CYP2C9,
CYP2D6,
receptors.
recovered
great@@
microgram/kg/week
IV.
DVT
TORISEL
days@@
1%.
(12@@
C/
microgram@@
idal
anthracyclines
strain@@
OSSEOR
neutralising
retina
sperm
trough
nose.
Tarceva.
enzym@@
substantially
complementary
gabapentin
triglycerides,
cro@@
olic
SIFROL
't
displa@@
rosis,
bosentan
-out
Therapy
ing),
discolouration,
anorex@@
Gi@@
audit
Offic@@
1976
1986
Brussels.
hospitals
Ly@@
company.
NSAIDs
(not
metric
discomfort,
aemia.
GR@@
sion)
Wa@@
2000-@@
MRL
colour@@
bruis@@
easily.
fire@@
resource
Ax@@
15-@@
al:
demonstrates
F)
off-@@
terro@@
MRP
fatal@@
phy@@
DO@@
includ@@
occasion
Serum
benzodiazepines
Lib@@
immunosuppres@@
testing.
izumab
ACT@@
polymer@@
phosphate,
azole
dyspepsia,
exenatide
sof@@
emia,
bile
viable
mutation
omer@@
am.
adolescents,
(two
instruc@@
}
rhythm
Nec@@
(400
cells)
eded
vacu@@
age-related
den
acetyl@@
ional
Continued
Responses
atives
aca@@
]).
isation,
insomnia
depression.
operated
macro@@
repe@@
signal
method.
gram
sco@@
website.
guid@@
establishing
FOR@@
lock@@
adapter
Insert
height
TAC@@
MUST
hydrochloride)
dabigatran
amine,
inu@@
Trinity
Degree
Masters
fumar@@
moisture
solve
clearance.
sparing
een
(0)@@
sector@@
PARTICULARS
durability
outcomes.
bet@@
UR@@
q
diffuser
cm)
micrograms.
m2)
bling
inal
Mus@@
ural
flu-like
ril
ón
Ger@@
ever@@
recon@@
refrigerator
treatment:
grand
stom@@
bruise,
adhesin
U*
least@@
lined
finger,
hydroxide
Recommendation
estonia@gsk.
155
07
Efexor
inhibitory
works.
spot@@
ts)
abscess,
its,
feel@@
spas@@
emtricitabine
148
Treat@@
14%
sens@@
ired
Cat@@
FORSTEO
ic)
Possible
bone.
INE
GP@@
ere
Calcium
channels
Grou@@
activated
Inno@@
switching
feed@@
disruption
orm@@
strength@@
rich@@
Through
Registration
Chairman
1996.
ez@@
London,
(PT)
occur:
permanently
complications,
uted.
arising
observed,
immediately,
exposure,
ements
insectic@@
paras@@
residual
tend@@
osing
prescribing
categor@@
(MRI)
big@@
bridge
UB8
ding,
public.
”,
reflected
labelling.
responsibil@@
Finally,
life-style
end-stage
Withdraw
Review
imatinib@@
discharg@@
CML
64@@
atively,
undergo
2000.
studi@@
vasculitis
§,
aid@@
refer@@
Sev@@
label,
Bot@@
031
EU/1/06/357/0@@
08@@
383/
o-
marking
atin
gen
ID
working.
listlessness,
ská
mmol)
ose,
histidine,
lymphocytic
chur@@
ret
Co
asc@@
AND@@
ature
infect
select
Somatropin
j
MIU/
realistic
term.
Open
Pregnant
ock@@
Four@@
Activelle
Slovenia
ier@@
Merz
Work
vers
experience:
Bratislava
alising
conference
Ten@@
remov@@
equival@@
400@@
mg”
ink
publications
stre@@
arranged
crisis.
complicated
eb@@
standardisation
conce@@
teeth
cross
atic@@
HB@@
Kur@@
asse
adul@@
when,
adine
Nimesulide
itor@@
omycin
exclusion
survive
doctor@@
authorisation.
Committee,
acknowledg@@
neurodegenerative
attack.
machinery
assumed
MT@@
commit
ir.
kn@@
that@@
Posology
Concurrent
contracting
accel@@
issue,
location
ide)
chew
cows
amoun@@
Chin@@
ese,
consensus
intensified
respect.
1990@@
Sweden.
ther.
Area
definitely
citrate
constituted
(MAOI@@
MIX@@
SO@@
INSTRUCTIONS
prefer@@
York
isophane
ward
vely
373
Amb@@
Lapp
lactase
INVANZ
telephone
reddening
analyses
ithromycin
begin@@
192
Mark@@
Repeat
cake.
Aspergillus
exhibits
Lou@@
cause.
prodrug
empty.
eastern
LDL-@@
(Invented
Pas@@
var@@
Meth@@
encies
24-@@
same.
HCV@@
sts,
eigh@@
bus
ped.
tric@@
values,
stronger
anabolic
preced@@
narrow
uncertain
innovation
conservative
Set@@
herd
million@@
identified.
stream
-induced
foreseen
Selamectin
counter@@
priorities
ful,
rings
ba
Rig@@
proceed
isolated
2008,
benefits.
ded@@
row@@
evaluating
psoriasis
draw
fication,
18.
lost.
audi@@
markets.
animal's
bis@@
mouse
deleg@@
Crohn's
candidate
alities
finance
Co-Rapporteur
decentr@@
tured
amend@@
Romania,
paraffin
ying.
bath@@
Communities,
nes@@
Merial
stage,
progress.
ner,
dairy
countri@@
conveni@@
struction
reac@@
sad@@
worth@@
Objec@@
PM@@
crow@@
affair@@
emerged
Monday
completed.
supervised
specialists
hun@@
rail@@
programme@@
reconstruction
knew
Purevax
ap
Hom@@
93@@
chain.
item
radio
resist
lived
four-@@
(Percent
ough
aj@@
69007
}>
plat@@
somebody
suspect
Manufacturing
OPATANOL
properly,
ety
Go@@
taining
Egypt
autonom@@
conduc@@
tren@@
Point
exper@@
Parkinson’s
los
band
well,
counter
mess@@
ward@@
mine
rigorous
Prophylaxis
o?
trains
rent
ş@@
Bos@@
instruct
happen.
mentioned,
unanim@@
draw@@
intellig@@
everybody
explain@@
systematic
eradic@@
th-@@
suffers
this:
calling
kinds
Serbi@@
bal@@
trag@@
mom@@
strategies
attrac@@
Roma
burden@@
youth
Naz@@
worker
ries
worrying
time?
guarantees
t'
s',
cultivated
diversity
conciliation
view.
stringent
ity'
relig@@
believ@@
offen@@
renewable
dump@@
fron@@
sold.
alised.
countr@@
rs
biggest
fail.
streets
cigarettes.
textile
factories
workers,
quote
journey
illus@@
remot@@
alleg@@
tionally
Zimbabwe@@
coastal
call@@
grown
freed@@
democrati@@
immigration
balanced
coc@@
tion'
itself.
prevention,
article
are.
transportation
escap@@
bat@@
diesel
cod
waste@@
authorities,
ambigu@@
Amnesty
predic@@
escape
enabling
dignity
invest
said.
brother@@
citizen
dom
ty?
campaign@@
discipl@@
Cambodi@@
moment.
perspec@@
excuse
abus@@
fortun@@
next?
catastroph@@
Indi@@
instinc@@
honourable
hypocrisy
board.
se!
deadly
£@@
Hungari@@
counterfe@@
allowance
batteries
becom@@
impro@@
viewed
biofu@@
disgrac@@
tonne
success.
property
OECD
prison@@
debate,
Constitution
geographical
disappear@@
champ@@
lorry
elections
peaceful
accus@@
ier
change.
flexibility
other,
fuels
Presid@@
arri@@
pure
watching
restrain@@
Iran@@
Unfortunately
(Mr
Simply
fishermen
colleagues
Well,
protest@@
rain
vehicles,
matter,
village
Was
cubic
referendu@@
hypocris@@
one?
badly
ang
patri@@
cosmetic
saving
scientists
metre@@
voters
action?
happen?
(H-06@@
(A4-019@@
6/97)
(A4-035@@
3/97)
Ferring
bronch@@
Ce@@
recovered.
guideline
0.8
peg@@
concentration.
N,
osteoporotic
Lymph@@
initiating
'(@@
veins
circulatory
-associated
sarcoma
antidepres@@
mic
enfuvirtide
ators,
alopecia
dose-related
bone,
Star@@
metry
emesis
dose-@@
disappeared
symptom
42%
charged
interference
thorough
h.
cuts
dl)
TA
hin@@
leg
agit@@
net,
as:
(all
see@@
dermat@@
vertigo,
disturbances
osph@@
timolol
worse.
ther
amen@@
orrhoea,
OPTRUMA
lox@@
constipation
transaminases
dum@@
ophthalmic
rasburicase
laropipr@@
preclinical
pursued
preceded
tolerability.
evident
22.@@
(mg/
returning
31%
16,
zumab
fin
experienc@@
28.@@
vitreous
apolipoprotein
classic
regimens
III)
Toxicity
Tasigna
alendronate.
2.5%
-derived
strains.
opro@@
ischaem@@
random@@
Vietnam@@
y),
occlusion
emtricitabine,
delay@@
exaggerated
granul@@
18-@@
formula,
(DVT)
fam@@
apo
ki@@
V/
id)
mobility
BID
transfer@@
RENEWAL
refriger@@
rapporteur@@
thick@@
occasional
follic@@
{PRODUCT
convulsion,
0.1%
Pur@@
practition@@
Third
Medic@@
teaching
1988
Micro@@
1992
Ash@@
electro@@
inter-@@
accumulate
potassium.
ALU@@
ment:
anxi@@
keratitis,
(Ph@@
spine
BM@@
UG@@
sucrose,
Talk
It@@
anticancer
detected.
clam@@
oesophageal
metabolites.
Hep@@
meningitidis
M)
Meetings
inspected
samples.
°@@
properties.
GLP-1
activities.
termination
2:
lumbar
Fever
Lab@@
ida
wards,
stations
introduced.
hypokalaemia
**
Sim@@
Rash,
poll@@
SVR
cure@@
calc@@
assessment,
certificates
radiolabelled
lips,
membran@@
Undesirable
protection.
Cases
lymphoma
seg@@
Reports
ML@@
convul@@
asymptomatic
Head@@
Danish
ances,
infarc@@
integrate
fits
oma.
sted
cos@@
septic
(10@@
-2
translation
Higher
increase.
er;
Ec@@
Ir@@
Transient
cow@@
beta@@
prote@@
micronucleus
anagrelide
Preclinical
Baseline
examin@@
dex
(2.4%
cellulitis,
ted@@
IntronA.
.org
http://@@
inhaler
considered,
Meas@@
rhyth@@
volumes
Daily
repro@@
grap@@
enzyme@@
(Hypericum
dark@@
cef@@
sepsis
proliferative
-term
associ@@
gal@@
Syn@@
(hyper@@
vitro,
trop@@
woun@@
Weesp
KE@@
facility
IA
valproate
atitis
oedema)
s):
osis@@
Allergic
ons.
certification
(IT@@
Transdermal
straße
Bir@@
breath.
EC
PER@@
SS@@
350
J/
vein,
steady-state
Rash
urgency
stiffness,
package,
Monoamine
insulin)
worsen
month,
oring
attach@@
abscess@@
forming
candi@@
procedures,
pression
Out@@
diseased
edetate
resolves
guidelines.
6900
654
Novo
Trading
9750
177
ination,
bed@@
med,
ringing
inability
nonproductive
pass@@
scan
Stevens
System@@
ky
breaks
IX.
now@@
potassium,
gens
Norway
strain)................................................................@@
........
Advagraf
enforcement
counterfeit
ably.
cleavage
menopause.
MPS
hormone.
quin@@
continually
transp@@
roll
'and
puber@@
Unit@@
tracking
expressing
168
narrow@@
Class
aus@@
partner@@
2006,
meal@@
rituxim@@
persists
105
elev@@
type@@
AZ@@
",
symptom@@
antibiotic@@
flush
Intr@@
Bondenza
calculation
preparation.
encoun@@
follows
advisable.
IDE
communications
subtypes
models.
RELISTOR
Holding
(SP@@
medication.
intoxication
DA@@
method@@
dialys@@
87
Tru@@
delaying
(E171)
277
glass,
-filled
Associ@@
matters.
itary
Approximately
rhinorrhea,
Cr@@
lob@@
Jos@@
57@@
benz@@
oil.
APPEAR
SOLUTION
CAP@@
030
032
3ml
337/
363/
033
001/
swab@@
lay@@
hypotensive
eled
breast@@
cents
Excipients
ethanol
ves@@
abor@@
assi@@
holes
dg@@
shelf
ene.
Bla@@
arthralgia,
CHMP,
submit
know@@
Great
shire
tightly
Bus@@
ratiopharm
obacter@@
premises
Form@@
zi@@
Tem@@
D-60318
syndrome).
ulcer@@
rare:
acu@@
gad@@
+421
delivered.
strongly
Usually,
cartilage
1A@@
iel@@
ž
eral
Bulgaria
lutropin
73@@
Italy.
COX@@
oxib.
events/1,000
manic
At@@
agglut@@
uria,
(FVH
strains):
Pan@@
strain)
Hydro@@
loxacin,
ams
eff@@
dihydro@@
History
0%)
Ibraxion
deleted
ext@@
SME@@
ensured
Standing
Paris
eradication
Sometimes,
1998,
purely
1%),
Recently
exhibit
grounds,
illness.
split
eding
double-@@
Alternatively,
lick
lacking
secreted
and-@@
ild@@
lev@@
magnesium
inhibitor.
Penta
years).
reading
apping
combine
1997.
ada,
fall.
genic
Pedea
quo@@
ior@@
solvent.
laying
leafle@@
INCRELEX
Lansopraz@@
repair
Toxin
10.
FURTHER
INJEC@@
pushing
quick@@
Acc@@
determining
(Child-Pugh
Child
justifies
should,
dict@@
psycho@@
INVEGA
asse@@
Sp@@
fasci@@
chi@@
era
cen@@
DR@@
ø@@
Do@@
yt@@
Bud@@
iber@@
tyrosine
kinase
mun@@
connections
sail@@
El
ylation
STO@@
T).
Economic
HDL@@
perform
devi@@
Bb
MicardisPlus
sector,
participation
housing
backing
ahead
Salmon@@
20.
implic@@
30°C.
risks.
depleted
incentives
il)
drug.
cle@@
inevitably
metabolic/
elevating
genotypes
Ritonavir
eder@@
healing
acceptable,
swallowed
fied
DV@@
Better
downward
Ty@@
placement
opi@@
ir,
exerts
elimin@@
consisted
cake
(inhibitors)
attempted
delivery
set@@
preventative
allowed.
aries.
SR@@
duc@@
201
diure@@
Xeomin
floating
Far@@
c.
considerably
mati@@
18,
Ret@@
aggravated
+371
conserv@@
injection/
sive.
180@@
feed,
variability
high.
texts
variety
med.
alpha@@
noti@@
episode
State.
commitments
fulfil@@
Sab@@
waves
Group,
all-cause
releases
obligations
gross
facilit@@
breed@@
esc@@
dissemin@@
implications
Elec@@
rescue
anticipated.
commitment
finds
associations
allergenic
horse
tel
pedi@@
contributing
enjo@@
volatile
campaigns
maize
soil,
Var@@
avoid@@
atics
nal@@
calendar
here@@
Sul@@
pow@@
op
Zonegran
itself,
character
en:
sent@@
-P@@
ined
invent@@
species,
average,
supervis@@
ity;
GD@@
wast@@
recep@@
responsibility.
thri@@
cards
users.
educated
mass@@
adopted,
vely.
allocation
uni@@
access@@
compli@@
regi@@
laun@@
retain
reserved
fied,
duly
ically.
arrest
tiny
tains
ware
deliver@@
good,
+40
expressed
policies.
+32
ri
shortage
Belgi@@
Tony
aviation
interpret@@
Eth@@
Mari@@
consul@@
own,
complaint
Pat@@
tens
treated,
ept
enz@@
substanti@@
Immeuble
seas
MIC@@
ite.
class@@
15%.
toler@@
ost
interpreted
ils
DOSAGE
ility,
reads
shut@@
precautions,
Porcine
decides
orders
Porto
condition.
about?
won
pages
Psoriatic
quar@@
ania
ence@@
supplier
has,
while,
screen
worried
ners
organiz@@
Sem@@
Prov@@
fifteen
Succursale
scientifically
Athens
hurt
competence
tabletter,
smell
(specific
bioactivity
protein).
irrigation
rest,
co
NovoLet.
FlexPen.
crew
his/her
recover
realise
scrap@@
reason.
nutri@@
balanc@@
arguments
differen@@
infra@@
structure,
comprehensi@@
announced
prohibited.
debated
build@@
dies
carriers
rules.
penny
where.
schemes
hospitals,
modern@@
tackled
most.
fertil@@
Czech@@
consumer.
oppres@@
religious
spending
prisoners
either.
alarming
penalties
missions
research.
lav
workers.
sou@@
popular
civil@@
torture
import
love
simplified
vibr@@
phenomenon
homes
disabilities
SARS
occupati@@
us'
all-@@
corrup@@
reput@@
territory
tability
society.
unemployment.
dictatorship
banned.
indeed,
Council.
girl
ague
poverty.
ners.
tell@@
tariff
force.
leaves
employee
groun@@
spoken
see,
impres@@
scrap
...@@
a'.
u,
kind,
'The
heading
duplic@@
abroad
disasters
extraordinary
detained
person's
threatened
organis@@
NGOs
tier
arrog@@
fied.
nick@@
employment.
reimbursement
enem@@
nothing,
first,
y',
register
ageing
inde@@
foodstuff@@
also,
grand@@
ports
force@@
speakers
environmentally
expres@@
online
jack@@
-year
nonetheless
examine
seeds
confron@@
criterion
bull
pursu@@
struck
vote,
imperi@@
doctr@@
mini@@
said:
ably,
honest@@
spirit
distor@@
leav@@
politicians
cynic@@
random
licence
Indonesia
happy
earli@@
Here
real@@
schools,
unfair
alongside
Russia
destruc@@
perspective
leadership
fear@@
accidents.
2010,
aries,
competitiveness
Council's
struc@@
emphas@@
obliged
OLAF
Olymp@@
homosexu@@
ageous
Parliament@@
boat
remark@@
fired
protests
mines
punish@@
yes,
Someone
AIDS.
oned
power,
rock
instrum@@
manoeuv@@
tonnes;
ture?
admission
map
cou@@
truth
discover
bann@@
solar
revenue
declar@@
constituency
Wall@@
Now,
if,
now?
reconc@@
lav@@
purpose?
Rule
strateg@@
assumption
wrong@@
made?
Const@@
legitim@@
speak@@
cloth@@
Either
/2002
Think
Whatever
years?
B5-0@@
achieved?
(A5-012@@
9/2001)
6/2001)
Anything
A/@@
moxifloxacin
granules
diphtheria,
vaccines.
OVI@@
e'@@
X-ray
occurred.
high,
9/97)
Overdose
27)
scene
95@@
recorded.
intravenously
disturbance,
al),
bexarotene
uter@@
longer.
hypoglycaemia.
ting@@
abscess
insulin@@
carcin@@
tle
4.6).
infiltr@@
intervals.
mitotane
HIV-@@
RNA
161
19.@@
4.1
points,
Viracept
0.001).
ACT
reacts
alive
assays
rufinamide
yourself,
ving,
176
inadvertent
chloride.
aminoglyco@@
idine,
ocytes
39.@@
Day
133
discomfort
Grade
16.@@
everyday
Celecoxib
(PF@@
Thelin
capacity.
umab
depart@@
2-3
700@@
ULN,
QUADRAMET
-agonist
3,@@
glucuronidation
HT@@
heter@@
acne
genit@@
regimens:
511).
514).
505).
sity
3-fold
ULN@@
HBeAg
dipivoxil
repeatedly
intermedi@@
lipo@@
ane@@
(7@@
25.@@
HD@@
vaccination,
excell@@
HER@@
eme@@
viruses.
undergone
hist@@
208
prasugrel
(low
470
ranitidine
hepatically
auc@@
rum@@
±@@
defer@@
stol@@
exposu@@
Actraphane)
Mixtard)
InnoLet
publication
rimonabant
YENTREVE
collagen
hydrolysis
(CYP@@
glu@@
tablet.
avir/
(based
isation@@
tolerance.
anti-eme@@
inactiv@@
ator,
sin
defici@@
ility.
faeces.
irritability
ulceration,
excit@@
spir@@
eling
BSc
ater
eric@@
1987
1994,
(non-@@
dox@@
precipitates
continuously
antagonists
g)
ING
EV@@
detach@@
ard,
Similarly,
Retinal
yc@@
supplement@@
wise,
flat
anticoagulants
(E17@@
have/
kit
reflux
discontinuing
Hal@@
trib@@
613
breast-feed
numerous
orm
Proprietary
lis@@
influenzae
ribos@@
medication,
cav@@
µm
hypercalcaemia
cells).
trigger
hydrogenated
Kaletra
bir@@
ety@@
Camp@@
postmarketing
Win@@
received.
interstitial
RD@@
orthostatic
pigmentation,
Various
aberrations
family.
ens,
Bone
ire,
4.8
Antibodies
Post-@@
nia
xi@@
haemophiliac
Diarrhoea
attempt,
splenic
sensitivity.
ingu@@
Aseptic
PK
epilepsy.
attemp@@
sis@@
co-
valdecoxib
138
1400
Lanc@@
Low
Secret@@
electrolyte
Peri@@
Exper@@
CYP2C@@
Foscan
genotoxic
avir@@
phthal@@
frequencies
iodinated
Disinfect
Wi@@
proce@@
suspec@@
zoster,
135
MM@@
Agency@@
kerat@@
darifenacin
confirmed.
consequence,
is),
mail
licensed
5.17
involuntary
Paxene.
Hepatitis
yel@@
Complete
infusion-associated
lung@@
integrity
forwarded
reported,
open-
gen.
insurance
ini,
drugs.
disorders).
idine
dness,
hypoaesthesia,
cope
(haem@@
aggres@@
calcitonin.
rim@@
ech
instance
Typically,
Est@@
ör@@
GmbH,
190
before@@
ative@@
Control
sia,
clobazam
(other
fit@@
EID50
ways,
below)
platelets,
Confidence
factors.
controlling
1995,
ester
qualifications
OptiClik
fec@@
Aut@@
Service
Corporation
School
uk_medinfo@allergan.
Doctor@@
mission
1.1
37.5
pre
en)
stool
chills
Alexand@@
Executive
Chief
Directorate
Red@@
ley,
ari
à
Char@@
rine
stit@@
Avonex.
13%
show@@
Exelon
unc@@
use:
order,
gastro@@
flatulence,
tension
Therap@@
fatigue
epidural
mature
outbreak
remainder
Ε@@
msdeesti@merck.
Commun@@
Ban@@
ér@@
3A@@
pil@@
Flu@@
ashes
grey
Cerebrovascular
events:
Commonly
wanting
ache,
tis),
reflecting
GS@@
bru@@
Inf@@
eyelids
an's
substituted
AT,
elevation
Os@@
NL@@
canarypox
P-gp
catalytic
scal@@
progest@@
gen,
signature
Heads
SCH@@
Year
len
(HIV)
ices
Switzerland
recovery,
6%.
characteris@@
age:
intravenously.
(serious
tolerability
ide-@@
rinsed
CRIXIVAN
Revatio
Avastin
bacteria.
Pop@@
visible,
suspicion
rist@@
bin@@
Savene
insulins
Ery@@
(PSUR).
Consequently
inducer
CoAprovel
energ@@
Gemfibrozil
convinc@@
regim@@
Apidra
harder
exagg@@
pepti@@
treat@@
precau@@
corp@@
endor@@
otide
prepare
hormone,
tically,
fasting,
exclude
hil@@
220
happen@@
constituent
MTX
arium
mission@@
bed,
renin-angiotensin
blocker
About
signals
horses.
(PE@@
therm@@
polypropylene
0.2%),
moist@@
amil@@
410
Nacional
phenothiazine
sympath@@
neonatal
FA@@
ultrasound
meningitis,
questionable
INFUSION
packag@@
oint@@
mean,
open-@@
ampou@@
/008
bioset®
153/
285/
108
034
capsules)
EU/2/05/054/0@@
adopted.
Xolair
†
application.
surgeon.
elective
recipient
animal.
Neupro@@
bright
ha
dilu@@
yethylene
injections,
Also
Park,
PO9
2NG
penetr@@
Vials
packs.
restored.
closure.
386
LY@@
spare
Proposal
stro@@
FOSAVANCE
GFR
rash@@
lied
rene
behalf
heal
reti@@
ž@@
difficul@@
hepatomegaly,
opia,
Twinrix
aph@@
mos@@
lenses
orang@@
ver
moder@@
Siklos
atic.
ill,
TIC
retic@@
Bulgari@@
08
A).
interferon-@@
arrang@@
authoriz@@
ars,
→
essential,
partner
patient-years),
DE,
PREPARATION
GU@@
TAXOTERE
01
attacks,
organism
mania
chairman
revenu@@
offices
Hor@@
eti@@
possess
cortis@@
patch.
structurally
chicken
pum@@
Vas@@
impairment,
IBR
GA@@
Notice
weigh@@
S).
provisional
dopamine,
holds
Substances
1989,
serving
avoiding
organisations.
Secondary
bearing
ral
theoretical
distingu@@
Cholestagel
crush
contributions
bud@@
atory.
mention@@
improved,
alternate
primed
trends
obesity.
serious.
executive
CN@@
BI@@
learned
arsenic
tion),
ft
infarction.
sequence
transl@@
recognition
Slovenia,
strength.
excellent
fentan@@
was,
IMPORTANT
Incid@@
TV@@
influenza,
But@@
opportunistic
Below
Nausea,
free@@
ied
pituitary
upright
incorpor@@
instruction
Pugh
rang@@
Rosiglitazone
Insulatard
acqu@@
one:
term@@
anti-retroviral
replication
Lundbeck
r.@@
man's
Jalra
las
TO@@
filling
juice
steadily
421
Levetiracetam
practice,
-8@@
AE@@
fusion
Farmacêuticos,
ora
14-@@
Conven@@
mutagen@@
onin
strains
dus
ordered
consequently,
syn@@
marginally
improved.
cel
Opgenra
adop@@
equipment.
enterprises
light@@
discretion
je
Desloratadine
ciclospor@@
APTIV@@
short-@@
checking
precursor
pharmacokinetics.
formally
spra@@
imatinib
match
calicivirus,
ared.
(Amplicor)
serotonergic
lasted
glycogen
summaries
powder.
pushed
ng@@
gas@@
calm
causal
cov@@
inherited
forth
pending
naloxone
alizumab
reservo@@
beta-
papers
Nov@@
lesser
tigh@@
standardised
scr@@
ne.
fattening
arbitration
specul@@
Osigraft
result.
posed
preclude
-specific
Rivastigmine
yl,
Plan@@
views
Prior
prof@@
Sta@@
Om@@
FORCALTONIN
eptotermin
aspar@@
hydrogen
'-@@
prepa@@
dimethyl@@
Tas@@
ave
who@@
intense
compensate
partly
i.e.,
Vacc@@
autom@@
refusal
pulled
chemically
utes
Sandoz
advanc@@
Kab@@
polar
strip
cep@@
shown,
fracture,
Action
morbidity
channel
hour,
{tel}
{fax}
{e-mail}
links
meat@@
consisting
challenged
sealed
only).
appro@@
ate).
picture.
organisation.
figure@@
plung@@
dium
means,
can,
Probenecid
particulate
discussed.
ice.
anced
dre@@
son,
sts.
hierarch@@
strong@@
sites,
rabies.
needs.
Steady
display
ency,
infected,
epidemiological
Currently
1,715
suppres@@
8%),
add@@
walking
offic@@
section,
influ@@
retention
Macugen
personality
713
bottom@@
thigh.
requirement.
diameter
aggregate
emitted
TB
rid
unclear
cohe@@
follows.
radical
lys@@
manufacture@@
outcomes
approach,
material.
succeed
2003,
2%.
Tech@@
divis@@
panel
ensu@@
arom@@
mm@@
uz@@
deter@@
l'Aviation
val
ble,
codes
confusion
One@@
sampling
sugar@@
diagno@@
machin@@
transactions
ical.
transmucosal
six-@@
just@@
emerge
consist
loop@@
Luxembour@@
She@@
ul
')
turning,
consumption,
Man
Cre@@
el-@@
regulate
Pu@@
stem@@
isers
defin@@
mented
adapt
thy
bull@@
45,
pel
2009
ante
EACH
SPECIES,
protection,
Sloven@@
markings
)?
Americans
bury
arrest@@
tex@@
atives.
paper@@
Span@@
warning.
guard
mother,
completed,
tern@@
met,
back.
Stop
committing
smoke,
wish.
HAART,
concer@@
issues.
MSDBelgium_info@@
account,
northern
Sha@@
Sanderson
1DH
number@@
imperative
inciner@@
Erasmus
Thirty-@@
ope
logical
SMEs
pulp
day-to-day
candidates
compet@@
heating
ud
REAC@@
behaviour.
deemed
vegetables
encouraging.
hand.
service.
turns
valuable
landscap@@
enorm@@
ozone
Eurobarometer
bell@@
igno@@
seconds.
terms,
prov@@
pollutants
symbols
rs.
Unemployment
earth@@
execution
appli@@
temp@@
governments
disastrous
suffoc@@
alistic
like,
Constitutional
constitutional
religion
merg@@
decades
parents.
situation,
prosper@@
longer,
roads,
assist@@
transporting
traceability
directiv@@
violence.
earn
music
centres.
seven@@
en's
recognis@@
declare
cover@@
destabil@@
merch@@
combating
distinguish
matter?
communities.
happ@@
river
án
daugh@@
service,
built.
ys,
twenty-@@
war.
smil@@
subsidy
contr@@
healthier
ridicul@@
dynam@@
penalty
outside.
dependence
costly
mud@@
else.
demonstrations
regions,
proposes
hecta@@
lands
prevented.
paint
jeop@@
dramatically
moment,
colleagu@@
under-@@
employment,
aid.
researchers
on-call
tragedy
traffic@@
contamin@@
territorial
ation'.
ation!
ed'
Tun@@
repercussions
borders
sadly
purpose,
prison.
sufferers
signed
Balk@@
problematic
sible.
triumph@@
confidence.
2013
guarante@@
homel@@
democrac@@
1/97)
crimes
wine,
ry.
wish@@
stipul@@
eth
master@@
journalists
ity!
1980@@
Green@@
Jean
atmosphere
Aid
dramatic
resolution,
landing
HIV/AIDS
terrible
Indeed,
look@@
contribu@@
brutal
seed
surplus
cabin
settlement
insu@@
sport
ecological
exces@@
prerequis@@
univer@@
Mur@@
storm
flood@@
smuggl@@
future@@
expense
sentenc@@
evil
detail@@
gentle@@
constitution
producer
policy.
cure.
campaign
fantas@@
surely
greenhouse
fleet
imper@@
fisher@@
books
expor@@
decision-making
incentive
centuries
Mandel@@
prac@@
wrong.
inven@@
organization
neglec@@
films
Internet,
journe@@
Obesity
biofuels
judicial
confisc@@
nation
good.
COM
fraud@@
revolutionary
elsewhere.
engine
floods
desper@@
killed,
announce
English,
hit
Guine@@
whis@@
job@@
ians
win
appoint@@
here?
endang@@
thers
Wednesday:
Adam@@
phased
'European
suggest@@
forever.
Madam
Jes@@
stup@@
Gaz@@
forwar@@
cannot,
all?
beginning.
wis@@
pension
caf@@
?"
Whilst
cared
black@@
gathered
Sadly,
dispar@@
innocent
questioned
money,
es',
And@@
deadline
wage
dé@@
invented
yer
Israel@@
newspap@@
murde@@
parliament
myster@@
Octob@@
liberalisation
mesh
cast:
refused
wo@@
Turkey@@
abduc@@
dered
law.
flax
principle.
one!
applause
place?
'no@@
misunderstand@@
/2005)
Secondly,
on?
/00):
(A5-016@@
(A5-035@@
DK
sanofi-aventis
swab
zidovudine,
ock
O)
hypox@@
component.
aripipraz@@
arthri@@
92%
animal,
locally
subgroup
8%,
Cyanokit
7%,
discontinuations
phase,
willing
predispose
Instead,
follicular
memory
tonia,
deaf@@
ischaemia,
Tum@@
meningitis
thought@@
hostility
(predominantly
Ev@@
gia,
osteoporosis.
(ACTH)
depicted
terminated
reversible.
femoral
ga
Flebogammadif
responder@@
Fron@@
allowed,
(prolonged-release
NeuroBloc
responsive
Evoltra
parties,
slaughter.
overdosage
shock@@
harmonise
food-producing
uncertainty
exists,
occurs.
3.0%
lenalidomide
kidneys,
size.
2.47
lymphatic
hallucin@@
activities,
cidofovir
malformations
33)
visit@@
program@@
8),
erec@@
techniques,
upward
(10.@@
SonoVue
H1
females
aemic
HCV-RNA
es/
107
1,530
micrograms/kg/week)
micrograms/kg/week
cognitive
performance.
estim@@
kg)
56.@@
Zocord
comparative
duration,
DMARD
9%)
eleven
months).
Adv@@
rated
Mir@@
Forsteo
retin@@
egg@@
Luminity
tipranavir
(N=
for?
leaked
IDflu
posaconazole
alterations
33%
estradiol
optimisation
dar@@
rating
events;
photoc@@
CY@@
112@@
7%.
lowered
intensify
course.
Actrap@@
7).
deposition
familial
pharmacologically
(AD@@
25)
bow@@
Carcinogenicity
prepar@@
Organization
SION
__
me:
inging
topics
bilirubin@@
defic@@
fistul@@
genital
1986,
endos@@
Service,
Hospital
Abadi@@
1992,
physi@@
CPMP@@
Secretary
stry
-1.@@
resi@@
perfor@@
ods
GN@@
degener@@
pigment
iri@@
photophobia,
Mild
vecuronium
surface.
nebul@@
supplements.
MAOI.
ress
phosphate)
Porcilis
prevent@@
Proportion
turn,
leaflets
valid@@
cir@@
abine,
ly).
han
Suicidal
Depression,
Pre-@@
E2
distres@@
baseline,
04@@
etic
origin,
ribavirin)
translations
alys@@
]-@@
tes@@
gestation
rhabdomyolysis.
gres@@
thrombocytopenia,
ocytosis
y-
lamotrigine
glomer@@
Sut@@
anti-epileptic
fluoroquinol@@
aches
(19@@
dez
Sup@@
secretarial
XX@@
97@@
or-@@
K)
ix
persist@@
IC50
sim@@
varicella
By@@
eyel@@
stiripentol
numbness,
soun@@
swallowing,
INTELENCE
imbalance
4.4),
HMG
(MR@@
BSE@@
cans
Zenap@@
CLL
fibrill@@
rip@@
aching
neon@@
occas@@
bacter@@
vasculitis,
--
---
cationic
Dam@@
idiopathic
Thalidomide
Celgene
intr@@
VA
rhabdomyolysis,
criteria,
radiotherapy
diagnoses
observers
anaphylactoid
ritis
2833
tion;
macroli@@
Consistent
averaged
2003.
lymphoproliferative
Trac@@
urination
airway
Upper
gang@@
rely,
Tan@@
Ltd.
Draft
zing
connect
orphan@@
(containing
Industry
neurolog@@
ously.
sores
Stom@@
anos@@
Emtricitabine
infective
nightma@@
oxygen,
dop@@
ria,
TION
PP@@
Breast
neutropen@@
controls,
0.000@@
Sun@@
EEA
Gradu@@
fellow
University,
non-governmental
endoc@@
deprived
l).
lax@@
Potassium-sparing
Mou@@
economics
Document
pertechnetate
(99mTc)
dl.
Sm@@
b/
negativity
contains:
(17@@
Fa@@
cular
dryness
Ple@@
sweats,
Fati@@
resul@@
Poly@@
prolong@@
AV@@
Drug
Nation@@
ament
aven@@
45@@
ny
te,
AIDS,
tylvalosin
(especially
another,
trav@@
phenytoin
supernatant
self-
(ADRs)
reconstitu@@
tells
stop.
aggregation
Sexual
High-@@
nasopharyngitis,
848
candida@@
bolus
apped
WT
F4@@
ac,
Education
destination
940
Β
GYÓGYSZERKERESKEDELMI
KFT.
Järvevana
@merck.com
405
gatan
si
depot
Ant@@
food:
Potential
vastatin,
anaesthesia,
procedu@@
difficult.
hos@@
sis,
patients):
movement,
tooth@@
prostate
people)
eing
stil@@
OG@@
tingling,
n't
clot
brown
bum@@
marg@@
myopathy
sensation,
glands
stomach,
ensi@@
iris
0.7
lipid@@
fulvestrant
cholera
HPV-18
B-1180
tec@@
absent
ode
silver
Haemoglobin
or)
dose-depend@@
ologically
Hampshire,
Lin@@
posing
faec@@
dor@@
CCID501
cephalospor@@
sulfase
cyste@@
Novo@@
syndrome),
olysis
tiredness,
affec@@
cross@@
warranted
oestro@@
satisfaction
Fax
indications,
Bon@@
Strasse
liquid.
stra
1999.
publish@@
actions,
Knob
(every
alpha-@@
enhances
restored
treatment@@
bloody
shor@@
consulted
PML
compounds.
successive
tioned
newborns
HIV/
UR
refrigerator.
identifying
instances
Robert
Agopton
pist@@
activi@@
65%
asing
timing
r-HuEPO
Dol@@
of-@@
defenc@@
(about
components,
oda
regres@@
gir@@
Hepat@@
PT
compromised
hours)
unpreserved
(activated)
Fluoxetine
sulf@@
cloud
appears,
89@@
Ph+
No.
systemically
harvest@@
Mart@@
rifampic@@
F.
mother.
ere,
mus
ition
SEN@@
ATE
mol/
225
photosensi@@
urea
swab)
/006
/007
292/
293/
354/
EU/1/06/357@@
421/
EU/1/07/425@@
EU/1/07/425/0@@
EU/1/08/464@@
EU/1/08/465@@
EU/1/08/484@@
EU/1/08/484/0@@
Initial
ob
rosace@@
Gem@@
nostr@@
indoor
moist
surfac@@
applied.
Exceptional
es’.
phosphokinase
colourless,
(E420),
propylene
fos@@
trometamol,
fla@@
anaem@@
Paris,
opened,
670
F-9@@
(0)1
bones,
ma,
Stra@@
tes
28108
strasse
Zir@@
Havant
assurance
operations.
surfaces
by,
Kr@@
Fertavid
Formal
Panleukopenia
fibre
donate
ly)
Syringe
Luer
500,
cleaning,
incineration.
con
solu@@
alendronate
lin
route,
calibrated
Tro@@
isa
calculating
2100
femal@@
depression@@
y).
♦
vaccine):
Nas@@
obut@@
contrast@@
disco@@
ink.
aqu@@
INVENTED
gene@@
instillation
mail@@
ity:
alis
ria
hap@@
TRO@@
Neutrophil
UP@@
opo@@
ide),
harmless
circulation.
bert
Jean-Louis
patch@@
Hist@@
anaestheti@@
child.
discontinuation.
(infection
bridg@@
Peter
ef
haemorrhage@@
tification
anded
sulphate
hid@@
excipient@@
zapine
adjuvanted
emul@@
Euratom
immature
Preotact
5.1)
fragility
adver@@
synaptic
erous
secretari@@
circul@@
ketoacidosis
mind.
AT1
replacing
visible.
Valnemulin
nar@@
chemicals,
positiv@@
lateral
ml),
Econom@@
cell)
dosage.
verify
Tadalafil
recommends
Mer@@
HCT
contracep@@
meets
nelarabine
protein-@@
substrates
>,
intake.
convincing
O-@@
aler@@
closely,
rob@@
benefici@@
Sildenafil
file
technetium
99mTc@@
syndrome@@
clastogenic
noticeable
avail@@
withholding
malignancy.
ib.
mutual
Kingdom@@
gras@@
licensing
85@@
hypokalaemia,
chickens.
immunosuppression
glycol,
influenced
worry
spasm
pneumonia@@
cellul@@
lers
ffic@@
artan/
M-@@
ATED
tablets:
soy@@
Invirase
ised,
noc@@
haemodialysis,
grav@@
deferasirox
Vaniqa
INTER@@
gain@@
false@@
CYP3A4.
acy.
Bil@@
representing
800@@
accident,
(HIV-1)
occupied
FR@@
Ital@@
WI@@
Janu@@
Hus@@
members.
judged
withdrawing
ova
fer
burg
flav@@
05
5%.
assist
Rua
enda
Sus@@
lus@@
rejecting
solvent@@
glomerular
riton@@
disturbed
Tam@@
shortly
Communities
.”
adjustment.
sedative
ace@@
graduated
purple
disulfide
fili@@
separation
selective,
hydroxy-@@
glut@@
aug@@
target.
bate
daily).
no-@@
rapid@@
Follow-up
sheep,
pon@@
Up@@
three-month
extent.
s”
differs
G.
horizontal
king.
warm
refrigerated
TP
sugar.
named
sam@@
metabolites,
beta-1b
accepted.
BSC
hands.
species.
Ari@@
eventually
dan@@
announcement
antigen
volume.
fairly
away,
omas
enterpris@@
pre-donated
reserve:
leukaemia.
dispos@@
governed
78
indirec@@
gluteal
en-@@
lar@@
single-@@
vigabatrin
solved
Kor@@
forecast@@
overex@@
warn@@
tizanidine
degenerative
parties.
escalation
195@@
fashi@@
sing.
mia
criteri@@
assessed.
safeguard
proposals,
50/
equivalence
dest@@
simpli@@
AIDS@@
irradiation
organisms
Day@@
disagreement
astro@@
shut
address}
rapporteur,
prop@@
Vitamin
intra-@@
Bab@@
proven@@
pot
concentrated
Lenalidomide
excre@@
logo
Mas@@
closed.
self-inject
Mixing
José
subjec@@
larg@@
bec@@
five-@@
1);
silicone
bes@@
ateral
agent,
teams
anaesthetic
sia
intermittent
gn@@
cab@@
deepening
beam
Puregon
cycle.
anim@@
ved.
voc@@
irs
developed,
u.
forese@@
BN
smokers.
messages
rences
shortcomings
compon@@
ond
1.0-3.0
pyrexia,
count@@
hand-@@
strange
plate
ek
ated:
respective
ender
VASOVIST
warming
6.0
EXELON
Ze@@
threat@@
liter@@
ipril
aut@@
recall
prescribe
sewage
presenting
remember.
(OHSS)
oxygen)
energy-@@
gate
waste,
Len@@
pigs.
É@@
("warning
symptoms")
tory
thetic
N-glycosidic
O-glycosidic
VEGFR@@
Russia,
compl@@
es/@@
blistered
permit@@
chills,
ude
Users
birth.
Live
4.3%
efl@@
Ori@@
methods.
machine
dish
scheme@@
Rus@@
Exposure
cel@@
ė
Ab
targeted
brief@@
agend@@
anaesthes@@
insec@@
Harmon@@
Io@@
inisation
114@@
hood
ANC
Fal@@
fats
reveals
promp@@
susceptible
insulin-degrading
ail
Neuroleptic
42@@
Général
tural
PO
ara
(Norge)
memb@@
(unstable
Open@@
Pen,
Northern
propor@@
number,
sharing
appliances
890
long,
damages
recycl@@
investigation.
Oprymea
pictures
help@@
yield
Turk@@
parliam@@
works,
missed
Yet,
Parkinson@@
atel@@
1%,
ven
bel
351
358-(0)20-7570
anta
Vall@@
ika
Greater
39,
dropper
word@@
to:
air,
N1
uniform@@
sibility
USA@@
ko
-off
Around
Maj@@
schizophren@@
kne@@
teen
up?
ARD
IG@@
translated
home,
Placebo-Controlled
[ml]
capping
Were
ordin@@
Foreign
ana,
Triatec
Amsterdam@@
pregnanc@@
enough,
ef,
falsi@@
Sinusitis,
off,
institute
(hyperglycaemia),
personnel.
hypo
career
doors
ach.
ifications
bee
ls@@
reno@@
disc@@
ning,
withdra@@
quarter@@
port,
remin@@
Armen@@
inquiry
semin@@
new,
declaration
bench@@
value.
strang@@
plut@@
choice.
head,
langu@@
obes@@
Ireland@@
e’
simpl@@
seeking
Iraqi
doz@@
troops
ned.
accidents,
discre@@
flexib@@
beli@@
investments
nan@@
building.
outbreak@@
stein
vodk@@
Eurostat
appalling
retirement
wine-@@
toys.
destroying
groundwater
neighbouring
historic
tives.
recycled.
additives,
colonial
practically
cock@@
alg@@
ner.
anding
feature
moun@@
exploit@@
crop
wood@@
genuinely
found@@
dang@@
purpose.
rivers
pun@@
imposed.
ased
energy.
rehabilitation
sport@@
chequ@@
House.
sentences
objectiv@@
Arab@@
ground,
suit
vulner@@
leader@@
Presidency.
shopping
south
southern
heavily
dishon@@
Mediterrane@@
Sum@@
Innovation
world's
saved
sourc@@
antic
beet
moral
Vehicles
safeguards
ani
noble
marri@@
civilians
ily.
wine@@
forbidden
journeys
registr@@
Bis@@
necessar@@
vague
camp
in-depth
debates
retained
bodies,
passports
electoral
fingerprints
Shal@@
handic@@
inhabit@@
abuse.
prospects
yard@@
everything.
Turkish
passeng@@
2010.
unemployment,
terms.
prevalence
anybody
witness
Muslims
devoted
sters
minutes,
habit@@
sions.
asking
Chamber
deliber@@
understand@@
alism@@
Serb@@
decision,
Price
wide,
rights.
convergence
seized
keeps
refuse
regar@@
polluting
humane
hus@@
earthqu@@
ideology
ight,
government@@
VO@@
brominated
alleged
billion.
profit
dol@@
roots
soul@@
emig@@
er'
manipul@@
xenophob@@
diox@@
wil@@
promis@@
school.
possibilities
Alzheimer@@
bank@@
high-level
Mun@@
beans
autumn.
decoupl@@
expenses
true.
knowing
hidden
aids
list,
players
coins
admis@@
promo@@
exploitation
humanity
pollution,
socio-economic
fundamentally
varieties
rers
exemp@@
refused.
attitud@@
perver@@
jobs.
fiv@@
broadcasting
ware@@
petro@@
reserves
lessly
derogation
friend
prison,
virtu@@
honest
states@@
ignor@@
entity
ury.
privileg@@
list.
Croati@@
trust@@
insur@@
Inflation
justifi@@
invention
Coc@@
tific@@
Omar
success@@
citizens.
2004,
amend
plur@@
barome@@
sensible
unfortunately
recreational
departure
principle,
inqu@@
ly!
criticism
Vote
promot@@
agreement,
condemn
equal.
yet.
Chamb@@
obstacle
underestim@@
Bell@@
Europol@@
deduc@@
violence,
Lord
ers’
trees
plane
registe@@
bing
envis@@
flooding
whatsoever
acks
congratul@@
town@@
sea,
absur@@
MEPs
wind@@
ceiling
employer
televis@@
introduc@@
reality.
solidar@@
ruthless
day:
transport,
Ombudsman
democracy?
an?
wearing
institu@@
catering
foot-and-mouth
figures,
energy,
freight
reck@@
Mad@@
Jen@@
Enough
But,
Environment
mortg@@
wider
because,
wned
talks
protoc@@
ingredients,
experts,
concep@@
point:
imagin@@
50%.
2002@@
Blokland
wman
pessimis@@
admissible
Sz@@
cement
manufacturer,
paragraphs
Apart
aga
portra@@
Schul@@
money@@
Pirker
sand@@
lessons
illegally
derogations
jail@@
gif@@
Haiti@@
mistake
kets
money?
products?
ency?
truth@@
’?
ury
trap
bred
injured,
ities?
ings?
Eor@@
d!
euros
grapes
terrorists.
begg@@
Orlando
Whereas
itable
Recently,
Much
burned
Something
next,
faith@@
education,
Paradoxically,
Niebler
decisive
monetary
els.
/EEC@@
exported
What,
Minutes
have?
rak@@
Internet?
done?
thly,
see?
prob@@
8/97)
4/98)
2/2000)
(A4-015@@
9/98)
(A4-018@@
(A4-024@@
(A4-039@@
(A5-@@
(A4-037@@
(A4-038@@
(A4-017@@
akis
(A4-036@@
Katiforis
4/2000)
Minut@@
Tá
Plads
DK@@
disinfectant
instead@@
postponed
builds
ol)
(EMEA@@
)).
contributed
right-@@
severe.
9/
positive.
ching,
1.0%
PFS
nevirapine
patients'@@
%].
targ@@
dysphagia,
ostat@@
ZI@@
Trizivir@@
lability,
mia,
transfusion
perforation,
sants,
arrhyth@@
developmental
displac@@
2300
BYETTA@@
hyperplas@@
arly,
noea
steroid
satis@@
24,
er).
cytokine
11,
3.3
infused
titr@@
ACS
percent@@
hour)
specially
30%.
CAM@@
bupropion
CI,
0.02@@
(7.@@
infusion@@
pimecrolimus
A7717@@
arms,
aminotransferases
parathyro@@
full-@@
treatments.
ate:
agitation
ES,
gastroenteritis
swelling),
a-treated
extravasation
96@@
10.7%
62%
mg),
74%
(6.@@
emplo@@
accumulates
lesion@@
(deep
ison@@
tubercul@@
FEV1
ine),
AM
4.6%
romiplostim
CYP2B@@
lopin@@
ozygous
carbam@@
3.1%
18%
sub-group
mmHg,
vey
normal,
set,
199
tissue,
(either
noradrenaline
uptake.
ogenesis,
5-fluorouracil
canal.
18)
FL@@
Simvastatin
placebo-@@
0.6
(equivalent
0,
26-@@
ids,
L),
(MA@@
sham
HP@@
umab.
summar@@
32%
glucocorticoids,
our,
regulates
erythromyc@@
dermati@@
walk@@
millimetres
recover@@
ations)
50%,
quantitative
(p=0.0@@
2-fold
airways
185
intact
113
hypercalcaemia.
zidovud@@
synthesised
Enbrel,
spring.
(3%)
amous
relapse
noticed
dine
-R@@
AF.
postprandial
agn@@
215@@
has@@
Diffe@@
-0.@@
possess@@
model.
5,@@
follow@@
tran
ference
azacitidine
CPMP/
09
Maximum
irritated
fertility.
malaise
flu,
Co-
anorexia,
decrease,
focal
thirst,
indications.
inspector
tropical
Vietnam
oncolog@@
Health,
multinational
WP
II)
chemistry,
workshops
Support
well-controlled
glargine
concentration@@
LES
vec@@
oni@@
tracing
organs,
macrogol
dir@@
None
oration
blurred,
fluor@@
card,
units.
glottis
T1
T2
LY
applications,
bruises
Generally,
State,
m)
MAO
4.5)
toxoid
collaboration
stream@@
c-@@
vag@@
ician
approaching
validated
dissolve
Leafle@@
acy,
ACE
EC50
ticity
meningiti@@
Classical
subunit
Aven@@
anomalies
aplastic
distress
malaise,
ities)
2007.
05@@
ification
delegates
Angi@@
Dose-@@
abnormal@@
haemarthro@@
Canc@@
ISENTRESS
necrosis,
aggravation
cyt@@
Fact@@
embolism
purpura
SSRI@@
occasions
rupture
omembranous
Dom@@
er),
packages
Directorate-General
Description
VLDL
vastatin.
tolerate
K103N
reduction.
parecoxib
restore
abnormally
methotrexate,
permitted.
esti@@
detected,
paralys@@
(more
wheezing
cramp@@
vic
periton@@
enhancement
AEs
Bleeding
Appro@@
Evidence
chol@@
transporter
pup@@
lop@@
glucosamine
physiological
Ames
HG@@
salvage
testing,
copic
exam@@
ine's
haloperidol
extrapol@@
nings
hypertrophy
swab.
Incre@@
cholec@@
http://www.emea.europa.@@
menopausal
rotic
tail
objections
UV@@
phosphatase,
inating
definite
REYATAZ/
biolog@@
perforatum)
Translation
attended
(COM@@
exposing
vaccines,
Biotechnology
addressing
encephalopath@@
Rem@@
Sinusitis
itive
painful@@
Represent@@
workshop
Cross-resistance
time-@@
hiv@@
pressure),
warmth
tism
5%).
paresthesia,
Myel@@
D).
ire@@
psori@@
on:
(liver
CART.
Ísland
112
Systemic
Social
Sci@@
protein,
necrolysis,
ens-@@
Flatulence
92-@@
Efavirenz
(SE)
nose@@
tness
noe@@
ifloxacin
phos@@
bilirubin,
spar@@
P-value
ugh@@
Diovan
names:
vegetable
Dublin,
Berlin.
eutics
Instit@@
orr@@
advised.
IRA
tos
Amsterdam
MSc
scienc@@
linguistic
robust
567
ribavir@@
EN
MAR@@
²
cm@@
thrombosis)
pain/
oily
perforation
Conditions
minister@@
71@@
BO@@
Add@@
River@@
Us@@
DULOXETINE
BOEHRINGER
INGELHEIM
qualit@@
Dun@@
reconstitution.
prost@@
Pandemrix
Prepandrix
ums
TRA@@
stools,
oesophagus
tional,
tightness
(rDNA).
34-91
kr@@
icin
(60
Red
FO@@
alumini@@
gallbladder
disodium,
(E4@@
machinery,
station
Allergan
1st
Ρ@@
filiaal
EE-11314
d.@@
230
401
380
respiration
ALS
atypical
purpura,
retention,
fingers
periods,
stuff@@
sunlight,
ed),
cles,
G)
redness.
pupils
VFEND
y/
jaw
Thiazide
eyelids,
asthma,
swell@@
kg,
efalizumab
classes
infant.
VII@@
Prophylactic
106
Guid@@
ALT@@
ranges
graf@@
graft
tion).
Cu@@
1994
efficiently
ases,
lex@@
Let@@
sidase
ester@@
substrates.
continuity
FU@@
tid@@
ories
analges@@
(usually
sex@@
eudra@@
endometrial
ach,
OU@@
aled
ald
WE@@
conformity
Immunolog@@
emerging
AG,
ago@@
Edifício
angle
management.
(ex@@
Charg@@
cher@@
affairs
NR@@
related,
1991
Mast@@
Technology
Greece.
Residues
follow-up@@
ships,
High@@
easi@@
maintained,
concomitantly.
capecitabine
Januvia
phenylalan@@
shaking
glucose-
telmisartan
drop@@
Etanercept
zal@@
collapse.
previously.
fast-@@
Ketek
Levviax
certain@@
mg/kg
GA
dosing,
ring,
VANCE@@
closely.
consulted.
quinol@@
test,
bags,
otoxic@@
tendon.
meas@@
])
450@@
MON@@
MEN@@
lift
printing
update
concepts
½
age)
trap@@
edge
Nateglinide
(HBV)
resor@@
DPP-4
interfering
Kine@@
Zavesca
PSUR
glass@@
alize
ally@@
loos@@
WHO@@
HIV@@
prolifer@@
co-administration
potentiated
insufficiency)
Gl@@
α,
suited
contrast,
Talc
potenti@@
Xa
barrel@@
applicator
auer
Assistant
infus@@
correction
intraven@@
tick
arma
Epilepsy
Epoetin
eptacog
Pull
0%),
(0.3%
Pig@@
blistering
cleaning
Setup
ut.
º
agen@@
derivatives,
f-@@
shield
Consi@@
consequ@@
IX,
Name:
YTRACIS
opharmac@@
eutic@@
Store
dreams
PACKAGING
schedule.
ht@@
range,
sublingual
potential,
irritation.
/009
EU/1/05/329@@
343/
NUMBER(S)
43@@
50x1
360
085/
086/
EU/1/99/107@@
enci@@
citabine
unexpected
weighted
formation.
Icandra
Zomarist
spot
mucosa
hard.
benefit-risk
organs.
tile
Carefully
glutamic
20)
sodium.
ingredi@@
425
monohydrate
ate;
monohydr@@
Stability
Oste@@
Tηλ:
rough
S.@@
House,
Pack@@
Bol@@
SUBSTANCES
svägen
300@@
ï@@
Industria
Mul@@
8006
atch
wer@@
myal@@
windo@@
left.
Wilson's
sudden@@
peripheral,
(Pro@@
intramuscularly
subcutane@@
Set
sealing
2.4
injection@@
site;
Training
thiaz@@
PHAR@@
compresse
pins
icals
comprim@@
ato
Fruebjergvej
flush@@
blepharitis,
hyperlactatemia
bronchitis
cup@@
asthen@@
initis
aes@@
impotence,
pancreatitis
usia,
flex@@
Gadovist
Galv@@
lov@@
FIC@@
(11.@@
Consti@@
que,
MY@@
125
lasts
shire,
NL-@@
tog@@
NEU@@
SY@@
anaplastic
astrocytom@@
eligible
(CM@@
relapsed
FI@@
GFR@@
for:
lesions.
Gmb@@
join@@
UB@@
Breast-feeding
-2,
trimester
peti@@
catalogue
SOLVENT
enlargement,
alised,
Halocur
ospor@@
Tar@@
ham,
Euro
organisational
cyan@@
obstruction@@
)*
IV):
pathogen@@
alizing
Milk
dysfunction.
(CHO)
formaldehy@@
manifest
reaction)
photo@@
CI
(patients
Agre@@
pe,
ites.
prostagland@@
Bureau
ary-@@
1-2@@
ound.
palivi@@
lightly
icity,
Kel@@
radiolab@@
disproportionate
non-linear
sexu@@
brain.
ACE@@
studied,
adhered
heart.
pep@@
-day
riluzole
prescribes
rota@@
dehydr@@
interpreting
fee
Cub@@
BE
minimize
)/
bruised,
glasses
bigger
mob@@
(HIV),
working,
erate
Often,
clusion
alcohol.
irradiated
Fib@@
chann@@
professionals,
Not@@
trioxide
split@@
dermal
ide/
potentiate
special@@
attack,
BTP
adaptation
Gaul@@
Child-Pugh
AZOPT
liquid,
parameters.
chambers
umb@@
arises
translocation
hesitate
DAS
position.
first-pass
births
Bursal
etan@@
protects
irregular@@
Optimark
Immune
Infection@@
periocular
Lower
Actos
Agenerase
nett@@
(MAOIs),
MAO@@
Integr@@
2.5-fold
temsirolimus
°
shiel@@
infrared
congestive
Anidulafungin
Thiaz@@
transplantation:
neg@@
apnoea
INTANZA
ried
products:
passi@@
5,000
mirta@@
modes
udin
Guadalix
Viraferon,
complement
Luigi
+44
fung@@
7073
thank
lid
Until
Cyt@@
efavirenz@@
Per
je@@
Sc@@
Lang@@
uv@@
computer@@
Abacavir
factor,
acchar@@
cere@@
per-@@
FAR@@
intake,
mobilisation
responsiveness
narco@@
transplanted
name)®
review@@
publish
ylate
agreement.
ex.
202
fibrinogen
zes
stable,
tampering.
continue/discontinue
21%
expan@@
sor
owing
Azomyr
Structural
(0@@
reduction)
effectiveness.
rapidly.
correlated
confirmation
adjuv@@
milligram@@
rate-@@
lactone
sympathomimetic
particulars
sections,
toward
Contraindic@@
Bra@@
muscle,
U,
shoulders
Aden@@
etine
7/9@@
resin
FE@@
aggreg@@
target@@
99%
etr@@
proposals.
zer@@
Allow
Aldara
abac@@
iling
failures.
Annexes
antihistamine
codi@@
rus
wide.
2B@@
promin@@
Lamictal
Tabletten
subject@@
tice
oxygen@@
shif@@
TEVA
omin@@
erythrocytes
sant
myelogenous
differentiated
dried
women@@
adjusting
gentle
evenly
compromise.
wed@@
ad.
through@@
97%
Progression
proportionality
approxim@@
defined.
(SVR)
one)
say.
abutin
then@@
Bulgaria,
Spar@@
Mann@@
omas@@
compe@@
Cold
upwards
Thrombin
long-
sound,
6.6).
Bauskas
ga,
LV-1004
371-7
ā
Shake
µM
mutil@@
labelling,
light-@@
medicated
otoxicity.
450
Water
diverse
Fra@@
defective
rubb@@
conclu@@
ocr@@
above-mentioned
coding
similarly
OMP@@
o's
reve@@
epidemic@@
purified
subjects;
expectations
successful@@
tied
justi@@
cited
satellite
meters
lethal
arrested,
mou@@
Genetic
confidentiality
negligence
domain@@
Pel@@
cord
RILUTEK
cent,
Neu@@
pathway,
enhanc@@
spectro@@
tos@@
notifications
fertility,
principally
anese
itinib
route.
Reporting
China,
faces
........@@
Cyprus,
active.
feat@@
found.
severe@@
Dy@@
iqu@@
satisfactor@@
died.
apart@@
box@@
alf@@
illnesses,
coherent
sive@@
residu@@
liability
negative.
loss.
differenti@@
website,
coffee
Sam@@
eva
public,
(pH
demographic
Dogs
plen@@
consume
pattern@@
consist@@
Committe@@
freely
chap@@
detail
samples,
Vid@@
interpre@@
jug@@
exhibiting
examining
Berg@@
polypropylene.
ENA
information@@
tions:
only:
waist
materials,
enveloped
impact.
visitors
declarations
lea@@
rubbish
bot@@
arise.
prospec@@
appropriately.
Zi@@
Weeks
miti@@
needed,
packed
observer@@
elder@@
Japanese
ls.
re:
plaque
targeting
project,
Kat@@
interpret
too@@
ge,
suspicious
enlargement.
Iceland,
MT-@@
video
rum
,000@@
finished.
second@@
ologists
Thereafter,
ged
dy
randomized,
board@@
pandemic.
Valsartan
GB@@
Austri@@
Ziconotide
tag@@
loxacin
FRANCE
hybri@@
Ster@@
hibi@@
correctly.
lifted
inject.
pathogenic
tened
Introducing
Show
cosme@@
injected,
doubling
dispute
compu@@
die.
slowed
lef@@
introduced,
1970@@
wet@@
Denmark.
isomerase.
sings
Tél/Tel:
100,
100-@@
/2@@
East@@
0.03%
hn
Wales
nationality
crack@@
noise,
626
l'Aviation,
power.
Recon@@
sz@@
lack@@
(0)10
allowances
programmes.
waters
forg@@
spring
Don't
util@@
day-@@
deficiencies
Emp@@
priority.
alan@@
like.
withstand
RIX
team@@
ges
parental
vicinity
chamb@@
ians.
consumer@@
ume
abs@@
latter,
quil@@
72,
thereof
CRF.
tors.
rous
scenarios
part.
9%.
EURO@@
Units
_______________________
rs,
Brun@@
Il@@
index
FIN-02@@
BLISTER
icate
Pneumococcal
S.A.
Hen@@
programm@@
chop@@
developed.
Changing
Tap
vel
home@@
brings
diagnos@@
Make
ASE@@
ity),
understands
remedi@@
schem@@
strain),
vaccinate
priming
fever),
reviewed?
KWIKPEN
TIS
RIS
Bucure@@
ti,
ading
gul@@
appear@@
ain.
ah
structure.
ă@@
Interne@@
mo
Arc@@
sal
proven,
estimates,
stic@@
ineffective.
regulations,
updating
seconds,
expos@@
afterwards.
rememb@@
ately.
anywhere
5500
ift
thereto.
kers,
Statale
Suboxone
7414
tunnel
z-@@
Τ@@
Mi@@
Wal@@
deadlines
outbreaks
disabil@@
up-to-date
certificate
conditional
Azerbaij@@
azak@@
alling
antly
overcome
(insulin)
You@@
retail
deal.
practitioners
justic@@
afford@@
childcare
acceptance
towns
deep-@@
restricting
biodiversity
ust,
expensive.
cereals
club@@
statis@@
Christians
lines.
deficits
quick
stock@@
wines
differently.
chemicals.
carcinogenic,
retardants
abatto@@
payments.
Georgia
checked,
ices,
deaths,
belt
ineffective
PNR
timely
quotas
excise
lawyers
pace
auxiliary
ts'
trafficking
hunger
gun@@
solv@@
desirable
cohes@@
intergovernmental
legislation,
Equally
bulk
dolph@@
pollution.
pornograph@@
ancient
moreover,
intelligent
curi@@
courts
league
founded
merc@@
shirts
lifespan
e'.
parliament@@
symbol@@
fool@@
barg@@
incinerated
self-employed
Summit
ouring
things,
obstac@@
hither@@
ws,
univers@@
civilisation
denomin@@
being.
industries
foster
fake
slip@@
journal@@
strip@@
anyway,
solidarity
champag@@
itors
poultry,
lorries
disadvant@@
dividing
Worl@@
Surely
rer
answer.
opt-out
spawning
mountain
nowad@@
legitimate
purposes.
udg@@
eting
penal@@
."
incur@@
enjoy
families,
entailed
apply,
paradox@@
illiter@@
speech@@
exemptions
people’s
confuse
controversial
revol@@
editor@@
y'.
ion'
':
cla@@
North-@@
populated
Terrorism
terrorism
read:
alls
dialogu@@
fossil
Mov@@
mining
gun
holiday@@
cannabis
increasing,
insist@@
Treaty.
exhausted
shipment
stricter
clarify
shining
incomprehen@@
second.
2020.
limit,
EFSA
economies
student
tit@@
ance?
united
mistakes
BSE,
rest.
intellectual
organise
Europa@@
decad@@
-in-@@
Mugabe
track@@
differenc@@
lapse.
authors
neglig@@
deliberate
Sav@@
controver@@
commissioned
trou@@
order.
boats
HIV/@@
eries
sharp
postpon@@
different,
visa
decommission@@
thirty
minors
passport
purchase
istic.
appropriations
proud
asbestos
petrol
minimum.
'A
tyran@@
regime.
degrad@@
ideological
ands,
heat@@
philosoph@@
milit@@
dismissed
stak@@
individuals,
LIF@@
Commissioners
sense.
clear.
for,
compete
permissible
prud@@
certainty
decisiv@@
Hardly
maternity
watch@@
infringement
Presidency,
methane
distributed.
responsib@@
stuff
marker
factor.
‘the
hunting
Procedure
oked
cheap@@
tru@@
islands
nations
veget@@
competitiv@@
privati@@
resources.
injured.
object
fishery
cash
pesticides.
retained.
making.
SIS
as?
racist
protected.
Balkans
occupation
bear@@
maritime
spend@@
falsified
detain@@
ees
ighting
strengthen
heck@@
battle
Hann@@
ASEM
believes
able?
company,
refu@@
embarrass@@
informed,
exclus@@
eco-@@
Often
soldi@@
principle@@
hopes
kidnapp@@
minded
divor@@
civilian
tyre
NAT@@
universal
substance.
bill@@
convince
cooperation.
traps
car,
violent
Thurs@@
Araf@@
boarding
satisfied
cam@@
humili@@
migrants
cluster
profitable
Christi@@
time!
Itali@@
confusing
ladi@@
Hou@@
offences
,'
ght
democracy,
Chamber,
inevitable
Channel
consumers?
abilities
ever-@@
Jerusal@@
abducted
arrived
part),
Africa.
traw@@
/EC
gather
perhaps,
(B5-0@@
quoted
word,
capital,
ince
wherever
incidents
100%
deserve
tabled
ł@@
entertain@@
Martínez
Lulling
lobby@@
anywhere.
bh@@
ding@@
Regarding
pip@@
Quaest@@
seo
jok@@
destroyed,
applause)
hardt
MEP@@
traditionally
President-in-Office
eful
least,
system?
minute,
aeroplan@@
bananas
age?
out?
ag
used?
Oh
runs
issuing
absurd@@
north
think,
shop
prosecut@@
statistics,
manufacturers.
pay,
conceiv@@
sanitary
endeav@@
oa
fears
Lange
unemploy@@
Schmid@@
farmers,
Wall
kind.
sending
far-@@
storm@@
person.
respected
over,
Brazil
ars.
ground@@
donations
law,
compani@@
Take,
financed
sed?
Every@@
yesterday
text,
community.
Rights
6-0@@
sanctions
phthalates
repl@@
essential.
ère
premi@@
happened?
take?
Virtually
2007)
Given
involve?
(A)
(A5-015@@
7/98)
(A5-028@@
8/2000)
7/2001)
(A5-034@@
(A5-009@@
(A-0@@
(A6-0@@
(A5-025@@
2/98)
(A5-017@@
(A4-027@@
(A5-019@@
draf@@
(A5-018@@
Third,
о@@
121
4th
tiveness
abrup@@
3-month
adrenaline
titre
3/@@
ataxia,
etc.)
abov@@
400/
(SD
tolerated,
(18@@
stomach.
Hypotension,
bivalirudin
omi@@
techniques.
Tac@@
thr@@
hyperaesthesia,
migraine,
paros@@
varic@@
occult
oozing
paralysis,
Test
-1.
atorvastatin
Circadin
oppositional
1.2%
0.3%),
pups
displaced
whil@@
relieves
complication
birds,
NC
antagonists,
betaine
Ferripro@@
interleukin@@
4.5%
tan
VTE@@
(57%)
bowels
5000
ycin
molecular
thrombosis,
nephrotoxic
foscar@@
adhes@@
achievements
pegaptanib
disab@@
day).
NEVANAC
pharyngolaryngeal
infusions.
(viral
MED@@
TC
0.8%
PIs.
reached.
resol@@
constitutes
70-@@
34%
55%
breakthrough
mmH@@
ify
ained
ated)
adal@@
82%
fixed-dose
thyrotropin
(ALT
-to-@@
FABLY@@
broncho@@
border.
Trudex@@
CYP3A@@
90%.
treatment-experienced
exhibited
deficiency,
ammon@@
pneumococcal
bacteraemia
supine
cardiovascular,
inary
common,
AC-052-@@
85%
Pain
reuptake
glycogen@@
polys@@
0.50
clus@@
Scandinavian
verte@@
21,
(1,000/
gemfibrozil
CNV
Herceptin
18/
7.5%
Luc@@
24.
confir@@
electrocardi@@
culture.
86%
870
PROTELOS
urine,
inflamed
scars
clopidogrel@@
Knodell
necro@@
genoty@@
IgE
volunteers,
midazolam
3-
antirheumatic
(MMSE
sixteen
cohor@@
aded
1-9@@
M184@@
UC
compas@@
mg/1@@
high-fat
nephropathy,
optimised
oplastic
(27@@
aning
3.75
tast@@
117@@
laz@@
deferiprone
respectively),
monotherapy.
166
6-
24%
dependency
adenomatous
polyposis
multiplicity
um)
wash@@
ceftriaxone
GT@@
syndrome:
otoxic
AUTHORISATION/
AU@@
EMEA/
Jul@@
renewal
AUTHORI@@
ZA@@
mg/kg/day
__@@
redness@@
temporarily
Me
dication
predict
bing,
sarcoma,
euphor@@
medicines@@
ural,
1980
Health.
paediatrician
Paris.
Internal
Ken@@
Nord
(-)
13)
Myocet
icin,
Start
Hence,
mutations
VER@@
aria
hole
bag,
blockade@@
Small
olytic
glucose-@@
breakthrough@@
punc@@
epilepsy@@
succ@@
inyl@@
Roc@@
Aujes@@
NI@@
erythematous
Overall
irinotec@@
Ox@@
Lor@@
medicines)
intestine,
Alim@@
cispl@@
exacerbate
oesophagiti@@
interv@@
days).
myelosuppression
spi@@
stradiol
OPINION
REFERRAL
conjugated
stability
MDS/
1-3
(22%)
anticoagulant
duplication
cardboard
(15@@
(HD@@
demonstration
degrades
bund@@
microtubules
tionally,
ensures
omes
released.
cerebrospinal
intrav@@
reservoir
pot@@
substance,
Ny@@
disorient@@
Depression
Costa
transparency.
NT@@
intra@@
Seizures
pancytopenia
aetiology
VEL@@
consciousness
adapter.
petechi@@
erythro@@
localised
encing
HCV.
adjunct
QTc@@
relevant,
lig@@
questionna@@
erythropoietic
Immuno@@
bilirub@@
once-@@
portal
ia:
haemarthroses,
arrhythmi@@
recur@@
amide.
Reduc@@
Teva.
surveillance.
overdoses
Loc@@
Eudra@@
Fern@@
ellular
servants
Aranesp.
asthma.
contractions
sep@@
rebound
peridone
aeros@@
SC
illa
emesis,
corticosteroids,
cholestyramine
tening
side@@
near@@
Decrease
Nasal
faecal
vertigo
disseminated
gadolinium
themselves.
creatine
Hypoglycaemia
sun,
infliximab.
healthy,
glycos@@
tadalafil
ary@@
Subsequent
utilised
sepsis,
-------------
s.@@
pram@@
post-
punctate
rare’,
cream.
cystic
myelosuppres@@
Rever@@
(LD@@
Haemat@@
haematological
hics
applicants
Lact@@
resume
transmissible
ote
hyp@@
gestational
size,
fluo@@
13/
Trade
unintended
Shor@@
ening,
115@@
exacerb@@
triggered
glucos@@
intracranial
hyperten@@
papilloedema,
installed
team.
ification.
asis.
fibr@@
pigmentation
stromal
(GIST@@
repeat@@
eaten
'of
BP@@
v.
lansoprazole.
botulinum
delavird@@
ance:
Sector
DRA@@
archiving
EMEA,
Turner
Unscrew
treated)
45-@@
Benz@@
Gly@@
Affairs
IMMEDI@@
thirst
inflamm@@
ache
Released
Benzyl
facilitating
converts
Decreased
GG@@
feet,
menstru@@
heartbeat
fet@@
stiffness
pancreas
luteinising
Hon@@
Han@@
encapsul@@
eur
245
absorber
substitut@@
imbal@@
Delegation
Norway.
Director@@
Paseo
Dox@@
swallow@@
2,000
Long-Term
1,071
rhabdomyolysis
Cerivastatin
COMM@@
6.6
Usual
(IU/
Recom@@
suggestion
Fat@@
Fac@@
Pharyng@@
Loss
ena
ent)
eighteen
ales
Vienna
MAN@@
Agence
TER
Wo@@
Lane,
Organon
x1
ibri@@
choler@@
Oxidase
ocobalamin
intraocular
rifampicin
ADVATE,
container:
tube@@
vial:
cartridg@@
Estim@@
Naïve
Predictability
cess@@
ciprofloxac@@
opathy,
agulation
Thrombocyt@@
Ejaculation
Erectile
metro@@
syncope,
kinesia,
,,
glos@@
Dyspnoea
Alopecia,
uth
glutamate
reat@@
Ques@@
surgery,
aris
intestine
H2@@
manife@@
Recommend@@
distributing
SL@@
Fil@@
+37@@
119@@
260
Inc.
dal@@
fasted
Ci@@
thrombocytopaenia
shaky
hands,
voice,
energe@@
blisters,
corne@@
(affects
beating
letharg@@
seizures.
(pulmonary
Bad
diuretic
aggression
phases
45%
deposits
abnormal,
abnorm@@
digestive
melan@@
Swelling
tenecteplase
Lar@@
outweighs
TY
comprised
Banglades@@
Eg@@
ejaculation,
tril@@
Thromboembolism
Lip@@
Aspartate
CK
vej
ad,
5-ALA
........................................................@@
103.5
(vCP97@@
.....
biosynthes@@
endothelial
fes@@
oter@@
adrenergic
VIII@@
exerc@@
Sor@@
library
-dependent
in-
Arthral@@
rub@@
tal
assembled
Guidance
investigator
embol@@
bleed
mail@emea.
53@@
/00@@
Emil-@@
officer
pharmacovigilance,
large,
invited
rais@@
telematics
1;
oral,
alisation,
23%
inhibitor,
fluoride
infusion,
self-injection,
once,
etc@@
aks
further.
epo@@
ira,
recommendations.
doubt,
GI
resolv@@
cells/
perfus@@
settling
non-union
amines
anaphylactic@@
tables
substituting
gadoversetamide
terminate
Central
medicine@@
access,
omycin,
creatinine.
unfractionated
dog's
fem@@
regen@@
monit@@
pump.
bag.
dispen@@
corticosteroid
worsens,
Applic@@
maintained.
Son@@
substrate,
vice
slower
supports
CA@@
TRE@@
emissions,
Creatinine
Children@@
stopper
recommended:
-style
treatment)
enzy@@
interventions
onucle@@
LH
ovul@@
curren@@
Especially
apple
corporate
transplant.
hydroxylation
sickness
ded;
acquisition
b:
signs.
nature,
172
cautioned
new-born
breast-fed
immunoglobulin@@
thrombin.
barrel
A)
beta-blocker
day;
149
ethyl
ab.
p)
release:
hyperhid@@
mentation
lupus
Fernando
walk
(baseline
Onsenal
parameter
Gastro@@
ç@@
NT
Vaccine
un
independently
bacteri@@
Status
hypno@@
LABE@@
Dizziness,
threshold.
.org/@@
entacapone
dopa
decarboxylase
le)
344/
387/
EU/1/08/464/0@@
EU/1/08/465/0@@
15/
cle
Cri@@
opinion.
patient-@@
Magnetic
silent
MRI@@
non-hormonal
Recept@@
fragile)
parts.
contents.
KS
clothing.
>.
shoes.
reassessed
Circumstanc@@
rubbed
oglobin@@
action:
buff@@
ents:
adjustment),
soy
siliconised
palpitations
onazole
äl@@
Effici@@
{month/year}
marketing.
Extre@@
775
oud@@
HOL@@
Avda.
mbH
3AA
alent
Dresden
Activity
illum@@
sulphonam@@
Gently
0.4%
Component
opted
fertilisation
Kay
Fiskers
Vir@@
ispan@@
aseptic
actu@@
moroctocog
(*)
debilitated
Fol@@
Bachelor
gloves,
MACEUTIC@@
pinching
Initi@@
Charles
isk@@
transparen@@
delegation
VR
0,5
icul@@
Noviana
(0)810
Jean-@@
Hughes
Espo@@
TopoTarget
sweat@@
granulocyt@@
Frequ@@
defect,
Influenza
amnesia,
asthenia
Dal@@
Thir@@
EPARs
container.
ent;
“Pfizer”
“PGN
imprinted
Light
REV
mg”.
capsule.
Capsules
DD
arden
V.,
CB@@
_____________________
Enter@@
pris@@
meeting.
MANAGEMENT
HE@@
Finland.tuoteinfo@gsk.com
vul@@
myeloid
§
µg/kg/week)
prescrip@@
Glyc@@
1.75
0.75
void
-Strasse
kes,
muc@@
ye
COMP
n˚
-7@@
menorrhagia,
79,
ADVATE
humanised
magne@@
Tél/
(0)69
1503
recruitment
ato@@
osis)
neuropathy*
oedema@@
herpeticum@@
quad@@
GE@@
MRF@@
secretariat
ra.
Sorbitan
palm
Adalimumab
Mid@@
pyrrolidone
Som@@
Swe@@
alcaemia
kal@@
Under@@
ques
tor,
Director-General
Diseases
ocytic
Nucleoside
seriousness
lP
addiction
hospitals.
glucuronidation.
25.
atopic
dermatitis
chapter
calor@@
Sufficient
accordingly
contraception,
Consideration
”)
ute@@
tacrolimus.
Effentora.
prec@@
yellow@@
pegfilgrastim@@
SPC,
you:
Fund
multiply
finish
though.
tives,
meetings.
filter.
RotaTeq
(HIV@@
(an
fluconaz@@
omycosis
Candi@@
RS@@
glucuronide
emphasised
disposal.
membranes.
societies
thrombo@@
ylo@@
ute,
exemption
penicill@@
titrating
mammalian
vivo.
oxybutynin
suc@@
Nevertheless
insect
medium.
Non@@
relapsing
etanercept
transplantation.
Kore@@
binders
montelukast.
wav@@
harden@@
atric
failed.
stays
nom@@
authority.
credibility
Ara@@
ogen
worn
halves.
growing.
decreas@@
114
5-fold
Inst@@
Immunosuppressants
Lum@@
Incidence
corn
polyoxyl
ermin
demonstrated.
ol-@@
wrap@@
forum
infarction
fibrillation
meningococcal
Infec@@
drain
hot,
pharyngitis,
suspension:
diuretics:
iodine
Cozaar
requesting
John’s
foaming.
Inovelon
phob@@
hallucinations,
system).
stituting
needle,
IV).
Toremifene
cirrhosis)
ures,
efflux
diame@@
ery@@
rele@@
Implementation
virus)
Agustín
Nordic
Ches@@
Paren@@
än@@
king@@
STR@@
ket
atan
mysel@@
role.
ão
(unboosted
saquinavir)
ani,
calib@@
Karad@@
Kare@@
vac@@
akin@@
Koh@@
š
esta
Erlotinib
receptor@@
63@@
maintains
spoons
dex,
Manuel
Vit@@
opioid@@
Salmon
devoid
contrac@@
opa
extre@@
pressu@@
surprise.
ption
VIRAMUNE
predisposed
CD4+
AUC.
l/@@
classification
Moder@@
tability.
proton
Baraclude
OS
attend@@
ison
Cox
ane.
38.@@
hous@@
Cooperation
adhesiv@@
darker
Aclast@@
renew@@
plates
HIV-2
latch
opened.
moisture.
veterinarian.
ADAS@@
og,
CIBIC-@@
-19
half-lives
LS
signific@@
predomin@@
LIM
ont@@
entitle@@
acidosis.
FAP
catonin
ballo@@
Tyverb
demand@@
Child@@
stad@@
osin@@
doxazosin
4.0
lenalidomide/dexamethasone
placebo/dexamethasone
weeks).
Antibody
sticking
lyophilised
supported.
understandable
diverg@@
ustekin@@
9.5
counting
degre@@
reactive
Agomelatine
insufficiency,
prolong
divided.
diet,
hazard@@
entan
stamp@@
inem@@
modest
Fish@@
outweigh
zon@@
5.0%
G-CSF
ides;
Langu@@
antigenic
Lantus
Pancyt@@
Endogenous
inherent
platelets).
Busil@@
affected,
expul@@
index.
Pegaptanib
espec@@
N=@@
separately
calories
fat.
thum@@
stones
Neph@@
minimising
alin
Crixivan
Tasmar
gil@@
enrichment
aine,
year's
Rating
struggle
managing
(p=0.00@@
Kir@@
alk@@
welcomed
ectomy
eness,
Protopic
disrupting
selectivity
cyclo@@
tender@@
Sit@@
lip
intestine.
tetracycline
fragment@@
amination
survival.
chicken@@
mechanism.
aspec@@
Tolerance
ific@@
metabolisers
5.1
integral
Trabectedin
364000
urity
amino@@
Committee.
r-h@@
pleuro@@
Va@@
nM,
ss
Venlafaxine
Zidovudine
hearing.
thir@@
smokers
ides.
neuron@@
Annex@@
III.
mm3)
ated;
requirements,
disadvantages
Tractocile
institutions,
Agency,
head.
disper@@
remnants
Names
followed.
sixth
rows
incorporated
ef.
emit
ers:
succeeded
Å@@
ences.
seizures,
reproduc@@
enrol@@
opathic
Masivet
herds
ede
Bou@@
chocolate
asymmetric
Mix25,
avoide@@
tip.
compoun@@
Physician
Ukra@@
mail.
anno@@
pyl@@
hydroxylated
monophosphate
Christ@@
attained
omy
benefited
Entacapone
black,
accumul@@
Oper@@
phenylbutyrate
derivative
ler,
copper
demethyl@@
Da@@
Wear
glyc@@
tical.
Reconstituted
transport.
TMZ,
precursors
erythroid
Portugal.
amin
anticoagulant@@
2.3%
starch
hearing,
sus@@
50.
ounds
reflec@@
sation
flexible,
intermediate
expanded
Sco@@
budget.
vehicle,
Annual
Advocate
Mül@@
Fran@@
minus
sup@@
disast@@
key@@
renal,
control)
notable
ling,
salivation,
circu@@
resting
breakfast
19%
der:
etary
she@@
ata
translucent
propagation
unequal
8.3%
salmonella
utility
malari@@
lou@@
Immun@@
amantadine,
buttock@@
non-enveloped
parvovirus
fabric@@
bin.
incapable
week;
weight)
TYSABRI
ophthalmologic
anti-allergic
completing
HAQ
Alzheimer´s
CF@@
clip@@
impl@@
España
tili@@
distribu@@
take.
cycles.
completion
Media
outcome.
ire.
(1-
4-pack)
anter@@
tram@@
etoric@@
motivated
1999,
-line
Quixidar
MS)
Republic@@
Malta,
Mannitol
residence
sheet
updat@@
mentions
internation@@
Men
transfusions.
Reflud@@
Pergoveris
cleaned
126
(P02080)
particulates
onwards
eous
serious)
redistribution
smooth
expenditure.
synerg@@
SAIN@@
PRIEST
Nycomed
Bet@@
entis
eliminated.
Restric@@
poisoned
retinopathy
Market
arily
childbearing
furniture
Main@@
holding.
were,
weakening
Oxy@@
clearer
ound@@
MON
Ot@@
consumer,
ancies
render
evidence.
mel
Brussel@@
chocol@@
aki
Clinically
st-@@
5-0@@
before,
Nik@@
Chaussée
Waterloo
1135
Postbus
2031
(Sweden)
Garnier
69800
Ear@@
obe@@
Mortality
DS
PVC/
Neutropen@@
Myl@@
first.
fridg@@
caring
elderly.
puppies
vessel).
sors
deposits.
deterioration.
181
cylin@@
hire
Contracts
Chapter
DA
Nowogrodzka
02-
+48(0)22
da.
Super@@
heard,
measles
em.
walls
+358
Wilson”
isc@@
Improved
undertakings
strengthened
tree
recognized
bodies.
Then,
Subsequently,
Later
operates
ite,
retard@@
executed
Blo@@
vitamin@@
difficulties.
cludes
handling,
collected.
Way
dum
Sandwich,
Boulevard
urs
laan
(199@@
SUL@@
86/PB
Santa
RG24
protecting
Rod@@
fault
_@@
Pos@@
perception
shi@@
1989
posts,
Off-white
vehicle.
irs,
KL@@
blank@@
documents,
owner
ambiti@@
take@@
zation
275
VETERINARY
drawing
tem
Contrast
bron@@
i-@@
Quinta
Finland.
pasta).
substances:
RC
such,
treatment?
studied?
CIPROFLOXACIN
TEC
Def@@
leak@@
won@@
nee@@
ning@@
parallel
ello
colum@@
ike.
rear
work-@@
55,
Combined
Exc@@
dire
w.@@
Cul@@
2015
guardian
SPA
listing
pock@@
Serotype
appearing
WHO,
isn't
premat@@
respected,
destroyed.
left,
birth,
stuck
alcohol:
ill:
attack),
mini
row
many,
assume
beforehand.
headed
elli
crim@@
fort@@
Sugar
elig@@
y’s
Michel@@
belge
hat@@
730
Scottish
63%
fax
automated
Frank@@
desirable,
maz@@
ée
itting
cht
no,
elled.
spill@@
dela@@
complaining
fields,
eck@@
Chi@@
tabletten/
comprimés/
inappropriate.
ibility
Early
ity-based
fare
control,
fires,
criteria.
ross
begins
beta*.
abstr@@
security.
atically,
condom@@
Franco
oric@@
anonym@@
teach
much,
hygi@@
consent.
clock
Galileo
crucial.
traded
rog@@
resources,
soldiers.
safeguar@@
solutions,
queu@@
defe@@
endants
sums
plo@@
August@@
taxpay@@
potato@@
Energy
alarm@@
frigh@@
Stocks
everywhere,
ineffici@@
ocean.
ought,
bureauc@@
risk-@@
entrepreneur@@
judic@@
chromium
lock.
truth.
plants.
anthem
party.
irresponsib@@
SOLVIT
awarded
TAC
biomass
computers
Kosovo
lux@@
impact,
VAT
surpl@@
defen@@
answered.
tough
economically
promoted
atz@@
ultr@@
enforcement.
invisible
plant,
contracted
necess@@
shocking
Tibet@@
standards,
53%
respect?
Nig@@
traffickers
tragedi@@
Treati@@
treaties
15.
aged.
parking
vill@@
dossier
hibitions
cooling
learn,
budget,
corrid@@
cruel
ning.
ots
itan
programming
firstly,
Lear@@
Mess@@
Islam
golden
Kal@@
exception.
carto@@
Mu@@
hammad
Gor@@
army.
rhetor@@
considerations
six-month
1994-@@
indisput@@
Helm@@
suff@@
despair
staff,
ity'.
entails
purchas@@
ors'
experim@@
alists,
ake
-one
informed.
vet@@
suffe@@
suffer.
Viol@@
rape
brief
Govern@@
alled
routes,
obstacles
vote.
amendments.
till
derog@@
ished,
specif@@
guilty
collapsed
disaster,
cast@@
police,
eleph@@
crime.
German,
fatalities
basically
talent
Bay
Hit@@
increasing.
industrialised
Far
birth@@
tobacco,
realis@@
granted,
euro.
tach@@
remun@@
poverty,
privileged
dictator@@
come.
everyone.
short,
conceived
deplo@@
misled
instance.
re'
le'
consumed
father@@
propag@@
verifiable
iliation
;@@
input@@
knowledge.
Clearly,
Zimbabwe
overwhel@@
surprise
touris@@
eventu@@
ECB
root@@
recogn@@
approve
two@@
methodology
contempt
awaren@@
custody
Jews
philosophy
ski@@
feasibility
repatri@@
unsafe
stems
Save
Ah@@
parents,
firms
students
Sellafiel@@
grave
persu@@
teacher
deny
CFC@@
drough@@
productivity
shore
intervene
ague,
ement'
kee@@
ession
alive.
unity
democracy.
Europe?
supporters
oriented
fanatic@@
imparti@@
chief
policy,
ans?
contrary,
attitu@@
morning,
flam@@
obvi@@
paedophil@@
sounds
millen@@
transit
seller
fig@@
assass@@
blowing
forecasts
recru@@
lines,
reform@@
poorest
malaria
Ré@@
politics
grat@@
ocean
landfill@@
Europe!
GMO@@
unacceptable.
pesticides,
imprisonment
regret@@
permits
tot@@
workplace,
pollu@@
excee@@
vast
expansion
2011
colours
ight@@
fraud.
missing.
dubious
'a
inconsist@@
French.
Mexic@@
gation
Shar@@
stories
winter
demanding
punishment
horror
accep@@
classical
multination@@
value,
words.
Buddhist
debate)
charging
scep@@
citizen,
theatre
rubble
emissions.
Europol
ering,
launch
ter?
maize,
catch@@
cost@@
Baroness
roles
Kingdom,
climatic
clause
à@@
archipel@@
teachers
organised.
demanded
label.
wol@@
savings
jobs,
decide@@
combus@@
isolation
minister
wards.
asbest@@
interest.
admir@@
English@@
idation
fronti@@
surve@@
ticket
cook@@
shameful
nursery
engagement
arian
initiative?
abroad@@
overweight.
September,
weaknesses
biocidal
enforc@@
140@@
year-@@
broadca@@
effor@@
resp@@
install@@
atis@@
notes.
civilisation.
resett@@
bird
cigar@@
Customs
aware,
helicop@@
ves,
supermarket
opposition,
cry.
ola@@
ov,
oppos@@
credi@@
organisations,
injuries,
pilot@@
training,
policies,
Indones@@
far,
Portuguese
French,
washing
fathers
Montene@@
argue
prevail@@
slaughter@@
either,
Mum@@
stret@@
GMO
icycle
ah@@
Milosevic
loy@@
boxes
permission
mountains
OSCE
progress,
ricane
Flor@@
irre@@
react.
subsidis@@
vie@@
Middle
north-@@
Cuban
smallest
Jus@@
atisation
Congres@@
Tuesday:
remarks
originating
advoc@@
feedingstuffs
know-@@
lands.
catastrophic
outstanding
missil@@
bombs
Boeing
fertilis@@
(NL)
from.
centres,
schools.
chos@@
Europe'
vell@@
dread@@
techn@@
muse@@
conflic@@
premium
wreck
distinc@@
exec@@
passengers,
2050.
'un@@
chain,
matter@@
decep@@
ingredients.
Pere@@
mighty
else@@
freed
appointments
telling
assured
forecasts,
reconstruc@@
policem@@
government,
Scotland
created.
buys
persecuted
tably,
Serbs
explosive
citizens,
Erit@@
says:
verified
Tuesday
Erika
confid@@
Pérez
chip
(RO)
slightest
tors,
thank@@
Friday:
Sittings
ski,
ort
regulating
work!
silence
question:
Miguel
thing@@
BSE.
methods,
Al-@@
Engl@@
ström
God@@
may@@
atlantic
comment@@
recor@@
responsibility,
job.
intelligence
search@@
Leban@@
moment@@
success,
ban.
offering
late.
Giuseppe
Cou@@
ovsk@@
and-a-half
subsidiarity
ties?
vessel,
says,
Georgi@@
Jun@@
note,
poor@@
Prec@@
all!
counc@@
distr@@
conceal
want.
ws.
solution?
issue?
other?
such.
apples
idh
earned
electromagnetic
sporting
coff@@
sorts
motorcycle
scarcely
Indian
tag
referring
rice
rack@@
flying
aircraf@@
aircraft.
6/@@
craft
prover@@
buses
think@@
stration
Patri@@
buying
countries?
ze@@
Kh@@
simply,
Quite
explic@@
fasc@@
self-employ@@
VII,
distil@@
Asian
sea.
monum@@
No-one
enough@@
handful
scientist
wheat
alien@@
hide?
board,
VI,
sovereign@@
%?
operation?
go?
absurd
view?
Paragraph
true,
chet
personally
shed
Lat@@
FP@@
flavourings
case?
kilometre@@
doping
tractor
ign
picked
employees,
Somal@@
licences
Africa,
diagnosis,
sca@@
expropri@@
cogen@@
cereal
airports
borrowers
'If
de?
lobby
2009)
/2001
outs
Cederschiöld
punished
(B)
2/97)
(A4-040@@
(A4-020@@
(A5-027@@
4/2001)
1/2000)
(A4-010@@
9/2000)
4/97)
Elles
(A5-039@@
(A4@@
Ghilardotti
(A4-034@@
Harrison
did,
will@@
Suddenly,
København
Hell@@
tetanus,
implantation.
period;
Orgalu@@
CONSTA,
KI@@
rescu@@
Impact
evident.
Overall,
X.
fulfilled
(alendronate
vs.
oxidative
odds
ologist.
measur@@
sedation,
phleb@@
Successful
cis@@
vaginitis,
algia,
palpitations,
gastritis,
metastases
rosis.
encephalopathy,
encephalitis
reliability
INFAI
recommending
synthes@@
suic@@
anger)
prolongation
noted.
natal
ness)
Profender
contraceptiv@@
acromegal@@
varenicline
respons@@
us)
impaired.
Livensa
equals
TNF-@@
homocysteine
26%
fibrin@@
olanzapine.
2.7
Arixtra
(16
surrounds
3.1
room@@
(in%
MPD
anti-diabetes
DTP@@
lide
HBVAXPRO
yttrium
sides,
cidofovir@@
syrup@@
GAB@@
perpetu@@
transparency,
(hazard
PDT
dermatitis,
undetectable
S-
701
2.3
marrow,
diarrhoea)
idis@@
(1-@@
carboxy-@@
progression@@
smoking.
opt
24-hour
clotting.
patient-years)
prolactin
gynaec@@
LUMIGAN
L/
echocardiography
InductOs.
randomiz@@
CYP2E1,
UGT1A@@
HT2@@
6;
muscarinic
adren@@
sinusitis
nith@@
chronically
4),
11/
Short
dependent.
rite
dementia,
Inten@@
uptake,
olysis,
glucone@@
adenocarcin@@
tised
HPV-@@
4,@@
L).
ibi@@
NovoNorm
HAR@@
98-@@
capsul@@
1000/
NNRTIs
respectively).
UMA@@
Civ@@
double-blind,
either@@
arisation
ERA
315
groups:
negative,
rams
stitu@@
156
spine,
HBV-@@
testi@@
macrolide
12)
(acute
CYP2C9*@@
metaboliz@@
pregnancies.
pre-treatment
respectively;
ography@@
DMARD@@
rets
alanine
stine
icy@@
cysteamine
EE
HIV-infected
1,0@@
AUC0-@@
hypertriglyceridaemia
triglycerides.
hypersensitivity,
599
albumin:
(UACR),
mmol.
yog@@
radiation.
178
manifested
sified
ic/
fold,
AF,
analog@@
meta-analysis
N.
abrupt
(FAP),
sweetened
osyl@@
CYP450
ase-@@
Aer@@
rix
pandem@@
officially
(WHO)
(EU@@
rix,
AUTHORISATION/RENEWAL
........................................@@
.......

renewal:
authoris@@
THRO@@
________________@@
End
shelf-life
clott@@
Furthermore
ships.
dryness,
soles
feet.
tility
(age
bridging
occurred,
nodul@@
nia.
dial
tinnitus,
Ernst
Young
1983
joining
1982
echin@@
Ireland.
Fel@@
edy
microbi@@
Advis@@
Vienna,
co-ordination
conferenc@@
floor.
stres@@
monitoring.
acidi@@
4.8)
often.
e*
PRI@@
GO@@
COMP@@
iden@@
chlorine
uron@@
Immediate
ingly,
volu@@
ogram
cold,
ICAL
omodul@@
Larg@@
epithelium
uve@@
posterior
ification,
CR
Virus,
Like@@
SD
stearate,
ICH@@
Strength
scar
Cyanok@@
EMEA@@
authorisations.
sunlight.
elapse
anticonvulsant
ARTICLE
(4)
inopril
oate
Month
TING
met:
coumarin
Valtrop@@
Churg-Strauss
Protein
N-des@@
assa@@
submit@@
51@@
chemo@@
6.2).
dilution.
lymphomatous
anth@@
could,
irritability,
behaviour@@
hepatocellular
prophylaxis.
orrha@@
Painful
ght,
value@@
ustular
Percentage
(MM@@
02-@@
orig@@
clinical'@@
epi@@
clarification
effect@@
Develop@@
Previous
virals
Elevations
2.4%
Final
biotechnological
Haemophil@@
cancers,
ias
EXJADE.
lim
ame@@
new-onset
thiazolidinediones,
conduction
splen@@
omegal@@
Similar
borg
pause
pectoris
Concentr@@
intracellul@@
cler@@
Convulsions
ly-
monotherapy,
defini@@
elled
ographs
N-
Cmax.
OP
onary
dose-finding
arthritis)
distant
Tak@@
histop@@
Plasma
(16@@
jaundice,
rapporteurs
glioma,
glycaemia,
Mutagenicity
yielded
uses.
sper@@
epti@@
OAT@@
zol@@
albumin.
sibly
Paclitaxel
assay.
pharmacology,
fund@@
onaz@@
azep@@
skeleton
graded
incorporate
input
Towards
phosphat@@
intravascular
omy@@
eding.
endocardi@@
osteomyel@@
yeloneph@@
216
int/
------------@@
authoriti@@
es'@@
hev@@
ride
trimethoprim.
Benzalkonium
ectin
multiply.
dose-dependent
H),
GT)
entan.
equi@@
degeneration
warrant
excluded,
immunosuppressants
(hypoglycaemia)
(swelling
eyelashes
Ampren@@
undertak@@
26.@@
dry,
spongiform
kidne@@
Anaphylactic
uroxime
unrelated
urticaria,
bronchospas@@
orbital
fication.
interval@@
otypes
Administr@@
pharmaceuticals,
icillin
limycin
feelings
(rhabdomyolys@@
lethargy
cod@@
changes,
q.
methaemoglobin@@
TNFα
unaffected
reassessment
Preparatory
Spe@@
treatment-emergent
lator
EXUBERA@@
variants
utaneous
months;
rely.
gle
glaucoma
scoop
ine-resistant
centre,
files
orum
muscle@@
Diag@@
(if
itor
Agriculture
Personnel
Budgets
Consumer
Polic@@
Y.
adjunctive
generalized
myoclonic
Stev@@
Syndro@@
ush
young,
lactating
ic-@@
Different
steroids
dreams,
diges@@
oping
pt@@
Dig@@
oxin
L-Leucine,
L-Isoleucine,
L-Phenylalan@@
ergic
CONCENTRATE
ENT
dness
hypoten@@
experiment@@
deple@@
febrile
Reduced
vessels,
corpor@@
implant@@
alteration
Problems
jer@@
glycer@@
College,
Barcelona,
Strasbour@@
Uppsala
pupil@@
(500
D-904@@
Nuremberg
predn@@
Docum@@
Division
E-2@@
+3@@
onom@@
Glasgo@@
................@@
chemistry;
publishing
dated
Spon@@
reports.
expon@@
progestogen
rial
(75
W)
Body
superior
colour,
Liquid
Urticaria,
Dyspnoea,
Prurit@@
tendon
Pain,
incontinence
staff@@
Andr@@
BRO@@
aire
Michael
193@@
Laboratories
144
uted,
bathing
facilities.
234
thereafter,
adhere
incorporation
Continue
Leuc@@
ocy@@
omastia,
rexia,
esophageal
atitis,
diplopia,
Thro@@
Epistax@@
Pneumonia,
Functional
Tub@@
ped,
Sleep@@
daytime
Chang@@
fees
Anaemia
Spinal
dural
Echinococcus
………………………
bag@@
pigs,
cholest@@
EDT@@
TES
Portugal@@
Floor
Marlow
Buc@@
Μ@@
sk
676
Eston@@
Ares
Zamenhofo
LT-44287
37320603
750
Dandery@@
328
Stock@@
VIRACEPT.
Efectin
,5
SUSTIVA
tartrate
Respiratory
statin,
VEN@@
haematoma,
ocular,
touch,
behaviour,
anxious
sleepy,
difficult,
sneez@@
(infla@@
wound,
gout@@
spin@@
ears,
gums,
us),
(occurring
Rest@@
lessness,
dizzy
throat,
Blurred
Tremor,
erectile
ideation,
more)
diverticulitis
exhaust@@
lugg@@
opa@@
infection),
drive,
crust@@
arker
crusting,
id-@@
consequent
Nicotinic
ant:
carboxy@@
physici@@
de)
OPHAR@@
vastatin@@
AstraZeneca
Budapest
onia
jk@@
Way,
orgas@@
immunogenicity
iduron@@
sulfatase
material,
transient,
Lyng@@
Road,
Ivabradine
thaw@@
+31
103.0
IV)@@
7.2
Atorvastatin
lowers
ado
Regi@@
Aud@@
nominated
officers
irrig@@
receptor,
(30
beta-lactam@@
genes.
5-hydroxy@@
watering
auto-@@
analogu@@
drug-@@
dihydropyrimidine
arthralgi@@
eptide
EU-wide
Sere@@
Speci@@
bottles.
Requirements
co-ordin@@
AMP@@
OUTER
infusion)
Pens
forecast
Reproduction
Cont@@
Regulatory
Forum
Validation
Fried@@
Emulsion
2/9@@
treatment).
udine-@@
ticular
delegations
plann@@
PPARγ
ride,
Adjunc@@
an:
0.01
benzyl
bacteriostatic
Wegener's
granulomat@@
hydrochlorothiaz@@
antly,
Calcit@@
condition,
RoActem@@
strength,
abundant
anti-tuberculosis
short-acting
fistula
mm3
antihist@@
assistance,
ibuprofen
tongu@@
atically.
FOSA@@
dictated
(s).
emak@@
vomit@@
necessit@@
repetition
inges@@
ried,
icidal
missed,
Concerning
disinfect@@
po
committee,
uck@@
context,
-depreotide
preserve
diuretic@@
Tracleer.
171),
Nob@@
Oxford
particle
233
eck
sorafenib
spoonful)
(below
Bondron@@
will:
ViraferonPeg@@
otropic
CPMP/CVMP
Chairman@@
aligned
expelled
last.
flip@@
collabor@@
precaution
ERG
treat.
overnight
ionisation
indin@@
interfer@@
zzle
GnR@@
isotop@@
cleared.
snack
characteristics,
Competact
leflunom@@
lipop@@
withheld
Lysodren
incre@@
post-oper@@
DIC@@
recording
bol@@
Titanium
thrombin,
innate
Tog@@
Skeletal
After@@
gy@@
consideration,
Comp@@
'from
ls,
ingest@@
obil@@
(amlodipine)
perindopril@@
co,
dysfunction@@
metastases.
ing*
(AC@@
epoprostenol
PPE
enza,
yethyl@@
cetuxim@@
erosion,
forme@@
light-heade@@
Parque
287@@
TREL@@
filgrastim@@
219
oestrogens
(high
articular
similarities
Berom@@
assisted
setting.
extrapyramidal
hypoesthesia,
participated
36,
subcutaneously.
FOIL
America
attached.
--------@@
----@@
DEX
domain
unresectable
nitroglycer@@
usage
155/
ampoul@@
EU/1/03/26@@
EU/1/04/279/0@@
367/
109
036
07@@
390@@
398/
Neopharma
30/
39/
CellCept
Top@@
Astellas
Confirmed
Haz@@
Thrombo@@
141
protocol
Imaging
operations,
drip@@
estro@@
SER@@
dry.
dehydrated,
hypovolaemic
fing@@
ultraviolet
bath
Eucreas
fitting
bulbs
proximity
NU@@
clean,
delivers
cut.
Here@@
injecting
administration:
collecting
ed).
acresol,
phenol,
ethyl@@
sulphate,
yester@@
histidine
heartbe@@
amlodipine/
vaccine@@
Half
Exp@@
ero,
Fabry
deficiency).
Que@@
Phar@@
Wye
Valley
350@@
4103
Tafarnaubach
Gwent
Poc@@
Parameters
Press
Alduraz@@
CONST@@
ror
indicator@@
packs,
Ath@@
odip@@
em,
amlodipine,
(saquinavir/ritonavir)
Nord@@
ticasone
Fentan@@
Calici@@
Leukaemia
................................................@@
Percent
Cycle
transplant,
argued
ove@@
antimicrobi@@
tamper
alu@@
SIL@@
high-density
spare:
nurse,
phen
core-data
....................................................................................
procedures@@
PE)
linguis@@
Anglia
Wales.
ling@@
gles
Gothenburg.
science,
Hamburg.
forefinger.
Virlix,
(less
epiphyses.
alcif@@
porphyr@@
Vinc@@
Iceland
0.1
Latvia
comprimidos
complet@@
bacterial,
coni
(side
scleral
ca,
hyperaemia,
Pneumon@@
suria
Abraxane
influenza-like
ropini@@
role,
Fus@@
originally
es’,
Cod
Yorkshire
YO@@
SK-8@@
GENER@@
pation
-21
cap.
Cel@@
Herstellung
ung
bruising
park
Generics
Potters
EN6
Hertford@@
Gooimeer
ME
BEN@@
VAL@@
ulceration.
ut,
art,
Sof@@
Glimepiride
glimepiride
pick
ome.
arcoma
arrangement
prot@@
sucrose.
Gö@@
urg
containers.
191
scaly
retrograde
swallowing.
filler
continues.
ingen
tera
C24@@
NA
esto
Flo@@
rence,
ROBERT
eline
Ang@@
Sever@@
placenta
machines:
hypo.
AII@@
drafted
EN-C,
FR,
MG
panic
België/
Belgique/
Gerhard
bish@@
iss@@
tus@@
toxoid@@
(pancyt@@
neuri@@
aemia)
hepati@@
virus).
Departments
OH@@
mollusc@@
contag@@
e-mail@@
emea.@@
oleate
Eight
Betaferon.
β@@
Fat
qualifying
Hycamtin
acep@@
methyl-@@
kalaemia
l),
(platelets
peptic
polymy@@
sirolim@@
homologous
Gaucher
pation,
April@@
harming
intrader@@
intravascul@@
IgG@@
)]
Identi@@
distinguished
office.
Santé
liance
Forcaltonin
weight-bearing
pha@@
ochondrial
restrictive
symmetrical
first-
second-@@
subtype
messeng@@
transmission,
Presidents.
Parliament’s
Regul@@
circovirus
ane,
iod@@
tumour.
ketones
licen@@
owners,
terat@@
ishes
lymphocyt@@
use)
elling.
caregivers
highlight
Binocrit
continue.
DM
broader
ucc@@
mixing.
hydrate
etoricoxib.
arrow@@
diam@@
-fat
OSSE@@
Vic@@
Programme.
foam
're
forthcoming
interrupt
impair@@
psychomotor
margins
THAT
ERE@@
STIT@@
body).
TRITACE
these.
ife,
Cerezyme
diseases:
occlus@@
isom@@
doses).
ardise@@
Platelet
GF@@
benefit.
antacid
rim
ving.
Kenter@@
repeated.
shake
ET
Currently,
safer
Tandemact
Kiv@@
simul@@
Dop@@
pler
cerebral
arteries
ulmonary
meal,
0.5%
tics)
warranted.
Depending
Unit,
Pic@@
colour.
wea@@
atosiban
ng/ml
C-urea
(6%)
ampren@@
silica
cyclospor@@
AGE
Device
ometric
omen@@
Micturition
Proliferative
Enteropathy
ARICLAIM
whooping
Sepsis,
sillitis,
tenderness,
ster,
tuberculosis,
pneumonitis@@
irbes@@
Karvezide
LeukoScan
sulesom@@
colouring
regularly@@
407
(MAOIs):
gravir
Current
Add
ORI@@
Injec@@
pressure-@@
ca
autoc@@
brok@@
SPRYCEL.
PRE-FILLED
HANDLING
ANCE
after-@@
Alis@@
acity
frequency,
Impaired
abnormalities,
ligible
series.
biphasic
adjustments.
stakeholders
benser@@
monitored,
anticoagulants,
serological
(10,000
compensatory
duodenal
absorb@@
ula
leukaemic
test)
CYP2A6,
biom@@
Black@@
Solna
Export
Tob@@
Pes@@
I)
**@@
ni
19,
rell@@
LER
enforce
don't
ym@@
P-2@@
Paço
Arcos
dail@@
ply.
invert
Kam@@
overactive
blad@@
Frankfur@@
360@@
ka,
cz@@
spic@@
90.
ethanol.
5600
simultaneously
Ble@@
Borg@@
95-@@
Ribeiro
-5@@
Farma
conjug@@
ylated
contra-indicated
catechol-O-@@
irrever@@
intrinsic
lep@@
recogniz@@
rea,
non-EU
C),
A-I
secret@@
glucocorticoid@@
20.6
remed@@
Piro
AR-@@
SOMAVERT
bevacizumab
expl@@
solutions:
ceftriax@@
gent@@
flur@@
9.7%
cortex
Consumption
SME
accompl@@
thymidine
resides
modifying
GIP
disc.
Cyclo@@
malnourished
Record
RT,
Myc@@
Adefovir
deletion
approved.
alas
sponsors
eij@@
olip@@
ols,
acts)
itraconazole,
ketoconazole,
juice,
concentrations,
aden@@
compound@@
aine
AUC0-24
min/
Giving
sis.
salbutamol
Intravascular
harmonised,
Wie@@
J,
Slo@@
MO@@
mucosi@@
peptides
cattle,
biv@@
breakfast.
kilog@@
rams.
tolerance,
Swallow
Doxazosin
edrine,
epinephrine,
(re-)vaccination
washout
NOV@@
(Table
IU/ml
gue,
impul@@
fluoxet@@
spl@@
traneous
implant
compression
Pompe
Bimatoprost
lyophilized
fluoro@@
pyraz@@
fon@@
computerised
Community.
matched
connective
Gabapentin
neuropath@@
algia
-100@@
audiovis@@
OI@@
(CYP1A@@
CO2@@
analys@@
capsule@@
mediators
urticarial
(EU)
γ@@
transpos@@
(35@@
disease).
idated
duloxetine-treated
synth@@
Onsets
compan@@
214
population@@
anex
Rebif
ority
MM-009
MM-0@@
endpoints.
586
transfus@@
tang@@
COPD
Prac@@
arabine
products;
fermentation
embryonic
icc@@
sively
reared
Isol@@
onermin
uncertain@@
impairment@@
pipe@@
societies.
illicit
Adults
(over
aer@@
laser
Phot@@
receipt
preparation,
session,
opoe@@
Pressure
were.
uring
diarrhoe@@
anticipate
Procedu@@
effectiveness,
experimental
MCyR
manner@@
Ombudsman.
anti-rheumatic
logic
ible.
radioiodine
/3@@
Rif@@
consistently
ratio.
agonist,
would,
outlined
-fold
parts,
ide).
stroph@@
presumed
cholesterol),
bar-code
minute@@
engineering
aqueous
Ovitrelle
separately.
bronchiseptica
raises
hydrochlor@@
cetroreli@@
micrograms/0.5
Switching
3.9
ertapenem
98%
breeds)
CTC@@
Sixty-@@
leukaemia,
uril
metabolit@@
acetylcholine
terminals
laryn@@
Rī@@
ārstāvniecība
Kau@@
ZO@@
compulsive
TSS
Ki@@
116
catabol@@
ex-@@
amide,
mini-@@
bluetongue
suppress
pleural
differing
(COX-2)
isotonic
revaccinated
openia.
-on
follow-up,
tron@@
tium
326@@
gence
supplement
dal
max
ac.
Ultr@@
albeit
trauma
lyn@@
tourists
disperse
relies
(OJ
stake@@
published.
Ventav@@
Liv@@
when@@
yearly
angiography
diazoxide
Co-Rapporteur@@
Therapies
beha@@
painkill@@
achievement
injury.
radiotherapy.
Plavix
flare
vigorously
empty,
meter
inferior
Co-@@
ostr@@
filtered
modified.
potency
neutrophils,
Mang@@
Tok@@
yo
Environ@@
cognitive,
M1
Mig@@
exercis@@
elabor@@
distinct
collected,
agonists
ens.
gamma
years:
2001@@
panitum@@
night.
3;
coating
lingu@@
Pim@@
13-@@
youn@@
nepo@@
sponge
desi@@
21.@@
6.6%
Prasugrel
created,
Report.
Arg@@
milligrams
appropriately
aps,
bon
discoloured.
reconstitution,
25°C
window,
technetium-99m
VEGF@@
ej
persi@@
Univer@@
sities
Jac@@
("@@
project.
visited
cimetid@@
Used
emits
did@@
tubing,
encephal@@
failures
categorised
coat
croscarmellose
crystall@@
ylene
leucine,
agen.
thrombocytopenia.
LITA@@
Beta-blockers
dun@@
abuse,
swim
Num@@
ily,
ground.
difference.
FF
definitions
fra@@
ests
bound@@
3.6
comparisons
scenari@@
sionate
maiz@@
Race
intervention.
races
incomplete.
isotope
MS).
metabolizers
(5%
headache.
dizziness.
voluntar@@
eric
elsewhere
Interpre@@
studies)
entero@@
τ@@
balance.
atro@@
description
cum@@
Osteoporosis
-25@@
tested,
wag@@
Optim@@
breeders
coded
green.
particles,
°C,
cages
join
6.9%
3.6%
4%,
salmonell@@
precis@@
convenient
(shoulder).
skill@@
poisoning,
pump,
assay,
nes
avir-treated
readings
252
municipal
waist.
B19.
burden.
discoloured
heroin
suck
Asth@@
Christmas
Infusat
crossed
16.
10.0
etta
(results
ward.
Persons
if:
vap@@
bod@@
FVIIa
ultras@@
discoloration,
ation/
report:
Thail@@
regulations.
HBeAg@@
whole.
Sections
examinations.
non-blistered
(1-pack
problems:
danazol.
HA),
(ACE)
wheezing,
lithi@@
notified
holders
progressively
ing's
manual.
Sugammadex
multiv@@
extensions
Lap@@
Strateg@@
wished
ultra-@@
extraction
guidel@@
penetration
ount
Intravitreal
282
otoxin
continuous.
case-by-case
dependence.
appear.
skelet@@
inspectors
interview
cooperative
CS-AD@@
mortal@@
design,
supplies.
Mare@@
circumst@@
puri@@
confirms
serious;
consumed.
was@@
Vig@@
rise.
194
scrutiny
ver-@@
expression,
wiping
Zal@@
Natural
flow.
Economics
Sure@@
complex,
atstovy@@
Company
CHI@@
MAC@@
Marg@@
Alcobendas,
overweight,
ight.
factors,
correspond@@
transgenic
riptions
secu@@
asts
deflec@@
promised
slaugh@@
suicide.
desert
given,
ually
tained,
blocked,
fox@@
Menitorix
profound
ility
ett
rea
IL-@@
Malign@@
criter@@
ycl@@
Wherever
bac@@
furo@@
Protop@@
lyophilisate
pharmacy
weigh
antipsycho@@
early-@@
substantiated
Valletta
dle
eding,
Thre@@
ć
VL
copies/ml
Bank
theore@@
Prim@@
37,
134@@
zar@@
Thi@@
Priest
Creat@@
sweeteners
8,000
REN
simple,
Che@@
iry
Mean@@
PB
Musculo-
Myeloma
hypogammaglobulin@@
esel@@
urge
sy.
cut,
frozen.
sides.
Ratiograstim
Isle
ard.
malignancies,
addresses
persons.
marks,
H5N@@
86@@
28%
reimbursed
moon
Streng@@
Hein@@
Ask@@
ms@@
push-@@
transfer.
Propor@@
reminder
slip
wall,
thrombocytopenic
ERS
347/
AN.
ark,
oured,
(≤
anine
trache@@
safet@@
rol
clicking
Velmeti@@
stressed
yn
dispersion
FL
Défense
osity
deform@@
Yem@@
row.
differential
cathe@@
omeprazole
increas@@
atom@@
reviews
those,
60.
double@@
rick
alfa-2a@@
BR@@
Film
notice@@
Pentagon
eted
Population
ke,
biome@@
Force
Philip@@
ONE
bridges
ZE@@
PVD@@
TABLET
ALU
8EP
ο
Basingstoke
total,
amending
budgets
Vie@@
JANSSEN-CILAG
1992.
Peace
fri@@
unch
ferenc@@
instructions,
forc@@
giant
adopting
Characteris@@
in-use
reflects
awaiting
ESA
annually
secure@@
advance.
ion:
leaking
ark
recruit
acces@@
failing
ries,
pets
With@@
bother
casual@@
iter@@
ging
Relative
Vasco
(weakened)
(killed)
idron@@
is?
tries
HANE
ZYME
ANO@@
KIN@@
NOVOMIX
PROT@@
REF@@
holders.
Xenical
Square
Strauss
nod@@
Fast
Asthen@@
Greec@@
otype
adsor@@
stitution
atives,
comfort
inadvertently
explained
bars
tract@@
Lau@@
Arthritis
Inadequate
PATIENTS
---------------Study
harbour
Diseas@@
back;
gently,
side-@@
offices.
stas@@
Leon@@
Bucharest
Whitehall
≤1
Poin@@
troublesome,
Nicosia
suring
locate
sy,
1.6@@
Dep@@
hungr@@
found,
appear,
(persistent
devic@@
manufacturer.
cleare@@
faulty
aten
evo
supplementation
adrenal,
abroad:
Disease.
ray
ancy,
(hyperglycaemia).
Answ@@
danger@@
sunsh@@
distances.
(reduction
Slovak@@
4023000
Alc@@
+42
Fif@@
Malay@@
Leg@@
aspartame
ced
of.
Quad@@
rant
km@@
'A@@
sky@@
NL
isch
SE-169
incision
Abbott
tting
residential
drug,
usable
4%.
ometers
ey
jung@@
Apr@@
oh@@
Roy@@
Salv@@
29,
Tietgens
DK-5220
Odense
SØ
juris@@
objective.
rule.
preserved
abortions
Motion
brush
bov@@
tulathromycin.
attle
negatively
Tabletten,
dispense
5-hydroxy
Directive.
delayed,
hesit@@
drun@@
(laminate)
specifying
hide
abused
pens@@
nia,
Organisation,
Uzbekist@@
mL)
ouri@@
blocked.
distribute
Testing
alfentanil
alternatives.
en;
delta.
beta*
otte
seri@@
seas@@
69,
portable
batter@@
windows
John@@
circumstanc@@
own.
hi
confused
eyesight
how,
Lyn@@
Hav@@
River
Natura
EUR@@
terrorism.
terror
weap@@
stagn@@
luxury
urani@@
Nigeri@@
fought
Bul@@
Soil
oted
jams
providers
option.
effort@@
lobb@@
Ace@@
disput@@
profession
advertising.
transfers
ese.
contagious
Alzheimer's,
reservation
utmost
producers,
willingness
immigrants.
healthy.
growers
pillar
hop
fragrances
Subsidies
reforms
linked.
ulative
super-@@
widespread.
comes.
Intellig@@
Taliban
cohesion
peat
biog@@
federal
abortion,
disproportion@@
distinction
taxed
enabled
clones
dam
history.
persecution
similar@@
gold.
regulated.
ke.
aquacul@@
oppose
revi@@
slav@@
employe@@
stand,
encomp@@
Colom@@
terrorists,
ge.
Terrorists
November.
bees
toys,
cumber@@
Tex@@
mountain@@
reciproc@@
embargo
elections.
wave
an-speaking
mercury,
buy@@
always,
Schum@@
travel.
Roman
owners
Transport
cruel@@
goods,
dozens
traum@@
ë@@
exhaus@@
how.
tunnels
uli@@
ová@@
hob@@
tactics
Sic@@
provinc@@
Christian@@
discrep@@
Beethov@@
mph@@
novel@@
besides
Asia
extremism
Afghanistan
creates
engaged
Albani@@
forth@@
aston@@
empire
fact.
ively
Mother
cows,
accommod@@
indeed!
advertise@@
rearing
forestry
Victim@@
frustr@@
ripped
tortured
offence.
mothers,
iceberg.
forces.
sea@@
beauty
ramp@@
unaware
behave
nurses
fixing
dual
CAP
abolished.
Communist
strengthened.
conscience
disaster.
undertaking
recycled
dies,
element@@
bureaucratic
HAC@@
specialists,
imperfections
undermin@@
forward,
Charter
qualific@@
leave,
mark,
efficient,
poison
incit@@
extent,
scoreboard
prisons
pretty
anch@@
hake
innoc@@
omencl@@
secrecy
honour
belonged
resolved,
dou@@
kid@@
adopted@@
untenable.
barely
Framework
aside
combat@@
pensions
penalise
turnout
election.
calculate
intolerable.
agriculture,
expenditure,
securi@@
telecommunic@@
exceptionally
mountains,
unloading
paraphrase
season
language,
articles.
operation@@
unfortun@@
nowhere
'public
on-board
Ukraine,
covered.
hast@@
item@@
Danu@@
hatred.
feeds
simple.
eutroph@@
provision@@
Tibet
electric@@
example@@
fatten@@
perpetr@@
ans'
optimism
tourism
Ker@@
overe@@
worl@@
dead.
outrage@@
lesson
contamination,
patents
most,
spectac@@
presently
deals
conflict.
rific@@
women’s
dignity.
unified
employers
Schengen
preparatory
proves
consent
resident
efficiency.
Left
Programme,
investment@@
defining
bankrup@@
scienti@@
irresponsible
ecosy@@
year-olds
games
Andal@@
survey,
surviving
invas@@
western
0/97)
terri@@
hunt
lar
lee@@
knowledge,
scand@@
sludge
about@@
currency.
'Europe
decisions,
undoubtedly
universities
afford
Juli@@
treaty,
Philipp@@
enrich@@
vig@@
alib@@
Scotland,
ults
our.
GMOs.
clearing
Moroc@@
reforestation
Competi@@
Authority
judge
gender@@
carcasses
Father
mamm@@
Satur@@
disturbing
Eastern
roof@@
thick
underground
measures?
loud
Califor@@
pays
incredi@@
desperately
nickel
certified
inval@@
Latin
accuracy
presupposes
creative
competition.
Oost@@
bagg@@
Fren@@
shoes
totalitarian@@
GBP
supre@@
journal
revel@@
extrad@@
tachograph
deployment
trick@@
Yugos@@
stick.
trouble@@
bureaucrac@@
stub@@
grubb@@
ing-up
hectare
experiment
gained.
fiscal
highligh@@
explosion
afterno@@
Mario
wrote
ationary
biodegrad@@
justifiable
ballot
century,
one-off
pression,
forgotten.
crops.
passed,
yiel@@
drought,
Holocaust
politician
melting
rain.
ough@@
kind@@
profit.
Kyoto
we,
society,
awk@@
magic
Kenya
stating
Euro-@@
oursel@@
elite
Ukrainian
EIT
scour@@
weapon@@
literally
hou@@
pit
Airport
poker
plain
importer
importation
prohibit
ms,
incomes
abandon@@
cheapest
dioxins
tested.
hatred
right@@
victor@@
Pakistan
dign@@
admits
cars.
late,
ignored
free-@@
textiles
entrepre@@
profits.
ly;
trade.
happened.
eler@@
emerges
urity.
torate
akes
films,
Egyp@@
costs,
phasing-@@
interconnec@@
tradition
craf@@
polluter
objective,
Treaty,
erger
brake
ambassad@@
utop@@
Baghd@@
leagu@@
execu@@
-friendly
sceptic@@
gains
Hamas
libraries
herbic@@
Pacific
Gra@@
principl@@
km,
unrealis@@
paper,
transmit
doctors.
on-going
discharges
bran@@
location,
client
background.
Albanian
CMO
sak@@
gust@@
office,
Ric@@
resourc@@
for-@@
'all
bla@@
inspir@@
decent
sorry
best,
grass@@
Democratic
oppression
Basque
oldest
recognize
SAR@@
Anton@@
ruling
sees
qualities.
afforded
buil@@
mistake.
Gaza
beings,
eva,
summit@@
a.@@
hell
disabled.
forests
Alstom
Lithuani@@
contrary
years’
restaurants
shelves
elections,
wrec@@
man-@@
discover@@
ille,
foundations
judges
borrow@@
drink,
euro,
neverthel@@
victory
imprisoned
permis@@
craz@@
decency
duty@@
spirits
drew
Sharon
Paul
threshol@@
Jam@@
cigarett@@
fran@@
ous?
Istan@@
profite@@
Hur@@
GAT@@
UCLAF
football
Ibra@@
more?
UEF@@
colourings
few.
iled
responsibilities
Brenner
piec@@
stly
leas@@
One,
say@@
lete
transmit@@
flood
remarkable
comprehen@@
tsunam@@
scapegoat
budget?
Gilad
extinction
?’
urgently
second-class
aval
nothing.
jeopardis@@
game@@
justified.
thermal
biometric
tively.
premiums
newspapers
alisation'
'non-@@
theor@@
abandonment
McCarthy
Rul@@
ers@@
'You
taxation
conservation
proposed,
drif@@
ues
owned
Naturally,
trade@@
thing!
ice@@
automobile
unt@@
odox
arrangements,
tensions
Farm@@
unacceptable,
likes
wait@@
agency,
truth,
assump@@
farming
sleeping
seat@@
accounted
murders
diplom@@
Markov
economy,
fan@@
distributor
force,
truly
creat@@
shipown@@
als?
ages?
of?
regard.
uzz@@
oni
ECHO
flag,
airlines
redundant
unfortunately,
rian
tably
arrives
Palest@@
flaw@@
kidnapped
guard@@
youngsters
roof
Ombuds@@
filed
assu@@
discussing
infring@@
shack@@
massacres
ministers
granted.
defects.
Sten@@
Wednes@@
Wednesday
Little
municip@@
adv@@
Directive,
likened
Dybkjær
language.
Her
Berès
Quisthoudt-Rowohl
figures.
inno@@
consu@@
reactor
/2007
.’
Fewer
phone
Gallagher
atá
me!
immigrants,
Cohn-Bend@@
Dell'Alb@@
Milan,
pacif@@
Munich
row,
treas@@
miracle
Mixed
this@@
court,
journalist
islands,
dollars
Gargani
Goe@@
journalist,
Paasilinna
euro-@@
reprehen@@
surroun@@
alia
copyright
Ship@@
2009@@
codec@@
Eco@@
oi
sovereignty
star
competition?
Khan@@
ignore
fishermen,
Guant@@
advisers
admit@@
Might
navi@@
area?
ship?
yoursel@@
new.
bhfuil
abstention@@
repli@@
unhealthy
extremis@@
sustainable.
nonsense.
depri@@
1968
retali@@
evidently
ego@@
situations,
innovation,
capita
pigmeat
massac@@
get,
Sreb@@
perfum@@
sat
corner
panels
pace.
(adopted
cool@@
perpetrators
must.
sure,
hed@@
decided.
cargo
welcomed.
Ethi@@
overcapacity
carrots
pensioners
conform@@
Zap@@
accepting
cheaper
lifetime
exempt
amendments,
notic@@
Arch@@
China.
teenage
Welsh
Fronti@@
/98,
Spenc@@
Simplified
merger
share@@
ever-increasing
judgment
reply.
moderation
eradicate
malnutri@@
le!
fodder.
agricul@@
destined
billions
wasted
Poor
cases?
compiled
adverti@@
ain,
fulness
status,
monitoring,
negotiation
Alpine
globalisation
ophobia,
monopoly
aeroplane
ACP
lefto@@
rer,
the-@@
national@@
ancing
major@@
miser@@
Ele@@
threats
passpor@@
DHA
situation?
so?
difference?
doing?
decibels
le?
beverages
scope,
UNH@@
July.
markets,
welcome.
Accordingly,
contem@@
hull
stoc@@
cocktail
Amendment@@
rer@@
Members.
Maced@@
erated
transposition
prices,
workforce
toll
act?
decid@@
soon,
exist.
cyclam@@
concealed
democracy!
Amongst
Cathol@@
w?
exactly?
disappoint@@
Mill@@
Algeri@@
groups?
scop@@
place@@
bombs.
(B6-0@@
uan
scen@@
amendment,
trigg@@
asha@@
exports
supermarkets
court.
doubts
long?
Europe’s
kilograms
set-aside
upro@@
Palestinians
archa@@
bans
important?
happening?
language?
date?
reap
priorities?
proposals?
'What
crisis?
flexic@@
Wol@@
eminent
Subject
bankno@@
door.
(Protests
(Heck@@
ling)
contain?
donation
PS
Fourthly:
Fourth,
Ninety-@@
want?
there?
igh
ous!
8/99):
Camisón
Asensio
opoulos
(A5-026@@
Sánchez
1/96)
(A5-010@@
Berger
(A5-037@@
1/99)
5/98)
(A5-038@@
Leinen
5/2000)
8/98)
Haug
Hautala
A4-0@@
én
(A4-029@@
Palaci@@
Varela
Suanzes-Carpegna
Trakatellis
Resolution:
result:
(Laughter,
ever.
International,
branch
Seventy
defeat
aíoch@@
Thirdly:
(Uproar
ephal@@
æ@@
Birg@@
SEN
WIL@@
Effec@@
antipsychotics,
STELAR@@
inhibitor)
states,
unting
ductus
VE
HER2
IGF-I
age-@@
anomal@@
(37%
rosis)
7.3
disposition
benzodiazepines.
thrombophleb@@
anti-coagul@@
leukapheres@@
stricture
Rarely
hCG
ush,
benign
Guillain-Barré
IGF@@
37.@@
typh@@
pemetrexed.
3%,
Q-@@
pup
non-selective
develop.
sensitisation
47@@
Dafiro
staff.
ellul@@
cytarab@@
5'-triphosphate
ara-@@
limb@@
metr@@
kine@@
Dicural
resuspension.
plot
mediator
48,
ira.
29.@@
ITT
non-vertebral
on'@@
aplexy
52%
ITY
UFH
earmarked
Board.
ventilated
validation
ventil@@
post–
atio
QTc
MS),
e.@@
147
Exubera
Ide@@
coma
vir,
comyc@@
-2)
cascade
irac@@
profen
osteo@@
reductions.
72%
plase
cataract
non-serious
oseltami@@
vir
liaison
ledg@@
Contro@@
R-
enantiom@@
Program@@
questionnaire
follow-up.
(>
ULN)
an-treated
67%
X,
(2.5
disturbanc@@
omalac@@
physiologic
methotrex@@
(See
trastuz@@
listed,
normal)
(erythema
AMMONAP@@
PREZI@@
EVISTA
139@@
301
proportions
lean
consecu@@
6%).
anti
embolism)
2.7%
Thyman@@
weeks),
constric@@
ventricle
classes.
(Ki@@
nM)
2C,
D1,
ic;
late-onset
phenylbutyrate,
(i.e.
populations,
schedul@@
endemic
153
Cubicin
penicillins,
acill@@
loxac@@
multic@@
TRISENO@@
glycerol
output.
mite
anaesthe@@
0.19
weight@@
189@@
randomization
VF@@
BR.@@
(499/
854)
folic
dialysis,
Max@@
(both
allopurin@@
(0-@@
(20
lipids
HDL
emia.
FVF@@
choro@@
neovascul@@
(CN@@
commonly,
K.
(18/
(29@@
325
IMP@@
NV17317
te-@@
CML,
herpesvirus,
episod@@
Extavi@@
exin
alendron@@
group)
WV1624@@
28-day
lungs.
4.7%
parin
displacement
(0.5%
clarithromycin,
Zevalin
mercury'(mmHg).
(MRI).
Quint@@
two,
three,
(n=28@@
hypospadi@@
adine-@@
sity,
retrospec@@
(assessed
1.6
(DMAR@@
temozolomide
monomethyl
triazenoimidazole
carboxamide
(MTIC).
incidence.
abr@@
hypercalciuria
aspartate
(AST
(15%)
M184V
ethinyl
EVRA@@
ss)
amox@@
capsule,
Invirase/@@
high-f@@
20-week
needed@@
eca
unavir
grape
Animals
albin@@
137
length.
LDL-C
0%,
diast@@
Cma@@
x)
(30%)
41@@
(18%)
2-5
Insulatard)
Protaphane)
colon.
Dex@@
suit@@
8,@@
fluconazole,
transferases
ULT@@
SPC@@
Remeron
Wort
perforat@@
bioequivalent
atinib
____@@
mutually
(infected
inactivation
reteplase
prognostic
Concer@@
transpor@@
substr@@
Agener@@
Rapilys@@
Others
hepatotoxic
scab@@
difficulty,
genotypic
Munich@@
1972
1974,
1977
Courto@@
1973
Statis@@
epidemi@@
1978
1981
positions,
Bovine
Montpellier,
Drugs
professor
Toxicology
conferences
coordinator
(+)
alog@@
Death
Hospit@@
teriparatide
necrosis)
Declar@@
NATIONAL
EUROPE@@
aminate
5%@@
elbo@@
abnormality
chest,
feeling,
weakness@@
nervousness
dioxide.
Gluc@@
6-phosphate
Defined
vesic@@
active,
abras@@
anterior
photopsia,
ADE
Moderate
165
Carbamazepine
Remic@@
units,
larynx
minutes)
GEN@@
pheny@@
clotting)
Erythropoietin
courses.
zan@@
odone
(E172),
Vari@@
Refer@@
EudraNet
electrolytes
cobalamin@@
NRTIs
ulcers.
517
638
666
737
Dro@@
FOLLOWING
Lison@@
NECESSARY
Por@@
US.
EXP@@
URE
dipivox@@
feasible.
calci@@
Ebi@@
xa
down-@@
EGFR.
tified
effic@@
kininase
bradykinin.
antibodies,
chemic@@
indirectly
polyox@@
ill.
elas@@
1-5
entricular
sac.
(CSF@@
Les@@
masked
ine-like
accountability
Lymphaden@@
syncope
otoxicity,
NMS
bradycardi@@
Emerg@@
Arzneimittel
rain@@
foli@@
pru@@
ADR
(range)
195
examined,
sitagliptin.
closure,
Improvements
Whar@@
MIR@@
Sle@@
anger
agranulocytosis,
leukopenia,
(COP@@
indigestion,
Avandi@@
ecul@@
mild@@
nails
Pseud@@
Tygac@@
Ander@@
mellitus:
Communities.
overlap
ulfan
Dor@@
ax-treated
quit
carbamazepine.
4.7@@
Preliminary
drafting
PID
/kg
hr.
ole)
anastom@@
folinate
induction.
vaccinations.
problems)
appetite@@
RoActemra.
tremor
20%,
ziconotide.
local@@
hyponatra@@
going.
parame@@
acoxib
anion
Oxyglobin
atide,
aminogly@@
brin@@
CYP2C8
(37@@
BH@@
COMT
19.
mutagenicity
hypoxanthine-guanine
phosphoribos@@
PRT)
alyse
dose-limiting
12/
usefulness
saquin@@
tn
evaluations
TEN@@
epistax@@
tigecycline.
NHL
(heart
deleterious
incub@@
Water@@
considerably.
gingival
compatibilities
sitis,
ystitis,
Viraferon.
TEXT
---------------------------------------------------------------------------------------------------------------------------
-site
http://www.@@
experiments.
opathy.
tubule
iver@@
Coadministration
daily)
deficient
fatigu@@
coagul@@
lumiracoxib
gamma-glutam@@
25%,
oder@@
edema
conjugates
todd@@
ambris@@
batches
ACE-@@
Vaginal
tioning
implications.
anese,
rists
Simul@@
4%),
warrant@@
notice,
yme
ogn@@
entially
-mediated
-type
oneph@@
satur@@
leak
nel
demia
Gad@@
ovi@@
myoglobinuria
breathlessness
clit@@
ence)
odysp@@
oproliferative
SSRIs
ETOMEP
spondylitis,
glass.
recip@@
bronchodi@@
parable
ulcerations
Bacterial
rare.
seen,
diet@@
Approximate
lish@@
EMEA/@@
blephar@@
Progres@@
matic
Finland@@
Sí@@
327@@
Κύπρος
adjuvant@@
scoops
box,
122
Deput@@
David
lostridium
verification
ram
Replace
storage.
aprepitant,
flavour
Employ@@
tonic-clonic
multifor@@
Dyspepsia
Didanosine
-fil@@
microns
dexamethas@@
sleeping,
Difficulty
glands,
bleed,
ives
(urticari@@
osis),
dodecahydrate,
L-Threonine,
L-Glutamic
ergot@@
homocyst@@
Cough@@
imin@@
anaemia),
fights
count.
model,
gelatin,
palmitoyl@@
Colleg@@
Faculty
Liverpool
Manch@@
requirement@@
Edinburgh.
Pharmacist
Diploma
Toxic@@
Law
unde@@
Dip@@
Thomas
(1000
Roon@@
swir@@
disten@@
Distrib@@
Rosuvastatin
Rahe@@
Limerick
Parties
Maria
Farmac@@
Consum@@
Doctorate
Doctor
…@@
cardiology
sci@@
management@@
Fay@@
QR@@
aryn@@
injection?
Yes.
kit@@
606-10-50
ew@@
ActiTrak
significant,
Ran@@
decay
1.9
sten@@
(abdom@@
evacuation
effus@@
tis/
Gastric
pains
moderate)
Site
build-up
Chest
wel@@
(n=6@@
ENT@@
für
GR-@@
gos
Jacques
AU
Directeur
9.9@@
Dr@@
KT@@
36.@@
Romano
MARA@@
retinitis
fosamprenavir
sle@@
visiting
nonselective,
MAOIs
puncture-proof
syring@@
1993,
Cab@@
olol
travoprost
AIR@@
epilepsy)
Inhal@@
response:
eosinophilic
Dys@@
cras@@
naecological
nip@@
hoarseness,
rhin@@
(FACT@@
1:
neurotransmitter
osteomyelitis
irub@@
red-@@
Scal@@
Q
*:
Econor
odium
anhydrous
Hydrochloric
vigilant
glucose,
mote
YL-@@
ik
Α
640
Neder@@
621
ee
KRK@@
Serono
145
HOW
DEPO@@
uninfected
composition,
catheter@@
Co-A
Reductase
Lov@@
Pra@@
extravas@@
Affec@@
(adul@@
risperid@@
intestinal,
haematuria,
optysis,
retroperitone@@
infest@@
toes
wett@@
regular,
spotted
lesions,
specifi@@
skin),
eyelid,
staying
(pneumon@@
fall,
NEURO@@
endophthalm@@
pneumon@@
ousness,
uncontrol@@
suicide,
convulsion@@
550
(agranulocyt@@
does@@
crying
hives)
racing
anger.
mening@@
abolic
(statin@@
conjunc@@
tiva,
eyelashes,
lining
staining,
Travoprost
mydriasis,
haemorrhage.
11a
ather@@
EFF@@
altering
ophiliacs
Try
METALY@@
Van
straat
Ein@@
orrhoe@@
cath@@
ST)
Hepato-biliary
ase)
Elevation
K,
calcaem@@
ited,
needles,
Unchanged
Excipient:
........................@@
................................................................................................................@@
stro
three-year
Prague,
push@@
enzymes.
vials.
(Pen@@
ill)
N-acetyl@@
Mucopolysaccharidosis
aux-@@
Lamy
osamine
Dexamethasone
azine
descri@@
DNA@@
wall.
GMP
raised,
rough@@
levodopa,
chronic@@
neuritis
combination,
DRO@@
f)
TON
KwikPens
Kwik@@
Quadrisol
EMEA/CVMP
Clockstop
Direk@@
bert-@@
Alle@@
Tab@@
EMEA/MB@@
proving
(cancer
Genotypic
Entecavir
Wy@@
AG
PRT
Emtri@@
Unit.
1991.
opers
IT-@@
(once
MRA
suming
melphalan
0.08%
VEL
Together
glucosidase
then.
-fre@@
hormones,
glucose-dependent
stroke.
adolescent@@
Calcichew-D3
indinavir.
names)
Kin@@
mono
hyperthermia,
lipoatroph@@
develop,
fluoroquinolone
(life-threatening
post-treatment
IN.
returns
have.
persist,
transaminase
(hyperglycaemia)
resuspension
paracetam@@
amag@@
tening.
supportive
lesion.
bivudine
enia
tetracyclines
bacterium
vessel.
neutropaenia
alternating
apart.
chilles
Encephal@@
neuritis,
incompatibility
comparison,
pre-specified
adjudicated
burns,
co-administering
Zerene.
caspofungin
emetic
HAAR@@
micron
MAB@@
STOP@@
refrigerate.
indigo
carmine
132),
HR
dyspepsi@@
(TRADENAME)
each,
blunt
Peg@@
tenth
suffici@@
ENGERIX
osteoclast
analgesic
ganciclovir
ret.
AVONEX
Kepivance
specified.
causally
cycle,
excipient
predisposition
andi@@
blood),
newborns.
schedule,
ties;
parallel,
assing
5-F@@
cytotoxic
formed,
Degarelix
SH
biochemical
prototype
VAN@@
newborn.
Nespo@@
intra-patient
coagulopathy
217
existed
Polyvinyl
Macrogol
activates
times)
poured
obtained.
puncture
enterocol@@
12-16
gaining
Gall@@
Federation
technique,
(ramipril),
(valsartan),
(atenolol),
calcium-channel
(Needles
included).
icardial
multiple-dose
(ile@@
Dysentery
KIU/
units)
mec@@
clinics
(“
paste
horse@@
acetate,
polyole@@
GFR)
wild@@
soren@@
lastic
darkening
Anorexia
Hypoc@@
erythemat@@
osus,
ocrit
phil@@
da,
Tecnologico
Calle
Severo
Ochoa
Tres
Cantos,
60,
casing
Adenomatous
quantit@@
397
odes
promaz@@
omime@@
Opinions
module
has.
downstream
cyto@@
molecules,
evaluation,
ties@@
crushed.
infertile
reproduction,
tubal
Patient@@
absorption,
debilitating
epileptic@@
us*
MINI@@
dizziness@@
Being
perpendicularly
forefinger;
Enbrel@@
Lopinavir/
ine:
end-@@
levodopa/
vardenafil
h)
diploma
TAINING
000/
5ml
vials)
sachets
035
055
003/
5b
EU/1/99/116@@
vials,
request,
inquiries
118
Physician's
effectiveness@@
Evalu@@
ent-to-treat
ICE@@
Evicel
sta
temperatures.
ingestion
lights,
lymphocytes,
cell).
buttoc@@
Tests
water-like
consistency.
inspect
skin@@
acetate.
lecith@@
560
ents)
mannit@@
poloxamer
phosphatidylcholine,
polyester
oxicam
beat,
iron@@
replic@@
experience;
HBV@@
decompensated
itrac@@
odg@@
kin's
Year@@
broach@@
enced
relap@@
09@@
pre-dispensed
371
ν@@
κ@@
Fablyn
ause
unexplained
womb.
Fabrazyme
Aventis
Rain@@
Beau@@
PG
Lt@@
(Mad@@
Gesellschaft
klinische
Spezialpräparate
D-2@@
Penn
Tredegar
NP22
37530
é-@@
Sä@@
(SS@@
stent
amp
Fair@@
viewing
ve:
light)
locks
B:
Import@@
staffing
rasburic@@
PD)
haemolytic
edema,
nifedipine
ovulatory
machine.
pre-haemodialysis
onwards.
omed
SE-@@
Fertility
Fevaxyn
Pentofel
dia
immunise
FHV
(F2
(431
strains)........................................................................................@@
balloon
s*,
strengths
detecting
580
Assemb@@
dropper,
nomin@@
cap,
YP@@
ASS
TY@@
PER
bottles,
trained.
ming@@
449
Flex@@
needles.
Pravastatin
ate/
Rapporteur@@
230@@
9/9@@
respectively@@
arianship
mask,
tec
Fosav@@
(sp@@
opor@@
welling
cannula
reflex@@
polysty@@
full,
(RP
Cour@@
mg/0,1
ė@@
dras@@
Acet@@
ana@@
sko
TROUVIN
FIN-022@@
TT@@
Copenha@@
+33
extremities
macrophage
thrombocytopenia)
jaundic@@
candidi@@
Fan@@
hyperaemia
disc
keratoconjunctivitis
sic@@
lacrimation
illary
superficial
pruritus.
dysge@@
sk,
04
T:
guidelines,
CLASSI@@
Renals
bands
gelatine
Blu@@
2”
band,
1g
zur
einer
slo@@
ür@@
Alb@@
BV,
den,
eská
Repub@@
+420
Contra-indication
AST@@
Gian@@
mart@@
que@@
Rix@@
EO@@
Dimit@@
Well@@
Absorption
(100@@
surge@@
(b@@
(PD@@
hypereosinophilic
L1
ulo@@
eosinophilia,
790@@
Freib@@
1050
adis@@
ionic
agly-nafarel@@
Got@@
little,
bodi@@
RX@@
retino@@
Gram@@
rentin@@
finalised.
Kap@@
oxib,
Nexav@@
you’@@
WP),
(29.8
(43.3
p=0.0023,
(40.1
34;
lo,
R),
als:
malignancy
Paget's
Salomone
Simpson
Street,
Marsa
HMR
Suicide
Cryptosporidium
parv@@
aquatic
organisms.
LOC@@
GERMANY
Belgien
Master
Hea@@
Poliovirus
Haemophilia
infiltrates@@
)*,
etro@@
haemorrhages@@
retinopathies
edema@@
irch@@
ib
polyribosylribitol
matur@@
ger
Plac@@
Bed@@
http://www.eudra@@
Oil
ses@@
pancreas.
Sibutramine
floxacin
obiliary
Hyperkinesia,
paresthaesia,
(W@@
class.
moxif@@
quinolone
anu@@
Arterial
Avam@@
excipient.
·
ib,
ria.
peanut
sulfonam@@
pyridine
sulphonamides
Kno@@
proteins.
NeoSpec@@
contraindications
Aller@@
osyn@@
cratic
Bonviv@@
hypothyroidism
vasodilat@@
Grand
Ibaf@@
(IB@@
Chole@@
gressive
oughts
stepped
activation.
Inspectorate
Française
Sécurité
Sanitaire
briefly
odynamics
unit,
Diacom@@
0-@@
arthro@@
1.2
epithelial
that:
Federal
Applicants
dosages
omyc@@
tent
junc@@
Technological
Energ@@
centi@@
adrenocorticotropic
generous
Professional
promptly
reasonably
thromboembolism
(excessive
alcoholism,
(90@@
disappears
ART
const@@
kinetics.
freely.
IX@@
world-wide
acknowledge
included,
cyclosporine,
quinolones.
(1.3
optimum
preferable
TEL@@
supplying
omat@@
diminished
ada.
doctor/@@
asthma@@
1500
ADENURIC
antibio@@
Neupopeg
both.
tetracyclines,
phenothiaz@@
urea,
plenary
parasite
tuberculin
immunocompromised.
Prescrib@@
VAC@@
tender,
Correction
ephedrine
TIN@@
interchange@@
stab@@
cross-linking
ulated
treatments,
worse@@
granulocytes
Aspergill@@
thor@@
splinter@@
coccidioid@@
fever@@
penicillin
terfen@@
ization,
exist,
disappearance
shunt
ived
gated
A),
Index
pemetrexed
Level
HRT
ethin@@
rel
g).
sulfamethox@@
suitable.
parenterally.
istic@@
episo@@
substrate
vitro.
agen
rub
blow
mutated
able;
relapses,
remitting
un.
triple
recruit@@
pattern
III-@@
Montelukast
ocardial
adjusted.
non-Q-wave
geri@@
posture
habits.
BeneFIX.
chairmanship
Canadian
ogenetic
lymphoid
contraceptives.
Arava
sinus@@
triang@@
Pylobactell
screened
nelfin@@
uting
Bron@@
Immunogenicity
ZOSTAVAX
tacrolim@@
us):
ENTS
ilt
ceil@@
Mec@@
carrier)
omyel@@
Short@@
Influ@@
oth
itis@@
Sens@@
count,
fungal,
(herpes
dor
ites,
ercul@@
s)@@
quantitation*
Headache
omide
20mg
Lac@@
ose.
sodium-
Abatacept
Volibris
(this
322
SUSTIVA.
difficulties,
CELVAP@@
simvastatin,
(TNF@@
β,
Administer
Monday,
surfact@@
venting
motion.
Gli@@
Needle-Pro
URE@@
twist@@
YHA@@
load.
ici
Induc@@
sera
atroph@@
urgency.
sufficiency
toxic,
enalapril
dyspnoea,
ellular,
INH
N=
36.
OptiPen
Rapid,
630
covari@@
(P-gp)
ANTI@@
here:
Interval
Podru@@
SI-1000
(facial
tra-@@
duce
injection:
racemic
cholinesterase
assay@@
mode
chelating
+353
info_@@
subsc@@
Conjunc@@
tablet)
E-28750
Conditional
Collect
sugary
conscious.
Gård@@
414
Sv@@
seventh
armac@@
Walter
ice-@@
o:
onazole/
censored
IVAX
incompatible
ticul@@
Jean-Michel
Mary
Sollentuna
ffe@@
Herbal
ku
provider.
UTE@@
Pis@@
203
efruit
dissolved.
veralipride
suitably
cloud@@
MARK
sty@@
ič@@
č
atr@@
depos@@
(kg)
(0)89
1970
spp.
fum@@
tropic@@
ios@@
Paul-@@
54,
permitting
ine-
harbouring
mutation.
(CD@@
aplermin
PDGF@@
B).
49%
alkal@@
ε@@
152
163
Saint-@@
Laboratori@@
Nova
Agu@@
Salamanca
Lack
dealk@@
otoxic,
contracts,
CYP2D@@
CYP3A4)
CRI@@
burnt
52@@
tica
osa
4-
Ceftriaxone
shadows
HDL-@@
cholesterol.
gastroduodenal
partic@@
fraction
Zoledronic
presumably
tubul@@
on)
adribine
formula:
m2).
tocilizumab
securing
185@@
ketocon@@
ralte@@
Ministers
Squ@@
Pruban
bility
serum.
amylase
phosphodi@@
OP-1
RIN
millilitres).
Tunis@@
um-
technologi@@
variations,
oedema),
ton-
5'-D@@
pathophysiology
sepsis.
anti-tumour
fork.
ADP
idase
microliter)
oxygenase
messenger
Altargo
premedication
differentiation
4,5
ological,
chemical,
YYYY}.
Lietuvo@@
Design@@
Desirudin
sulphide
treatment-@@
119
8.9@@
bactericidal
PegIntron.
tase,
(AUC@@
fosampren@@
magnes@@
furosem@@
atorvastatin,
halof@@
-24@@
metabolising
normalised
threatening.
sification
haematopoietic
radiological
neutrophils
Sustiva
(600
ostasis
muscles.
NSCLC
aprepitant.
(maintenance
spoon@@
older).
ocutaneous
pathic
eph@@
ninet@@
predictive
home-@@
vertical
4-hydroxy@@
hormones.
ion),
Cir@@
Providing
stepwise
increases.
augmentation
erythropoiet@@
umab@@
205
Asian,
Elder@@
IP
attending
frontal
melat@@
chron@@
dian
Bring
Needle
aiming
globe.
cool
yttrium-90
spike
tis).
importance.
lem@@
Lepirudin
hirudin
Levod@@
ple.
beta-1b.
corporation
*Lipoatrophy
follow-up:
ceramide
lysosomal
urethra
75-@@
425@@
µm.
DNA-derived
approached
13.5
[95%
Continuous
variables
granulocyte
tax.
Einnehmen
EudraVigilance
AIDS-KS
2309/
lodged
N-linked
oligosaccharide
23-@@
relevance.
abl@@
explored
Valdoxan
showed:
superi@@
Nel@@
deoxy@@
guanosine
beta-block@@
uration
Agency.
Network
carc@@
amino-@@
2005-@@
arch
ofosveset
2C8
degree.
washed
Pir@@
Kid@@
adolescent
recipients
concentration,
eval
34-@@
illustrated
immedi@@
NV@@
white.
pud@@
2+
lepir@@
milky
neuropathy.
icill@@
considered@@
thigh@@
cabin@@
CA
fluorescence
demarc@@
ilities
Directorates-@@
development@@
dermatitis.
study).
Unified
compres@@
11%).
ophi@@
492
depth
inspired
CHR
egalovirus
transplantation,
dose-proportional
onc@@
Pseudoephedrine
Ytracis
GV@@
ograph
(buttock@@
uno@@
215
typ@@
Sevoflurane
bronchiol@@
gases,
thyroglobulin
Singulair
mine.
rotigotine
produce.
relocated
propterin
visu@@
ubric@@
vehic@@
Thirteen
Sep@@
leukopaenia
reused.
paclitax@@
ody@@
10%.
solutions/drugs
confirmed,
combinations.
pes@@
clum@@
irritate
androgenic
cycline
sectors.
film-
follow-
exertional
turbid
Rheum@@
nM@@
5'-@@
sweat
Tig@@
increase:
7-16
situated
Transparency
obstruction,
0.22
injector
ī
58a
-401
Self-@@
preterm
sulphonylure@@
VIR@@
Mycoplasma
Brac@@
renic@@
potently
(K@@
Aivlosin
therapies.
preferen@@
MAH@@
smoked
oxidation
cyclooxygenase-2
calicivirosis,
bones.
small.
positive,
wording:
favourable,
yme@@
requ@@
s'and
oce@@
dure
A's
pre-term
Tysabri
shown.
mission,
glucocorticoid
sarcoma.
recurrence
utilisation
February,
June,
particul@@
pierc@@
pharmacovigilanc@@
Particularly
hypoglycaemia,
Activities
das@@
2007-@@
D23
beside
progressed
means.
tionary
Watch
400,
CHO@@
Gab@@
messag@@
Eric
Karl
mond
Zone
Industriel@@
Ef@@
abused.
radiographic
Clin@@
atories.
PH@@
24.@@
efficac@@
overl@@
troph@@
inium
discomfor@@
colony
ang,
terminology
annex
rank
vel.
Hudson
milk@@
Locati@@
izing
in;
Mix50,
Maropitant
agged
calculation,
Zealand
micros@@
imiquimod
drink.
obli@@
phosphates
dFd@@
8-hydroxy-ibaf@@
microbiologically
cGMP@@
spectr@@
inj@@
usi@@
functions.
imesul@@
injuries.
ply
ician@@
.]
overly
distribut@@
Atriance
gender-@@
taire
dynamic
costing
grasp
pieces.
sorbit@@
gelat@@
laur@@
silic@@
colloidal
anhydrous.
ulin
mers
entec@@
oxib
breast-@@
abdomen
straw
squeezing
hyprom@@
trex@@
pressures
graduates
Phen@@
Dimeticone
haemodialysis.
proportionally
Visudyne
IgG
2.2%
asle@@
sister
Mab@@
vomit
Synag@@
Vimpat,
arel@@
Yarvitan
transformed
stuff.
injection;
entary
mosquit@@
opaque.
homogene@@
suspension,
UF@@
ô@@
(VTE@@
atories
episodes,
obses@@
spray
clonic
Ian
4.4.
non-pharmacological
audits
JIC@@
malignancy,
specific.
moclobem@@
lower.
meto@@
boost@@
")
Adjuv@@
rex@@
deterg@@
lamivudine.
det@@
Antacids
Discontinuations
infrequent
ide:
acry@@
cet@@
acr@@
layers
anti-hypertensive
prone
dust,
findings,
breaks,
third.
ponds
bold
divided,
capsular
(eg
conditioning
ferences
173
etal
logistical
2.9
5-00@@
Grossetê@@
demograp@@
finalised
B/
200/
case-@@
generated
2010@@
6).
racial
atheroscler@@
percutaneous
10%,
arachno@@
’t
8%).
patterns,
Thyro@@
ol).
interpreters
subscription
biologically
etric
Carbaglu
Single-dose
RISPERDAL@@
cyclooxygenase-@@
emetics
-enhanced
scan.
icks
Streptococc@@
Rapamune
amput@@
nal
traumatic
assessment@@
mentioned:
annually.
forms.
ethn@@
limited,
2004@@
model@@
Precautions
unintentional
fibres
skip@@
session.
tamper-evident
snap-off
chloro@@
per,
mobility.
judgement
era.
CRIXIVAN@@
semi-@@
ulins
sym@@
encour@@
23),
(11/
Pear@@
seemed
Insufficient
Sing@@
diffusion
(tummy),
SoloStar.
dysmenorrhea,
provoked
Contact
virtue
perat@@
rubbish.
Agents
(abdomen);
thighs
sulphone,
onal
selecting
transfused
tra
Administrative
simil@@
pharyngeal
(50@@
hydrated
photosensitivity,
146
Retacrit
Overweight
(800-1,200
(800-
µg/kg/
(eg,
analyses.
attained,
ustekinumab
1:@@
x-@@
dropping
plans.
ia;
risperidone
Infrared
Individuals
(using
accommodation
purch@@
BON@@
stitute
(dose-normalized)
(3),
(1),
IL-2
Colum@@
disap@@
stations.
Inhibition
sero@@
attend
promising
consistent,
PB@@
246
Noxafil
Life
scanning
Servic@@
repeti@@
hypoactivity,
tachycardia.
collapse,
longstanding
aphylococc@@
diabetic@@
beta-sympathomimetics,
Amin@@
immunocompromised
Black
suspensions
ank
palpit@@
B-type
natriuretic
(BNP)
Stor@@
females.
Sunitinib
grams.
entac@@
pages.
wash
recommended,
Cows
harb@@
AMED
consultations
Luxemb@@
p=0.02@@
"sodium-free".
stable.
mT@@
explanations
AB.
Meda
TNFR@@
allevi@@
apparent.
/mm@@
adequacy
us).
resumed
‘Do
Betaferon’).
contributory
hypovolaemia
INO@@
atric@@
labour.
´s
marginal
switch@@
CPC@@
homogen@@
Stimulates
(equal
Fill
orrhoea
49%.
pyram@@
config@@
Hydroxy@@
restoration
ès
nycomed@@
(5)
2649600
7378800
264
SWEDISH
ORPHAN
ofi
ß-@@
Imidacloprid
lined.
ketosis,
.).
category.
ole.
ensuing
finger.
Integration
Acquired
INGREDIENT(S)
resemb@@
Nasolacrimal
temporar@@
devices,
eutical
rtv
bathro@@
spor@@
adic
names,
(OTFC),
citrate.
compounds,
ambul@@
sting
segment
Methadone
camera
sends
sow
recognised,
oon
thropo@@
elled,
Preven@@
finished,
strawber@@
thinning
Full
267
similar,
prospectively.
(0)21
predisposing
heavi@@
contra@@
organism@@
stac@@
euth@@
encouraged,
facility,
IU,
Remission
Finance
Lewy
disease:
+356
6000
Building
info@@@
ía
n:
inop@@
Gaulle
vanishes.
cramps,
Hamburg
(also
Canada
methan@@
may,
following,
ola
581,
Peterburi
medicinskinfo@@
MERIAL,
Lyon,
ouse
Saint-Priest
}<
Nutrition
CR,
6,000
nelfinavir
cellulose
9.4
Surrey
(in@@
code.
GH@@
Civil
news@@
Modi@@
\@@
Pasteurella
Reas@@
1997-@@
THERAP@@
Where@@
msdnorge@msd.
preservative,
Rang@@
PGA
Don’t
100%,
yours
dispens@@
Step
rhinitis
sun.
redden@@
guinea
thickened,
selegiline
valve
circ@@
cran@@
(0.7%
name,
RP@@
Johannes@@
153@@
ien
Jer@@
hel
microbial
preservatives
Smar@@
Bay@@
pragmatic
KIU)
POL@@
ite@@
Tel
COMMUNITY
REGISTER
427/
Use@@
breast-milk
situ@@
puberty,
support@@
stratified
gateway
2985
Mercier
imer
(extremely
mood)
Nottingham
Resolution
submissions
y-related
ensues,
cyproheptadine
translates
mum@@
able:
surge
Milton
chee@@
strö@@
teau@@
F-92058
Baden@@
Swiss
anic
Vertigo,
DER
legs.
Parameter
compares
drawn.
pathogen
red;
chapter,
poisoning.
mar,
re-start
tivi@@
gm
calf
Altern@@
86,
participants,
23-24
on-treatment
N+@@
65,
Line
otherapy
ß@@
ized.
GP
Tax@@
tons
1200
Ö@@
553@@
PEG
Lake
Sebiv@@
Trans-European
Bound@@
UD
infer@@
ade,
eri
itis.
neumon@@
gullet
receive.
aul@@
Cruz
ff.
R076477-SCH-30@@
Quick@@
onda
PAC@@
Peter@@
Chineham,
Martine@@
cia
21-22
orth@@
-,
1-4@@
Doh@@
35-@@
manager,
ug
11),
(p=@@
telec@@
EAS@@
bypass
ops
huis
Gron@@
composition.
mixtures
Ni@@
halving
consuming
ratification
ricul@@
orient@@
pd@@
commis@@
Suvaxyn
re-evaluation
calves,
pet
exclusiv@@
fract@@
sticker
EXUBER@@
625
culture@@
ADUL@@
pare
Cho@@
accepts
reorganisation
purchased
cosmetics
Regimen
proven/
agh@@
Fonte
synergistic
strains),
stomach@@
blended
Forty-@@
ano,
Via@@
y-four
esp@@
interests,
VER
LASTA
GADOVIST
ACTRAP@@
CRE@@
ELI@@
sweet
banana
Fifteen
operation),
(antibiotic),
prescription)
Connect
trip
gia),
biotechnology.
result@@
athing
east
Again@@
Hul@@
pieces,
ours.
detergents.
p.@@
(CE-MRA@@
delivering
otechnolo@@
Trials
RESPONSES
PSORI@@
(PCV
÷
technique)
Pooled
Retapamulin
erly
hesitation
ention
bubbles,
circle@@
posted
stabilised
stroke
manure
nell
MEDIA
Nav@@
Š@@
421@@
stain@@
AVEN@@
Cyprus
mistakenly
Group@@
Teleph@@
torticoll@@
mixed,
identifiable
ador
Sel@@
Bridion
does,
task.
measured.
impossible,
possibil@@
ities:
turnal
spraying
appeared,
continues,
temporary,
feasible,
ay.
skimmed
coffee,
elapsed
Avostart@@
forgot@@
ten,
planned.
allergies,
altogether.
flowing
born,
go,
coli@@
exil@@
aton
diabetic,
insufficiently
nurse/
shoul@@
sad
amputations
labels.
Pfizer,
podruž
svetovanje
področ
farmacevtske
dejavnosti,
+421-2-3355
Di
les)
Rememb@@
Tris@@
benefiting
quickly,
dating
end-of-@@
facts.
Cardiff
670@@
OY
ä
Sak@@
leum
non-existent
successful.
Scandinavia
643
1E
Serotonin
ograp@@
iterranean
ön@@
Tou@@
Binger
Wind@@
(20,000
open.
wall@@
signals.
paragraph@@
organizations
thinking,
lifetime.
az
bility.
EMA@@
Law@@
13.
tica,
indefinitely.
Transpa@@
Rotterdam@@
ophagus
Five
6%,
e’.
ean
Pramace
ki,
(D),
(Pw)
mg/25
Mem@@
Eur@@
(benzalkonium
chloride)
unilateral
assur@@
carers,
let,
Georgia,
Kyrgyzst@@
ova,
Supplement@@
Foetal
sati@@
ety.
SE)
expressly
licence.
donors.
Expert,
PROMPT,
ionally
incentives.
installation
translations.
complaints,
reliev@@
mechanism,
Safe
expected@@
20,000
Vand@@
faces.
amount.
Gorg@@
Catania
ania,
illo
Victor
gradually.
jerk
cautious
wish,
beverage
alarm
wake
Zarzio
300,
Κ@@
worrying.
EU’s
summit.
promotion.
Conflic@@
Trag@@
Cath@@
Situ@@
exclusive
impossible.
country's
commodities
earliest
troop@@
precious
asset.
trialogu@@
grin@@
exploded
representation
consequences,
eloqu@@
Saturday
Ombudsman,
dyes
odor@@
registration.
specifications
PFOS
shops.
flouris@@
workplace.
demonstrating
RAPEX
poorer
hoped.
Natur@@
wn,
channelled
Daphne
ached
Nutri@@
talk,
proceedings.
tears
large-scale
everyone's
Compens@@
effectively,
quantity.
style.
reliable.
describing
Tat@@
republic@@
businessman
negotiated
mortality.
figure.
richest
Levi@@
deported
Chech@@
sters,
Sea.
rules,
atmosphere.
Telecommunications
impressive
Church
inadequate,
sweets
defined,
'In
Regulation,
mascul@@
mainstream@@
deleted.
y’
treaty.
afforest@@
respected.
Ji@@
asphal@@
compulsor@@
recap@@
dictory
persec@@
Court's
stagg@@
boneme@@
cyber
miner@@
sch
coast,
fuel,
neighb@@
foods.
ratified
constructive.
translated.
player
Transfers
scale.
sab@@
multitude
acul@@
iers
transported.
lodg@@
tank@@
competitors.
Workers
perceived
anti-f@@
rain,
Council’s
items,
dumped
isolate
objectives.
bá@@
enko
Iris@@
cancelled
uda@@
'Ode
inth
riots
defended
evi@@
Tutsis
contamination.
imagination
antine
URBAN
ket.
hard-@@
war,
tallow
Satellite
Turkey.
exciting
Ukrainians
speeds
overlook@@
Lithuanian
centuries,
existed.
levy
denying
dichloromethane
spared
sake
waves,
winners
hundred@@
metals,
'no
marriage
behin@@
air-@@
winds
blackmail,
agenda,
sale.
murdered.
disappointed.
cyc@@
punishable
villages
Kinshas@@
shortages
harass@@
subsidy.
represented.
ferry
lifting
'y@@
traffic,
traffic.
cancell@@
pipe
bled
illi@@
worked.
camp@@
butter
Eurodac
operability
simplified.
ally-friendly
co.
'H@@
better,
complicated.
iness.
efully
fications
Muslim
demic
simplification
symb@@
strikes
acidification
enant
pestic@@
caffe@@
coloni@@
much@@
doing.
Passive
programme?
ity's
sectoral
accountable
stock,
Bolivi@@
wealth
Holland.
Saddam
40%.
Austria.
farmed
indigenous
reversed
liveli@@
non-exist@@
HIV/A@@
Britain,
annum,
railway
zone.
high-quality
coming.
summer,
ionship
writing(@@
annex@@
km.
stipulated
opt-out.
presume
planet.
long-distance
etce@@
collective
bargain@@
same,
ancell@@
Schrö@@
algae
advertising,
ong.
notion
negotiations,
implies
currencies.
justific@@
confidential
tering,
attain@@
grass
exhibition
much-@@
legislator
nutrients
ised;
self.
Climate
concept@@
defensive
disappointment.
promotional
dredg@@
promises
rist,
ody.
duous
ín
payments,
prohibits
Besides
uro
/EC@@
taxi
encourag@@
stif@@
gap@@
hampered
OSCE@@
labour,
contract@@
exploited
wage.
Job@@
clubs
trium@@
Fail@@
presidency,
referendums
compromises
centuri@@
cartel@@
tual
bottlenec@@
abundance
ranking
Monsanto
'EU
province
requis@@
coalition
raped
fire-@@
reactors
ified,
iously
conception
Damasc@@
airport.
scrutiny.
bail@@
hearings.
1990s.
cares
dioxins,
Marx@@
sectors,
performing
swif@@
bon,
ev,
Saraj@@
enterprise
limits,
defending
singing
Last@@
continent
what@@
indifferent
quiet
opportunity,
dollar@@
chase
percep@@
manipulation
statistics.
sm.
enligh@@
today@@
hang
swiftly
barriers
reluct@@
oligarch@@
beneficiaries
Australia.
sorely
love,
spirit@@
country;
snow
faul@@
Russians
measure,
farms.
proportionately
favourite
opens
two-thirds
rants
emergency,
scrapie
Ries
retardant
uph@@
better@@
cereals.
massacre,
ezuel@@
gur
crop@@
buildings,
Bishop
arrested.
verdic@@
alcoholism
defaul@@
minute.
Stand
contradict
rebelli@@
ais
communist
disease?
Port
era,
cold-@@
immense
volcano
closures
many.
devastat@@
well?
specifically,
secondly,
seed@@
diplomatic
den.
limitations.
children’s
ecosystems
Poland.
server
tinent
rout@@
out-of-@@
lah
undertakings.
weakness.
assassins
computer,
stages.
sport.
discred@@
instruments.
corri@@
carrot
respect,
die,
Rwand@@
precar@@
proportionate
serves
scrupulous
expen@@
Recent
citizens'
exporter
importing
subsidies,
benzene
abortion.
neo-coloni@@
wife@@
vocabulary
defence.
drastic
outward
genoci@@
wholes@@
Yan@@
grain
nical
crime,
murder,
heritage
an'
stun@@
han@@
alists.
1956
understanding.
adequate.
tional.
inclined
Histor@@
intransi@@
distorted
whist@@
Obvi@@
Afghanistan,
prospect
infin@@
'No
tempt@@
fire,
hydrogen@@
ophobia
pole@@
bill
horizon.
sacred
speaks
opponents
cloning,
freedom@@
end?
shelves.
doctors,
tragedy,
ativity
searching
icious
Ignorance
bless@@
painted
direction.
deserves
conventions
Illegal
barometer,
entails.
dismantling
disarm@@
counts.
Kash@@
investment.
dangers.
authen@@
Vojvodina
discar@@
adventitious
imprison@@
run.
platform
danger,
TF@@
Incineration
inevit@@
hate
insult
contex@@
shareholders
months'
dialogue.
fertilization
expand
phras@@
answer,
ange
Initiative
clever
teenag@@
pipeline
competitor
ared
Eurostat@@
Bav@@
obvious.
amph@@
scandal.
eenth
screening,
discovered,
praise@@
slogan
flower
media.
uses,
Dav@@
ilian
instig@@
loans
Banning
unpleasant
prohibition
chlorinated
shadowed
Austrians
Google
catching
blow@@
financially
Intif@@
competition,
teen.
cost.
patenting
roads.
buildings.
limits.
applies.
proof.
vestment
invitation
Prosecut@@
executions
waters.
fy.
careful@@
implied
on!
stockpile
tremendous
Orkney
readers
injustic@@
abandoned
&@@
purse
Oce@@
upstream
ambitious.
WT@@
negotiations.
purchaser
everywhere
Hutus
qualifications,
simplif@@
directives,
Europa
recipe
lark
tivity,
supernumerary
/EEC
company@@
separating
further@@
rests
stumbling
postpone
West,
unanimous
nice
ban,
Instead
irregularities
fraudulent
achers
Citiz@@
ouch@@
lement
bullf@@
filters
disputed,
bombers
oppon@@
beaten
prejudic@@
festival
voices
Lichtenb@@
Kha@@
Ayala
Order
abandoned,
2009,
traceable.
dissidents
designed,
currency,
catch-the-@@
moul@@
Mount
honey,
Europeana
standardis@@
ecstasy
tank
fire-f@@
prisons.
complainant,
happened,
done@@
Virg@@
restructur@@
Pact
blamed
consign@@
wrong,
aparthe@@
gavel
wife,
football@@
timber
negotiate
document,
pled
job,
obso@@
bond@@
voic@@
blows
holid@@
hunger.
autum@@
haven@@
peace.
bread,
leap@@
sense,
ruins
stolen
lost,
assassin@@
spiritual
broadcast
Lond@@
books,
vely,
pornography
isely
satellites
titude
code,
socialism.
ocol@@
surprising
piracy
authorised,
customers
valuation
weaken@@
mit.
Uganda
sufferers.
South.
Ozone
plants,
oxides
Kla@@
claims.
divisions
phasing
college
EMU
tomatoes
Iran,
replied.
Unanimity
allocated.
PPE-@@
Cuba
cry
wholly
fridges
settled
qualifications.
undeni@@
merit
apologised
writer
Tues@@
day/@@
amic
litre,
ún
buried
1996,
Wester@@
Fon@@
choices
liberal
wonderful
outset.
facil@@
recourse
Sand@@
slog@@
discrimination.
generous.
ICC@@
tack@@
Diyarbak@@
[...]
