<blank>
<s>
</s>
de
la
et
les
des
le
à
en
du
est
une
que
dans
un
pas
ou
par
pour
a
être
sur
ne
été
au
qui
sont
vous
plus
ce
avec
chez
patients
-
ont
Les
Le
doit
il
peut
ces
Si
traitement
(@@
aux
votre
se
si
La
Une
cette
d'@@
cas
d'une
Un
comme
Pour
On
n'est
mg
après
d'un
y
doivent
mais
Vous
l'@@
•
1
dose
d’@@
deux
moins
1/
EU/
l’@@
également
leur
taux
Par
même
,
médicaments
Il
fois
non
er
.
avant
peuvent
risque
fait
tout
effets
"@@
on
e,
pendant
soit
était
avez
nombre
sans
e.
n'a
2
utilisé
médecin
entre
son
européenne
é
système
d'autres
3
comprimés
faire
aussi
sous
?
elle
rapport
Commission
autre
10
solution
Rapport
(voir
Dans
très
mise
cours
médicament
in@@
indésirables
ent
rubrique
cela
ée
L'@@
Toutefois,
bien
donc
sera
%
pays
marché
études
produit
personnes
contre
En
dont
produits
prendre
@@
-@@
autres
es,
es.
orale
tous
jour
DE
:
traités
niveau
qu'il
S@@
és
5
Des
ant
Pourquoi
avoir
4
Ne
données
ayant
ainsi
e
/
trois
)
enfants
type
ez
ées
temps
Nous
6
Tout
afin
toute
présentant
augmentation
Voie
A
exemple,
lors
ans
travail
groupe
B@@
femmes
maladie
es
ses
où
ml
«@@
000
mesures
mois
s
nous
certains
informations
50
ET
chaque
conséquent,
atteints
«
prise
étaient
alors
Que
symptômes
»
peu
sa
ait
er.
je
06/
site
D@@
étude
toutes
mg/
effet
nécessaire
santé
encore
100
devrait
M@@
forme
ils
sécurité
P@@
doses
pourrait
fonction
ation
association
l'Union
Mais
voie
30
réponse
o
l'utilisation
).
utiliser
ceux
7
contient
faut
s@@
raison
jusqu'à
ons
semaines
tant
membres
manière
A@@
dé@@
leurs
C@@
période
T@@
elles
première
point
re@@
L@@
jours
pris
s.
+
États
ré@@
20
),
base
aucun
R@@
é.
virus
hépatique
troubles
résultats
concernant
administré
F@@
H@@
que,
aucune
êtes
t@@
n'ont
Selon
;
problèmes
–
exemple
patient
important
car
15
toujours
question
flacon
s,
contrôle
ni
terme
millions
12
e@@
compris
développement
Tel:
l'un
!
mesure
l'
devez
heures
G@@
CAS
n'@@
d@@
er,
rénale
00/
déjà
in
seulement
maladies
E@@
conditions
compte
Tous
ée.
lorsque
N@@
DANS
substances
b@@
é,
perfusion
tels
8
façon
d'
V@@
vos
diminution
long
2@@
EST-IL
durée
cliniques
partie
i
animaux
i@@
trop
40
K@@
seront
réduction
étant
possible
ement
insuffisance
devra
contenant
h@@
s'@@
QUEL
cas,
clinique
al@@
M.
g@@
an
recommandé
L’@@
l'on
4@@
Sur
eu
er@@
d’une
Lorsque
t
lait
25
Quelles
és.
réactions
o@@
montré
depuis
surveillance
d’un
De
production
en@@
24
quatre
5@@
voir
Conseil
QUE
ation.
a,
quel
n@@
européen
DES
recommandée
cellules
et,
besoin
notice
n’est
é@@
c'est
pouvez
l@@
réduire
QU'EST-CE
di@@
tel
Quel
nouvelle
active
ch@@
risques
e?
faible
ée,
ation,
ine
stylo
l'administration
population
r@@
vie
immédiatement
particulier
7@@
semaine
injectable
certaines
place
c@@
p@@
és,
x
personne
mis
m@@
n'y
s'il
selon
notamment
eur
ar@@
/@@
celle
disponibles
3@@
peau
eux
era
qu'une
I@@
age
UTILISE
fin
at@@
9
administration
6@@
nouveau
f@@
poids
k@@
procédure
présente
8@@
substance
cadre
infection
syndrome
concerne
jamais
qualité
questions
s'est
principe
seul
soient
plusieurs
avait
croissance
ti@@
O@@
an@@
protection
telle
lieu
e)
traiter
ants
vaccin
co@@
facteur
a@@
60
pharmacien.
im@@
telles
aient
ag@@
humaine
or@@
traitement.
posologie
te
am@@
l'efficacité
is@@
reçu
que.
moyenne
actif
groupes
cet
celui
lui
C
usage
al
sang
souvent
événements
douleur
recherche
Toutes
14
suspension
matière
Votre
grand
qu'@@
concentrations
sujets
B
ans,
it@@
utilisation
v@@
reste
pouvant
formation
rapportés
on@@
ans.
parce
injection
g
quelques
charge
as@@
vue
décision
quantité
réaction
importante
environ
mettre
seringue
ations
moyen
suivi
ées.
e:
"
signes
ad@@
perte
<
serait
pouvoir
problème
cinq
L'utilisation
qu'elle
savoir
el@@
ante
l'objet
demande
vers
1@@
l'étude
18
os@@
sévère
essais
utilisés
d
es@@
2.
d’autres
donné
eurs
y@@
=
d'insuline
.@@
particulièrement
ement,
quand
qu'un
jour.
anti@@
existe
présence
œ
seule
nouveaux
anticorps
entraîner
mois.
contenu
laquelle
valeurs
nouvelles
sein
médecin.
durant
u@@
jeunes
humain
cancer
qu'ils
liste
début
bon
ex@@
beaucoup
enfant
Peu
date
ées,
pression
l'UE
300
ml)
âgés
total
actuellement
programme
ent,
éviter
l'aide
efficace
partir
ant.
poudre
9@@
LES
11
vi@@
200
patients.
consommation
adultes
0@@
caractéristiques
mieux
traitements
(par
suite
ques,
uniquement
région
Qu'est
placebo
graves
notice,
li@@
ale
ent.
Néanmoins,
valeur
termes
n
Troubles
j@@
prenez
».
80
indiqué
>
Lors
certain
instructions
l
%.
l'autorisation
z@@
".
moment
six
me
modification
nombreux
premier
tolérance
si@@
ine,
processus
plan
composants
ol@@
ri@@
ement.
unique
ent@@
va
utilisée
activités
comprimé
et/
concomitante
points
l'Agence
-il
sait
tests
concentration
Europe
administrée
devient
généralement
e),
gestion
dès
ensuite
s’@@
contact
1,
pré@@
observés
cause
bonne
domaine
aire
augmenter
a.
sur@@
on,
-ce
el
ac@@
J@@
UI
responsable
déchets
Veuillez
h
u
permettre
Mme
facteurs
indésirable
phase
information
Parmi
m
principal
ine.
possibilité
règlement
bi@@
d'utiliser
comité
prises
W@@
INFORMATIONS
nécessaire.
élevé
able
boîte
situation
différents
us
suivant
position
par@@
Royaume-Uni
France
qu’il
16
l'in@@
donner
13@@
aire,
Z@@
ère
remarquez
es?
rapidement
ques.
s?
Quelle
S
méthode
con@@
e-@@
op@@
d'administration
on.
70
traité
recevant
grave
ir@@
pharmacocinétique
rares
infections
changement
présenté
28
Effets
peut-être
rôle
0,@@
eur,
spécifique
e).
ques
dernière
convient
E
pa@@
dit
capacité
observée
d'évaluation
insuline
plupart
critères
volume
permet
flacons
transport
00
l'enfant
soins
inhibiteurs
régime
règles
em@@
attention
st@@
jour,
re
chronique
D
zones
autorités
ou@@
présent
trouble
souffrant
4.4).
corps
aires
hommes
chlorure
particules
ribavirine
ers
Plus
dernier
rapide
e;
mentionné
ements
ite
parlez
quelque
ants.
avaient
c
années
recevoir
U@@
Très
Toute
pourra
av@@
trouve
w@@
car@@
zone
Monsieur
comment
dème
modifier
ance
ité
détaillées
produit,
importantes
conduire
provoquer
ant,
n’a
ab@@
pourraient
Titulaire
ailleurs,
au@@
supérieure
significative
tri@@
puis
clairement
ables
évaluation
véhicules
il@@
om@@
3,
référence
conséquences
systèmes
d'informations
AVANT
avons
A,
Re@@
d'insuffisance
anti-@@
21
cartouches
veuillez
lire
signifie
tr@@
voies
atteint
10@@
ci@@
titulaire
aire.
ant@@
QUELLES
initiale
aide
membre
année
fréquemment
20@@
plus,
SONT
eau
deuxième
fréquence
prévention
libération
personnel
2,
susceptibles
relatives
conformément
l'état
parfois
réduit
qu@@
allergique
nécessaires
médicament,
d'injection
ver@@
tes
ot@@
quelle
is
r
internet
récemment
Quand
face
critère
[@@
et@@
dispositif
S'il
projets
",
75
al,
end@@
douleurs
ni@@
mi@@
ens
potentiel
56
CONNAITRE
Or,
t,
totale
médicament.
métabolisme
fi@@
ra@@
►
dû
http:
ations.
droit
ap@@
pharmacocinétiques
modifications
disponible
solvant
Patients
demandez
observé
kg
limite
inter@@
es:
pu
bénéfice
Y
prolongée
I
Pas
Winthrop
Trois
Son
spécifiques
2,5
P
passage
LA
19@@
ligne
gu@@
L'administration
liés
présentent
per@@
Parlement
passer
of
Eesti
raisons
parler
placebo.
eurs,
plasmatiques
délai
os
emea.
ité.
n’@@
e!
celles
te,
d'A@@
Al@@
aires.
activité
liées
ale.
l'effet
l'arrêt
T
parmi
sodium
mar@@
al.
Pendant
ons-nous
développer
0,5
général
500
immunitaire
l'insuline
semble
femme
devront
eront
prix
Où
nécessité
ales
cu@@
pl@@
surface
soutien
mal
Teva
Comb
ritonavir
maximale
l'activité
22
protéine
directement
tu@@
solutions
L'objectif
erait
survenue
test
antes
cependant
inhibiteur
d'efficacité
due
ét@@
qu'en
ie
mécanisme
CHMP
iss@@
ai@@
propositions
associées
cl@@
aires,
13
difficultés
UK
l'ensemble
am
f
rapports
/www.
attentivement
eurs.
résultat
préparation
Insuffisance
dernières
Même
recommandée.
réalisée
as
étudié
ts
devraient
complète
supplémentaires
préparations
autorisation
prudence
demander
minutes
associé
cent
résumé
température
eur.
Traitement
patients,
400
lesquels
48
Y@@
all@@
ents
thérapeutique
k
crise
éléments
able.
368/
grande
ations,
l'hépatite
service
(1
ér@@
suffisamment
LE
nom
150
an.
troisième
grossesse
blanc
sé@@
Dr
patientes
état
d'entre
haut
eur@@
qu'à
parties
aux.
pro@@
n'existe
com@@
eux,
oculaire,
scientifique
t.
Liprolog
sucre
surdosage
65
»,
%,
faites
aiguilles
toutefois
d'être
17
types
survie
action
L'AUTORISATION
pelliculés
s:
An@@
07/
ell@@
ate
non-@@
'@@
ence
complètement
europa.
technique
pi@@
part
14@@
paramètres
produire
suivants:
ants,
me,
baisse
UI/
600
démontré
Hypersensibilité
sévères
lésions
eux.
globules
Tel.
In@@
liquide
microgrammes
S.
isme
...
dehors
puisse
associés
anomalies
age,
fabricant
propre
monde
L'Union
vaccins
mg,
vétérinaire
augmente
semaines.
meilleure
diabète
12@@
alimentaire
tion.
(E@@
*
conserver
OU
Mar@@
progrès
POUR
euse
preuve
Affections
réglementation
juste
résistance
Canary
tion,
l'A@@
récepteurs
ères
d'environ
lesquelles
(EMEA)
ach@@
proposition
paragraphe
ordures
ez-vous
45
vaccination
x@@
1,@@
clairance
es)
ale,
différentes
en,
progression
%)
passe
cartouche
marché.
davantage
utilisant
-en
foie
l'exposition
Westferry
respectivement
principalement
sensation
amélioration
d'origine
politique
l'Europe
an,
objectifs
réduite
én@@
pharmacovigilance
ur@@
elle,
cour@@
diagnostic
ons.
fréquent
d'in@@
dire
able,
kg/
quotidienne
ite,
E14
≥
35
hépatiques
one
prévenir
gi@@
obtenir
quant
ménagères.
a-t-il
maintenir
significativement
200@@
examen
for@@
d'ex@@
prenant
besoins
supplémentaire
fréquents
o-@@
fin@@
obtenu
l'eau
légère
el,
ob@@
conservation
difficile
heures.
R
Circus,
at
fournie
connu
correctement
elle.
ante.
aux,
Human
qui,
sorte
L'Europe
p
premières
Wharf,
ines
rien
17@@
cr@@
DU
15@@
ul@@
suivre
questions,
informer
jours.
entraîne
régulièrement
associée
4HB,
agents
dis@@
présenter
permis
élevée
cardiaque
o,
moyens
nos
18@@
hyper@@
ali@@
ceci
diminuer
(S@@
alfa-2b
poly@@
enne
aspect
d'utilisation
Allemagne
premiers
té
ère.
garde
protéger
connaître
l'annexe
—
mode
D'UTILISER
pense
augmenté
proportion
vitro
recommandations
mises
2000
contrôler
euses
4,
utilisées
Portugal
&
che
Elle
ais
fer@@
(A5-00@@
and@@
intraveineuse
adolescents
portant
ajustement
is,
ml.
el.
th@@
fréquent:
directive
estime
NON
35@@
sous-@@
2,@@
modèle
inflammation
C.
16@@
accru
ec@@
col@@
mé@@
vo@@
su@@
cré@@
enti@@
is.
us@@
ons,
effectuée
l'évaluation
relative
sites
semaines,
AR@@
az@@
res
ter
gar@@
différence
analyse
petite
carte
M
mon@@
respiratoires
exigences
90
jetés
traitement,
nourriture
survenir
poursuivre
longue
d'avoir
TITULAIRE
MEDICAMENTS
Pharma
métabolites
réponses
cliniquement
seconde
or
l'association
destinés
chirurgie
l'infection
du@@
vitamine
petit
documents
Fréquent:
gr@@
Utilisation
d'eau
ar
131/
notre
techniques
rés
lequel
majorité
sous-cutanée
4.5).
représente
Par@@
montre
l'augmentation
tissus
man@@
age.
formes
chiens
monothérapie
23
yeux
lignes
avis
mes
maternel
dix
médicaments.
mo@@
ph@@
suivants
gonflement
dispose
III
déficit
els
antibiotiques
cou@@
b
l'aiguille
côté
public
forte
politiques
25@@
ables.
toxicité
fracture
inclus
pr@@
N
(un
administrer
C,
permettant
ateur
restent
via
probablement
Quels
là
assez
L'expérience
supérieur
ser@@
ter@@
fonctionnement
observées
n'était
ill@@
décès
double
oc@@
port@@
ère,
É@@
MÉDICAMENTS
accès
ité,
Con@@
prend
aurait
mélanger
n'
Plusieurs
l'homme
versus
ase
l'ex@@
plaquettes
5,
conduite
br@@
aiguille
O
132/
è@@
Qui
d'effets
vision
L
protéines
):
conséquent
form@@
minimisation
Ce
de@@
régions
devant
l'une
administrés
3.
distribution
sanguines
généraux
précaution
aura
l’utilisation
longtemps
âgées
id@@
principaux
London
métabolite
mains
artérielle
susceptible
gélules
patient.
elles,
conseil
précautions
famille
tions
s-@@
c’est
(A4-00@@
isation
30@@
IN@@
ose
X@@
rées
(P@@
glycémie
l'injection
derniers
Ch@@
biodisponibilité
L'efficacité
(0)
Pfizer
s'agit
Seuls
consulter
G
niveaux
II
doute,
mortalité
féline
Pays-Bas
min@@
tenir
acide
années.
bl@@
santé,
Sans
Malheureusement,
pourriez
nécessaire,
cycle
libre
A.
U
l'EMEA
tissu
infectés
potassium
stylos
tent
mort
services
ence,
l'étiquetage
fois,
repas.
humain.
á@@
s'assurer
Insuman
faire,
/2001)
considérés
28@@
principale
0
ess@@
extrêmement
d'études
légèrement
dose.
{Nom
inférieur
évalué
fond
sensibilité
autorisations
impact
lis@@
ance,
ru@@
sérieux
bas
RISPERDAL
exposition
plasmatique
98
arrêter
fondaparinux
inférieure
onn@@
6,
po@@
phosphate
sou@@
faite
enfants.
lumière
autant
lo@@
bénéfices
limites
droits
pas,
aujourd'hui
RE@@
vitesse
cutanées
plus.
l'autre
5%
int@@
incluant
aiguë
menée
modérée
se@@
c'est-à-dire
confiance
ce@@
État
isé
l'é@@
yl@@
dénominations
chose
no
certaine
36@@
posologique
globale
-2@@
dés@@
auprès
uniformément
um
changements
jusqu’à
médicaments,
en.
présidence
couleur
utilisation.
garantir
/99)
déterminer
d'au
traitées
Cmax
26
conservé
37@@
commencer
l'absence
mélange
conclu
le@@
s)
eu@@
entreprises
CES
document
excipients.
L'étude
possible,
es;
injecter
ra
court
l'âge
transmission
injections
situations
trans@@
rubriques
dus
tableau
secteur
and
rée
nombreuses
ir
différences
ateurs
membres,
capuchon
l'objectif
classe
mal@@
travailleurs
V
AS@@
hépatite
te.
médicale
réalisées
800
tête
temps.
Di@@
révélé
rénale,
VIII
CA@@
essentiellement
bou@@
structure
ro@@
suivantes
ins
élevés
aliments
oi@@
vol@@
Faites
puissent
alité
près
Voilà
mois,
limiter
val@@
3%
él@@
rapportées
appropriée
porter
étape
sodium,
ales.
enzymes
GmbH
AL@@
mentionnés
moitié
consiste
étudiée
insuffisants
est-il
Rien
quantités
de,
l'origine
cutanée
me.
19
l'ordre
pos@@
Trudexa
mg)
ais@@
TI@@
mère
section
CO@@
principes
ing@@
recours
expérimenté
pu@@
demand@@
consommateurs
large
conçu
eaux
Premièrement,
arrêté
heure
d'action
supérieures
d'éviter
tique
vu
limité
considérée
né@@
l'absorption
SUR
rouges
responsables
de.
ise
fu@@
représentant
ence.
font
AB
assurer
demi-vie
profil
sains
ir.
liée
ités
Su@@
connue
l'apparition
sub@@
qu’@@
fois.
produit.
o.
to
reconstitué
Préparation
the
Ré@@
l’un
ers,
002
ins@@
ble
sujet
constitue
tiers
un@@
systémique
50@@
pourcentage
petits
étudiées
contrôlée
actifs
maximum
+@@
ères,
propriétés
actions
199@@
causes
nationales
rouge
antécédents
5.2).
pas.
ov@@
texte
continue
96/
Quelques
disposition
condition
jou@@
N'@@
ass@@
citoyens
hypo@@
bras
ACR
espèces
od@@
(CHMP)
repas
pompe
tion
ales,
ance.
manque
ati@@
rénaux
veiller
l'allaitement
alfa
voire
L'effet
001
ak@@
ve
pays,
voix
Pourtant,
devons
Notre
adaptation
enn@@
études,
l'adulte
âge
4.8).
nerveux
cliniques,
idées
liaison
tiques
catégorie
antes.
26@@
(A@@
l'E@@
évaluée
10%
populations
ème
11@@
dérivés
élevées
s’il
cor@@
can@@
soumis
prescrit
commercialisation
Infection
langue
médecin,
Poudre
Olanzapine
certainement
Quant
er?
entraîné
seuls
virologique
buvable
procéder
CI@@
autour
ment
faibles
36
hy@@
cholestérol
AN@@
40@@
ez,
considéré
alisation
EN@@
établie
um@@
29
Ar@@
Limited
chaîne
l'Autorisation
projet
qu'on
radi@@
étude,
provenant
ég@@
estimé
maternel.
progressive
chacun
similaires
ol
res@@
enfants,
e/
in,
2006.
scientifiques
procédures
qu’une
donnée
bo@@
mêmes
humaine.
verre
it,
te@@
fonctionne
devenir
pays.
l'article
e"
Nombre
39
24@@
l'incidence
correspond
8%
1)
appelée
(en
médi@@
augmentée
femmes,
mor@@
B.
aider
n’ont
(3
);
stade
souches
1000
cal@@
Comment
ev@@
ain@@
complications
ante,
considération
Road
particulière
contr@@
résolution
principales
Insulin
dépenses
amendements
A/
84
%).
actives
comparaison
altération
résidus
ages
crises
améliorer
5-@@
similaire
degré
créatinine
En@@
rel@@
l'université
facilement
humains
chang@@
établi
rou@@
Merck
utilisez
27@@
tions.
PROVENANT
Leur
ban@@
européens
victimes
Troisièmement,
rec@@
étroite
succès
fl@@
placebo,
largement
diminue
ue
50%
allant
coagulation
sions
demandes
it.
euse.
uni@@
ements,
AT@@
particulières
est@@
diurétiques
des@@
rénale.
grandes
pourquoi
qu'elles
Qu'@@
saignements
travers
els,
définition
hi@@
cas@@
minimum
utilis@@
33
tendance
1,5
prescription
l'information
calcium
ani@@
blanche
postes
ing
reconstitution
pharmacien
elles.
l'accès
tampons
noms
cas.
publique
Luxembourg
médecins
l'année
Vi@@
préremplie
enrobés
ic@@
tes.
LIEU
qu'
metformine
le,
comparé
sanguins
vari@@
es),
éruption
sanguine
allergiques
provoque
..
hépatique.
2%
46
jour)
160
ation@@
ente
l'interféron
peau,
meilleur
ang@@
iv@@
Espagne
coopération
fait,
ten@@
que:
société
présent@@
taille
boîtes
coûts
27
antes,
sion.
gaz
législation
ay@@
européenne,
ge
ents.
Suspension
ici
Objet:
médical
ble.
trait@@
excessive
ves
Non
polyarthrite
es).
d'E@@
immédiatement.
42
33@@
l’œ
PegIntron
conduit
récepteur
sept
fer
lu@@
caractère
VIH.
remettre
n'en
dou@@
appropriée.
Le@@
annexe
matériel
parti@@
local
autorisé
faire.
présentez
l'im@@
alimentaires
plutôt
AD@@
ml,
suivantes:
dépression
1.
in.
série
Q@@
potentiellement
faiblesse
assistance
porcs
connus
éliminé
Pro@@
2002.
avantages
contiennent
vérifier
retirer
juin
ens,
milieu
pe
France,
administr@@
agit
destiné
ements.
vie.
mer
003
L'in@@
NovoMix
(I@@
volontaires
bouche
comportement
4,@@
presque
relation
d'hypersensibilité
virale
conséquence
atteinte
jeune
ad
fabrication
effectué
d'emploi
matières
il,
instauré
DI@@
com
excipients
cul@@
ment@@
appliqué
ter.
gens
d.
connaît
mon
Rapport:
ve@@
ies
sévère.
29@@
relatif
os,
n'ayant
fins
re,
considérées
viande
irritation
lié
sérique
grâce
pour@@
acides
s;
ori@@
gl@@
ed@@
04/
f.
jours,
octobre
mofétil
élévation
prom@@
adéquate
donn@@
)@@
santé.
flacon.
agir
clés
dégradation
simple
travail.
quement
alis@@
import@@
simplement
l'impact
vétérinaires
us.
7%
ie.
S,
secondaires
l'acide
F
seraient
els.
contrôlés
efficacité
appliquer
bas@@
99/
fication
dosage
vivo
MISE
ement@@
nausées,
ologie
empêcher
bles
examens
sommes
d'absorption
(souche
réalis@@
vit@@
cela,
poudre,
laisser
travail,
re.
sûr
savons
rapporté
blancs
ox@@
que)
fièvre
3,@@
cin@@
34
biologique
250
mg.
bout
domaines
ma
−
version
ois@@
fortement
pe@@
fonctionn@@
Mycophénolate
obtenus
inhibe
plaques
AP@@
animaux.
n'auriez
i.
totalement
arm@@
Pharmaceuticals
me@@
élément
conséquence,
faisant
LOTS
our@@
-,
éliminés
européenne.
viol@@
veut
loin
contre,
on?
/98)
circonstances
central
suicidaires
supérieurs
ist@@
produits,
ris@@
L-@@
(0,@@
ari@@
(n
génér@@
ets
(C@@
toxiques
limpide
tin@@
générale
vis@@
CPMP
fic@@
Cor@@
plaquette
leucémie
influence
haute
tes,
la@@
acquise
CE@@
pertinence
trouver
its
for
St@@
titre
err@@
Lilly
ex.
vient
Nom
ven@@
004
approuvée
B,
consultez
ib@@
ide
pulmonaire
médiane
x,
tumeurs
4.@@
contrôlées
induit
ose,
SI@@
49
l'élimination
idé@@
naïfs
Enbrel
l'ASC
mélangé
no@@
ères.
lorsqu'il
l'animal
dr@@
8,
coordination
L'
rendre
TR@@
impossible
diluer
tre
professionnels
nature
organisations
International
GlaxoSmithKline
l'immunodéficience
Ri@@
FABRICATION
022/
dispositions
Se@@
appelé
l’Union
/97)
ers.
parents
Commission,
L'un
consommateur
l’Europe
ation?
journalière
fixe
38@@
ouvert
cœ
poursuite
tandis
importants
AC@@
31
IS@@
réductase
der@@
ie,
che.
at.
d'entretien
sclérose
ique
cit@@
(pour
vs
ténofovir
hé@@
nu@@
congelé
ane
sont:
4.2).
gène
ens@@
ed
rarement
seringues
vomissements
l'am@@
maintenant
6.6.
présentés
éri@@
OÜ
CONSTA
ai
prérempli
l'environnement.
bénéficier
objectif
qu’ils
marché,
e".
que?
zidovudine
initi@@
nécessaires.
l'ostéoporose
fractures
95%:
s).
normale
2)
produite
semaine)
ES@@
tés
d'enfants
I.
y,
3-@@
endommagé
l'expérience
possibles
dispositifs
LI@@
din@@
contenus
masse
rythme
évaluer
rapidement.
d'obtenir
contraste
Qu@@
Durée
Sharp
négatif
capable
Résumé
nettoyants)
quoi
fs
Seul
pêche
alisme
passé
ont-ils
Peut-être
l'environnement
5,@@
(IC
application
champ
32
st
temps,
moelle
tuberculose
génotype
synthèse
rhinotrachéite
Mi@@
novembre
tive
huit
ER
capacités
mauvais
directrices
pharmaceutiques
l’aiguille
bu@@
Aucune
(L@@
cher
Co@@
travaux
ini@@
habituellement
commission
l'emballage
z
qu’elle
boissons
INFORMATION
l'égout
commun@@
souhait@@
m'@@
compt@@
aut@@
pratique
UTILISÉ
Qu'est-ce
oubliez
L'UE
monde.
fonds
2-@@
et/ou
(H@@
poursuivi
46@@
évènements
losartan
ann@@
stimule
événement
standard
VIH
injecté
blanches
fort
Informations
indiquent
sal@@
centre
DE@@
ef@@
utilisateurs
entraînant
révision
chi@@
bouton
do@@
he@@
it
Irlande
air@@
atténué
jeu
parl@@
ma@@
Irbesartan
preuves
l'alcool
limitée
RESPONSABLE
entr@@
d'im@@
istes
Qu’@@
re?
moi,
maintien
randomisés
]
d'injection,
MP@@
µg/
cliniques.
score
(T@@
bovins
plasma
70@@
l'EMEA.
enne.
musculaire
9,
tiv@@
oni@@
d'anticorps
hormone
calcitonine
ut@@
avril
tension
travaillé
divers
sie
septembre
progressivement
d'animaux
interrompu
statistiques
l'O@@
approche
vont
signe
thermoformée
iste
transdermique
d'effet
pay@@
l'application
uvre
ON@@
fournir
tre.
réaliser
soci@@
dû:
chômage
/2000)
saignement
corps.
surtout
appar@@
simvastatine
essai
correspondant
accrue
respiratoire
méthotrexate
not@@
réalisés
approximativement
gélule
34@@
significatif
d'é@@
g/
opaque
bar@@
visant
directe
sécheresse
MI@@
Mix25
so@@
le.
organes
X
ette
plastique
Dohme
respecter
63
ré.
55
années,
sol@@
République
transfert
envisagée
char@@
indiquée
ais,
PRECAUTIONS
(débat)
schéma
(4@@
biologiques
développé
semaine,
reproduction
route
x.
continu@@
interactions
décidé
d'infection
(4
us,
d’injection
pré-@@
oral
mutation
ax@@
l'aptitude
bio@@
l'industrie
Ad@@
ard@@
ble,
anc@@
glycémie.
l)
responsabilité
tenant
analyses
(y
développement.
E.
méthodes
dommages
d'hémoglobine
Pr@@
ep@@
technologie
inf@@
marque
Europe,
sirop
adresse
suite,
vin
l'en@@
èrent
économique
PARTICULIÈRES
intéress@@
indications
lamivudine
approprié
marge
polyéthylène
ce,
intervalles
Imprida
asi@@
ates
fréquente
petites
nausées
activ@@
ative
faveur
veineux
évidence
indi@@
For@@
avi@@
Per@@
é?
fuite
veine
rougeur
lé@@
ReFacto
-1@@
1997
lorsqu'ils
ci-dessous
198@@
Dé@@
té@@
quelqu'un
i,
EL@@
Ex@@
probable
entes
injectables
Li@@
frais
·
grands
conscience
aff@@
et.
États-Unis
ampoules
utilisation,
apparaît
départ
Neupro
L’utilisation
vraiment
ez@@
visibles
rouler
í@@
égale
stérile
L'UTILISATEUR
Sa
PRÉCAUTIONS
interdiction
j'ai
s!
concurrence
appliqu@@
devoir
(≥
Com@@
ra.
SE@@
clinique.
IX
récente
post-@@
définie
gra@@
thérapeutiques
fantaisie}
sauf
interféron
C)
contrôl@@
(M@@
cycles
rare
2002
médecine
même,
accord
sécurité,
musculaires
enzyme
iques
outre,
ir,
rester
dos@@
one,
Ils
atteintes
efficace.
hormones
continuer
l'exception
reconnaître
gouvernement
pas@@
UTILISÉS
Tableau
budget
PARTICULIERES
alité.
Madame
900
courte
terme,
terminale
majeure
parlez-en
amine
abilité
ite.
l'I@@
n'apparaît
(de
3,5
8,@@
(une
7,@@
accidents
accidentelle
oculaire
por@@
(5
Grossesse
maladie.
CYP3A4
amin@@
90@@
fait@@
initial
che,
injection.
analogues
ure.
(les
affection
ables,
signalés
puisque
tube
bactéries
Mix50
Portugal,
Après
ect@@
37
accept@@
vis-à-vis
para@@
Uni@@
pensez
chances
bouchon
phénomène
mené
ts.
Suède
att@@
bat@@
ances
publi@@
propos@@
essentiel
ille
erreur
L'incidence
UTILISES
L’Europe
ement?
(A4-0@@
(A5-0@@
Cl@@
difficulté
(avec
ans)
soigneusement
I,
périodes
présentaient
(sous
but
semaine.
simultanément
adaptée
aggravation
ites
neuf
thérapie
ines.
microgrammes/
flu@@
comprenant
corporel
fonctions
2003
porté
fièvre,
vomissements,
2001
tions,
Ro@@
souche
OP@@
sor@@
constat@@
d'élimination
I).
85
manipulation
préalable
ène
circulation
animale
injectables.
ques:
ches
fourni
professionnel
tur@@
ampoule
co-infectés
enceinte
der
lien
005
ow@@
articles
ö@@
ens.
absolument
S'IL
année.
issent
efficace,
contrôles
6.3.
est-ce
l’on
choses
débat
euros
mot
u.
l'analyse
ET@@
hémorragie
s),
issement
0,0@@
adop@@
constater
suffisante
modifié
%),
Tarceva
euse,
traitée
000/
l'échelle
tique,
vaccin.
chimiothérapie
active,
osseuse
basée
ate,
rhumatoïde
malades
graisses
95
nor@@
diabétiques
retard
inconnu.
multi@@
eu/.
trouv@@
hypertension
technologies
chaleur
vir@@
fortes
ml/
Sch@@
prise.
4.4
4.3).
secondaire
PGR
cher@@
pan@@
atteindre
grossesse.
cartouche.
ME@@
ats
inform@@
gé@@
dev@@
tor@@
commun
Park
souvent,
déterminée
outre
infirmière
l’UE
l'être
hydroxyde
tor
meilleurs
président
concernés
d'ab@@
cri@@
d’informations
figure
pouvait
ouv@@
ter,
porte
a-t-elle
es!
d'abord,
(utilisée
,@@
note
observations
machines.
pioglitazone
tn
l'estomac
(G@@
développement,
a-@@
rom@@
20,
bles.
ait,
nourrissons
attendre
contamination
glucose
journée
présentées
d'inter@@
mat@@
ente,
indiquant
peginterféron
remise
À
sexe
manifestations
co-@@
ois
destinée
stockage
polysorbate
iser
internationale
P.
mentionnées
lentement
goutte
audi@@
Syndrome
ques@@
disponibles.
lég@@
tentatives
glob@@
Belgique,
adapté
sens
reçoit
ig@@
ren@@
décrit
Tel.:
unique.
.,
AB@@
toucher
personn@@
eff@@
multiple
européennes
émissions
vers@@
naturelles
Car@@
l'intégralité
t-@@
l'État
grand@@
DÉCHETS
Sverige
tre,
dépistage
supprim@@
Parce
DECHETS
."
Mais,
perfusion.
reprise
contactez
loc@@
alement
N-@@
6,@@
défini
dor@@
apparaître
différ@@
humain,
aci@@
00@@
sériques
périphériques
provoqué
évaluées
actuel
gén@@
vitamines
coll@@
ennes
panleucopénie
d'Alzheimer
pommade
cy@@
transitoire
observ@@
ez-@@
ch
og@@
quels
d'h@@
Viraferon
cité
DepoCyte
Section
2008.
cancer.
limit@@
pathologies
tâches
Instructions
l'octroi
act@@
machines
60@@
41
ili@@
détecter
Ltd
1,0
Italie
exclusivement
rejet@@
co-administration
souffrent
006
d,
BIOLOGIQUE
suffit
Prévention
parle
j'@@
peine
L'information
considér@@
Vos
tonnes
»@@
ent-ils
ia
arrê@@
véhicule
dessous
OR@@
1%
anormale
candidose
éventuellement
nécessiter
4%
T,
vaccin@@
47
nécessitant
1-@@
CH@@
D,
Protopy
bénéfice/
tirer
nettement
suspension.
actu@@
déclar@@
EX@@
TE@@
ellement
chimiques
l'enzyme
dioxyde
augment@@
ques)
devait
ents,
thrombo-emboliques
5.1).
confirmé
eu/
lots
cé@@
expérience
dose,
affaires
ché
100@@
utilisé.
pipette
D'ORIGINE
r.
est,
lan@@
conserv@@
mères
tive.
l’autorisation
rac@@
fon@@
tabac
parfaitement
enquête
exig@@
rait
L'ex@@
citer
raison,
vente
coût
(H-0@@
ER@@
vasculaire
hanche
H
circul@@
ome
normalement
heur@@
jusqu'au
suivie
ira
l'organisme
58@@
symptomatique
résistants
poids.
appel
termin@@
tif
d'en@@
hor@@
terrain
tacrolimus
somatropine
malgré
valsartan
observation
apparaissent
mécanismes
197@@
5.@@
sembl@@
FI@@
D-@@
apporter
gestation
diarrhée
congestion
marqu@@
modérée.
ne,
atifs
malignes
représent@@
tour@@
culture
Eli
Gardez
VI@@
intention
KwikPen
sirolimus
envisagé
altern@@
RCP
hautement
EN
résultant
individu@@
ente.
tour
teneur
mis@@
Gu@@
d'information
différent
tion@@
complémentaire
fentanyl
indique
quer
connu.
ain
programmes
ettes
parlé
donne
pollu@@
quelles
navires
te?
impos@@
écrit.
pres@@
débit
rapportée
9%
lev@@
oli@@
uti@@
tive,
cardiaques
Bar@@
sup@@
fertilité
tp
dur@@
signification
humaine,
prévues
d'augmenter
répon@@
bri@@
érythème
39@@
é:
efficaces
enregistr@@
-0@@
l'an@@
entièrement
rée,
(N@@
minim@@
127/
180
eri@@
subi
rapport@@
sévère,
répétées
dysfonctionnement
tives
ô@@
hydr@@
cuillère
ou,
poids,
ES
envisager
qués
statut
obtenues
limitées
Royaume-Uni,
eant
enfant,
appartient
filtre
(cellules
Œ
arg@@
gn@@
Mon@@
Österreich
attendu
transplantation
aill@@
gue
k,
l'alimentation
my@@
d'alcool
l’enfant
nuit
Yondelis
calicivirose
radio@@
aine
producteurs
normes
entreprise
ó@@
transport@@
changer
aller
contre-indiquée
moindre
qu’un
portée
handicap@@
législ@@
voulez
Six
loi
crimin@@
députés
ait-il
Président,
Nos
Nor@@
seringue,
sion@@
38
diminu@@
Raptiva
9,@@
il.
cutanée,
sécrétion
CT@@
pronostic
constituent
fé@@
(6
l'intérieur
normal
devaient
adi@@
ViraferonPeg
composé
a)
chat
négative
physique
remis
rest@@
mondiale
D'autres
Prise
chef
lier
ard
Augmentation
sion
unités
juillet
Danemark
fournies
mét@@
atif
enzymatique
diarrhée,
ures
rage
be@@
infectieuse
372
Box
cycl@@
Belgique
gènes
permettra
-t-il
danger
accident
Telzir
solvant,
rend
vie,
sé.
s’est
optimale
d’utiliser
dues
Mal@@
FCV
relire.
extérieur
personnellement
issant
as,
chiffres
permettent
reconnaît
financement
issus
chiffre
source
chois@@
emb@@
constate
QU’EST-CE
parole
z,
ceux-ci
nous,
e-t-elle
ler
Str@@
ment.
pér@@
ton
minutes.
échelle
inhal@@
survenus
f,
lymph@@
ase,
épisodes
isol@@
gel
d'attente
visuelle
Tritanrix
(1,5
MUI
(la
cultures
-ci
urinaire
d'ac@@
centr@@
intervalle
ol,
Internet
év@@
discussions
interne
difficiles
l'instauration
jaune
d'améliorer
des.
rée.
2007
ins,
pratiques
présentation
pou@@
recommandées
mmol/
contraception
log@@
sels
Wyeth
Rom@@
Mise
55@@
doigt
toux
charg@@
propres
augmentant
communautaire
ensemble
humain@@
télé@@
déc@@
conseillé
autorisés
précis@@
comporte
stricte
injectable.
intérieur
rés.
oï@@
ah@@
nutrition
Gélule
hausse
boire
contenir
pris@@
construction
fonctionnaires
(hypersensible)
L'une
capit@@
prévoit
dic
multiples
ose.
l'ac@@
manqu@@
cancers
89
psoriasique
prévue
devriez
d'activité
choc
-1
absence
éruptions
l'évolution
identifiés
min
fil@@
ines,
PO@@
arrêt
ologique
ss@@
ouverture
d'interaction
orale.
ath@@
absolue
transporteurs
arr@@
pharmacologie
(D@@
fix@@
précoce
CE
NE
fatigue
relativement
D.
Réponse
ressources
connaissance
échantillons
création
anémie
isolats
*,
n°
Gr@@
MIRCERA
administrées
associations
ast@@
soleil
abl@@
montrent
marquage
cam@@
IV@@
ajou@@
neutropénie
péri@@
diffusion
prim@@
hypersensibilité
biais
Diplôme
enceintes
général,
+4@@
emballage
l'h@@
Comité
exercice
d'autre
Commission.
l’ex@@
particulier,
d'acidose
réglement@@
réseau
lus
seuil
7,
009
Flacon
personnes,
fr@@
spécifiquement
Ne@@
tient
d'abord
fier
erez
étapes
effectivement
rem@@
accepter
mauvaise
n'étaient
l'Espagne
Ma
pri@@
auraient
train
pollution
s'
e-t-il
/99):
comparable
6%
normale.
oxy@@
enne,
ré,
d'exposition
(n=@@
oraux
ur
l'excrétion
toxine
répondre
arrêtez
l'HMG-CoA
fera
menées
l’EMEA
EP@@
CHAMPIX
25%
ond@@
employ@@
matin
67
vitro,
HepB
former
7,5
important,
allait@@
sion,
tombé,
donnant
effectu@@
inqui@@
occupé
l’université
per
ct@@
Ph@@
Douleur
Pharmacovigilance
risque.
présentations
RI@@
Her@@
autoris@@
TA@@
men@@
effectués
â@@
proposé
ner
proche
van
industri@@
urg@@
suppléments
déclarations
SA
66
PRENDRE
Ab@@
locales.
rapporteur
lie
cop@@
entrer
vigueur.
sous-cutanée.
suppression
remplacement
modifiée
pl
sti@@
L'injection
ka
Or@@
ff@@
Bayer
chimique
communication
ez.
vérifi@@
précisément
excrété
malade
constituer
puis@@
intervention
délivré
membres.
ablement
exist@@
participation
esse
pourront
voiture
Lorsqu'un
ordonnance,
QU'@@
priv@@
ages,
violence
pesticides
œuvre
montant
passe-t-il
és?
Tlf:
(à
44@@
ation)
Prometax
pertes
at,
hépat@@
3)
fœ
substitutif
V,
réunions
pen@@
ide.
somnolence,
4)
l'acuité
vildagliptine
(<
PR@@
str@@
ca@@
44
débuter
cible
20%
thromb@@
TS
5)
TMZ
riche
10,
laboratoire
T)
Européenne
retrait
d'autorisation
grav@@
tractus
sociétés
AG@@
tal@@
convulsions
cur@@
es-@@
eu.
commune
tres
grave.
maison
défini@@
multiforme
neuropathie
implique
oculaires
d'Humalog
jeun
comprise
ont,
don
Basal
Inhibiteurs
répartition
doucement
92
développ@@
ences
abdominale
onnement
na
associ@@
améliore
propos
tenu
poche
Sou@@
h,
soign@@
commencé
conclu@@
combien
fabricants
actuelle
proposée
défenses
maladies.
joue
007
010
art@@
Pi@@
prescrit.
tro@@
réunion
ie@@
don@@
sort
nationale
contribu@@
carbone
présid@@
hu@@
mention
contribuer
représentent
Outre
ju@@
dispar@@
clair
semblent
coup
point,
commence
republika
L'impact
voyez
Ou
cont@@
nation@@
véritable
encore,
L’Union
suivante
2/
dro@@
comparativement
estimée
Lu@@
urinaire,
actif.
voriconazole
mesurer
ure
qué
Fr@@
1).
augmentations
c,
30%
22@@
évalu@@
enfin
intérêt
EXUBERA
fixation
bactéri@@
respiratoires,
Ribavirine
72
d'I@@
mouvements
animal
TE
ation:
ambi@@
Europe.
concentr@@
nécessite
83
lentilles
poser
euses,
amélior@@
port
montrant
inducteur
»).
objec@@
3,0
venir
AVEC
bour@@
He@@
agissant
Business
Fax:
l'air
affecter
accumulation
52
déchet
Virus
OptiSet
résulte
doute
Humalog
um,
composés
NOM
mu@@
ait.
FABRICANT
savez
fre@@
organisation
l'ar@@
arrive
croissant
prochaines
limitée.
s'avérer
augmentent
population.
Posologie
Grèce,
vent
particules.
dépasse
recherch@@
pén@@
centres
répercussions
S'agissant
finalement
défendre
eraient
s'en
médias
garanti@@
Lire
promotion
Pour@@
quement,
Quatre
Slovenská
sûr,
million
ignor@@
fondament@@
pouvons
Mon
Personne
l'abacavir
péremption
ds
pathologie
hypoglycémie
tique.
affections
cat@@
rhumatisme
minimiser
fos@@
document@@
met@@
ami@@
environnement
stable
cale
impliquant
ts,
(1@@
démontrée
plas@@
mg/@@
vaccinés
ance@@
FlexPen
tumorale
interaction
ologiques
cra@@
suggèrent
Pa@@
immun@@
grave,
ités,
effectuer
ber@@
démontr@@
s'ils
incidences
tifs
AV@@
My@@
constitu@@
m,
BASAL
mai
maux
qui@@
Naglazyme
ant:
européen.
s'impose
fermeture
ture
Fabricant
micr@@
Royaume-Uni.
suivante:
conditionn@@
The
artifici@@
aise
intolérance
32@@
ération
lact@@
autorisée
hom@@
l'ADN
devenu
exécu@@
importe
crème
réserve
examin@@
mou@@
014
371/
372/
/9@@
exactement
{@@
Laboratoire
Ser@@
ité@@
étudié.
préférence
dic@@
substitution
d'énergie
gravement
minorité
color@@
l’égout
cer@@
d'aliments
exploit@@
compéti@@
jet@@
hors
appréci@@
fixé
organis@@
justifi@@
déclaré
anci@@
Leurs
langues
România
oul@@
S’il
homme
mes,
milliers
aï@@
ques?
a-t-on
Boehringer
Ingelheim
formule
3/
(800
l'homme.
74
7)
bil@@
ther@@
sanguin
l'hormone
tentative
morts
comparables
métabolisé
T-@@
Tracleer
ulcère
LE@@
patients)
α
µg
complément
précédant
pédiatriques
adultes,
l'inclusion
dessus
aminés
docétaxel
profondes
(environ
(12
décrits
*@@
simultanée
saumon
préalablement
triglycérides
foie.
éré
V.
67@@
um.
cytochrome
asthénie,
locales
directeur
Bo@@
trop@@
lutte
(1,@@
basé
chlor@@
Chez
sugammadex
uri@@
l'action
q@@
médicament@@
Sal@@
évolution
ue.
dys@@
quée
reporter
périphérique
indésirables,
cal
mutagène
sour@@
int
intern@@
hémat@@
distribu@@
alité,
flux
changez
institutions
l'embout
microbiologique,
tourn@@
bord
Pl@@
assur@@
flacon,
cli@@
offre
contre-indiqué
enregistré
scientifiques,
approprié.
ateur@@
Finlande,
suite.
prot@@
prévu
one.
008
allaitement
Taux
ü@@
Sol@@
intramusculaire
],
ú@@
étrang@@
sécurité.
agissent
décider
sais@@
rempl@@
établie.
sk@@
encourag@@
alimentation
compli@@
s'avère
tard,
appelle
coût@@
Bu@@
L'importance
travaill@@
N’@@
Tel
s"
dégâts
entend@@
est-elle
voy@@
travailler
ité?
/200@@
PI@@
'es
ciprofloxacine
(comme
STELARA
qu'après
CVMP
nécessaires,
favorable
41%
stavudine
96
ce.
appelés
oire,
naissance
des,
Trevaclyn
1.@@
positive
experts
extr@@
tir@@
acceptable
interagir
trouvent
ologiques,
contre-@@
fluoxétine
plan@@
4,5
statistiquement
super@@
mesurée
comprennent
glycérol,
gen@@
habituelle
évalués
densité
0,3
compter
l'hyper@@
échec
yl
insuffisant
gel@@
contribue
proviennent
acquis
l'emploi
(ex.:
connue.
log
yn@@
ressentez
nie
diabète,
outils
Val@@
ambiante
Du@@
commercialisation.
aire@@
documentation
ences.
européennes.
COM@@
6.@@
Médicaments
ence@@
que@@
ues
oph@@
sciences
diplôme
région@@
mouvement
cap@@
m2
Tr@@
do
D'un
U.
Hyper@@
+46
SARL
pose
oire.
MA@@
di
jeté
ent:
bloque
rées.
120
BMS
respect
ateurs.
individuelles,
isent
prérempli,
respiratoire,
Fréquence
011
373/
(%)
monosodique
EXP
réalisé
AAAA}
bor@@
lin@@
laiteux.
sources
contamin@@
souffrez
aur@@
inactivés
faible,
u,
demandé
entraîn@@
ne.
convi@@
sés.
modifiés
oy@@
clair@@
conception
fumer
flexi@@
sem@@
l'impression
L'examen
appareils
Lorsqu'il
dira
pire
Puh/Tel:
Ses
n’auriez
bon@@
Union
terre
profit@@
jouets
�
réalité
ain,
illég@@
(
elle?
ées?
d'événements
d'acide
d'administrer
intraveineuse.
surveill@@
pégylé
prurit
Starlix
excès
ID@@
pied
»)
1997,
gorge
march@@
entér@@
atoire
souris
patient@@
l'espèce
négatifs
rappel@@
muscles
douleur,
(200
tol@@
fact@@
périodiques
solides
incolore.
subit
50,
exemple:
indu@@
ulcères
ot
destruction
/96)
ORACEA
suc@@
enc@@
ta
exposés
(tels
her@@
maternel,
NO@@
-00@@
tionn@@
Bi@@
Av@@
présentes
déf@@
chien
cours.
path@@
Allemagne,
tubulaire
filgrastim
(R@@
direc@@
systémiques
d'am@@
comprim@@
1998.
en-@@
+49
grammes
dexaméthasone
disodique
positif
Saint
français
dépassant
aliment@@
Candida
chlorhydrique
conditionnement
86
Infections
poumons
étudiés
tomb@@
Norge
bul@@
sp@@
Emballage
destinées
endroits
national
tent@@
internationales
NovoRapid
placé
iste.
issue
sexu@@
d'assurer
Sebivo
variabilités
permet@@
LIBERATION
03@@
excipients,
précurseurs
dit@@
allaitez
recombinant
celles-ci
rappeler
situe
d'ar@@
celle-ci
chaînes
saurait
explique
fixer
respect@@
acc@@
constatez
rénale:
restera
considère
requ@@
soutenir
bouteille
milli@@
ets,
étudiés.
isme.
point@@
mort@@
réellement
etc.
L'introduction
passé,
tard
oubli@@
bénéfici@@
laisse
ç@@
ê@@
Suomi/Finland
attend@@
libér@@
ville
fond@@
trafic
commerce
aides
milliards
voit
l'amendement
Parallèlement,
68
tard.
voi@@
même.
sh@@
99@@
précédemment
sang,
contraceptifs
foie,
v
nouveau-nés
l'espace
ras@@
β
spéciales
rit@@
(2@@
sions.
puiss@@
inférieurs
étudi@@
erie
neur@@
sensible
prophylaxie
induite
2.@@
0,2
HPV
proté@@
97
AF
numération
Riprazo
Tekturna
cau@@
agn@@
écrasé,
dépôt
topotécan
-B@@
ca
bonnes
indication
compétentes
main
contacter
détection
”
appuyer
(utilisé
2).
prennent
mineure
possède
Plan
assi@@
détermin@@
har@@
RO@@
tou@@
(cf.
formul@@
Communautés
n'importe
pouvaient
expériment@@
irrit@@
fréquences
yeux,
cardi@@
2005,
Danemark,
ciclosporine
(qui
d'âge
fluor@@
disponible.
européen,
peau.
au-delà
chroniques
insulin@@
sodium.
antirétroviraux
jug@@
d'arrêter
-je
71
pon@@
marqué
New
ett@@
prérempli.
fréquents:
Prenez
+372
BRISTOL-MYERS
SQUIBB
hal@@
lutter
couche
l'expression
Bruxelles
isme,
mer@@
euses.
ains
durer
mission
maximales
heures,
jeter
ue,
concernées
Rapports
n'avez
Enfants
compét@@
maladie,
demi-@@
oir
da
364/
77
endroit
emp@@
{MM/
ra,
bal@@
paumes
ern@@
Gélules
tabl@@
Trans@@
allaitez.
poissons
part@@
les@@
éch@@
psychiatriques
catégories
naturellement
80@@
thé@@
inv@@
qu'au
ois,
l'Allemagne,
signaler
S'@@
fournit
auront
passagers
celui-ci
envisag@@
d'éducation
moins,
ingrédients
restrictions
mobil@@
deviennent
possibilités
plans
informé@@
re:
Qu’est-ce
assu@@
ment,
faudrait
genre
préoccup@@
menac@@
l'internet
cru@@
voitures
vote
vingt
propose
interdit
choix
habitants
veulent
(vote)
Prenons
Quatrièmement,
liberté
d'anti@@
dés
(6@@
eus@@
oedème
atives
col
P,
4,9
instable
hebdomadaire
0,25
(10
réductions
dépressifs
disparaître
7-@@
rivastigmine
6/
posologies
d'intensité
M,
protéique
strictement
tabagisme
distance
0,
émi@@
Pegasys
résumés
grippe
urin@@
résonance
magnétique
léger
lymphocytes
incidence
appliquée
phot@@
g.
ide,
l’insuline
'e
rash
warfarine
comport@@
ences,
pharmaceutique
arti@@
6-@@
mod@@
démangeaisons
ate.
néanmoins
idée
recevront
apport
spéci@@
réalisation
exceptionn@@
ä@@
mars
d'injection.
discussion
cirrhose
T.
diagnosti@@
direction
glioblastome
ies,
complémentaires
issues
tifs.
ins.
absorption
fum@@
physique,
condu@@
IntronA
serez
membrane
tampon
alcool@@
figurent
immuno@@
reprendre
engag@@
inc@@
adultes.
hydroxy@@
dra@@
Ελλάδα
CON@@
ète
sie,
Dose
OU@@
visage,
malabsorption
européenn@@
d’eau
potassium,
sel
secondes
prolong@@
protég@@
atten@@
rechercher
Elévation
isse
d'ét@@
nom@@
den@@
Elles
EU@@
@@@
effet,
Cal@@
régulière
persistent
équilibre
compos@@
vaccin,
habitu@@
procédé
ge@@
considérablement
sign@@
012
Tritace
ON
ale@@
alu@@
oir.
neu@@
compr@@
bru@@
Ireland
ans@@
suiv@@
organisme
nucléosidiques
mes.
évident
faudra
échou@@
achet@@
United
Kar@@
abilité.
née
concernent
alternative
l'UE.
ais.
proposés
matériaux
amen@@
suppose
développez
soit,
D'ELIMINATION
Conseil,
là.
agriculteurs
sont-elles
?@@
terroristes
guerre
génétiquement
justice
Or
ée?
tion?
graves.
ologique.
concomit@@
réagir
358
avancé
vertébrale
(2,@@
2,0
ratio
caillots
pulmonaire,
pel@@
nécrose
déplac@@
d'équilibre
oiseaux
quelconque
disparaissent
oti@@
international
immédiate
l'utiliser
efforts
financier
communautaires
Programme
Kineret
76
signal@@
mati@@
P)
BYETTA
jour@@
additifs
AI@@
rémission
que).
aggrav@@
-9@@
fumarate
64
pal@@
6)
mère.
P450
jeunes.
eux@@
neurologiques
diverses
ministère
lin
méthadone
tez
lement
écou@@
sac
générale,
isés
transdermiques
titane
mani@@
onie
Europ@@
produits.
os.
alt@@
kin@@
corps,
l'ab@@
formulation
introdu@@
sexuels
éti@@
nouvellement
l'inhibition
sées.
dul@@
survi@@
ers@@
infarctus
l'agence
étroitement
indépendante
II.
risquent
bouffées
chevaux
l'oreille
dihydraté,
erg@@
accompagnée
tourner
Expérience
rejoint
human@@
auxquels
re)
EF@@
réduisant
spécifi@@
passant
vendus
d'entre@@
Nespo
causés
l'allaitement.
atrice
soumises
adéquat
empêche
d'en
d'anomalies
d'O@@
té.
calcul
export@@
modèles
identifi@@
cation
Madrid,
régul@@
discu@@
stylos,
opérations
Excipients:
sulfate
empl@@
(B@@
LIBÉRATION
eng@@
actuelle,
devrez
(souches
431
réservé
.)
í
excrétée
sain
endra
lè@@
élimin@@
pass@@
Rap@@
Pologne,
compétences
écar@@
électronique
Iscover
(appelée
sérieuse
mélang@@
différente
observe
L'analyse
opportun@@
jouer
comporter
constaté
l'a
hér@@
considérer
possible.
marchés
es»
lui-même
l'opération
eusement
L'État
père
cô@@
force
mentionn@@
article
Tant
anim@@
suis
revient
décisions
stocks
gouvern@@
volonté
ent?
arriver@@
Non,
Novartis
sang.
tubulure
obtenue
3).
vasculaires
posi@@
l'adolescent
lorsqu'une
rén@@
tumeur
gonfl@@
const@@
ique,
oly@@
nicotinique
nouvel
cm
l'H@@
abatt@@
antidiabétiques
inhalée
disponibilité
définis
crit@@
prurit,
jours)
d'antibiotiques
restant
oxyde
glyco@@
LDL
visible
PRO@@
Si@@
VHB
adolescents.
respiration
del@@
exposées
terme.
agent
l'éfavirenz
cancér@@
irbésartan
sildénafil
jambes
gue.
d’insuline
grumeaux
MabThera
C),
d'application
odi@@
ase.
publications
aspects
ologie.
2000,
impression
trouble,
année,
thi@@
pli@@
proches
dan@@
décembre
manifest@@
sensations
vaccination.
Paxene
secrétariat
web
représentants
land@@
s/
ellement.
essentiels
veaux
d'habitude.
consultation
méthyl@@
issez
(0)@@
Réaction
rendu
026
côtes
Réactions
tis@@
terfénadine
hépatique,
ci
permanent
Col@@
rue
unité
lon@@
conseils
résist@@
normal@@
modifi@@
provoquée
pac@@
population,
mot@@
Mac@@
détru@@
maintenue
fourni@@
ène,
contrôlé
013
thermoformées
créer
AN
suffis@@
reçoivent
inst@@
néfastes
osi@@
Malta
KOGENATE
soja
exposé
stratégie
tif@@
(SIDA).
son@@
n’y
recevez
l'Italie,
pé@@
mées
+35@@
natur@@
moins.
considérable
Latvija
réserv@@
atis@@
mort.
annu@@
animaux,
four@@
Système
ailleurs
L'évaluation
Malgré
sée,
Parfois,
eur?
intérêts
Sh@@
pratiquement
traditionn@@
pièces
subventions
clim@@
intellig@@
gagn@@
familles
penser
s".
j’@@
ent-elles
judici@@
arriv@@
l'interdiction
!@@
vaut
rapport,
tera
l'emballage.
ouver@@
suivez
comprendre
l’objet
osseuses
émie
9/
C).
prises.
GONAL-f
que),
transitoires
cellul@@
sévérité
l'UE,
hémorragiques
AT
graduée
concept
PD@@
répondu
digitaux
Données
perdu
injectable,
58
LSN
ziconotide
les.
II,
Humira
d'entraîner
LU@@
%@@
viv@@
clinique,
lendemain
images
oz@@
d'étude
Londres
grossesses
amide
ges@@
ine)
eth@@
n,
immédiat@@
ure,
pic
:@@
noti@@
nommé
l'angiotensine
76@@
AL
coul@@
famili@@
connues.
ne@@
détérioration
affirm@@
cellulaire
réception
l'ét@@
(V@@
squelettiques
isation.
antiviraux
d'insuline,
diagnostiqué
l'irbésartan
gastro-intestinales
surviennent
démontrer
minimale
diminuée
séri@@
l'i@@
repos
isation,
plantes
l.
les,
(des)
d'apparition
E,
Rec@@
artérielle.
SOLUTION
systématiquement
vre.
Man@@
y.
Mil@@
physiques
musculo-
ana
UR@@
goût
61
Es@@
aire:
étrangers
de:
finale
tif,
secteurs
bêta
l'eau.
compartiment
prochain
Neoclarityn
Z
ac
l'énergie
2007,
lactique
variant
informé
chiff@@
locale
dites
seringues,
015
016
021
146/
369/
375/
377/
SoloStar
Evitez
surfaces
ci-dessous.
ouverture,
Pol@@
our
potenti@@
économie
sie.
imprim@@
divis@@
enseign@@
élevé,
copie
attaque
lit
remplacer
réuni@@
fruits
continuent
manger
quez
aires@@
lign@@
voyag@@
prof@@
quement.
test@@
rejets
proch@@
oblig@@
L'âge
comprend
préven@@
êtres
-on
code
mètres
Mode
zéro
essi@@
dre.
vide
dési@@
Ni@@
es"
actes
entre@@
temp@@
atteint,
N’utilisez
+47
produc@@
MARCHE
ire
z.
Près
Regardez
quinze
autres,
négoci@@
innov@@
armes
votes
pourtant
monnaie
démocrati@@
là,
oir,
absur@@
ations?
Qu'avons-nous
+45
Orphan
lévodopa
injectez
tés.
attentive
évènement
rapportés.
cis@@
lésion
abcès
maintenu
hommes.
es/
Karvea
(p
MO@@
articulations
OPTISON
expositions
blessures
l'organisme.
l'inter@@
osté@@
parti
4.
osseuse.
VIH-1
émie,
cad@@
plaquettaire
significatives
montr@@
inadéquate
sensibles
otite
bilirubine
sevrage
tax@@
Parkinson,
reproduc@@
affectant
probabilité
fur@@
d'al@@
molécule
inhibition
l'or@@
orale,
/0@@
1/@@
02@@
indiqu@@
ellement,
chev@@
inducteurs
assist@@
Br@@
conseiller
meilleures
plac@@
pourrez
ly@@
patient,
feu
fs.
causer
décrites
ci-dessus
émulsion
De@@
public@@
l'huile
Dès
sée.
vaccinale
transparence
plant@@
pren@@
d'augmentation
ère@@
ve.
persist@@
nasale,
l'hydrochlorothiazide
rat
sains.
ex
m.
PVC
Pays-Bas,
réguliers
aines
tiques,
transcriptase
Is@@
pâ@@
bouch@@
on:
sac@@
CD@@
d'interrompre
substituts
San@@
PL
puissance
ennes,
tubes
veill@@
bénéficiant
..@@
nez
nécess@@
opénie,
centrale
res,
-vous
ong@@
dét@@
souffre
accu@@
Etats
faits
organisé
RA@@
donnez
compatibilité
ADROVANCE
l'indication
prévoir
résid@@
apport@@
indéterminée:
027
TH@@
solvant)
017
018
024
376/
97/
retourner
gue,
FHV
dem@@
stabil@@
te)
matéri@@
ém@@
man
PE@@
Oy
gros
mê@@
dél@@
lors@@
esc@@
oxydase
1998
matin.
oublier
BI@@
confi@@
PC
Interactions
ateurs,
ait@@
CO2
d'aucune
au,
stock@@
d’être
directives
imputables
courant
territoire
équivalent
î@@
L’objectif
dépasser
Lietuva
définitif
préfér@@
tiques.
déclaration
Neurontin
reprises
paiement
istes,
méthoxy
glycol-epoetin
identi@@
conclusions
abor@@
inquiét@@
L’un
Bel@@
faut-il
a?
position,
victime
Sous
l’article
commerci@@
pêch@@
crédits
mots
publicité
appel@@
brevet@@
bateau
environnement@@
dangereux
avez-vous
48@@
compl@@
disposer
anomalie
7/
vide.
ost@@
consci@@
sains,
ocyt@@
ail@@
tradu@@
ok@@
l’étude
Pelzont
fatigue,
ve,
agences
évaluations
l'homme,
performances
surcharge
insuffisante
thrombose
CEPROTIN
suivis
l'inflammation
obten@@
matern@@
IC
OM@@
détect@@
l'al@@
physi@@
cumul@@
l'ad@@
(50
rats
céphalées
cho@@
gemcitabine
évoluti@@
cardiovasculaires
8-@@
initié
graves,
sant@@
base,
ALAT
ventre
gastro@@
favorise
mercure
débu@@
mur@@
givré.
ones
sulf@@
duloxétine
rant
vérification
consul@@
professeur
retiré
biliaire
inconnue.
caus@@
électrique
trac@@
é)
d'hémophilie
expos@@
l'at@@
D'@@
aliser
l'étude.
°C
paclitaxel
mes@@
chromosomiques
géné@@
d'agents
hémophiles
rupture
ll@@
sions,
éc@@
l'injection.
cro@@
rar@@
bris@@
Centre
visi@@
(200@@
(utilisés
bles,
intestin@@
cuillère-mesure
contraire
extéri@@
insuline.
99
9-@@
pati@@
gal@@
épargneurs
aliste
mille
change
4-@@
Est@@
alimentaire.
viennent
Ver@@
fa@@
W
enf@@
Bor@@
avir,
baisser
compromis
réfrigérateur.
persister
inhibant
arri@@
caractéris@@
olo@@
rénal
rare:
Vol@@
héréditaires
développent
30,
0/
028
023
boîte.
èn@@
Kent
l'étiquette
Grèce
0.@@
ade
Rou@@
pauvre
établir
urines
fusion
prescrire
valide
global
Information
Toujours
ordre
pol@@
active.
atives.
retrouve
travaillent
chauff@@
contrat
candid@@
paquet
l'heure
ordin@@
adopté
figurant
recommandation
conçues
désormais
obligations
Tri@@
utilisent
qu’elles
ek
étape.
Rue
d'y
motiv@@
Lib@@
L'insuline
recev@@
règlements
devr@@
si,
période,
allez
parvenir
S’IL
prend@@
exemples
investissements
exploitation
recycl@@
voul@@
e»
concurr@@
commissaire
police
vol
denrées
écoles
message
frau@@
e",
fais@@
pétrole
d'ici
disposons
il?
ence?
1/2001)
recevrez
place.
égales.
localis@@
l'hypoglycémie.
professionnelle
aigu
disparu
enz@@
abat@@
requis
(3@@
air
fabriqués
hormon@@
spécialement
pent@@
CYP3A4,
médicamenteuses
tine
sert
graiss@@
som@@
acte
organismes
clé
confusion,
sortie
(au
53
indésirables.
(et
pointe
109/
70%
IV
dique
moyennes
ion
ances.
indiqué.
04@@
l'amélioration
fol@@
aveugle,
répétée
2%)
rédu@@
popul@@
Betaferon
patch
quanti@@
méthotrexate.
disoproxil
trom@@
nat@@
-M@@
nov@@
0)
ol.
ASC
initiatives
vertiges,
Luxembourg,
l'hôpital
Be@@
conseill@@
réseaux
installations
d'essais
coloration
récupération
cutanées,
d’entre
identifié
gamme
n'avait
vigueur
ça
préserv@@
enceinte.
poussées
pathie
Dernière
approuv@@
entes.
chronique.
botulinique
pt@@
drogues
résistantes
clon@@
détermination
2006
mais,
dl
Tra@@
officielles
Inter@@
inverse
l'él@@
surpoids
nas@@
Rapid
MSD
uc@@
Industri@@
diffus@@
luttent
glucose-galactose
Londres.
Wat@@
n.
préremplis
oit
l'histoire
q
ace
aid@@
corporel.
ministre
tempor@@
ja
haut@@
coup@@
d'intérêt
tex@@
visage
vomissements.
diminuant
Limited,
El@@
2800
radioactif
Chlamydophila
ck@@
dérivé
l'unité
org@@
ouverte
grossesse,
qu’en
question.
soin
aus@@
invers@@
brûl@@
décisi@@
go
4.2
b,
l'anti@@
§
Retirez
Me@@
MM@@
Hu@@
marché:
unidose
vr@@
film
production.
ressentir
Informez
cs
MU/
sil@@
weg
exempl@@
mental
L.
rie
dée
portent
disparaît
sexuelle
iez
alimentaire,
retour
l'encontre
rées,
démontrent
exclure
s’agit
ros@@
atif.
tan@@
intoxications
naturel
justifie
demi
qualité,
valable
conversion
analys@@
impliqu@@
champs
domin@@
faç@@
prêt
tra
pleinement
utilise
fut
sav@@
univers@@
mur
nucléaire
indépend@@
rés,
télévision
Pe@@
lues
offrir
consommateurs.
psych@@
rencontr@@
ignore
dépassé
oppos@@
poisson
Si,
Lam@@
met
s'y
fait.
Vfend
soldats
vivre
moi
pai@@
pauvreté
appro@@
l'idée
abandonn@@
habit@@
amendement
Europe@@
d'ailleurs
assassin@@
!"
autr@@
sera-t-il
aire?
Oui,
K
conven@@
accorder
effets.
cardiaque.
gauche
hist@@
ï@@
ic
groupes.
buccale,
thè@@
suicide
qu'avec
observée.
célécoxib
ules
varie
démangeaisons,
aurez
1,4
diminué
alité@@
interrompre
corporelle
pat@@
aiguë,
ation).
surveillée
indiqué,
traités.
diarrhées
chacune
collaboration
exclus
partiellement
malformations
91
25,
ateur.
sépar@@
fréquentes
consécu@@
phosphatases
thromboemboliques
affinité
né
démence
se,
g/@@
quent
mol@@
PA@@
colonne
compatible
toux,
traces
Equilis
observés.
fibrose
trouvé
EVRA
morph@@
mmol
SUTENT
cité,
ats,
cations
maxim@@
Zonegran
d'interactions
ST@@
récipient
................................................................@@
cid@@
{NOM
britannique
généralis@@
maraviroc
inclure
ANT
be
d'hypo@@
litre
1%).
lat@@
chambre
RE
conclusion
(autre
l'hypo@@
efficacement
laissez
n'ait
II@@
chimi@@
difficilement
prenne
vous,
Lors@@
omes
eau,
d'élévation
août
2005.
7.
induction
oses
COVERSYL
mie
recombinante
éventuel
gliome
corticoïdes
invasive
O.
ary
correc@@
ophtalmologiques
gants
survenant
CE.
potentielles
lors,
vac@@
cohér@@
de)
A)
aliment
bilan
N,
député
65@@
bé@@
amine,
douleurs,
volontaire
gan@@
Deutschland
bilité
l'enfant.
r,
régression
d'intolérance
reconnu
ologie,
perd@@
recherche,
sèche,
crampes
Ger@@
62
Durant
d’administration
ement:
Pré@@
OL@@
gastro-intestin@@
deux.
aux@@
Né@@
potentiels
nouveau.
porcine
DICC50
rétro@@
CYP3A4.
Viani
/00@@
aqu@@
alimentaires.
pous@@
mainten@@
Caractéristiques
èr@@
recommandé.
rincer
PAS
envisagée.
cimétidine
1),
Uxbridge
B)
l'intermédiaire
cep@@
particuli@@
HEXAL
montrer
table
020
022
150/
276/
54
endommag@@
l'équilibre
l'aspect
éthyl@@
méth@@
aliments.
Espagne.
of@@
on-@@
agin@@
TESLASCAN
vre,
Mixtard
ici@@
isant
tre@@
lim@@
spécial
efficac@@
No@@
hum@@
éli@@
Pal@@
rage.
l'intervention
ats.
ajouter
lav@@
ré
Temodal
aval@@
conn@@
obligatoire
p.
autrement
dit,
qualité.
induire
l'importance
chau@@
ages.
Ber@@
coli.
exemp@@
hépatique:
passi@@
are
l’aide
(dose
we@@
mondi@@
mener
essentielle
référ@@
âge,
tchèque,
étude.
(Unités
L'augmentation
util@@
consult@@
émis
garantie
Au@@
emploi
vend@@
ises
instruments
l'Allemagne
adopter
tomber
élev@@
MERIAL
Alpes
esse.
L'im@@
l'intention
Lisez
reven@@
tués
sanitaires
Mor@@
mour@@
151/
Résultats
fié
install@@
Puisque
Finland
oui,
initiative
vivant
l'accord
ain.
accor@@
Européens
tout,
revenus
emplois
offici@@
économiques
interdire
politique.
es".
farines
peupl@@
acheter
norme
mari@@
imparti@@
négociations
affaire
accordée
imagin@@
ale?
dispos@@
peuples
Commissaire,
?"
-elle
(A4-04@@
3/2001)
/2002)
88
Healthcare
implant@@
veineuse
d'urgence
VICH
ng/
éd
lieux
l’absence
thromboses
atoires
(incluant
bouche,
perforation
menés
rat,
dy@@
correspond@@
compar@@
75@@
EC@@
Exforge
contraceptif
78@@
U/
thoracique
vital
ral
sol
SPRYCEL
satisfais@@
médiateur
l'ajout
d'Effentora
(«
angor
off@@
proportionn@@
d'hé@@
pravastatine
supplémentaires.
140
animales
clini@@
15%
reli@@
cons@@
révél@@
exprim@@
débuté
ard,
exclu
été,
5.
ative,
Fasturtec
MAR@@
fond,
terminé
femme,
Prequenza
paralysie
2001,
1,7
actif,
saine
D3
glucose.
73
origine
analogue
gli@@
post@@
générales
F,
DATE
1996
activation
ologi@@
dépression,
chargé
poste
e/@@
Pharmac@@
support@@
fications
bleu@@
trices
alités
M)
l'adulte.
tement
Sécurité
risque,
caoutchouc
l'administration.
ép@@
terr@@
Pra@@
Lis@@
hypotension
thyroïdi@@
cutanés
résumé:
développements
absorbée
IE@@
ELISA
bles@@
aboutir
dirigés
ole
comités
sélective
trim@@
azol@@
augmentée.
atténuer
répondent
esti@@
orient@@
considérables
sommet
(2
couramment
dées
fluctuations
intégr@@
cancer,
inclu@@
retrait@@
oires,
visites
mettant
résistant
ases
Th@@
DG
(infection
fongique
écoulement
glandes
College
Industrial
dl.
lé
gonflement,
Treatment
A.,
Char@@
épidémi@@
auto-@@
somm@@
adulte
49@@
top@@
enfant@@
moyenne,
arrière
omb@@
OT@@
l'extrémité
cellules.
Président
fourniture
facile
ser.
repas,
précédente
mono@@
s'aggravent,
introduire
d'expérience
rosiglitazone
recyclage
piston
guérison
capital
Utilisez
duquel
gues
origin@@
actuelles
ative.
019
025
és@@
06
046/
comportant
collées
parois,
anhydre,
tré@@
oire
La@@
180°
l'indicateur
UN@@
Ru@@
Cam@@
tremblements,
mom@@
dos
z-@@
iner
Gra@@
vou@@
Ham@@
ki
olé@@
hypertendus
accident@@
derni@@
travaillant
décel@@
admis
disposi@@
prescrite
(VIH-1),
d'eau.
provoquent
prime
bas.
utile
fonctionner
douloureuse
Hongrie,
Lésions,
Internationales)
anesthésie
asse@@
desloratadine
ella
est:
l'avis
700
conten@@
ètre
tra@@
génération
couver@@
souten@@
répétez
1er
saisine
recommand@@
calendrier
combinaison
affaibli@@
monde,
sau@@
enquêtes
prochaine
l'attention
l'existence
remplac@@
coloni@@
bâtiments
érer
défense
Tor@@
ADRESSE
choisir
abs@@
recour@@
D’ÉLIMINATION
indé@@
has@@
Dan@@
Sinon,
Parl@@
campagne
Soyez
limitation
retrouver
sols
"?
franch@@
proposées
encourager
débar@@
autre.
discours
civil@@
fra@@
vieux
plein
crédit
communauté
collecte
chos@@
euro
clonage
prê@@
accus@@
néglig@@
énergétique
islam@@
j’ai
ait-on
e-t-on
estimations,
eurs?
expul@@
Trop
sanofi-aventis
interrompue
aéri@@
prendra
glycémique
e-
artéri@@
α@@
urique
zumab
iste,
cyt@@
identiques
chol@@
sarcome
cuisse
fat@@
intestinale
comportements
situ@@
allergi@@
mous
menace
indépendant
sain@@
]@@
l'insuffisance
répond@@
Rel@@
SP@@
conjointement
l’année
interfér@@
injectée
dépend
pénétrer
grade
d'ulcères
relatifs
lettres
douze
tion)
sec@@
60%
581
6.
homm@@
mâ@@
82
utilisées.
exclu.
additionn@@
ation;
dialyse
hémorragies
its.
hommes,
omy@@
2,6
fois@@
era.
2004
fac@@
d'hyper@@
complément@@
attribu@@
class@@
affecté
l'amlodipine
omm@@
han@@
médicaux
d'expiration
administrations
dent
céphalées,
Saint-@@
Medicines
d'at@@
alo@@
gie
prob@@
sér@@
stades
délivrée
nou@@
emi@@
hoc
insuffis@@
exerce
souples.
final
soumise
Lorsqu'une
(s)
femmes.
ée@@
janvier
Soliris
accroître
transmis
érythropoïétine
presse
atta@@
dépres@@
45@@
plaie
éni@@
l’é@@
éventuelle
génétique
utilité
EV@@
faibl@@
ités.
mort,
}
Italie,
réside
l’augmentation
tées
variable
l'examen
sy@@
recherches
paresthésie,
T).
virales
93
RAP@@
S-@@
hydro@@
accompagn@@
cutané
digoxine
ur,
servent
d'H@@
maîtrise
allergies
Ziagen
abilité,
Hémorragie
AS
servi@@
Trouble
selles
San
clo@@
métacrésol,
alli@@
Services
Roche
Prévenez
fongique,
ode
lement,
ris
ga@@
tran@@
appropriés
spectre
Am@@
atteint@@
Pen
chirurgi@@
liqu@@
spécialisé
d'avis
totalité
alpha
observer
antiacides
ultérieure
importante,
cide
d'ajuster
conformité
statistique
Street
Sil@@
prévenez
favorables
opérationnel
l'administration,
isée
press@@
Via
soulager
fine
nes
mang@@
Sar@@
plu@@
cel@@
pain
Ter@@
couvre
stylo,
pelliculé
l'av@@
Eviter
chlorhydrate
écr@@
Har@@
fenêtre
dura@@
direct
Thyrogen
vér@@
rati@@
chats
journal
aise,
Fréquents:
retard@@
tifs,
ATI@@
née.
far@@
créé
ik@@
douloureux
déli@@
intégrer
bloqu@@
lettre
mas@@
l'usage
fiable
stimulation
table.
s’assurer
vouloir
au-dessus
sév@@
fen@@
appropri@@
garder
décrite
antigènes
ons-@@
égard
forces
figurer
concern@@
monoamine
d’utilisation
'
Aucun
L'exposition
vétérinaires.
subir
Janssen-Cilag
ell
fédér@@
longtemps,
également.
dite
tolérée
dangereuse
UE
défin@@
py@@
dossier
image
11.
versions
approuvées
retarder
couverture
premi@@
perdu@@
européennes,
●
cess@@
ophtalmologique
équip@@
l'anémie.
seules
part,
dépend@@
existent
renouvel@@
command@@
incit@@
L'intervalle
style
objet
lourds
agricoles
Modification
Haarlem
N’arrêtez
co
rendez-vous
parent@@
débat@@
attitude
publié
page
transportent
Suite
uniforme
connaî@@
trouverez
l'É@@
procès
citoyen
dangereuses
paiements
fraude
just@@
kilomètres
prison
frontière
égalité
dialogue
évidemment
crois@@
vivent
c'était
opposition
L'étiquetage
clandestin@@
explo@@
chréti@@
cultur@@
sida
d’euros
l'argent
d'autres.
t?
avions
dirait
Récemment,
(A4-02@@
Seule
Voici
90%
alternatives
AMMONAPS
immédiat
rez
explicative
cependant,
dèmes
sous-groupe
colite
effectuées
ganglions
carcinogénicité
récent
ous
Type
51
UI@@
perform@@
aire)
Glivec
appropriées
Cetrotide
appelées
microgrammes.
situent
perturber
thyroïde
déterminé
atteignant
3.@@
VE@@
scores
Health
jour),
dée.
cét@@
l,
L,
CP@@
l'ur@@
applications
d’environ
pharmacologique
tolcapone
identique
ajouté
NovoLet
second
azole,
P-@@
prépar@@
‘
esse,
ret@@
gastro-intestinal
pharmaci@@
Ly@@
microbi@@
satisfaisant
relations
réguli@@
myocarde
ATION
entes,
ènes
Mo@@
main,
acné,
internation@@
VOIE(S)
avertis
contest@@
importance
quotidiennement
MR@@
hépati@@
ée:
février
extension
commercialisées.
ature
'œ
eté
d’éviter
situation.
suivies
uniques
produisent
opération
carcinogène
orthopédique
ml).
gastro-
spécifiques.
euro@@
Espagne,
Irlande,
doc@@
produire.
appropriées.
retards
nés
fil
ments
décou@@
J.
l'injection,
tru@@
fs,
chute
jus
nasale
bruit
eli@@
Tél.:
E-mail:
…
Ou@@
larg@@
6.1
Bas@@
ister@@
's
ore
autre,
ouverture.
reconstitué,
conservation,
Keppra
ulation
oss@@
pist@@
échang@@
bactérie
dre
Ac@@
d'évènements
malin
1000)
eil
paupières,
conjonc@@
étranger
oire@@
accidentellement
felis
accroît
Voir
d'informations.
chinois
thrombine
paroi
centralis@@
boite
reç@@
“@@
flacon@@
FS@@
muscle.
London,
cérébr@@
infection.
d'arrêt
auquel
s'attendre
envisagez
VIH,
Risque
pes
données,
dangers
ateur,
étiquet@@
signifi@@
herpès
l'ap@@
report@@
remplir
positions
stéril@@
Erbitux
dois
érique
357/
358/
ZYPREXA
divergences
fémin@@
fri@@
anné@@
Tél:
affich@@
personnes.
de?
Fréquent
ailles
mée
retirée
l'In@@
ards
Glustin
mm@@
enceinte,
pani@@
annuel
monoclonal
tric@@
nie,
pH
nourriture.
évit@@
longs
introduite
problème,
iter
TRISENOX
b.
prélèvement
Pu@@
alisée
95@@
maïs
guer
jec@@
Insuffisants
durée.
za
tel@@
agré@@
puissant
Ren@@
collègues
Kingdom
Ma@@
fabricant(s)
jeun@@
diff@@
migr@@
entreprises.
incluse
apporté
bre@@
discrimin@@
Bal@@
d'incidence
compte-gouttes
lam@@
intervenir
soi@@
trait
décision.
prouv@@
introduit
erreurs
tiers.
l'es@@
voyage
chant@@
isées
cach@@
professionn@@
l'Irlande,
42@@
propagation
ajoutée
conf@@
bons
ces,
dom@@
l'Autriche,
Rus@@
Européen
Porte
ë@@
pul@@
buvez
lou@@
dress@@
té,
Ramsgate
Prendre
maladies,
Puis
Qu'en
pages
tir
Se
moment,
juridique
comment@@
que"
Vingt-@@
Αγίου
Δημητρίου
GR-174
Άλιμος
30-210
reconnaiss@@
bâti@@
sont-ils
ont-elles
drapeau
souti@@
aujourd'hui,
religi@@
autres.
commis@@
condam@@
transports
espér@@
émis@@
peuple
métaux
meurent
voient
vols
aujourd’hui
l'an
libéralisation
effec@@
plain@@
Parlement.
servir
ai-je
démocratie
bois
dollars
l'intérêt
entendu
danger.
ens?
connaissez
erons
/1999)
Souvent,
eh@@
enlever
granul@@
couv@@
VIH@@
canal
(8@@
82@@
âg@@
randomisée,
benzodiazépines
agoniste
CG@@
sommeil,
avaler
méning@@
sévères,
sensibilisation
ement).
fir@@
combin@@
contrôle.
respectivement,
DMO
g,
2),
comparée
préparer
MS@@
manuel
(non
h.
suspect@@
amid@@
(pharmacovigilance
A-@@
gastro-intestinaux
chu@@
doses.
anes
sujet@@
(100
avir.
l'amprénavir
VHC
important@@
cardiovasculaires,
Sur@@
fréqu@@
lib@@
sérotonine
gastrique
l'anesthésie
persistante
h/
5/
oxi@@
on;
féline.
l'organisme,
retrouvé
allergie
IONSYS
profils
vessie
apparue
calci@@
d'as@@
estim@@
µ@@
croisée
aveugle
support
récurr@@
al)
litres
tat@@
érythème,
tin
cutan@@
déficits
pir@@
4.3
employé
Er@@
1987,
Berlin
bovine
licence
pharmac@@
culaire
ball@@
w
autorisées
vé@@
lymphoïde
médicamenteuse
bébé.
(F@@
évoqué
l’A@@
’@@
renforcer
produites
sections
l'as@@
examiner
harmon@@
présents
d'Am@@
quel@@
pression,
l'asthme
micro@@
Rare:
rig@@
altérations
lig@@
atin@@
informations.
ves.
grasse
communi@@
internes
rigour@@
erlotinib
cerveau
nez,
d'hypoglycémie
absorb@@
humaines
nég@@
hamster
initiales
œil
dex
vétérinaire.
nettoy@@
septi@@
bronchite,
occasionnellement
benzalkonium,
âge.
protéinurie
conventionn@@
contin@@
consist@@
commencer@@
ony@@
Animal
CP
d'éventuelles
spécialis@@
Diacomit
lique
froi@@
cœur
Veterinary
EUR
d'association
dernier,
Mari@@
université
licenci@@
automatique
l’administration
actionn@@
flacon)
cou
impéri@@
Douleurs
pril
OS@@
Min@@
aw@@
élevé.
dilu@@
Produit
administration,
effor@@
pH)
disparition
Tallinn
fili@@
glande
cès
rapides
virale,
simplex,
activité,
complexe
yeux.
perturb@@
indicateurs
Fer@@
L)
approuvé?
atique
stratégi@@
2006,
adapt@@
adress@@
zon@@
vin@@
vention
Viread
lumière.
touche
spécifiques,
BeneFIX
accr@@
manipul@@
collabor@@
carb@@
arité
règle
c.
fabrique
combiné
médian
rend@@
risques.
motifs
benz@@
huile
Etude
134/
152/
gélul@@
XXX
415/
orodispersibles)
températures
solution.
couvrir
blanc@@
stabilité
PRINCIPE
ACTIF
annonciateurs
Wilzin
complet
l'ouverture
exi@@
rag@@
emment
cruci@@
l'environnement,
Grande-Bretagne
jo@@
N'utilisez
Office
Hel@@
Herpèsvirus
Seringue
blanche.
poul@@
Nobilis
provoqu@@
supprimer
britanni@@
3),
infection,
dess@@
évité
dépass@@
évid@@
s'applique
sinon
ane.
consomm@@
onner
d'autant
journée.
variations
rues
eure.
as.
spécialistes
vaches
rejet
revenir
Suède.
Intervet
Sa@@
tion:
ites,
inféri@@
Tel@@
di,
vement
conçue
dépendante
doseur
aine,
juge
évitée.
circulant
harmonis@@
serv@@
stimul@@
fur
d'unités
étiquette
ennes.
l’heure
ia@@
disparaî@@
bande
édi@@
apporte
id
ai.
s'ét@@
réussi
chemin
précis
blessure
ti
On@@
interprétation
titulaires
délais
comparer
avantage
l'UE@@
bra@@
rê@@
Roumanie
l'obésité
foyer
Cour
illu@@
repose
L'olanzapine
bien-être
niveau.
aille
élect@@
Belgi@@
Métabolisme
sch@@
dépas@@
rembour@@
peur
déroul@@
afric@@
être.
études?
án@@
Sujets
tar@@
résultats.
proposer
financi@@
elle-même
marchandises
villes
problème.
non,
Communauté
épuis@@
quotas
donc,
politi@@
construire
cim@@
.»
données.
histoire
collec@@
onne
qu’on
détention
bientôt
fou@@
vrai
m'a
malheureusement
erai
gaspill@@
oeu@@
citoy@@
avion
collè@@
électeurs
L’UE
ons-nous?
Permettez-moi
interprét@@
instauré.
retirez
auparavant
récemment,
(ex:
composant
opath@@
chimie
ajust@@
sus@@
(18@@
om
capables
hém@@
ZI@@
Kivexa
vein@@
ème,
agi@@
avir@@
engendr@@
avérée
roug@@
d'1
confir@@
ont@@
Tredaptive
1%)
doulour@@
noté
applicables
prothrombine
l’Agence
sid@@
contexte
ench@@
inflammatoire
pancréas
siège
ité)
corticostéroïdes
excrétés
sélectionn@@
p=0,00@@
contrôles.
total,
130
èse
35%
venlafaxine
PRE@@
alimumab
d'imagerie
alcal@@
IV,
(soit
4/
ans).
individuelle
af@@
veineuses
tab@@
Lucentis
Rebetol
protéin@@
itaire
spondylarthrite
OS
neutralisants
l’in@@
radioactivité
Zometa
0,5@@
faible.
rét@@
l'éfavirenz,
4).
insuline,
gh@@
fem@@
rais@@
group@@
UL@@
RENOUVELLEMENT
Médicament
moteur
ys@@
retrouvés
convulsions,
conférences
Pierre
As@@
Nord
prolongée.
vésicule
organ@@
trembl@@
rouge,
“
iri@@
eure,
langue,
légères
eur)
80,
modérément
corrig@@
préexist@@
(syndrome
formulations
diffuse
l'entecavir
matiques
émission
anticoagulants
fo@@
accompagnés
sul@@
publiés
complexes
concours
agence
placés
éth@@
volont@@
période.
visuels,
vertiges
embryons
antirétroviral
epti@@
8.
pharmacodynamiques
cér@@
thèmes
hydrat@@
pratiquer
Ces
bur@@
inflammatoires
apparus
allaite.
surveiller
créatininémie
immunosuppresseurs
millepertuis
co-
calcul@@
quées
supervision
nourrisson
buccal
suff@@
glycine,
Acide
d'eau,
Diminution
évo@@
Ven@@
Pays-Bas.
peux
connaiss@@
délégation
arch@@
PL@@
PHAR@@
combinés
kg,
faci@@
zi@@
Hol@@
AU
F-@@
l'immunisation
Vis@@
heure,
coagul@@
dysphonie,
sommeil
SA@@
GE
Novo
FE@@
fongi@@
rapide,
soleil,
basse
écoul@@
bactérienne,
herpes
aque
aises
sang@@
thiazidiques
transparente
prophylactique
infectées
aison
ovarienne
EMEND
aggraver
l'économie
l'équipe
française
d'administration,
poursuiv@@
attach@@
répét@@
sit@@
accidentelle,
infirmi@@
d'effectuer
l'aiguille.
molécules
NovoSeven
CE,
qualifié
développe
d'an@@
circonstances.
(E
l'ag@@
VH@@
glycoprotéine
suicides
prépa@@
(0,2%
Madrid
l'extérieur
ogène.
ht@@
029
43
426/
01@@
vêtements
précéd@@
thrombocytopénie
oxyd@@
Chaque
monohydraté,
inspir@@
oco@@
avenue
Vall@@
ud@@
jusqu'@@
l'ampoule
Actraphane
omme
nomin@@
vastatine
çant
accords
UC@@
sentiment
ographie
Un@@
l'inscription
rés@@
Fi@@
08
Puh/
cite
tus
réuni
attaques
OC@@
harmonisation
épa@@
Ram@@
Antigènes
végét@@
Hypo@@
gues,
progressi@@
envers
gne
Eur@@
AUC
mesurés
transformation
hémorragi@@
financières
détaill@@
recommander
indispensable
d'adapter
précon@@
nourriture,
au.
résoudre
pro-@@
protège
tap@@
mandat
verti@@
écriv@@
biom@@
Ir@@
l'année.
č@@
allemand
faciliter
fabriquer
mont@@
registre
suggère
Clopidogrel
probénécide
équivalentes
longueur
croiss@@
compréhensi@@
engagement
vois@@
ture,
écrit
signaux
excepté
renfor@@
concerné@@
sect@@
rassembl@@
gaz@@
octroi
prouvé
simpli@@
séance
l'hypoglycémie
marche
scrupuleusement
tribunal
existantes
urgence
nombr@@
consommateurs,
jur@@
Ros@@
remboursement
structures
réfléch@@
garantissant
provo@@
allemand@@
ront
sex@@
(pourcentage
fixées
ethni@@
cinquième
bis@@
dépendance
ki@@
traduit
précise
combattre
-ci.
MARCHÉ
aj@@
ettes.
congélateur
Peut
numéro
entend
Sandwich
9NJ
Hampshire
dois-je
is?
éliminer
apparaissent,
es",
Question
n’êtes
arrach@@
intolér@@
exception
désir@@
verrez
frapp@@
déplor@@
israéli@@
grand-@@
provenance
mondial
emball@@
équipements
c'
impressionn@@
croy@@
définir
payer
annul@@
vain@@
filles
jeunes,
élément@@
label
coûte
économ@@
emprun@@
politique,
d'euros
frontières
Mc@@
ONG
arriver
dire,
êt@@
sport
jeux
chasse
endr@@
peut-on
el?
militaire
financ@@
milit@@
hab@@
souci@@
faisait
livres
automobile
sanctions
laissé
question,
OCM
L'ordre
ant?
que!
guer@@
tions?
pensez-vous
ce?
ir?
(A5-03@@
(A5-02@@
(A4-03@@
(A5-04@@
Résultat:
Danmark
DK-2@@
Wil@@
après.
glucos@@
symptôme
uns
majeurs
mg).
observé.
22%
mesuré
chromosome
alté@@
divisée
ensi@@
anxiété,
réalisée.
intestinale,
carcin@@
cytarabine
oration
minute
tolérance,
copi@@
IT@@
Vir@@
modérés
normalisation
superfici@@
d'infections
surdosage,
ED@@
TA
gêne
analy@@
micro-@@
ques).
l'issue
d'induction
fréquente.
visite
RES@@
profonde
oedèmes
améliorations
mé
CYP1A2,
ritonavir,
go@@
bit@@
contracter
nitr@@
cisplatine
J
lipo@@
III.
(le
320
d'aggravation
devenue
tine,
naturelle
stimulant
distinc@@
Remicade
récupér@@
deux,
enregistrée
posaconazole
trou@@
a/
jour).
dépendant
fam@@
orales
d'insuline.
obèses
chél@@
ions
um)
out
glu@@
crétion
absorbé
examinés
mine
survenir.
produit@@
photosensibilité,
légers
Sant@@
France.
mit@@
détach@@
chargée
lent@@
bloc
grippal,
déshydrogénase
visuelle,
allergique,
équilib@@
quatrième
certificats
désignation
urinaires
phosph@@
dre,
correspondantes
constitution
gram@@
caoutchouc.
libé@@
ôt
elle@@
Lda
ham@@
9.
médicamenteux
ces.
û@@
lactation.
hématomes
opér@@
RC@@
maculaire
o-
monothérapie,
pneumonie
K)
lap@@
(13@@
sueurs
somnolence
ocytes
transporteur
tumor@@
recommandés,
rétinopathies
pes@@
primaire
entrée
né,
Mises
Fuzeon
tête,
l’information
notifications
côté,
géni@@
définies
immunit@@
introduites
confirmés
aigus
Fort
tée
déterminera
d'Insuman
Optisulin
(patients
oris@@
européens,
Evénements
Tur@@
séd@@
corporelle.
toni@@
oniques
épidermique
constipation,
plaies
Pradaxa
illes
eons
ester
pharmacie
(9
conférence
ñ@@
…@@
Warszawa
Marché
liquides
gastro-intestinale
ada
CH
Wi@@
ogi@@
gué
itaire.
soupl@@
O,
l'o@@
sus
sacs
Holdings
tee
dri@@
plaçant
pensées
sèche
être,
épuisé,
muscle
confu@@
oculaires:
l’œil,
ée;
Cat@@
Mont@@
by
(PLI
1995
MS
hôpital
pré-remplie
iront
EMADINE
info@@@
s.@@
satis@@
CV@@
pur@@
RA
ouvert.
une,
idi@@
quart
dec@@
d'installation
pom@@
périodique
guère
l'Annexe
Aprovel
zonisamide
er:
lunettes
maintenance
AND@@
d'appliquer
constituti@@
posé
d'amélioration
intervenant
d'épargne
voici
spéciale
acétate
ab
Vas@@
reg@@
Diskus
FA@@
indépendamment
Parkinson
indépendants
031
orodispersibles
366/
59
81
425/
08/
484/
récentes
exagé@@
éventuels
othérapie
suivantes.
c'@@
d'acides
40,
ène.
aig@@
SUBSTANCE
TIN
Ath@@
Filgrastim
enceintes.
demeure
l'AMM
Franç@@
extérieur.
noir
jaune,
ange
CB@@
eb@@
km
l'érythropoïèse
d'impact
sulfamides
ann
Met@@
At@@
visu@@
inactivé
HEXAVAC
opaque.
Maladie
Gau@@
denti@@
IB
division
catégori@@
airement
causées
thyroïdiennes
possibil@@
dé.
conducteurs
bras.
PM@@
apparu
atu@@
conséquence.
différents.
d'ad@@
REYATAZ
d'immunodéficience
spor@@
claire
mut@@
différemment
commencent
occasion
éventu@@
partenaires
monter
poules
lents
d'habitude
sérotoninergique,
L'ELIMINATION
hémorragique
communes
l’eau
oires
Viraferon,
Présid@@
reti@@
loratadine
nie.
darbepoetin
fran@@
Nobivac
L'activité
émise
pesant
céder
leucose
passent
fixée
ette.
composée
istes.
croissance,
pratiquée
élevage
session
bilité,
margin@@
supporter
l'adoption
Ranexa
varier
ménag@@
l’ensemble
important.
réponse.
dé
structur@@
engagements
basées
fie
social
directiv@@
compétence
peu@@
lénalidomide
dé,
sensiblement
énorme
pressions
divers@@
co-rapporteur
péd@@
vingt-@@
secondes,
vaste
bien.
tif.
intégration
financière
éloign@@
vite
l'Irlande
prouve
prévisions
Tevagrastim
l'avenir
relève
Lin@@
fabri@@
ple@@
détérior@@
ch,
identiques,
mètre
références
Mag@@
d'autr@@
plong@@
situé
projet@@
Orale
Sw@@
sujet,
Placer
composition
l’autre
indiquer
Précautions
ordonnance
terres
Slovenija
identifiées,
tac@@
2010
directive.
venu
Vu
décharge
compagnies
réfugiés
alarm@@
rent@@
plafond
catastrophe
alistes
restric@@
considération.
banques
venez
contraign@@
élections
chass@@
tortu@@
construc@@
biens
salaire
lacunes
identité
usines
?u@@
vies
ign@@
commiss@@
allég@@
indépendance
cultiv@@
États-Unis,
Afrique
terrorisme
étiquetage
importations
bateaux
discrimination
ance?
crée
cesse
acteurs
L'exemple
pens@@
prison,
voudrais
dissimul@@
sens.
L'interdiction
faut@@
îles
l'autre.
lieu,
remarque
étiez
devrait-elle
l'exemple
croit
emprisonn@@
avons-nous
voulons
brevet
6/98)
elles?
Savez-vous
Qu'a
/00)
2/2001)
Vient
Voyez
ps
94
ime
sulfam@@
contribué
inhabitu@@
l’effet
articulation
arrêts
ai,
l'obtention
hypertension,
continu
thy@@
neutropéni@@
suicid@@
Ev@@
és:
pil@@
5'-@@
0,1
aspir@@
dose-dépend@@
prématuré@@
l'hom@@
correspondante
ron@@
3,3
d'att@@
exie
digit@@
omycine
intéres@@
comparés
répartie
immunoglobulines
mée,
mémantine
agit@@
envisagé.
fluvastatine
libérer
ativ@@
77@@
risque)
l'atteinte
réag@@
existant
ologique,
ES,
interruption
ulcér@@
anti-
alfa.
LT@@
traités,
iniques
kg.
coque
urinaires,
antérieure
mois)
Interféron
musculaire,
pulmonaires,
comparant
104
mère,
aire).
ger@@
touchant
Levemir
5).
cen@@
modéré
calcémie
graisse
antihypertenseur
dose-@@
individuels
MIRAPEXIN
écrasé
Mix@@
D’@@
glucuron@@
alisés
Date
2001.
69
critiques
anor@@
tum@@
indic@@
1995,
y-@@
1990
impliqué
C-@@
02
urie
ès
(jusqu'à
rose
dal@@
LMR
traits
nés.
lun@@
D'ADMINISTRATION
d'experts
précipit@@
aériennes
n'inhibe
convenablement
cirrh@@
hautes
spécifications
cale.
méningite
este
cine
Produtos
°@@
infiltrats
pulmonaires
inage
pigmentation
envisagées
aller@@
dure
rongeurs
étiques
biotechnologie
employés
applicable
d'après
heure.
ues.
recommandé@@
inject@@
temporaire
irréguli@@
jaun@@
omati@@
rob@@
bét@@
lique,
sitagliptine
contribution
l'hypertension.
LM@@
gin@@
Ag@@
org
conservateur
rénales
transférase
graphie
transmises
avérés
résol@@
EMEA
assurance
énergi@@
dons
périphérique,
oeuvre
cé.
ORENCIA
mil@@
Ltd.
Deux
toxi@@
R.
externe
sociales
VI
gout@@
rav@@
ution
accélération
hépatiques.
expli@@
l'indi@@
distinction
chirurgien
yr@@
OR
affectent
médec@@
2005
virémie
environ.
150@@
bass@@
liber@@
mid@@
kilogramme
collyre
mg/ml
transféré
coli
....
sin@@
doubl@@
l'ajustement
Recommandation
Mu@@
6676
+370
SARL,
anormale,
ation),
flot@@
mie,
EUR@@
fati@@
excessi@@
long@@
d'inhibiteurs
risques,
ologue
éter
permanence
cancer@@
79@@
S)
l'éducation
l’environnement.
outil
deux@@
actives,
eusement.
chercher
suivant.
veine.
ub@@
poches
ille.
trice
alisé
sion:
sive
transformé
l'adolescent.
correspondent
compatibles
déconseillé
identifier
Sé@@
immunitaires
urée
vertu
50.
globulaire
ó
défici@@
ise,
l'apport
HA@@
démar@@
030
032
033
137/
blis@@
exposer
tionner
nuire
dér@@
sorbitol
-P@@
fractu@@
ACTIVE
Pen@@
suspension,
ci-dessous:
renversez
lic@@
quer@@
88@@
ock@@
anglais
pin@@

caractérisée
ection
occlusion
ants:
Gar@@
intég@@
ches,
facil@@
to@@
positives
Allemagne.
diamètre
JAMAIS
G,
Im@@
hol@@
intenses
lévétiracétam
Ig@@
objective
justifier
SIDA
publics
Pos@@
technologique
ADN
venant
pseudoéphédrine
individuel
suivi@@
positifs
adéquat@@
qualifi@@
faussement
d'accident
l'alcool@@
Infanrix
sérum
l'eau,
Lituanie,
Pays
agi
correctement.
vérifiera
207
espace
sauv@@
moy@@
sucr@@
se:
SS@@
contenues
Po@@
ments.
ères@@
Cette
Ultratard
á
Stockholm
Pres@@
qu’à
isi@@
enda
Qu'il
[N
réussite
Pri@@
cigarettes
coups
témoign@@
massi@@
pyra@@
épo@@
bureaux
retir@@
annuelle
mettent
procédure.
régulateur
ets.
substitutions
illustr@@
institution
Kir@@
titude
instrument
salle
US
poulets
air.
auto@@
comprom@@
195@@
régl@@
fourn@@
NutropinAq
avantag@@
pouv@@
budgétaire
plomb
lisi@@
nucléaires
issait
ci.
campagnes
entreten@@
précédent
eu,
aussi,
invent@@
exigent
blanc-cassé
d'Utilisation
contourn@@
d'Al@@
compensation
soumettre
peti@@
éclat@@
intensi@@
ote
atif,
Ori@@
Cas@@
restaur@@
conver@@
OG@@
réus@@
applique
révèle
terminé,
PV@@
comptabil@@
apparemment
Tél/
réel
congélation.
ca,
eaux.
nocifs
l'Europe.
l'avez
naï@@
paix
Prac-tic
pauvres
Puis,
et?
»?
Questions
S'assurer
S’@@
psychiatrique
rog@@
trouver@@
concert@@
ley
die
Trait@@
appris
transfrontali@@
autor@@
d'élevage
directive,
taxes
communications
décri@@
e»,
constitutionn@@
lois
production,
dérogations
connaissances
réclam@@
ici,
garanties
Euro@@
européen@@
empreintes
dit.
avort@@
notion
fau@@
navire
urb@@
salu@@
tuées
allégations
é!
scand@@
constru@@
plaintes
peines
prouver
agricole
OGM
trente
touchées
anda
mérite
l'espérance
dénon@@
honn@@
L'industrie
croire
l'est
honor@@
teurs
aéropor@@
pacifi@@
places
enquê@@
plaît,
ez-vous,
franc@@
connaissons
aviez
ez-vous?
Puis-je
(H-04@@
Telle
LL@@
th
Combivir
réduite.
c)
hypoglycémi@@
GL@@
circonstances,
demandera
élevée,
incluses
d'utilisation.
0,8
répartis
Philadelphie
désigné
malnutrition
situation,
ischémie
cheveux,
syn@@
allongement
sec
arth@@
44%
visuel
articulaires
07
courbe
diminuent
rhumatoïde,
plus)
69@@
semaines)
fibres
constatée
approfondie
ances,
HB@@
cerveau,
®
dermat@@
filtration
8)
5),
timolol
d'acuité
minime
possiblement
concerné
12,@@
alim@@
amélioré
(5@@
phénylbutyrate
observées.
(O@@
trique
és;
mesurées
gemfibrozil
intolérants
MP
habituels
ankylosante
17,
leu@@
bêta-@@
obtention
ovul@@
hématologiques
imagerie
GANFORT
oraux,
≤
prasugrel
(score
modifie
métabol@@
gabapentine
jeûne
calories
nilotinib
longu@@
18,@@
pramipexole
attendue
R,
hydrolyse
yl-@@
sérotoninergique
Dar@@
l'Organisation
Ju@@
antagonistes
ides,
d'ap@@
occasionn@@
poils
complex@@
malaise
inémie
évaluation.
ke@@
Gi@@
Santé
Gre@@
mix@@
élec@@
requise
TRE
lar@@
position.
l'enregistrement
ity
73@@
supplémentation
Avis
ée)
orphelins
infirmière.
tub@@
ajuster
d'action.
(intervalle
influ@@
l'em@@
lithium
chapitre
régulation
buccale
paragraphes
notice.
ricin
souffr@@
ant)
teri@@
tiss@@
déposée
2:
Ris@@
peut,
instabilité
2002,
(dont
poussière
apa@@
infliximab
récidi@@
encéphalopathie
purpura
sensibil@@
auricul@@
XX@@
traduction
MA
paraly@@
(ou
2000@@
artérielle,
nausée,
évaluant
métabolisés
onique
infectieux
cardiaque,
expériences
prior@@
alfa-2b,
nt
European
))
élimination
orphelin
microsphères
révis@@
accompl@@
rapproch@@
1997.
soud@@
prise,
dist@@
née,
plani@@
rage,
l'initiation
constante
IG@@
CC@@
Dodge
isez
aires:
Immuno@@
prati@@
Em@@
opi@@
cardia@@
acidose
ves,
lèvres
Mer@@
fructose,
chim@@
floue,
ches.
cale,
d'aut@@
exiger
Estate
Produ@@
Docétaxel
...@@
ew@@
chroni@@
l’Autorisation
diffuseur
Tou@@
duodén@@
ations)
sanguine)
Chi@@
Rome
Neulasta
bov@@
DuoTrav
Trav@@
réfrigérateur
incorpor@@
sexuel
Hé@@
rhinorrhée,
Ban@@
agiss@@
oires.
Au
mains,
agressi@@
envie
issement,
paupière,
l'hé@@
(pouvant
phases
pousse
L'acide
Hongrie
individuellement
bro@@
Élimination
sous-cutané.
transdermique.
réglementations

contrefaç@@
intégré
commercialis@@
emballages
substrats
enzy@@
liaisons
regroup@@
Produits
connu,
ovi@@
b)
Op@@
Evaluation
démi@@
résidu@@
1996,
1998,
alcool
sévèrement
explor@@
Gliolan
zal@@
Silapo
(e)
défaut
métabolique
souff@@
enfant.
tiers,
respecté
III@@
prévu.
EX
substanti@@
hydratation
IS
d'utilisation,
Cast@@
E-@@
œ@@
favoris@@
fonc@@
stabilis@@
actuels
cellulaires
tives,
nouveau-né.
Facteur
ouvrir
se.
pleine
cule
cheval
ures,
applicateur
+351
Km
Etant
ostéoporose
034
AIGUILLES
ampou@@
98/
Ast@@
hanche.
déshydrat@@
nar@@
âch@@
cides
Martin
Insuline
Fab@@
S.@@
PRINCIPE(S)
ACTIF(S)
Lane
indicateur
sécur@@
féline,
ons@@
Fin@@
seringue-doseuse
eux-mêmes
transpar@@
film@@
initialement
Gal@@
porteurs
l'initiative
équival@@
mentions
possédant
Solution
industrie
greffe
accélérée
Fre@@
ensuite,
souhaitent
Cardoreg
d'allaiter.
VISTIDE
d'alerte
abil@@
historique
érez
mann
amor@@
(maladie
IP@@
pathogènes
Hydrochlorothiazide
ème.
structu@@
gues.
Hy@@
belge
occupe
èrement
l'int@@
susp@@
visibles.
résul@@
correctement,
réforme
posologique.
diluée
liens
intéri@@
cité.
sein.
réc@@
n’existe
systémati@@
follitropine
lait,
injec@@
ogène
bénéficient
achev@@
oise
donneur
transmettre
AX
clu@@
lac@@
ès,
Escherichia
prothèse
sin
IC@@
cros@@
eille
CELSENTRI
sis
ent)
-20@@
systémique).
re-@@
usag@@
Ten@@
produ@@
développée
amment
étudiée.
déclench@@
désor@@
iques.
idité
majeur
somme
Protaphane
européens.
d'éliminer
Norvir
l'abri
fan@@
usuelle
permette
croî@@
infantile
ajout
fabric@@
achè@@
infl@@
rentr@@
tives.
présentée
(CEE)
out@@
quotidien
blo@@
rétablissement
confusion
soulevé
spécul@@
orientation
problèmes,
cyanure
rô@@
Far@@
tig@@
nés,
arc@@
octroy@@
duré
escompt@@
ing.
l'op@@
océ@@
Shire
lour@@
sortir
ses.
participer
Ukra@@
corps)
d'hom@@
Chris@@
ancien
ng@@
conteneurs
volati@@
malades,
partag@@
enregistre
répertoriées
dériv@@
modes
rément
installation
réserves
ecteurs
appliquées
soulign@@
1999
domaine,
suppos@@
radic@@
sont,
ambul@@
étendue
zone.
boiss@@
qu'aucune
enci@@
Vil@@
LISTE
dernier.
coch@@
d'An@@
bâtiment
options
ÉCHÉANT
itali@@
nocif.
MODE
L'O@@
économies
d'autre,
mélangez
N'oubliez
analyser
lent
lit@@
êtr@@
certain@@
longues
ours
CT13
cell@@
nationale.
embar@@
teau
Protection
m’@@
utilisé,
rez-vous
Ti@@
Seules
tonn@@
stes
dévelop@@
disposez
l’a
entendre
danger@@
souven@@
brut@@
vous-même
inacceptable.
avr@@
conflit
infanti@@
agus
producteur
embryon
sé,
varient
opinion
centaines
spiritu@@
désastr@@
publiques
taxe
violences
annonc@@
stock
savent
prosp@@
recul@@
clô@@
parlement@@
déb@@
baiss@@
arrivent
chose.
abol@@
ailleurs.
certes
d'aide
caf@@
fille
recettes
économi@@
fis@@
profit
ède
décharg@@
occident@@
céré@@
te!
Balk@@
soigner
C'est
ait-elle
cac@@
attend
destin@@
alisme.
Turqui@@
comman@@
panneaux
pê@@
S'agit-il
insignifi@@
tonnes,
prix.
alisme,
tract@@
L'heure
parven@@
persécu@@
ak
crédi@@
Gaz@@
rai
Constitution
Premier
sanc@@
vous?
plais@@
loy@@
-t-elle
irait
là-@@
dernière,
pêcheurs
l’amendement
aient-ils
mettez
me?
Objet
l'instant,
Soit
Ce@@
DK
inscr@@
suffisant
qu’au
modè@@
56%
95%
HER@@
au-@@
omi@@
rétention
rect@@
irritation,
accompagné
conduites
plasie
adjuvant
rougeur,
dipl@@
mann@@
seringue.
longtemps.
viral
d'atteinte
peau).
répondant
locaux
Myozyme
sées,
contraire,
maximum,
cutanée.
opie
van@@
cine,
CS@@
ferme
ion@@
ab,
pharyng@@
intens@@
signific@@
livre
bortézomib
affecte
mois@@
rein
individus
Vel@@
erci@@
étés
suivant:
hospit@@
missions
gastro-@@
metformine,
12,
transaminases
ement)
osseu@@
d'accidents
montelukast
(moins
réversible
individuelles
isoenzymes
Rey@@
chronique,
l'essai
pharmacologiques
comprises
plaques,
puissants
gluco@@
èse,
eczéma,
rougeurs
NV@@
(N
Sim@@
parcour@@
BR@@
lopinavir/
LD@@
classi@@
injection,
FIRMAGON
te-@@
mois).
handicap
causant
évalué.
partielle
l’efficacité
compare
Tarceva.
pharmacocinéti@@
sée
intra-@@
ASC@@
pomm@@
glycémi@@
dine
(tous
publication
familiale
café
er)
supplément@@
T),
jugée
pandémie
s'aggrav@@
prolonger
incluent
exclu@@
décoloration
mélangés
alopécie,
apparition
itu@@
phén@@
brû@@
institu@@
confér@@
1986,
chin@@
Mat@@
directrice
secrétaire
évolutive
Rev@@
ose)
TES
partenariat
neuromusculaire
profond@@
osité
hémoly@@
ocy@@
opa@@
s'effectue
Parkinson)
EMENT
95%)
olit@@
ale:
Por@@
avance
ane,
infecté
ori
soumis:
suivent
prélevé
altérée,
utilisés.
masculin.
interstiti@@
diges@@
fiés
atri@@
2008
détectés
lovastatine
sous-jac@@
cris@@
surven@@
abdominales,
suicide,
(se
bureau
radiothérapie
sep@@
ologiques.
intracellulaire
ml@@
d'Enbrel
entraînent
l'animal.
4%)
neurotoxine
pau@@
respec@@
séqu@@
l'ambrisentan
sodi@@
ites.
CYP2C@@
qu'aucun
TRAVATAN
l'ami@@
nouveau-@@
choc,
compati@@
jamb@@
pneumonies,
fatals,
INSTRUCTIONS
memb@@
Emselex
mée.
diviser
greff@@
(hyper@@
implications
découver@@
poign@@
reins,
rite
irréversibles
l'appétit
sev@@
vaccination,
commen@@
oles
angle
gramme
,,
poitrine
ations:
méd@@
hépatiques,
sous-cutané
Rash
paupières
anémi@@
corné@@
fication.
CM@@
etan@@
Royal
OptiClik.
Dis@@
étiqu@@
accumul@@
appeler
ande
doiv@@
ska
spontanées
bler
intestinales
musculaires,
ément.
validité
cti@@
Symptômes
candi@@
linéaire
............................@@
Polysorbate
000@@
654
Kau@@
š@@
aph@@
prost@@
obstruction
organe
alpha@@
durable
CU@@
euse@@
peste
01
d'aboutir
argent,
ere
Royaume
stad@@
L'élimination
contribuent
)................................@@
FeLV
lignée
NovoLet,
pepti@@
gly@@
onor@@
ress@@
incl@@
industries
chose,
commercial
hl@@
atiques.
chefs
prévus
secou@@
ton,
couverts
kaliémie
ez-en
d’A@@
dépit
élevée.
l'étiquette.
médicale.
mm3
proximité
n'aura
fiée
oubli
pe,
cuill@@
ois.
tend@@
Zer@@
vis
FANTAISIE}
mainti@@
performance
bétail
interventions
nourrisson,
déclen@@
ive
dépos@@
gravité
expliquer
éventuelles
los@@
000,
ette,
fermement
Entre
çons
productive
sauvage
estro@@
anciennes
que;
surveillance.
teront
endommagé.
opérat@@
inutile
SC@@
6.1.
l'équ@@
és)
pourr@@
⋅
secondairement
ι@@
F-9@@
Lev@@
(0)1
600@@
Dublin
Aldurazyme
rouges,
général.
onine
Notez
muni
comp@@
un.
pouce
tres,
rev@@
Eckenheimer
moin@@
ration
étendu@@
Bratislava
sûr@@
ov
spécifique.
na@@
scientifiques.
Jac@@
permanente
barrière
essayez
jet
nº
rich@@
dirigée
urie,
e*,
vre
spec@@
l'insuffisant
aspar@@
ogènes
ing,
atique,
vité
soph@@
nationaux
belg@@
eau@@
éradication
franç@@
d'État
tivement.
l/
adhésion
application.
restriction
consign@@
correcte.
sens@@
s'ag@@
cancéreux
intravitréenne
fibr@@
obl@@
ty@@
prendre.
bénéfique
perdre
ationn@@
s'en@@
suit
indiquera
pouss@@
quin@@
tent.
L'EMEA
purifi@@
bactériennes
péti@@
procédu@@
Vimpat
vacciner
verse
prés@@
nimésulide
ent-@@
courrier
étique
+39
land
appareil
adaptées
oh@@
rus@@
d'aberrations
exacte
prématurés
2004.
priorités
l'établissement
officiel
excéd@@
diminués
èmes
gy@@
disposent
(90Y)
lanc@@
phényl@@
cham@@
trib@@
englob@@
sexe,
transmis@@
superficie
endro@@
dépour@@
sé
âtre
agrég@@
otte
compens@@
correcte
strict
accessible
correct
refus
regard
sérotype
n'atteint
discuté
l’annexe
donnés
inconvéni@@
l'hypertension
divisé
adoptée
élu
convenu
")
travail@@
fumeurs
demi@@
fermer
isti@@
ta@@
nomb@@
échanges
communaut@@
annon@@
jette
cab@@
citrate
roul@@
ager
difficultés,
solid@@
REACH
découl@@
téléph@@
hô@@
naturels
fas@@
informés
degrés
tées,
per.
es».
mobilité
fonctionnent
suffi@@
commercialisé
vise
vois
lactique,
traite
poursuit
plus@@
ave@@
investi@@
L’expérience
L'expression
l'utilis@@
refuse
accepte
rer
sépa@@
rég@@
Nouvelles
surface.
l’ar@@
Observez-les
Oc@@
accompli
suivante.
procé@@
comm@@
Personnes
oin
ise.
retournez
ation"
QU’@@
tez-@@
inadvertance
ras
Suomi/
sanitaire
parfait
faus@@
date,
défaill@@
riez
n'aurait
péni@@
découv@@
l'exercice
l'ont
plaignant
Toxicité
Troisième
bien@@
autoriser
Tηλ.:
justi@@
assisté
aise.
faill@@
céréales
exemple.
pouvoirs
listes
partout
siècle
modern@@
autorise
incontest@@
natalité
aient,
tue
dangereux.
tombent
sanctionn@@
carburant
routes
avan@@
&#x02BC;@@
État@@
l'au@@
l'époque
aient.
obstacles
hausse.
mène
catastroph@@
protectionn@@
place,
parfait@@
l'enseignement
finan@@
fronti@@
pétroli@@
confis@@
quitter
polluants
dossi@@
ra-t-il
piles
auteurs
roy@@
cinqu@@
investiss@@
obligation
cuis@@
voilà
vign@@
lois@@
revenu
pensons
participants
diversité
jam@@
alisation,
conducteur
infraction
malheur@@
améric@@
invo@@
L'Italie
filets
obstacle
oi
L'on
Cela
grec@@
essay@@
excus@@
condamné
cartes
récol@@
irré@@
habitant
peut-elle
aide.
ci,
erais
concr@@
abus@@
coû@@
me!
découverte
ait-@@
voit@@
oir@@
Barros@@
eux?
souligner
décr@@
chance
Qu'entend@@
(A4-016@@
Copenhag@@
Bir@@
03
compresse
noter
dernière.
arthrite
97@@
significatifs
3000
égal
mesu@@
ulcération
lansoprazole
affect@@
ml),
τ@@
H,
articulations,
l'adjonction
prolongé
mé,
antivir@@
préventi@@
chélateurs
DT@@
d'yttrium
amino@@
migration
75%
5%)
3/@@
suivi.
osseuse,
entière
4.6
NeoRecormon
INVEGA
touch@@
57
élévations
embolie
expir@@
chiens.
(principalement
I-@@
CR
CYP2C9,
CYP2C19,
saquinavir
98@@
préexistants
génit@@
microgramme/
l’état
kg)
%;
C/
87@@
minor@@
mensu@@
pivot
LMC
stables
augmenté.
virus,
hémorragiques.
cardiovasculaire
rétine
oïde
étine
inchang@@
Te
métaboliseurs
d'hy@@
intensité
tati@@
ement;
semain@@
osin@@
transition
intranasale
retrouvée
extrêmes
jeun,
Rasilez
exag@@
couch@@
embry@@
semblable
(-@@
N.
tard@@
brutal
bosentan
polypose
grip@@
masquer
D'après
conforme
Rem@@
eure
chaleur,
cules
photosensibilité
croûtes
bronch@@
pleur@@
ford
universitaire
Dublin.
laboratoire,
Mou@@
onc@@
1999,
l'organisation
↔
Cmin
atr@@
forment
ation/
prévisi@@
été:
PAR@@
AU@@
normal,
alcool,
échapp@@
ors
Fréqu@@
NI@@
l'érythropoïétine
doul@@
(E17@@
allaiter
d'accès
libres
ts@@
gence,
Hep@@
ura
chirurgicale
uricémie
l'intern@@
soumise:
d'éfavirenz
CR@@
ha
spontanés
protégés
d'anémie
inflamm@@
cutané,
esthésie
anth@@
l'émergence
teur
DO@@
lèvres,
portées
macul@@
bilité.
aven@@
fois)
conditionnements
propr@@
cours,
ACT@@
élabor@@
dyspepsie,
répétées.
inhibent
UI)
stiripentol
incontinence
empêchant
(c@@
retarde
préalable.
émie.
précliniques
rat@@
tus.
vres
tubul@@
buprénorphine
intravasculaire
site,
infecti@@
modalités
Finlande
courri@@
œdème
Men@@
analysés
génique
hésit@@
onnel
présidé
psychiatri@@
indre
l'appareil
ith@@
io@@
come
Genzyme
SHARP
GMBH
Fax:@@
Copenhague
l'entreprise
potentielle
e(s)
jetez
rang@@
oi,
didanosine
chlorhydrate)
benzy@@
qué.
EE
consistant
élaborer
ster@@
professionnelle:
Liste
conti@@
(300
Dou@@
huil@@
AZ@@
ón
tures
Agence
ks
boisson
trav@@
bains
parentér@@
Dys@@
vertige
un,
établi@@
adhé@@
destination
d'informer
ind@@
inflammation,
ash@@
cot@@
agression
vési@@
d’1
lumière,
jambes,
flam@@
Perte
(vus
(augmentation
endocrini@@
colorée
aire;
FORSTEO
Mos@@
quit@@
génicité
composite
(EPAR).
ine@@
métabolisée
................................@@
1995.
ICH
inactiv@@
pré-rempli
l'enf@@
udine.
bibliothè@@
centralisée.
sorti@@
public,
algi@@
atténu@@
Ge@@
opaques
Temps
protocole
métabolisées
baign@@
publique,
pharmaceutiques.
planification
TES@@
issons
importants,
proportionnellement
attentif.
yer
abondamment
l'induction
Panretin
ées:
é"
tendon
PO
igne
probable.
CAR@@
House
igh@@
Az@@
considé@@
préférable
proxim@@
tat
lever
liss@@
favoriser
formé@@
latér@@
fondamental
AME@@
valences
enfonc@@
liv@@
potassique,
e*
inflammat@@
ayez
Avonex
aval
tératogène
Et
HC@@
SERINGUES
PREREMPLIES
103
386/
EU/1/98/069/00@@
EU/1/98/070/00@@
X/
XX/
XXX/
banc@@
chaussures
bénéfice-risque
contracté
ction
incolore,
Excipients
zinc,
accélé@@
All@@
Pas@@
Pharmaceutical
preniez
chem@@
frissons,
électroniques
polypropylène.
muni@@
Lett@@
mul@@
(3,@@
Jean-@@
Merz
Landstraße
revi@@
asth@@
Rar@@
propriété
reins
l’emballage
ons:
clair,
Général
ME
B-@@
plat@@
stimuler
gon@@
menstru@@
mm
ité"
maniaques
Bl@@
nationalité
contagi@@
séparées
ger
j
ule
spection
promouvoir
apparente
ralentit
ogéné@@
calori@@
diabétique,
l'approvisionnement
propriét@@
tern@@
nécessairement
ns
textes
laboratoires
expert
ève
compren@@
solvant.
chrom@@
mesure,
fus@@
répond
avé@@
recourir
générale.
cavités
lecture
sévoflurane
tombe
Norvège,
prescri@@
écra@@
aisément
CV
après,
Vaccin
Incidence
croissance.
OptiSet.
vant
le-@@
conges@@
claires
23@@
373
Radi@@
doseuse
mammif@@
téléphone
ú
moder@@
AB,
las
Je
sun@@
SID@@
Ste@@
Α@@
ρ@@
neutr@@
apparent@@
cha@@
Rua
alimentaires,
coucher
ya
fraction
paraît
IB@@
présentait
central.
antirétrovir@@
conjointe
iné
tus,
valence
d'atteindre
à@@
bénéfiques
régulièrement.
solution,
accessibles
proposi@@
disposant
L'aiguille
automatiquement
additif
faux
dégradée
l’interféron
annexes
Tritazide
fabriqué
physiologique
graph@@
rale
correspondre
déci@@
applic@@
l'aggravation
charges
consultations
favor@@
laiss@@
gras
aviaire
appartenant
Mann@@
noy@@
converti@@
Patient
devenus
4-91
2008,
cellule
échange
avancé@@
simil@@
ture.
défis
assimil@@
pronon@@
Reconcile
dispens@@
Bou@@
aveugl@@
groupe.
exister
d-@@
nutritionn@@
l'Italie
notez
risqu@@
poids)
pression.
différenci@@
archi@@
autom@@
ènes,
solvants
géri@@
nationales.
prét@@
va@@
mineurs
l’hépatite
compréhension
espagn@@
possèdent
travaille
pag@@
averti@@
courir
expression
précaution.
surveillés
ête
modifiés,
français@@
Angl@@
its,
propag@@
vrai@@
ich@@
requiert
filtr@@
purg@@
commentaires
coopér@@
pe.
importante.
transform@@
d’Humalog
F-69800
Malte
(première
Pologne
vider
combat@@
ferm@@
Poly@@
n'êtes
Waarderweg
Lyon
tribu@@
pousser
esses
meurtri@@
bre
régler
lectu@@
+44
obtient
d'approvisionnement
centi@@
Pass@@
prévu,
reten@@
soulev@@
Vari@@
orphel@@
POSOLOGIE
Pou@@
Synagis
VÉTÉRINAIRES
bouteilles
Puis@@
QUELS
Rappel@@
Respectez
Res@@
Rest@@
dég@@
aie
décide
interrog@@
san@@
certific@@
histori@@
appell@@
ession
Toutefois
accord@@
nav@@
PME
diffu@@
accorde
imposer
élevés.
justifiée
ordinateur
(alu)
endre,
cher,
terroris@@
l'écart
simpl@@
mais@@
militaires
tonnes.
erreur.
ère?
bureaucrati@@
condamnés
vit
travailleur
français,
mérit@@
navig@@
introduits
vulnér@@
essions
k.
beau
inflig@@
traçabilité
travailleurs,
renvoy@@
argent
celui-@@
conflits
homosexu@@
étonn@@
processus.
entrav@@
signat@@
réform@@
réjou@@
PIB
Chine
esclav@@
hectares
Traité
tourisme
surtout,
État,
onné
occu@@
dign@@
vieillissement
marins
contrain@@
journ@@
explos@@
défend@@
faute
élargissement
scol@@
contraintes
déclarer
tu
inoffensi@@
exact@@
dommag@@
exhaus@@
interdite.
unanim@@
bienven@@
identification
dirigeants
brill@@
immigr@@
colorants
Ira@@
ceux-@@
citoyens,
pesticides.
crédit@@
L'obligation
on!
sauver
jusqu'
arrivée
mer,
fiscal@@
fasc@@
décider@@
direct@@
village
terait
espr@@
usine
transmet@@
?uvre
serait-ce
occupent
gouvernement@@
châ@@
Cro@@
ł@@
compagnie
s'agit-il
serait-il
vendre
cat
se?
Quelque
Rappelez-vous
9/2001)
(A4-035@@
(A5-020@@
6/2001)
5/2001)
guéri@@
l’infection
calculées
administration.
groupes,
agon@@
adéquate.
algie,
rares,
extrê@@
agressivité,
alopécie
d'application.
s'accompagner
Copalia
traitement)
suffisante.
27,@@
protéase.
acétylsalicylique
compara@@
5000
tox@@
pondér@@
suivants,
oraux.
onuclé@@
SN@@
souhaite
2,5@@
inhalation
zona
injections.
humeur
quotidiennes
décé@@
agitation
contrôlés,
énor@@
restre@@
11,1%
statin@@
réduites
pulmonaire)
tolérance.
(nombre
conjugaison
association,
éluci@@
catabolisme
observez
démangeais@@
kg@@
TORISEL
4.4@@
85@@
avéré
intermédi@@
pure
anthracyclines
9)
VIII@@
3%)
excell@@
SO@@
favorable.
rap@@
opé@@
visuel,
cica@@
unique)
respectivement.
cohorte
passionn@@
abattus
Sprimeo
doses,
furent
15,@@
SC
110
74@@
cartou@@
adénomateuse
similaire.
d'application,
zumab,
ceftriaxone
CYP@@
listat
RCP@@
avir/
PREMIERE
UR
détaillée
brûlure,
apparues
listés
inspecteur
John@@
ax
1990,
Bruxelles.
cellulaire.
employée
hôpitaux
1994,
ae
d’abord
grave@@
Inf@@
**
adoption
Annexe
RÉ@@
ongles
%)@@
perfor@@
papier
visag@@
rocuronium
attendu@@
poitrine,
faim
nerv@@
PC@@
décol@@
capsule
antéri@@
conjonctivite,
Del@@
lor@@
Demandes
adoptées
nourrir
sclérodermie
d’effets
myélosuppression
c’est-à-dire
c-@@
épilepsie
machines,
anticoagul@@
vag@@
thrombotique
CA
indirec@@
soyez
actuelles,
assure
réservoir
nocturnes,
nervosité,
Anti@@
inhalés
pneumopathies
évanou@@
audition
suggérant
réduction,
Ulc@@
05@@
épi@@
allong@@
pertin@@
identifiées
rm@@
l’accès
estimations
angi@@
supplémentaire.
ASAT
donneurs
quée,
plaquett@@
verrouill@@
chement
alk@@
l’impact
G.
pédiatri@@
significatifs.
inconnue
blancs,
avaler,
peptide
injectés
(test
lymphome
exacerb@@
lyse
argu@@
trophi@@
occa@@
--
Suède,
dar@@
myélo@@
peg@@
Bio@@
4.8.
solide
entrepris@@
cardio-@@
rash,
d'établir
résistances
uré@@
ast
carri@@
15,
rai@@
provoquant
vomissement,
hypoesthésie,
BV
réévaluation
bases
l'urine
Houtenlaan
1381
GmbH,
DOHME
4561
2612
Infocenter@@@
with
jusqu’au
bleu
corpor@@
dens@@
valproate
antiépilepti@@
osine
ocul@@
rêves
gorg@@
asthme
dabigatran
prol@@
12.
fœ@@
essouff@@
e);
Lun@@
tis
doctorat
and,
toxic@@
Doctorat
elles)
phar@@
n'e
stro@@
microgrammes,
extrém@@
dos,
orbit@@
dème,
ham
causée
tylvalosine
dilué,
nébulisation
d'immunité
IL
métr@@
épistaxis,
rhinite,
eil.
l'anémie
diens
disodique,
je@@
Effet
dil@@
oxétine,
100,
doigts
contract@@
ées).
marques
Vision
suicide.
entretien
mâch@@
refl@@
FR@@
nerf
paupière
avant,
classique
cath@@
incin@@
transfér@@
ergi@@
manifester
détecté
tester
mouv@@
168
Porto
enregistrement
maîtr@@
1999.
l'EMEA,
matique
scientifique,
d’obtenir
personne.
incrétines
possibl@@
d’apparition
(tel
l’avis
d'hyperstimulation
suspicion
adapter
ribavirine,
insul@@
IV.
demandeur
d'origine.
manifestement
Vérifiez
InductOs
pend@@
tuer
interrom@@
bloquer
traiter.
l'hydroxy@@
d'alcool@@
service.
hanche,
publiée
sein,
d'induire
Luveris
ralenti@@
acceptable.
agiter
rhinotrachéite,
fill@@
kaliémie,
conservateur,
OX@@
Neu@@
Plaquettes
ero
d'assistance
Yttriga
ver
cent@@
d’action
041
341/
111
Medi@@
porc
maj@@
V)
lampes
persistante,
acryl@@
endu@@
nécessitent
Cr@@
entis
SUBSTANCES
deg@@
180@@
facilit@@
Fendrix
2.0
abilité@@
transplantation,
mangez
connexion
solu@@
employées
compléments
vertébrales
opor@@
ert
eti@@
ž
Italia
Gall@@
ho
400@@
inscri@@
CYSTAGON
filet
Généralement,
manifestent
batterie
Gen@@
NL-@@
E)
ado@@
500@@
Italie.
pertinente
adéquates
années-@@
menaces
atiques
naiss@@
sw@@
ONS@@
mixte
vice-président
18,
deltoïde
floxacine
excipi@@
cher.
aî@@
l'activation
chef@@
aujourd'hui.
pertinentes
sévères.
énergie,
présidents
purement
intervient
auparavant.
contracep@@
atte@@
actuel.
prête
avancées
impératif
incertain@@
total.
prenez:
médicales
corriger
instaurer
journali@@
fiables
(type
procède
considérant
attente
craindre
réduc@@
souffert
l'Espagne,
examinées
convention
regardez
ermine
U,
UE@@
AF@@
deven@@
gên@@
prévoy@@
Syn@@
ser,
rot@@
L'ÉLIMINATION
Associ@@
hémodialyse.
SoloStar,
systémique.
ivre
ètr@@
op
Ljubljana
+386
PHARMA
mines
subs@@
(0)8
Á@@
moment.
jugés
tonne
cicatr@@
minér@@
tige
cass@@
onnage
augmentera
EEIG
bes
am,
20.
(15
(400
entier
aigu@@
touchés
major@@
cibl@@
témoin
contribuera
inée
orité
certificat
pation
mineures
recherche.
novation
utilisée.
prévision
pacte
L'apparition
VIII.
manu@@
TW@@
ran@@
accueilli@@
impac@@
existante.
emment,
incid@@
ci-@@
impose
partie,
compenser
qu'aux
L'avis
hydroxyl@@
isot@@
désign@@
souligné
lorsqu’il
sûre
indiffér@@
mesur@@
ek@@
relever
l'autorité
études.
arme
abri@@
préjudice
éducation
terrain.
l'introduction
l'animal,
cens@@
sujet.
Rob@@
substances,
exercer
problémati@@
budg@@
impli@@
prév@@
encl@@
encourage@@
changé
chinois@@
itaires
ces@@
consacré
analgé@@
approuvé
équipe
the@@
entrant
cos@@
aérienne
étu@@
comptes
duc@@
si.
feront
2010@@
sci@@
exceptions
excessive.
Gam@@
appliqués
numérique
ethnique
équipés
organiques
d'OptiSet.
ols
l'ég@@
landais
d’in@@
ressor@@
responsable.
journaux
infectieuses
résume
CF@@
sérieuses
ètres
réduits
Liprolo@@
fonctionnel
L'état
Effentora
inaccept@@
consac@@
intervi@@
Autri@@
l'Aviation
L'inhibition
l'innocuité
collect@@
(DES)
étudier
ards,
atives,
gâ@@
protéine)
ire.
ecte
individu
peut-être,
Luxembour@@
ino
côtés
Israël
Merci
ania
Priest
subissent
propriétaires
espèce
tie
confiance.
Ni
éché@@
techni@@
PB
+358
particip@@
chroniques.
âgés:
jau@@
ports
aine.
do,
ole,
mass@@
presser
hauteur
berg@@
invit@@
auriez
Point@@
let@@
Moy@@
sa@@
CHAQUE
air,
utilisés,
glac@@
informations,
assumer
répar@@
D'ÉLIMINATION
Première
cosmétiques
abus
l'abattage
amend@@
confirmer
conseillers
tabac,
Vo@@
ao
l’opération
Tenir
S'ils
pièce
vous.
Succursale
+32
MSDBelgium_info@merck.
finland@@
PS
l'emb@@
équivaut
Tit@@
élè@@
blé
soi
d'or@@
résoluti@@
incident
dépens@@
d’Insulin
assistant(e)
industrielle
démocratique
pun@@
problèmes.
lux@@
agricult@@
disent
traditionnelles
effray@@
vins
sanit@@
mesures,
allou@@
naz@@
l'Union,
aux?
n'avons
"S@@
offri@@
raient
Constituti@@
traî@@
prisonniers
soupç@@
polon@@
transferts
ains,
sig@@
auté
autru@@
mauvaises
Go@@
Méditerran@@
diverg@@
l&#x02BC;@@
quar@@
édulcor@@
symbol@@
Sommet
référendum
indemn@@
utiles
dérog@@
fication,
existence
d'étiquetage
congé
vulnérables
condi@@
pauvreté.
agne,
d'inflation
écrit@@
dictat@@
accident.
d'"@@
Tim@@
affirmer
catastrophes
fils
fausses
maill@@
Lisbonn@@
combatt@@
frontali@@
alistes.
hont@@
pénétr@@
accep@@
téléphones
homme,
crati@@
affirme
s'agisse
VIH/@@
oui@@
concrè@@
ative?
figur@@
tué
al-@@
civi@@
sociale
ajoute
L'histoire
ablement.
interdite
religion
fructu@@
haine
contex@@
senti@@
arguments
fasse
films
èle
mout@@
palestini@@
réfugi@@
L'obésité
objectif,
commerciaux
cigarettes.
électricité
re!
phrase
imaginer
tâche
existe-t-il
2003,
secret@@
interven@@
progr@@
envoy@@
ministr@@
ra-t-elle
permettrait
l’histoire
di:
réalité,
espoir
pur
sais
match
ales?
aime
qui?
criminels
souffrance
innoc@@
préci@@
êtes-vous
/2002
situation?
s-nous
rions-nous
pas?
ons?
signature
Nombreux
protest@@
infractions
Nul
Projet
l'heure,
Ont-ils
vous-@@
aires?
procès-verbal
Pensez
rapport?
faites-vous
conséquences?
Procédure
Qu'ils
1/98)
Trente-@@
Vrai@@
Ferring
moxifloxacine
sinusite,
pharyngite
interrompu@@
robinet
Not@@
acceptables
titr@@
découvertes
consécutive
coqueluch@@
passée
FS
clusion
déshydratation,
gne,
affec@@
cérébro@@
ché@@
calculs
bili@@
nécr@@
bexarotène
desquels
aires)
AINS
sélectifs,
immédiate.
Da@@
d'hommes
optimal
Figure
TNF@@
III,
suffisant.
sous-
17,@@
0,001).
INOmax
évacu@@
insomnie,
réagit
myél@@
Posaconazole
IDM
auriculaires
concentration.
progéniture
repris
dl)
GIST
otoxicité
marquer
survécu
coma
suivantes,
indiqués
d'Atripla
l'amphotéricine
inévit@@
pegaptanib
variation
arthr@@
étap@@
mus@@
inconnu@@
ré-@@
(IRM)
causé
ales)
formés
chuter
17%
l'intervalle
ées)
(5,@@
ections
ecti@@
latente
maximal
déprim@@
l'inhalation
acept
laropipr@@
cholinergiques
adrénergiques
8/
seu@@
éduc@@
pénicill@@
A).
monocentrique
commencez
ile,
alcalines
embolies
Stu@@
INTI@@
INN@@
TI
,5
l'adéfovir
enregistrés
OSSEOR
a;
chat,
(J@@
l'az@@
environn@@
g).
perman@@
miques
incluaient
62@@
isch@@
indice
ciclosporine.
l'emtricitabine
Cma@@
mutations
M184@@
aliskiren
pré-
CY@@
randomisés,
dasatinib
LDL-@@
CT
constatés
toxique
parois
diabétique
multiplication
intracellul@@
flucon@@
lab@@
UG@@
improbable.
comprimés.
atinib
eur:
courants
infect@@
ale)
linguistique
soif,
joint
ker
Muni@@
oun@@
versité
docteur
enseignement
1993
Paris@@
Semaine
cs,
contenue
routine
fai@@
excessive,
glucose-@@
fini@@
logi@@
conjonctivite
0,9
yt@@
réglementaire
Demandez
aisons
délivrance
me)
sophagi@@
fragil@@
SI
oate
ative@@
particulières.
mill@@
dissou@@
hydrogénée
articul@@
solidar@@
intrathé@@
me).
d'ur@@
Princi@@
Farmacêuticos,
utér@@
cz@@
poll@@
logiciel
face,
14,@@
Ob@@
muscul@@
glomér@@
K,
similaires.
édu@@
mécanique
(10@@
LDL-cholestérol
rédig@@
actif@@
neuro@@
aiss@@
(Ph@@
comprennent:
champign@@
électroly@@
istance
transporter
ensemble,
guan@@
fibrillation
trap@@
phosphat@@
d'emploi@@
vascularite
alpha,
y)
ay
cholestérol,
sionn@@
patiente
aperç@@
pharmaceutiques,
ini,
transit@@
voix,
syndromes
prolifér@@
atif@@
Stev@@
appuyant
Str.
courent
muscl@@
one:
biologi@@
eur-@@
concentration,
ine:
amm@@
sanguine,
raideur
diabéti@@
seulement,
pharmacien,
UTI@@
ate)
abdominale,
ision
autonome
organique
respir@@
échéant,
FORM@@
d'iloprost
Inflammation
articulaire,
grass@@
rh@@
abdominales
Mel@@
ze
EE@@
Mes@@
ef
SIDA.
(boîte
(notamment
dilué
intra@@
eil@@
corporel,
ité:
Dynastat
SA*
l'intestin
ase)
a),
estonia@gsk.
667
seins
ecchym@@
10):
augmentée,
Thrombocyt@@
soudain
(taux
l'arrière
optique,
cornéenne,
gran@@
mangent
yst@@
Kon@@
ink@@
Uni
AT,
d'AL@@
Norvège
ampli@@
jusqu'en
inique
Opti@@
recombin@@
l'élaboration
cataly@@
l'interruption
thoraciques
spécialités
berg
choisi
joué
strict@@
Agency
ecteur
interférer
mélangée
cales
er-@@
alpha-@@
telmisartan
sangu@@
auto-injection
papill@@
appropriée,
ique.
délicatement
produisant
l'hôpital.
passé.
justifié
tension,
remplissage
anti
gradué
céphal@@
notification
fractures.
UB8
public.
de-@@
équipement
laissant
Betaferon.
implication
elier
fondé
ptions
parallè@@
retar@@
informatique
significative.
TS@@
alcoolique
lip@@
congénitale
sélectivement
l'extension
verre,
Environ
unes
ides.
éthan@@
monoclonal.
céd@@
Sev@@
Jos@@
thiazidiques,
pharmaceuti@@
Étant
l'utilisation,
Fixez
(70
post-ménopausique
036
285/
08@@
383/
EU/1/07/435/00@@
respectant
Survie
atine
cept@@
né.
doig@@
bulles
ution.
2003.
Examinez
Statut
)-@@
lamivudin@@
ör@@
ution,
–@@
ry@@
can
tic@@
entan@@
Fermez
til@@
optique
épargn@@
MUI/
alement,
ée).
mesure.
prud@@
Fl@@
Indi@@
pli
con
2,4
irrigation
tablet@@
2100
US@@
Loc@@
labyrinthe
commercialisation:
coordination,
agu@@
conscience,
gad@@
constitué
M).
Garder
pieds
bandes
blanch@@
modé@@
stu@@
organizač
glimépiride
lutropine
ls
algie
Flor@@
dents
CPMP@@
rup@@
DE,
HM@@
Vic@@
neutralis@@
nau@@
torémifène
chè@@
mique
mand@@
ho@@
d'interféron
vivo,
tivement,
euti@@
gène,
choc@@
térat@@
eg@@
cassure
d'identifier
flè@@
reconstitu@@
Bro@@
sentez
pertinente.
rappelé
prescripteurs
nélarabine
d'EXJADE
Vectibix
surfac@@
virus@@
donnent
irradi@@
partiel
sen@@
vivo.
reb@@
ont.
].
antérieur
l'adaptation
existe,
Penta
dispara@@
habitudes
restructur@@
148
sectori@@
autorité
l'Estonie,
Lettonie,
d'ordre
conditionnement.
seize
(IMAO)
ques;
supérieur@@
simplex
nutri@@
d'administration:
bac@@
LV@@
(0,9%)
l'assistance
équipé
l'hist@@
Insuffisant
amp@@
L'indinavir
lactase
app@@
In
tél@@
LY@@
_@@
connaissance.
Λ@@
Itali@@
moi@@
ini
rapid@@
exclusi@@
KG
administratif
axe
Kr@@
ka,
barre
sélectif
aminé
uk@@
compromettre
gastri@@
Global
Journal
tenue
évaluée.
revanche
propager
prémédication
bot@@
neutrophiles
L’administration
rapide.
sés
implants
alisation.
prises,
beso@@
primo-vaccination
assurée
opathie
plage
diffère
avanc@@
bas,
Parkinson.
ance:
essentiel.
juv@@
Sub@@
l'immunité
endant
dissu@@
ativité
concrets
organiser
l'harmonisation
croissante
action@@
demi-heure
minimal
diét@@
l'appar@@
onie.
cultu@@
priorité
istera
d'hydrates
trophique
résistante
ferait
examinée
examiné
vigabatrin
seulement.
distin@@
motif
hospitali@@
Latvijā
ba
graduation
TV@@
substitu@@
d'harmoniser
ores
Sab@@
infrarouge
fournissent
l'ess@@
Bus@@
tom@@
détruire
mentionner
contrôle,
ses,
rares.
asy@@
tam@@
d'extr@@
envoyer
mi-@@
communautaire.
cuisse.
ologiquement
éclair@@
multipli@@
automati@@
enveloppe
beta
13,@@
Orfadin
apprendre
Tom@@
L'érythropoïétine
mascul@@
a:
pénétration
énergie
boivent
sés,
institutionn@@
ête,
Merial
insuffisantes.
ope
rendue
annoncé
Sec@@
sira@@
délibé@@
ca.
repos@@
l'intégration
salmon@@
SoloStar.
agira
irlandais
d'antirétroviraux,
développant
séjour
VII@@
tôt
dossiers
baissé
lourd@@
systématique
Humalog@@
l'ent@@
commercialiser
slov@@
ank@@
bert
ple
nettoyage
étrangères
retourn@@
L'excrétion
carg@@
véhicul@@
ste@@
L'influence
inte
L'interaction
ez-les
fantaisie}@@
douce
désigne
qué,
eaux,
affaiblis
organisée
entamer
bus
opénie
estations
Mol@@
5-0@@
soluti@@
Bruxelles,
lang@@
ouff@@
69007
gradu@@
Méthad@@
considèrent
-même
Rotigotine
déchets,
OPATANOL
bébé
système.
d'autres,
Finland@@
der,
ressenti@@
Placez
préc@@
adressez
bénéficié
expressément
ambiti@@
insp@@
TELS
règlement@@
entour@@
prudence,
in?
ZY@@
eilli@@
Réduction
z-vous
infectieuses.
Strada
ui
mg/L
pre
Espagn@@
constamment
ennent,
dévers@@
aidera
Sin@@
isée.
envisage@@
dû,
souhaitez
ná
Suivre
aché@@
eront.
départ.
d’Insuman
tunn@@
Voi@@
der.
affi@@
détail@@
akis
entendu,
hier
minéraux
précision
stress
déterminant
pierre
entrepren@@
révolution
partis
déten@@
tarifs
lise
équit@@
e».
conciliation
perç@@
demeur@@
l'ESB
product@@
dits
tier@@
nord
reposer
marchandis@@
argent.
coutu@@
mensong@@
satell@@
content@@
l'euro
véritables
sements
civils
guerre.
viti@@
dat@@
symbole
simplifi@@
craign@@
feux
camp
meurt
débats
compte,
infrastructures
tier
auxquelles
décid@@
maintenant,
Grande-Bret@@
établit
Commission@@
attribué
chercheurs
planète
tragédie
orientations
Serbi@@
dialo@@
thème
l'human@@
science
climatiques
juridi@@
Internet.
maritime
décès.
quot@@
ressort
triomph@@
jeu@@
préoccupations
dignité
énergie.
contradic@@
forêts
xénophob@@
mar
morts,
passeports
meurtre
séroposi@@
d’enfants
décen@@
t!
coordonn@@
définitive
tellement
Conseil@@
milieux
meur@@
voiture,
mémor@@
sacrifi@@
tons
blâ@@
euros,
ser
traç@@
capitale
aband@@
ressembl@@
croi@@
erc@@
national.
économique,
aire!
géograph@@
prétend
écol@@
exige
d'OGM
chaî@@
justement
biocarburants
l'avenir,
irland@@
ains.
effac@@
rationn@@
aim@@
qualifications
famill@@
ues,
magnifi@@
Lorsqu'on
s'attend
billet
opposer
terri@@
L'Ukraine
détruit
élargiss@@
Sy@@
cherch@@
musique
a-t-@@
vérité
retrouvent
ra-t-@@
contref@@
hâ@@
télévis@@
d'accord
certitude
rum@@
torture
kh@@
parlons
doivent-ils
âgée
bien,
blement
proposons
proverbe
applaudissements
Parallèlement
Partout
Pense@@
Personn@@
Peut-on
ue?
B5-0@@
(H-06@@
Quoi
7/2001)
8/2001)
4/2001)
3/98)
Souhait@@
men
æ@@
102
radiograph@@
désinfectant
séparée
Trizivir
administré.
cesser
besoin.
Cyanokit
suivants.
Unité
servi
pneumopathie
immunologiques.
cir@@
(SNC)
métastases
placebo@@
indésirable,
intestinal
indésira@@
aryth@@
l'enfuvirtide
Prof@@
transitoire,
respirer,
dose-dépendante
égi@@
s'accompagne
infiltr@@
(entre
l'ASC@@
stati@@
mitotane
substituti@@
combinée
globalement
vomissement
précédée
anti-TNF
durables
points,
vasomoteurs
titration
recevaient
d'inhal@@
gouttes
rufinamide
4,6
anormal@@
administrera
»),
11,@@
restée
128
perfu@@
omat@@
plasma,
bras,
échel@@
diarrhé@@
hyp@@
carboxy@@
Médi@@
d'essai
primi@@
prévention,
mg),
(AL@@
tigécycline
Thy@@
l'insuline.
ograph@@
l'image
douloureuses
CYP2D6,
antiviral)
l'olanzapine
5;
ylase
Vaniqa
(Cmax
semaines).
révélés
recapture
ocarcin@@
randomis@@
16,
associant
capsules
dipivoxil
aire),
HD@@
prédominance
AIN@@
myalgies,
70.
RP@@
PT@@
l'herpèsvirus
calicivirus
foet@@
FSH
poli@@
démangeaison
suffisants
Xolair
multipl@@
ultérieurs
(7,5
ménopausées
stin@@
sélection
Enbrel,
TVP
traduisant
dilat@@
bA1c
amine.
9%,
hydrochlorothiazide
graphique
SIFROL
intensification
123
collagène
aires).
influencer
acr@@
avir
CPMP/@@
renouvellement
Prépar@@
reconnaissance
mutu@@
plante
fragilité
diabétiques.
fistu@@
David
l’industrie
1976
l'Uni@@
d'U@@
pp@@
Te@@
cabin@@
on)
1992,
colon@@
ALU@@
yle
cipro@@
floxacine.
ponctu@@
potable
érythémat@@
l'oxyde
saccharose,
COMP
désig@@
facilement.
effets,
fournisseur
continué
osseux
reflux
sélectifs
Ca@@
séro@@
Porcilis
-3@@
Réunions
sang),
crist@@
ISR@@
ale;
Protéine
déméthyl@@
faisce@@
rouges@@
l'étravirine
vigueur,
pharmacovigilance,
eau.
émotionn@@
F.
syncop@@
d’insuffisance
sudation,
gèn@@
évaluation,
l’EMEA,
irradiation
disponi@@
struc@@
TO@@
amide.
néphro@@
immunosuppress@@
systémi@@
hépatites
servant
antibiotiques,
Ty@@
adoptés
dosages
contacts
chevau@@
prenez.
l'AD@@
vir.
vaccinés.
squelette
43@@
aux)
able;
t)
Lanc@@
probables.
su
RoActem@@
dissémin@@
d)
digestif
mutag@@
bovins.
dru@@
l'oxygène
vach@@
glyc@@
tadalafil
CYP2C9
toutefois,
réalisées.
cub@@
filtres
environnementale
courte.
iodés
Désinfectez
diverticul@@
IntronA.
conduisant
http://www.@@
et:
option
solaire
H),
fréquentes.
triglycérides,
ryth@@
humi@@
dans@@
fixés
l’évaluation
QT
d'actu@@
trices.
indépendantes
hyperten@@
(phase
d'analyse
inhiber
ard.
auc@@
clit@@
sym@@
ocolite
ulcérations
d'auto-@@
toxiques,
Weesp
abaiss@@
adjuv@@
190
ogénique
dexaméthas@@
deçà
soif
toxique,
Flatulence
floxacine,
battements
l’Uni@@
Gestion
opie,
Direction
straße
privés
d'équilibre.
Ra@@
auri@@
........@@
8).
ives
ologies
Internet,
maintenus
Indications
d’efficacité
Sup@@
UN
cm)
Lon@@
Lé@@
abdomin@@
oires@@
écri@@
ew
ano
reconstitution.
reconstituées
cutanées.
13%
surnageant
utilisation:
UNE
l'agrégation
retardée
perversion
Proc@@
Ery@@
MD@@
ECALTA
exploitations
d’application
édétate
Hydr@@
ks,
9750
ener
182
405
č
souffle
droit,
dentaire,
caractères
Ceplene
Gon@@
fessi@@
désir
toucher,
active)
sexuelles
ménopause.
d'AD@@
utilisateur
lomb@@
cellules,
nées,
Impression
Pau@@
d'ABILIFY
usion
valid@@
onat@@
vesti@@
87
CPK
Post@@
inchangée
approuvés
L-2@@
905@@
constituée
génie
MPS
réun@@
faction
Quad@@
Validation
endi@@
(ex@@
allemande
l’environnement
vétérin@@
concentrer
Suisse
chimiothérapie,
d'hormones
récepteurs,
rituxim@@
prolongée,
olog@@
réac@@
CRIXIVAN
accidentel,
ci-après.
MP,
struction
estation
rayonnement
Bondenza
pancréati@@
final.
paroxétine
nouveaux-nés
opération,
chac@@
AL)
rapporter
médecin:
otype
natéglinide
monothérapie.
fourmill@@
disponibles,
AG
align@@
métaboli@@
clari@@
l'OM@@
perspective
pommes
représenter
alfa-2@@
malign@@
YMDD
transplantés
consommer
ophil@@
dialy@@
l'entrée
dissol@@
MTX
raisons.
12-@@
officielle
placer
0,00@@
Eudra@@
heures)
chevaux.
acét@@
érosion
8%),
Ess@@
rémittente-récurrente
atifs,
lax@@
sacchar@@
coordin@@
mus
PERFUSION
dopa
042
044
363/
thermoformé@@
EU/1/07/435/0@@
001/
critique
Év@@
pla@@
angl@@
fragilise
os)
exceptionnelles
efficaces.
apathie,
l'abdom@@
H.
ene
calcium,
azole
entam@@
Utiliser
κ@@
ο@@
ire,
ACTI@@
PG@@
myalgie,
instruc@@
CHMP,
accepté
voisines
d'exercice
ens-@@
cos
Pourcentage
affirmé
mag@@
poussoir
contenance
Royaume-Uni@@
No
EP
Holland
bres
Pre@@
consolidation
réparation
etta
Lituanie
ė
anie
Slovaquie
Fruebjergvej
médullaire
ear@@
Rhin@@
auriculaire
rie,
Jap@@
ettes,
Gas@@
Blan@@
orange,
MY@@
ail
125
ood
ention.
ea
re),
doit,
accomplis
d’information
rétinienn@@
tot@@
F2):
G1):
cortis@@
déconseillée.
excipient@@
d'Av@@
yri@@
pit@@
agité
joi@@
satisfaisante
activité.
structuraux
fondée
signalé
Conférence
l'élargissement
santé@@
héréditaire
disproportionn@@
l'aut@@
traumatis@@
te;
confirmation
ier
touchés.
FORCALTONIN
adaptés
CIALIS
n'agit
l'asth@@
Thé@@
anticoagulant
lait@@
pléni@@
littérature
tranche
perfusions
adhér@@
(VIH),
vas@@
mé.
globale.
maximum.
risquerait
vigilance
coïncid@@
avant@@
ologues
qualifiés
approvisionnement
personne,
n’était
recrutement
supéri@@
véni@@
nommés
gènes.
fibrinogène
Pedea
s'amélior@@
nies,
INCRELEX
Infec@@
Tumeurs
enter@@
difficil@@
irbésartan@@
ator@@
ecter
Institut
adaptateur
York
post-
essenti@@
compen@@
hémodialyse
élimination.
supérieur.
isophane
LO@@
galactose,
INVANZ
pace
désinfect@@
192
19,
Do@@
Mark@@
sse
SU@@
vement.
api@@
tyrosine
tyr@@
variabilité
vo
du(es)
catéchol@@
échantill@@
poursuivra
intensifi@@
synth@@
HDL@@
ministres
Bb
MicardisPlus
Opgenra
arrête
goû@@
contrainte
rapporte
argo
vastatine.
l'ator@@
tolérée.
Nplate
dot@@
02)
équi@@
lyophilisée
horizont@@
Laisser
recombinant,
L'amélioration
encour@@
de;
thalidom@@
Lan@@
Paris
annonce
numér@@
4.5
abine
cassé
blanc,
néphrotique
allergiques.
réparti
MG@@
sessi@@
régi@@
éventail
l'ampleur
apparent.
questions.
proportionnalité
l'U@@
contrairement
dépendent
granulés
Xeomin
profon@@
muqueuse
Zyrtec
corticothérapie
races
alfa@@
tizanidine
cav@@
L’augmentation
l’im@@
VIRACEPT
moyenne.
teneurs
vus
défectueux
thérapeutique,
diver@@
seul@@
continuera
morbidité
time
incapable
addi@@
travers@@
envah@@
protectrice
protocol@@
biotechn@@
Can@@
Chine,
l'aéroport
clarifi@@
cibles
stéroïdes
répété
seuils
demandés
livr@@
sodique,
noyau
information,
arbitr@@
tront
époïétine
venti@@
ocr@@
cohérente
l'année,
corde
enver@@
erie,
dre@@
démontre
décentr@@
alement.
ffici@@
d'organ@@
marketing
secondaires,
coma,
poussi@@
bois.
vap@@
discuter
ates.
ouvertes
révèlent
salariés
Membres
engager
Macugen
main@@
commercialisées
inscription
oirs.
PRIVIGEN
osph@@
enveloppés
débor@@
tiens
tardi@@
amélioré,
impliqués
cornée
achat
VII,
sidi@@
levée
raisons,
autrichi@@
Des@@
aliments,
ates,
êtes,
notamment,
carton
apprenant
vivants
ame
relev@@
concernés.
flor@@
d’emploi
circonst@@
excl@@
explication
crise,
BAS@@
hôpit@@
occup@@
Ab
dûment
dangereuse.
poi@@
fécondité
transactions
cosmé@@
parvient
l'abatt@@
ram@@
Lorsqu'elle
endrez
touchent
L'ouverture
l’objectif
bourg
lem@@
Tony
istr@@
tournez,
réparer
er"
introduction
texte.
den
absol@@
REGISTRE
COMMUNAUTAIRE
N'utiliser
Objectifs
Objec@@
(passage,
Publi@@
euphorie
Ur@@
Immeuble
Paraffine
importance.
Ara@@
Parti@@
del
Prés@@
ade,
factu@@
Espoo/Esbo
358-(0)20-7570
PLAQUETTES
7/@@
Portug@@
n'avaient
adressez-vous
optim@@
reconstitution,
aille,
-t-on
savoir-@@
consensus
DERIVES
vétérinaires,
DÉRIVÉS
continuez
Presque
dez
MIX@@
Quel@@
UTILISÉ?
Immunodéficience
qua@@
ception
eni@@
resté
Réponses
porte@@
rapidement,
Réunion
cancéri@@
différente.
fonctionnaire
Bos@@
consom@@
contre@@
Selamectine
ries
Seulement
Sk@@
toujours,
retrouv@@
achetez
ramenez
Simultanément,
vacances
tés,
règl@@
zlož
elli
Soixante-@@
Bre@@
Suivez
œuvre.
intellectu@@
adolesc@@
sent@@
codes
bio-activité
protéine).
scientifi@@
Russie,
récipro@@
l'obligation
renforcement
NovoLet.
FlexPen.
di.
sucre,
Vou@@
te:
extraordin@@
voulu
Nig@@
iraki@@
souffrances
aromati@@
contrats
ables:
drogue
éthi@@
stratégies
d'accueil
hou@@
sud
coûts.
2004,
constructeurs
symboles
ordinateurs
Terr@@
prévoient
Tchétch@@
blessées
remarqu@@
cancers,
tensions
fid@@
commer@@
oirs
cancérigènes
choqu@@
thérapies
annex@@
l'île
caiss@@
vill@@
Ukraine
d'agir
venir.
mne
ventes
déstabil@@
rien.
civilisation
d’aide
armé@@
ferrovi@@
enthousias@@
tout.
refu@@
dis
effondr@@
culturel
simplification
onnées
pourrait-il
irs
jeunesse
techniques,
gol@@
fe
euros.
s’élève
s'élève
transport.
crime
encore.
connaissent
migrants
gagner
circonscription
primes
intéressant
l'influence
confond@@
ation".
controvers@@
conç@@
articl@@
secret
anciens
vague
Nord-@@
dit:
captures
l'étranger
détenus
découvert
brevets
confl@@
journalistes
incompréhensi@@
fin.
idéologie
tunnel
1/97)
financer
précoce,
tend
.000
cela!
lut@@
discipl@@
enfin,
lancer
disant
moments
accord,
millén@@
exprimer
Parlement,
investissement
candidats
confront@@
justice.
regrett@@
Pakistan
cents
dout@@
politiquement
meill@@
nive@@
ement!
hypocrisie
l’État
Convention
évoqu@@
publicit@@
illégale
l'esprit
condamn@@
excep@@
atmosph@@
Inde
salari@@
néerland@@
crè@@
légale
l'école
s»
l'affaire
carrière
obs@@
demande.
parlement
Al-@@
inacceptable
destruc@@
L'Irlande
enfou@@
milliard
consacrer
légifér@@
allergènes
sag@@
foresti@@
combat
géographique
privé
bâ@@
courag@@
ges
scandal@@
era-t-il
État.
l'euro@@
pann@@
intérêt@@
ako@@
dimension
déclare
eux!
chômage.
sovi@@
chers
Cub@@
époque
L’une
Lutte
députés.
Maintenant,
défic@@
émiss@@
doit-il
prétexte
page,
te-t-elle
hypothè@@
pensi@@
ants?
aurait-il
en?
nuisi@@
d'affaires
superflu@@
Malheureusement
Air@@
vod@@
disait
balle
concept@@
démocr@@
ko@@
avoc@@
voter
allons
ignorez
faudrait-il
peut-il
tés?
Strasbourg
Franc@@
Afri@@
liste,
N'oublions
habitants,
revue
comprend@@
cela.
alors?
pomme
ans?
éoli@@
statisti@@
(PT)
tant,
(Protestations
Quatre-vingt-@@
va-t-il
Quoi@@
Qu'y
6/97)
(A5-016@@
(A5-035@@
(A5-017@@
Reste
Sixièmement,
Vingt
A/@@
WI@@
Cer@@
recouvrir
er;
ol)
conformes
)).
inclusion
tivité
analyse,
alendron@@
6%)
8%,
(DS
cytogénétique
tombé
4,6%
l'od@@
d'hygiène
rubri@@
comportement.
utilisée,
vaginite,
hyperesthésie,
vasculaires,
mie.
rapportés:
encéphal@@
d'opposition
58%
pré
postnatal
ère)
attendue.
mortels.
47%
pied@@
dermatite
sécher@@
ax.
Kaplan-Meier
19,@@
fibrin@@
seul.
ga
protéine.
ACT
l'intensité
invasi@@
décev@@
R)
électronique.
fractionn@@
faibles.
endre
Exubera
surveillé.
120@@
l'end@@
perpétu@@
profondément
oprost@@
ome,
approxim@@
2,3
taille.
questionnaire
(N=@@
AX@@
onnés
SP
anormales
majeurs,
quotidi@@
fragments
traitements.
l'autre,
initiale.
s'étaient
thérapeutique.
en-dessous
alisations
16%
EXUBERA,
ei@@
galact@@
OPTRUMA
14,
(9@@
constipation
QUADRAMET
(thrombose
bêta@@
gau@@
cohérents
contrôlées.
90%.
5HT@@
exacerbation
511).
514).
505).
l'étude,
cin
l’évolution
LS@@
(équivalent
és).
l'all@@
lipoprotéines
simul@@
25,@@
zumab.
stitu@@
Tasigna
onze
établis
PROTEL@@
glucocorticoïdes,
l'oreille,
macrolides
clar@@
alin
maintient
Tél.
l’association
MB@@
(p=@@
1,3
compa@@
470
MMSE
x)
leucocyt@@
l'inclu@@
(15@@
(TVP)
déféri@@
néfaste
V/
n’apparaît
InnoLet
Actrap@@
perfus@@
CYP4@@
d’ex@@
commercialisation,
(0,9@@
AUTORISATION/
anémie,
vésicules
incar@@
plasma.
nodules
pseudo-@@
prescrit@@
anorexie,
ch.
pharmaceutique.
endos@@
Paris.
hospitalier
suédois
cherche
spécialisée
essentielles
l’EMEA.
vessie,
kaliémie.
allaite
immune
diarrhée.
d'erreur
g)
injection@@
identique,
lactate
passagers,
polyvin@@
fici@@
fini
escence
MR
laryn@@
sanguin@@
(E171)
soumis@@
d'entr@@
2000-@@
anticancér@@
cispl@@
bronchi@@
eill@@
meningitidis
AIRE
impossible.
excrétion
tram@@
liné@@
requis@@
multiples.
benzalkonium
périphériques.
GLP-1
augmentées
Spéci@@
anticancéreux.
actif(s)
auto-immunes
pancytopénie
Malin
Neuroleptiques
fice
hypertrophie
pru@@
Ras@@
Urtic@@
SS
adaptations
d’infection
traductions
apportées
bos@@
fondant
ISENTRESS
globule
cervi@@
EXJADE
mycophénolate
dia
d’œ
pioglitazone.
hostile
extrac@@
étendre
ventilation
contractions
nécessit@@
±@@
10,@@
préliminaires
conclure
déconseill@@
précises
apportent
138
excessives
paupi@@
dopamine
antiépileptiques
10)
d’interaction
ton.
évén@@
créatine
5.3).
HMG
multi-@@
étay@@
Oxy@@
sérique.
érythrocytes
ativement
Foscan
Chin@@
sauvetage
l’ac@@
sensibl@@
rite,
Web
H1
SUI@@
l'étiquet@@
te/
ocl@@
Aclasta
(médicament
appropriées,
involontaires
émises
conjugués
intraveineuse,
diagnostics
volumes
électri@@
refuser
LIS@@
duction
poumon@@
sec,
vaccins,
désignés
(ex.
proliférative
O-@@
acétyl@@
tyl@@
participé
mb@@
mique.
]).
demandeurs
BP@@
démarche
d'asthme
exac@@
intracrâni@@
q.
confidenti@@
anormaux
habituelles
transfusions
gastriques
57@@
successi@@
macr@@
antirétroviraux.
itude
ellas
Tel:@@
grammes.
estérase
l'adaptateur
protégée
ENT
l'adulte,
oth@@
lorsqu'elles
Stevens
transitoire.
Dyspepsie
Phén@@
préparation.
vaisseaux
exe
issu
Dublin,
détenteur
ire@@
VE
placement
Disponible
d'humidité
apparent
hormonaux
Corpor@@
AVE@@
oct@@
pertechnétate
exa.
coccidi@@
d'évaluer
ribavirine)
(CE)
m)
guid@@
mg@@
m2)
postopérat@@
Irrit@@
alentours
thoracique,
IN
UT@@
dl@@
(U@@
DU@@
rendant
semestre
É
coagulation,
orthostati@@
rhin@@
l'arrière-@@
Guadalix
chanti@@
d'air
échantillon
rachi@@
adhésine
ac,
feuille
SL@@
uk_medinfo@allergan.com
6900
.com
eux:
bêt@@
lumin@@
aux:
allergiques,
10-@@
récidive
sudation
eczéma
masculins
l'appétit,
infections,
spas@@
osité,
l’intérêt
H).
émerg@@
foi@@
nasal
métaboliques
14%
ils,
éro@@
rétini@@
ogèn@@
mâles
lipi@@
30-@@
jac@@
matériau
aisse
γ@@
ad,
Elimination
canarypox
recombiné
ocytes,
capt@@
Nations
(30
cysté@@
faiblement
suit:
raid@@
fiabilité
pandémie.
Bureau
kil@@
européenne:
exprimant
(contenant
provi@@
suspendu@@
suspendu
établissement
(LMR)
-Strasse
°
asse
demandé@@
d'actions
argument
citabine
ile.
phénylalan@@
tini@@
nour@@
septicémie
antidote
Kin@@
se)
définitivement
persistantes
dépist@@
impérativement
instau@@
traumatisme
pera
ibuprofène
Savene
tuberculose,
(deux
simultan@@
l'ob@@
d'inf@@
insecti@@
légère,
commençant
sui@@
ci-dessous).
sclér@@
IRM
d'allaitement.
450
CoAprovel
GAR@@
VOUS
encre
limitées,
domaine.
pidra
fère
nerveuses
connu@@
l’allaitement
RELISTOR
terminal
dégra@@
atmosphère
protec@@
équilibr@@
certification
otide
consacr@@
hydroxylation
naturelle,
d'intoxication
conscient
suspen@@
dren
préco@@
abaisser
revanche,
277
pot
temporaires
érée
intégrée
zy@@
d'hydro@@
dénomm@@
la.
0,2%),
Leu@@
lob@@
Stylo
l'estimation
filgrastim.
410
Nacional
progest@@
es/@@
semblables
Neisseria
souffrir
ile
MIN@@
diss@@
esthési@@
muqueuses.
ept@@
(S)
06@@
Etudes
mol/
décarbox@@
métastati@@
photosensibil@@
035
050
BIOSET®
SERINGUE
153/
30/
78
Neopharma
2.5
95/
Gem@@
isolé
silenci@@
sè@@
tétracycl@@
SK
lymphoblastique
NU@@
Tchè@@
limpide,
glut@@
d'albumine
étin@@
hex@@
silicon@@
réplication
réfractaires
rand@@
Tηλ:
nul
-v@@
FABRICAN@@
300@@
2NG
myalgie
enfon@@
ez:
shire
dation
fécondation
hémodialy@@
ina
FER@@
félin
Cy@@
cle
Vig@@
enlev@@
(HDPE)
VER@@
formation.
Règlement
Formation:
politiques,
FOSAVANCE
glomérulaire
nir
Cour@@
ated
tabletten
D-60318
Frankfurt
(0)69
1503
Ísland
fongiques
l’oreille
indéterminée
ophilie
post
soudaine
mos@@
+421
accent
dification
225
vert@@
EM@@
NEU@@
Bulgar@@
imit@@
Bulgarie
(100@@
relevant
inchangée.
autorisation,
prescriptions
sulfonylu@@
fér@@
synthétique
ococ@@
Grâce
nul@@
Jean-Louis
Hist@@
Gross@@
placent@@
Rubrique
explic@@
onnes
TAXOTERE
itation
Allemagn@@
chal@@
los
Bon@@
EI@@
pulmon@@
neuropath@@
cérébrale,
Phili@@
estr@@
précisera
administrer,
Gro@@
phy@@
dihydrop@@
diphtéri@@
(réaction
iné@@
mirtazap@@
périphéri@@
Ibraxion
objectives
distinguer
acceptable,
d'Alzheimer.
messag@@
dopamine,
budgets
œil.
ec
antigène)
continuer@@
tumeur.
poursuivre/
insulines
permanence.
han
cerveau.
achevé
couper
subissant
orang@@
ci-dessus.
Organ@@
vite.
entre-@@
sexuelle.
prescription.
Warfarine
HCT
antibiotique
transportés
TNF
l’homme
l’ag@@
EST
bomb@@
convainc@@
simples
radiothérapie.
magnésium
protéase
sus,
Paxene.
ole.
survie.
classification
brutale
eut
diuréti@@
séquence
crédibilité
généralement.
Suè@@
multiplier
ava
moiti@@
biologiques.
lamiv@@
haut.
conservateur.
métallique
bactérienne
empois@@
REACH@@
sc@@
lot@@
PRI@@
bimatoprost
compil@@
cités
chapi@@
protons
NF@@
ating
tez-vous
merc@@
Insérer
tions@@
PS@@
suffisantes
Pugh
id,
autorisation.
Observ@@
AUTRES
delta.
Lapp
TRO@@
l’aptitude
cyclique
opération.
Jo@@
ithromycine
Lundbeck
Jalra
ø@@
Jan@@
embre
stanti@@
décolor@@
ova
421
soir,
STR@@
BER@@
BA@@
ferr@@
Lang@@
jection
facilite
exprimé
el:
Bien
main-@@
Farma
doublement
résum@@
cée,
guérir
composante
remplacée
m²
modifiées
cohérence
fibrine
alumini@@
antivirale
Salmon@@
cuve
tôt,
enregistrées
30°C.
ération.
décision,
portait
connus.
PegIntron.
sorbit@@
fentan@@
yl,
prudence.
satisfait@@
d'expl@@
harmonisé
quer.
site.
azole.
l’âge
doxazosine
métabolis@@
genou@@
(Amplicor)
placebo/
tenus
séroton@@
transplant@@
d'hydr@@
vidéo
salles
séparer
-2-@@
β@@
experts,
naloxone
tabac.
astr@@
programmation
hique
énum@@
gér@@
continuellement
terres@@
ovo@@
écarts
(exemple:
(inhibiteurs)
lorsqu'elle
oto@@
bloc@@
prochains
troupeau
concernées.
gri@@
échelles
spécialisés
potassiques
field
établies
leucopénie
amide,
d'où
Autriche,
SE
vivante
ney
libérant
chant
respiratoires.
examen.
+371
Mir@@
bes@@
tiré
brom@@
célé@@
gence
Sandoz
examine
finales
ocri@@
antérieurs
existants
l'accouch@@
TAP@@
touristes
spectrométrie
l’Europe.
entamé
tête.
révisé
s'arrê@@
protection.
d’avoir
wi@@
alizumab
rapporteur,
-C@@
(plus
renforcée
verticale
ancienne
tente
érations
Manipulation
Matériel
Médec@@
parten@@
exercé
Croh@@
calculé
notable
l'hy@@
prest@@
arrivé
l’application
paille
nuclé@@
sous-groupes
remplie
era,
exil@@
dire:
élargi@@
Pir@@
réflexi@@
débou@@
déterg@@
fœtal
classés
volailles
grais
d'Insulin
concernaient
phénothiazines
aromatis@@
augmente.
program@@
dres
annuels
émanant
jus@@
associés,
indiquées
assuré
direction.
profiter
seul:
atifs.
équipes
calendri@@
procédés
ante-@@
intentionn@@
nées.
cong@@
pond@@
l'héparin@@
EXELON
vert.
minuti@@
oxaparine
sing@@
inspections
l'instillation
dés,
conscients
usées
parvovirus
compte.
hémoglobine
optimal@@
anti-allergique.
complet.
absents
traduc@@
hauts
appu@@
prolongation
d'enregistrement
66@@
rent
ints
pilot@@
scolaire
ments,
estri@@
vues
appartiennent
atique.
choi@@
traduire
inquiétude
équ@@
spécialiste
atrices
énergéti@@
avertissement
soutenu
international.
températ@@
reconstruction
tron@@
métabolique/
redistribution
pris,
médical.
accordé
itures
hypothèse
FRANCE
inten@@
criptions
propri@@
boug@@
effectuent
conseillée
prospec@@
relâch@@
virus.
Cependant,
tien
Maîtrise
ades
Wal@@
durablement
Pen,
théori@@
Meill@@
froid
Pet@@
Estonie
god@@
trez
relevé
complète.
réuss@@
vô@@
sortira.
ler@@
e-mail@@
ands
oll@@
Normalement,
expliqu@@
travail:
by@@
mécan@@
foy@@
endommagé,
oit@@
bien-@@
énergétiques
adéquate,
sol,
Pel@@
grasses
s'ajouter
gmentation
351
derrière
cache
diversi@@
Présentation
perc@@
taille,
d’ag@@
erron@@
arômes
SPOT-ON
CHIENS
tari@@
Prati@@
VETERINAIRES
ECHEANT
emploi@@
Mad@@
acul@@
Purevax
an?
rop@@
RAS@@
ich
dur
Réduire
minutes,
haus@@
Retourner
Sept
subsist@@
apparaî@@
engendrer
présent,
entreprise.
produira
besoin,
s'impos@@
Sinusite,
non@@
éprouv@@
voudr@@
(HAART),
s'amincit
s'épaissit
ète,
Sem@@
unanimité
scientifiquement
Wor@@
Bell@@
méditerrané@@
Tir@@
Sanderson
1DH
ath
conc@@
réflexion
troupeaux
tées.
mémoire
cigarette
électricité.
unilatér@@
car,
d'au@@
ès@@
utile,
excessif
concili@@
pansion
famille.
présent.
stratégique
entraînerait
Veill@@
quill@@
Var@@
flou@@
l’infection),
l’oxygène),
peu,
fort@@
tenter
nocive
économique.
démograph@@
l'uranium
déser@@
sondages
polonais
"Les
accroissement
poiss@@
jouent
l'identité
rages
l'atmosph@@
portés
pers@@
équitable
visent
récupé@@
chimiques,
distances
environnementales
sû@@
mailles
brev@@
iver
règlement,
coupa@@
raisonn@@
demeurent
citoyens.
côté.
contradict@@
sûreté
là?
ent!
tracteurs
trafiquants
trains
certi@@
mourir
s».
esprit
musi@@
lead@@
troupes
poumon,
dirig@@
4/@@
obti@@
territ@@
œu@@
épouse
aussi.
onér@@
portes
barbarie
publique.
technologi@@
falsifi@@
inond@@
vet@@
journalis@@
án
solidarité
directeurs
subvention
vote,
réalité.
valoris@@
beur@@
gratu@@
aérien
mafi@@
bureaucratie.
charger
précis,
Zimbabw@@
montagne
demi-million
dictature
d'affichage
somb@@
célèbre
racon@@
alphab@@
incroy@@
crimes
pensions
budgétaires
douani@@
d’euros.
rémuné@@
nouv@@
j'en
révol@@
bran@@
fleu@@
on"
territori@@
droite
end
vallée
ation!
demnisation
lui,
cyber@@
Zimbabwe
importation
tribun@@
commis
lourde
l'Union.
parent
Amnesty
montants
appauvri
l'ESB,
ennu@@
encor@@
veu@@
démocratie.
francs
faire@@
Améric@@
Kh@@
ez-vou@@
réchauffement
l'ON@@
OGM.
trouvée
répondu.
résolution,
Cambo@@
vin,
ainsi?
vieill@@
défens@@
région,
pesticides,
musulman@@
côte
adviendra-t-il
L'extension
dérogation
Soud@@
ami
paradox@@
parlementaire
lourd
futur@@
règne
L'idée
élector@@
ails
L'image
décourag@@
couvert
parc
it?
régions,
d'ESB
maîtriser
clause
victoire
rémunération
morts.
siècles
cadmium
avenir
L'inflation
crise.
tous.
fruit
modifications.
or,
quoi,
patri@@
L'internet
carburants
n’en
réfu@@
2010.
l'ass@@
biocides
relance
compétitivité
circons@@
dangereuses,
importantes.
occupation
mondial.
région.
responsabilité.
evoir
législation.
bombar@@
Assemblée
Io@@
donc@@
formulaire
carbur@@
immig@@
protestations
coupable
gérer
britanniques
demandent
essentiel,
èrement,
victi@@
enlè@@
rencontre
allez-vous
Hongr@@
énormes
strictes
quasiment
incul@@
rien,
atisation
Adam@@
attentats
Nap@@
Madam@@
Moham@@
atti@@
pense@@
nullement
tière
cigar@@
ls@@
assortie
qu'est-ce
eusement,
partie),
course
navir@@
(M.
paroles
agriculteur
incidents
ski,
réaliste
Moins
bh@@
motion
présidence,
dévas@@
lament@@
sollicit@@
perspectives
journaliste
Bosni@@
Conse@@
voté
cée.
Stre@@
faisons
distr@@
européenne?
permettez
pouvons-nous
u?
votants:
fragment@@
British
incinérat@@
terroristes.
empêch@@
l'accent
transmissi@@
l'inflation
gens,
millions,
perdus
oublie
admettre
service,
obtiennent
euros@@
proposée.
Pensons
Peut-@@
incendi@@
/2005)
exportations
reste,
d’abord,
al?
mes?
Qu'
Quiconque
Quid
(A4-018@@
(A4-037@@
(A4-038@@
(A4-01@@
3/97)
Tandis
Plads
RIS@@
SEN
bronchite
envisagées.
sachant
diphtérie,
CONST@@
ferez
réduit.
92%
1,0%
2%,
méthadone.
classes
dysphagie,
conjugué
poursuivis
ion.
Trizivir,
tonie,
dité,
stri@@
d'hémorragie
particuliers
gastr@@
0%
hosti@@
colère)
chiots
postnat@@
comparateurs
lymphatiques
oïdes
convertie
triphosphate
descendance
4.6).
complication
caractérise
thor@@
l'ef@@
périm@@
cinétique
faiblesses
glucocorticoïdes
d'extension
aprè@@
détruites
l'inflamm@@
modéré,
Flebogammadif
apl@@
paliers
randomisation
surcroît
tremblements
l'isol@@
entou@@
42%
lancé
Evoltra
Cubi@@
d’évaluation
desc@@
anaphylacti@@
suspectée
développés
extrême
néphr@@
vir,
l'intégr@@
M-@@
leucocytes
cade
transparence,
Dir@@
fatal@@
invalid@@
(h@@
extrêmes:
catar@@
133
survenues
comptabilité
topique
9).
1,25
franchie
progress@@
douz@@
poumon
travasation
int.
proportions
ophtalmique
montrée
réalisées,
inhibé
ventricule
rasburicase
stable.
hétér@@
épisode
indétectable
pneumonies
Ketek
néo@@
mes)
endémi@@
1.530
stand@@
dépendants
d'azote
classiques
ine).
analo@@
consolid@@
IR@@
l’activité
cérébral
noradrénaline
gras,
olyse,
(ASAT
56,@@
1%.
09
principale.
1.200
conse@@
lipides,
A),
Comm@@
calicivir@@
870
Forsteo
diminuée,
vitr@@
Luminity
tipranavir
Protopic
Zev@@
desquamation
Kno@@
millimètres
IDflu
ci-dessous)
l'AUC
nourrissons,
l'atazanavir
s'étant
radiographie
l'étude)
185
Vietn@@
occlu@@
144
NG@@
EVR@@
optimisation
0-@@
ales;
maternelle
ogéni@@
inos
dale
dirigé
HDL-@@
AF.
reproduction,
Actraphane)
Mixtard)
Penfill
rimonabant
YENTREVE
24%
la,
25)
6),
véhicule,
UD@@
exact
inactifs.
equ@@
AUTORISATION
EMEA/@@
illet
__
__@@
prentissage
produire,
picotements,
sine
tilité
sept@@
biotechnologie.
fiées
bilirub@@
hépatot@@
oxiques
irritabilité
euph@@
Service
pédiatre
département
rejoindre
chercheur
rish
ICH@@
espagnol
Efficacité
1,0@@
étravirine
cular@@
ospit@@
façon,
manière,
ariat
renvers@@
ez-le
curar@@
(c'est-à-dire
oppression
TION
net
l'emploi.
pigment@@
oculaires,
photophobie,
Autriche
concomitant
bisphosph@@
décurarisation
centrales
reçues
cobal@@
soleil.
clam@@
d'affections
IMAO.
préal@@
ET,
hyperglycémie
évités
ration@@
'-@@
échéant.
convulsi@@
(traitement
fiant
zol@@
cavité
cien
anormal
tolé@@
dra
otiques
(RCP@@
tableau.
connue,
impacter
lente
relâ@@
E2
1-4@@
Depuis
gio@@
ement),
otoxicité,
(SMN)
inclure:
bradycardi@@
anaphylactique
exfoli@@
sueurs,
herpès,
contusion,
aberrations
fournis
résistance.
l'imagerie
]-@@
érythropoï@@
leucopénie,
leucocytose
opéni@@
post-commercialisation
leuco@@
érythroblastopénie
Aranesp
susceptibilité
blocs
ellul@@
spéciaux
établis@@
RT
28,@@
cytomégalovirus
tolérer
idine
aéros@@
recommandées.
déliv@@
pneumonie,
isse,
incluent:
SEP
rehaus@@
gadolinium
39%
rapporteurs
phosphokinase
(CP@@
4.4),
hyperuricémie,
glycémie,
CoA
résultats,
glucosamine
demi-vies
poursuivent
Zenapa@@
bactériens
161
vec@@
formations
isé.
ée),
gastro-entérite,
(EMEA):
AUX
re/
Celgene
lumirac@@
alcalines,
5.1)
l'exclusion
attribués
dent@@
s’avérer
Viracept
prélèvements
saignements,
établi.
1:
osine.
72@@
croisées
organisées
profess@@
nationales,
pot@@
aiguë.
insomnie
bénign@@
ogène,
d'urin@@
hépatique)
aboutissant
(GIS@@
Dét@@
constituants
consommé
chargés
msd.
cuillères-@@
Barcelone
continuité
Dévissez
poid@@
aprépit@@
Sci@@
situées
appéti@@
généralisées
insuffisamment
Johnson,
langu@@
dinavir
Efavirenz
ï
dig@@
nasal,
aiguës
vasodilat@@
e):
fru@@
totale,
traitement:
plaquettes,
phosphatidyl@@
Trinity
Berlin.
l'Institut
Dun@@
....@@
dam
catalogue
sous@@
[99mTc]
Acti@@
Hépatite
estimer
olyse
ètre.
d'entreti@@
en)
(UI/
veine,
darifénacine
nausée
az
abondantes
hématurie,
musculo-squelettiques
dix-huit
Organisation
GR-@@
ari
IMAO
qualit@@
hydroxocobal@@
travoprost
phénytoïne
apportée
l’injection
flacon:
UTILIS@@
éosin@@
mam@@
sie@@
genci@@
vite,
sophage
opharyngite,
sinus,
ales:
flement
éternu@@
848
º@@
(ES@@
orth@@
T:
attendus
immat@@
F4@@
d'alumini@@
KFT.
filiaal
estonia@gsk.com
gsk.
Järvevana
EE-11314
States
613
328
gatan
230
177
š
Efexor
hallucinations,
citation
états
rouill@@
ESS@@
aty@@
d'engourdissement
augmenté,
règles,
taches
désordre
pneumoni@@
grippe,
classe@@
1000):
bruy@@
insensibilité
debou@@
Tremblement
emtricitabine
il)
QUE@@
larmes
oculaire.
gués
cornéen,
(inhibiteur
HMG-CoA
fulvestrant
ques),
B-1180
Gly@@
1400
gas@@
idur@@
sulfat@@
hypokaliémie,
aiguill@@
usagés
éliminée
Excipi@@
pulsion
contient:
dant
InnoL@@
protéines,
exerçant
souligne
consommateur@@
stipule
Mun@@
prodi@@
présentant:
occupant
1986
projets,
informatiques
(TI@@
représentation
1993,
audits
3;
capé@@
d'UI
tionnaires
l'insuline,
congel@@
11%
corticostéroï@@
ées@@
malaise.
l’an@@
médic@@
(selon
l’eau.
´@@
informez
persistant
arrêtée
inactive
approprié,
tubercul@@
sangl@@
arrêtée.
attribuée
achi@@
pension
stop@@
AN,
me),
recomm@@
lithi@@
aly@@
Intr@@
fractionnée
avertir
])
événements,
Tolérance
Direc@@
cardio@@
Noti@@
termes,
blessure,
basses
portug@@
l'aiguill@@
(glycémie)
Zavesca
spécifique,
LH
adulte.
d'alcool,
l'interfér@@
gonadotroph@@
rhabdomyolyse.
botu@@
bébés
nourris
rénal@@
optimis@@
potentialise
deuxi@@
catabol@@
l'endroit
rendement
correction
asepti@@
pril@@
moral
flanc
co,
QU@@
ab.
goutte-à-@@
lots:
Eru@@
peau@@
sar@@
ocrite
alimentation.
one)
Estr@@
module
bénéfic@@
présu@@
IX,
écraser
ultras@@
acqu@@
ermin@@
cogni@@
MENTIONS
PRIM@@
second@@
obligatoirement
---
internationale,
appli@@
nettoyant)
solvant@@
038
292/
293/
EU/1/06/344/00@@
354/
421/
EU/1/08/464/00@@
EU/1/08/465/00@@
2b
tée.
Aff@@
environnemental
cardio-vasculaires
Grade
†
hypovolémie
hypotension,
Éviter
pipette.
er).
chaud
fesse,
libère
hormonal
ská
reconstituée
Posi@@
(E420),
425
malt@@
histidine,
dihydrogéné
aro@@
intégralement
soja,
rép@@
chimiothérap@@
tivité,
invasives
othérapie.
GR@@
ey
Avda.
28108
Dam@@
strasse
Tre@@
Pot@@
Havant
PO9
arthralgie,
myos@@
Faire
Wilson
gliss@@
chon
confirmée
ar,
asthénie
800@@
Som@@
Flu@@
immunité
................@@
(≤
onnet
bilité@@
prérempl@@
LOR@@
449
conçus
cob@@
protecteurs
dées.
complète,
City
USA
esp@@
FOR@@
membre,
expertise
accélérer
Activelle
ana@@
78163
TAR@@
thyroï@@
endront
♦
opharyng@@
Gadovist
territoires
eck
North
SK-8@@
assomb@@
chaus@@
etc.@@
Gy@@
inférieure.
AR
conventionnelles
aver@@
Contre-@@
BEN@@
suppl@@
mesuré@@
stre@@
ida
et-@@
ribavirine.
GLU@@
ke
0,75
musculo-squelettique,
complic@@
Carr@@
standardis@@
mamm@@
Alt@@
(CHO)
SCH@@
l'Ag@@
nes@@
cyan@@
artère
opti@@
)*
quad@@
entations
parentérale.
maturation
Ho@@
adine
idd@@
etc@@
kinésie,
Chinois
dérivée
formaldéhy@@
0%)
d'hormone
généri@@
sauvages
IgG@@
ures.
suspensions
jugé
ale),
Kaletra
dissoci@@
1989,
1%),
palivi@@
amines
porcin
radiomar@@
trope
d'information.
recouv@@
conformer
sives
incolor@@
d'oxygène
tait
SIS
Cholestagel
entraînera
portaient
piqû@@
000.
souple
Sau@@
périodiquement
positifs.
financé
reçoive
compétition
ade.
d'Aldurazyme
PER@@
ultérieur@@
journée,
médicale,
l'obésité.
d'envisager
d'épilepsie
grave)
HBe@@
extern@@
COX@@
théorique
d'exposer
alcoolisées
noci@@
procurer
obésité
s'appliqu@@
able)
clastogène
pertinents
plasti@@
d'OPTISON
identifiée
9,9
onde
passez
s'agissait
transforme
logique
semblerait
deviez
jusque
tionnaire
médicin@@
coupés
désagré@@
cloque
prén@@
tétan@@
ultéri@@
miction
mg/ml,
Mé@@
naturel,
grandi@@
corri@@
ométrie
forum
cathét@@
suspectée.
(23
Humaine
d'Aerius
10.
202
l’une
μ
d’Avonex
totale.
thèse
ave
OPHAR@@
CONSERV@@
anidulafungine
ajustements
caux
dyspnée,
déférasirox
OptiSet,
D'AUTRES
expéri@@
LIF@@
inférieures
l'acétylchol@@
l'imatinib.
intermédiaire
ε@@
p.@@
mac@@
DH@@
adul@@
em
venue
ki,
JAN@@
tchèque
mad@@
Téléph@@
comprimé,
l’homme.
analyse.
responsabl@@
L'absorption
cause.
mobilisation
me:
52@@
écl@@
reconnue
actuellement.
opérationn@@
facilité
lancement
ondes
gest@@
substantielle
ised
2000.
Limit@@
imposé
ainement
d'Aclast@@
cation.
valnémuline
irréversible
d’origine
détérioration.
femme.
le:
d'i@@
multiplié
adé@@
amélioration.
pompes
d'EXUBERA
périphérique.
d'É@@
J,
limitant
kilo
5,0
électriques
capture
Puregon
Pom@@
gam@@
électroni@@
participent
située
front@@
l'addition
demeurer
évitant
dien
fournie.
dissoudre
posant
L'alcool
intensifier
soulagement
endogène
phlé@@
avancée
aspect@@
dée,
l'extéri@@
Parkinson@@
riluzole
Tabletten
modeste
l'âge,
priorit@@
comptent
senic
manifeste
pertinent
l'An@@
antigène
ation-@@
intensif
ciel
connues
espè@@
influenc@@
recueillir
médico-chirurgicale
autologues
endogène:
accro@@
humide
poussée
L’apparition
secondes.
iques,
l'étendue
quotidien.
tâ@@
revendi@@
rigueur
UV@@
microgrammes@@
sigraft
réalisés.
réduite,
l’usage
restauration
rifabutine
L'arrêt
détectée
4.2,
201
Slovaquie,
Fe@@
ill
mni@@
(facteur
eptotermin
nos@@
placée
investigations
aboutit
médical,
dégénér@@
illicit@@
L'atorvastatine
humaines.
pylori
Bauskas
ga,
LV-1004
Rig@@
effici@@
osyl@@
gouvernementales
proposition.
exigé
row
laboratoire.
gain
prématuré
psoriasis
institutionnel
Vent@@
restes
("@@
jugement
suspendre
compose
marchés.
Juli@@
{fax}
(p.
participant
rejeter
L’effet
hydroxy-@@
TAC
antimicrobi@@
cémie.
desquelles
Bab@@
préval@@
propriétaire
RILUTEK
(analyse
vitro.
transformé@@
intermit@@
grou@@
formuler
logo
ada,
Londres,
abond@@
interférons
agement
tass@@
gélatine,
noir,
éducatif
crucial
application,
âgé
vall@@
pair
notam@@
Chil@@
visiteurs
équivalente
préciser
intra-oculaire
origine.
tiendra
communautaire@@
(CO@@
s’y
échecs.
contaminées
nal@@
écras@@
séc@@
posés
d’am@@
impliquent
BN
détail
souhaité
vraisemblablement
céphalées.
l'alimentation,
perturbations
complets
circu@@
étiquettes
détr@@
secondaire.
amput@@
batt@@
(particulièrement
décoll@@
impu@@
expérimentations
embryonn@@
lai@@
713
HY@@
(utilisées
dysfonctionnements
Héparine
locale,
sim@@
(abdomen),
scrupul@@
6.6).
aves
gur@@
toi@@
lett@@
B19.
l'As@@
libr@@
l'occasion
soulevées
rayon
(SHO)
transporte
hydratés
pondérale
améliorés
moyenn@@
rétinopathie
aut
l'observ@@
détruits
glucidiques
VEGFR@@
renforc@@
alé@@
cées.
estimés
suspects
pédi@@
passif
collecter
répertori@@
explications
d'éléments
otox@@
omatique
continu.
750@@
d'hépatomégalie
retire
TVA
l'Al@@
techn@@
sap@@
liquid@@
confirme
l’ordre
L'évolution
inflation
93@@
stat@@
administratives
commune.
intégralité
résou@@
":
114@@
l'absorption.
plantes,
médicaux,
opportunité
bres.
envoie
positif@@
contrôlée,
frais@@
courante
(hyperglycémie),
+40
xi@@
Vertig@@
M.@@
s.r.o.
mentaux
fort,
Κ@@
12,5
insuline-protéase
PRODUITS
financiers
portez
(Norge)
Mus@@
jun@@
Nau@@
omètre
éveill@@
nag@@
oublié
N'injectez
l’expérience
890
da.
près,
facial,
allonger
conduct@@
fines
droit.
montée
remplacé
administrative
paragraph@@
cer,
voie,
Vomissements
gou@@
SUL@@
extrémité
Basingstoke
adéquats.
ESPÈCE,
39,
concl@@
fuites
succès,
dysenterie
d'informations,
rez-@@
bar
PPE@@
MÉDICAMENTS,
VETERINAIRES,
ko
caractérisé
els@@
Hus@@
Prob@@
m'administrer
ro-@@
im
actualis@@
anou@@
objet@@
n’hésitez
din
ş@@
mo
infra@@
Berl@@
l'inform@@
difficiles.
nourr@@
prévue,
intitulée
emplac@@
remar@@
hôpital,
n’avez
répondez
Slovak@@
Tris@@
princi@@
mondial,
mentale
cus@@
écart
minu@@
tel.
West@@
Tot@@
dangereuse,
admissible
manque.
casse
négatives
permettront
dam@@
ception.
war@@
fumée
consent@@
sémin@@
domestique
sous-trait@@
automobiles
lot
approfond@@
communication,
enlevé
Veillez
Vers
parvenu
apprendront
montrera
normales.
passé@@
ablement,
constaterez
récupérer
cer
lendem@@
produis@@
Bur@@
Irland@@
elles-@@
polici@@
privée
abord@@
budgét@@
maisons
paraî@@
Eurobaromètre
biodiversité
d'Alzheimer,
indispensables
lass@@
épouvant@@
imposées
ingér@@
partout,
parfum@@
supermarchés
juridique.
PNR
attr@@
crim@@
Kosovo
acquit@@
portation
étouff@@
l'avortement
allemand,
tués.
ingéni@@
"de
textiles
cepend@@
nature,
russe
toxicomanes
bureaucratie
pénalis@@
d'importants
trajets
dizaines
cer.
société.
inondations
routes,
financés
l'étrang@@
kov@@
dessin@@
psychologiques
antaine
ha@@
hore
Sud
champ@@
aniens
refus@@
régn@@
opérateurs
jeu.
communautés
autorités.
pénurie
fier@@
cadavres
évidemment,
ridicul@@
automobile,
actuel,
camp@@
interopér@@
compromis.
autrefois
fonde
requise.
regar@@
judiciaire
police,
musulmans
réput@@
actuellement,
digitales
portu@@
défavoris@@
montagn@@
ant!
cannab@@
tenté
État-@@
serre
Fonds
abeilles
sociaux
attribuer
donc.
montagnes
écrite(@@
seign@@
négociation
paraphraser
réelle
proclam@@
précis.
mains.
reviendrait
d'échange
éthique
provient
blessé
bêtes
carcasses
d'entrer
siècle.
scénari@@
concerné.
rapatri@@
taire
d'accéder
opérer
courage
dégag@@
er»
d'ol@@
habitants.
vieille
assiste
individus,
Jean
Sain@@
prétendre
enfer@@
américain
s",
retrouver@@
matin,
Mas@@
rumin@@
vendeur
voi
clients
combl@@
libéré
terrible
déboucher
voyez-vous
whisky
d'asile
Iran
L'exigence
tachygraphe
délicat@@
prouver@@
l'instar
échec.
Rw@@
vor@@
trace
importateur
travailleurs.
m’a
trompeu@@
qualific@@
tinction
ophobie,
concurrence.
L'harmonisation
fête
mirac@@
l'humanité
combustible
Ky@@
mer.
d'embryons
Ken@@
Europa@@
ence!
devrions
ège.
institutions,
désarm@@
alban@@
demn@@
L’industrie
Mandel@@
radioactifs
sûrs
voudrait
bataille
barom@@
iste@@
internet,
Turquie
billets
agne.
engendre
loi@@
irréalis@@
soi,
humili@@
septembre,
zz@@
s’en
l’énergie
etc.,
que-@@
140@@
profil@@
transformer
portail
L’on
dollar@@
Tch@@
l'islam@@
ă@@
consommateur.
avais
l'époque,
proposition,
genre,
dévoi@@
félicit@@
èg@@
belle
législative
productivité
football@@
mis,
pots
atteignent
magas@@
endus
dépu@@
commencer,
œuvres
preu@@
textil@@
climat
prisonnier
temps!
doit-elle
légiti@@
tonnes;
file
convaincre
l'Europe,
empêché
che-@@
congrès
Lundi
chocolat
remarques
satisfait
démocratie?
Kos@@
travail?
emploi.
bombes
1999)
excuse
parol@@
ête.
sall@@
Assembl@@
résultats?
objectif@@
langage
ège
peine.
approfondi@@
ra-t-on
inég@@
access@@
Majorité
animales.
revê@@
kilomètr@@
outi@@
Blokland
essayé
wman
pays@@
Méfi@@
massacr@@
Russie
morceau
anni@@
sièges
Mes
municipal@@
Mettez
ski
all
automobil@@
censés
Schul@@
applaudissements)
renon@@
porte-@@
Naturellement,
consisterait
gł@@
bénéficiaires
croyez
années?
prix,
N'est-ce
libre-@@
audr@@
intérêts.
ag
Eor@@
refusé
concrètes
Serb@@
l'export@@
from@@
citoyenneté
légumes
pourrions
créée
l’affaire
tez,
minute,
viande,
soi-@@
kilom@@
"non@@
Tchernob@@
l’avez
ès.
Ou,
devraient-ils
Oui@@
flotte
Paradoxalement,
laiti@@
gouvernements
récentes,
pneumatiques
se!
paquet@@
débat,
Permet@@
diront
-t-il?
tes?
veut-@@
départ@@
terminer,
Pouv@@
Proposition
abordées.
Qu'attendons-nous
Qu’entend@@
Qu'est-il
9/97)
Médiateur
(A5-012@@
2/2000)
(A4-015@@
9/98)
(A4-010@@
4/2000)
(A5-005@@
Katiforis
5/97)
Sachez
S’agissant
Souvenez-vous
Tá
Kay
Fiskers
Serono
eru@@
zidovudine,
evi@@
poursuivie
tétanos,
LeukoScan
lopin@@
notes
apparaître.
(RVP)
conditions,
coron@@
l'immuno@@
genou.
carcinome
courtes
37%
ouvert,
(DS)
IF@@
névirapine
pron@@
ologue.
initiale,
(telle
folliculaire
hygiène
veines
FSH/
ophie
mém@@
névr@@
palpitations,
Guill@@
encéphalopathie,
H)
-1.
affectées
antidépress@@
péri
2300
possibles.
pics
rix,
auditif
fourchette
d'équilibre,
Hum@@
déficiences
articulaires,
stéroï@@
(ACTH)
acept@@
Humi@@
11,
consacrée
tan
aques
eurs)
alis
détresse
nerveuses.
système,
ventil@@
raccour@@
cissement
désirudine
molécul@@
SMD/
heure)
PA
(en@@
l'adhésion
VICH@@
domain@@
isants
Transfer@@
iloprost
(7,@@
sain,
aminotransférases
lymphatique
hallucin@@
(1-@@
Allaitement
Thelin
durable.
l'érythr@@
prolactine
umab,
700@@
fixe,
(25
obès@@
contrôlées,
pédiatrie,
FABLYN
bêta-bloquants
actions.
nal
0,4%
Valdox@@
bron@@
triction
SonoVue
méthotrexate,
antagon@@
CYP2B@@
dopamin@@
histaminiques
acerbation
nith@@
carbam@@
4ème
atine,
pneumo@@
X.
ons).
5-fluorourac@@
31%
FL@@
verté@@
Cmin@@
respectiv@@
hypoli@@
Ci@@
DM@@
Herceptin
HP@@
2,3%
grades
fel@@
1%,
thromboemboli@@
Kep@@
l'alendronate.
2,5%
d'ADN
ce:
testicul@@
résiduelle
clopidogr@@
eline
nez.
(inflammation
mois;
allergie,
normaux.
gE
8%)
ranitidine
chromosomique
apamuline
pans@@
sif
urie.
aminotransférase
cystéamine
émergentes
hypertendus,
fertilité.
maternisé,
(3%)
rayons
chut@@
112@@
0,02@@
naissance,
action,
répondaient
pes.
nuit.
21@@
CPA
(comprenant
éph@@
79
ard)
7).
(valeur
magné@@
dex@@
intermédiaires
d'aliment
sucré
goût,
mach@@
Safety
détails
approbation
rier
follicul@@
Agener@@
grippau@@
Kaposi@@
hypotension.
fistule
0,1%
Pur@@
1985
assistant
rass@@
Rome,
Abadi@@
vétérinaire,
National
1988
oxic@@
toxicologie
impliquée
coordinateur
capuchon.
vidéo@@
chimiothérapie.
s'accumulent
majeur@@
4.8)
angine
estomac,
DÉ@@
EUROP@@
ménager
modéré@@
métrique
froid,
vement,
macrogol
passive
redi@@
l'épithélium
uvé@@
conjonctiv@@
H/
l'épilepsi@@
T1
éma
T2
Cu@@
can.
done
azépa@@
Modi@@
(données
crire
eur).
extraction
avertissez
démarré
comptant
électrolytes
serveur
MAO
d'ostéoporose
amlodipine
itol
phosphate)
influenzae
tétanique
MEDICAMENT
AIRE@@
g-@@
)/
tise
préalable,
Atripla
citabine,
disoproxil,
(22%)
Ax@@
d'opération
ainsi,
GFR@@
l'infirmière
démonstr@@
efficacité,
glucagon
validé@@
hypercalcémie
CE50
actualisation
actualisée
qu'est
préparé
l'organis@@
maligne
Ny@@
comportement@@
PRM
insist@@
pathies
congénitales
hypersensibilité,
couvercle
Valeur
génotypique
och@@
tes@@
soumission
firmes
posées
délégués
extrémités,
détectées
immunologiques
l’exposition
hebdomadaire.
hémarthroses
d’augmentation
prétraités
lamotrigine
osante,
TEV@@
ecchymoses
asymptomatiques
fluoroquinolones
l'insulin@@
d'épilepsie.
Grou@@
pergillose
5%).
prélevés
pali@@
biochimiques
K103@@
TI.
pyr@@
l'aci@@
instillation
varicell@@
valdécoxib
anormalement
entrain@@
week-end@@
étudiées.
thal@@
1200
lissement
dies
dose-dépendants
intestinaux
Atri@@
INTELENCE
sement
tau@@
n'affecte
acétylsalicy@@
déplacer
l'albumine
ine-@@
l'anagrélide
compartiment@@
congestive
akinra
tin.
carnet
injecteurs
compatibles,
medi@@
inspecteurs
inspection
opr@@
kératopathies
ophtalmi@@
ciclosporine,
Thalidomide
réversibles
cheveux
référence,
corrél@@
phénomènes
reins.
d'amprénavir
notables
vital.
(44@@
saturation
gestationn@@
infliximab.
provisoires
centaine
Pr
LOCF
psychiatriques).
olyse)
engourdissement,
installés
hémorragique,
d'âges
estin@@
évacuation
enfre@@
classiquement
l'hab@@
ermination
botulique
-Str@@
évaluera
ms@@
d'émulsion
délavir@@
2002@@
auth@@
l’aiguille.
TOR
dip@@
sucré@@
europé@@
clobazam
et)
opique.
viez
02-@@
cauchemar@@
Difficultés
respirer
digox@@
étr@@
vasocons@@
spar@@
pieds,
Raptiv@@
urticaire
0,000@@
Intervalle
se;
Dim@@
exceptionnelles.
ge.
faculté
instances
Thom@@
disease
styl@@
ophor@@
opsie
potassiques,
potassi@@
diriger
ick
Docteur
oug@@
de(s)
567
MACEUTIQUES
gastro-intestinal,
ATIVES
REC@@
È@@
1,9
37,5
Tension
Alexand@@
Ges@@
Michael
Wo@@
Laboratories
Organon
DULOXETINE
BOEHRINGER
INGELHEIM
délé@@
cils
rentrer
récipient:
stéri@@
TIN@@
induits
purpura,
siques
gynéc@@
Barr@@
sis,
in:
Agustín
34-91
........
bloquant
Ech@@
LAS@@
élimine
pulmonaire.
d’expiration
MP.
intramuscul@@
GYÓGYSZERKERESKEDELMI
ee
esto
Baltic
Bad@@
-25@@
Tu@@
Inc.
Stock@@
112
tartrate
respirat@@
l'adolesc@@
osti@@
(ETV@@
vaginale,
d'intérêt,
boutons
l'ongle,
goutte)
palpitations
sexuel,
apparaissant
l’estomac
provoqués
pseudo-grippal,
gastro-entérite
estomac@@
pus
alie
cou,
incontrôl@@
biliaire.
agranulocyt@@
ose),
urtic@@
pis@@
mir@@
sion),
atoire,
spontan@@
l’œil
Cou@@
sombre
Ass@@
soluble
l'efalizumab
femelles.
cardiovascul@@
Guid@@
208
jk@@
ay,
créatinin@@
ict@@
décongel@@
ider@@
DIO50
internationaux
nommée
d'exécu@@
jusqu’@@
rigu@@
(UE)
hydrolys@@
ine/
omo@@
RU
d'affinité
larmoi@@
dépendantes
d'ant@@
age)
l'endomètre
informe
23,
exécutif
2009
"Temps
cus
Emil@@
ale).
(VIH)
doni@@
Grèce.
gestion.
commerciale
nis@@
Januvia
pharmaceutique,
glucagon,
améliorant
artan@@
d’au
éventualité
cela@@
d'auto-injection
recherchée.
d'AP@@
rez.
imétique
récidiv@@
antihistam@@
cémie,
fréquents.
reconsidéré
d'antibioti@@
digestif.
massive
alco@@
esthésie,
parasit@@
(PSUR).
ene.
Aut@@
MAB@@
que»
fin,
intervenus
grec
extrapyramid@@
perfusion,
ampleur
ViraferonPeg@@
ième
sous-types
ostéocl@@
de).
l'erlotinib
déver@@
découvrir
préoccupé
décis@@
eur;
d'alimentation
l'exploit@@
l'imatini@@
virale.
lignées
sidase
majoré
act
léflunom@@
α,
existait
Xa
thrombine.
Placebo
Vers@@
transférer
ultérieur
ases,
limites.
matrice
Krka
perindo@@
inhibitrice
actifs.
Envir@@
Purgez
pulmonaires@@
ilé@@
eptacog
(activé)
fluoxétine)
pylor@@
sulfon@@
(PE@@
tumorales
ents:
0%),
(0,3%
l’apparition
oblast@@
ald@@
Cant@@
España
(2)
Fernando
Nouveau
º
sympath@@
diazox@@
charge.
limité.
ase-@@
fondamentale
YTRACIS
rési@@
EU
FIGURER
PRESENT@@
MON@@
LLE
bouff@@
formée
cardiaques,
manifes@@
DEX
intr@@
d'ADROVANCE
variables
043
PREREMPLIE
SANS
les)
sachets
EU/1/05/329/00@@
343/
(14
107
101
gélules)
50x1
360
085/
086/
107/
fonte
rosac@@
suspectés
évocateurs
l'IRM
l'opération.
pulvéris@@
strogènes
bronz@@
entourant
bain
Icand@@
évitez
arium
effort
aigü@@
Exam@@
tionnellement,
butyl@@
chlorhydrique,
monop@@
trométamol,
pH),
exam@@
polyester
pouls
compensée
pergill@@
d'enseignement
aar@@
AA@@
adu@@
η@@
ν@@
Co
Route
vais
Park,
AIRES
svägen
Industria
mbH
8006
Zir@@
élaboration
intérieure
Signalez
Avant
ides
-le
décli@@
Fam@@
èmes,
nifédip@@
delt@@
hermé@@
Fertavid
J/
délivrer
resti@@
graisses.
Pandemrix
gardé
Fon@@
Procédures
Rapport@@
230@@
précaution,
nettoyage,
gants,
dex.
microli@@
Fos@@
sty@@
rigi@@
nier
enter
oie
Islande
ona
Cedex,
TopoTarget
+33
macroph@@
Fréquente
impuissance,
brûlures,
paros@@
(hémat@@
complètes
populations.
(IR@@
°C.
ples
orange
PGN
blanches,
opaque,
gél@@
TB@@
noire
trices,
saliv@@
Alban@@
1A@@
shire,
BV,
Gian@@
perfec@@
astrocytome
stylo.
Ferr@@
myéloïde
diagnostiquée
réfractaire
Globalement,
zinc
Gmb@@
1,75
nes.
culture,
rétinoï@@
Grand@@
exav@@
anesthés@@
prévoyez
machin@@
I)
hypoglycémiants
années-patients),
1.000
EN,
SOLVANT
ménorra@@
Habituellement,
ADVATE
pensée
elle-@@
Halocur
ance;
jaune.
Wie@@
Peter
31@@
remplies.
glutin@@
névrite
omégalie
F2)..........................
G1)................@@
IV):
mollus@@
manifestation
AG,
d'Haemophilus
ys
génériques
L'hydrochlorothiazide
jonc@@
lacry@@
quinolones.
diques
impl@@
tem@@
osyn@@
antihypertens@@
calcémie.
ush@@
d'hypokaliémie
dispersion
agressif
intrader@@
liance
Maladies
États-Unis.
Preotact
métriques
attaché
25.
descend@@
provis@@
vêt@@
précipité
d'hypertension
librement.
res.
omie
sous-jacente
fébrile
longue.
semble.
ting
stru@@
d'Europe
glucuronid@@
apports
essayer
SINGULAIR
recommande
antirétroviraux,
mousse.
aler@@
redev@@
ADEN@@
d'aband@@
parallèlement
prévisible
mal.
progres@@
évolu@@
µm.
STIT@@
déversement
légu@@
visuellement
écu@@
cose
situés
échar@@
(autres
récurrentes
isom@@
VEG@@
Gol@@
tém@@
DepoCy@@
incomb@@
associer
vil@@
envelop@@
cessé
sion).
cétirizine
eils
féminine
échoué.
allum@@
d'accroître
nerfs
lorsqu'un
évalue
graduellement
d'apporter
0.
communiquer
goutte.
1996.
cassés
bursite
blessés
ycl@@
plant
stéréoty@@
pé
étriques
utilisations
signal
Optimark
(antibioti@@
coquelu@@
Candidose
ercice
acquises
labi@@
en:
dor
pneumon@@
pharyngite,
Sep@@
Helicobacter
artan
Toxine
Botulique
REV@@
IMPORTANTES
ECT@@
ordonn@@
(IMAO):
inver@@
INE
Initi@@
hypophy@@
(ml)
INJECTION
l'opercule
ANCE
art
réti@@
Child
Insulatard
........................................@@
INTANZA
l'après-@@
combiner
avec,
(20000
confirmées
corrigé
nica
Slovénie
omère
ONS
rang
conditionnelle
situaient
υ@@
Luigi
tali@@
r.@@
censu@@
05
Gor@@
7073
Sollentun@@
ASE
janvi@@
remerci@@
ON.
cali@@
Kam@@
Karad@@
Télé@@
ach
DOIT
esta
9.@@
90.
déterminée.
ostati@@
envoyée
GlaxoSmithKline,
Amad@@
FAR@@
El
Vit@@
opiac@@
mutagène.
quasi-@@
blanchâtre.
transparent
assembl@@
progressivement,
refléter
G)
15.
kétoconazole,
SOMAVERT
pancré@@
s'était
PP@@
oxybutynine
avis,
phosphor@@
l'ADN,
répli@@
obac@@
clopidogrel
Ciprofloxacine
violet
laissés
retardé
séparation
dépl@@
local.
d'Azomyr
ij@@
(11,@@
trat@@
désamin@@
indiquée,
menacer
résultera
salbutamol
ément,
pneumococcique
elcatonine
calculée
Métalyse
d'In@@
Siklos
kilo@@
ovins
lénalidomide/
flé@@
secteur.
antérieurement
méthyl-@@
caucasi@@
Intern@@
progresser
rare,
sécuris@@
déséquilibre
gastro-intestinal.
clivage
sté@@
contact@@
lépirudine
vérifications
mettra
L'allaitement
2B@@
décès,
centralisée
comparais@@
BPCO
G-CSF
(IEC),
compétitif
format
inhér@@
insé@@
avertissements
consultati@@
chien.
=@@
raison.
155
PN@@
nuit,
ponction
dérivées
douc@@
bénéfiques.
nourrissons.
hémophilie
cm2
journalier
concernait
quarts
Tasmar
standard.
lyophilisat
difficile.
prestation
entrainer
directions
Disease
graisses,
exécution
(p=0,00@@
sévér@@
radiation
l'hô@@
mécanis@@
Communauté,
l'iode
rotigotine
neuroleptiques
matiques.
sélectivité
ophi@@
Bulgarie,
25°C,
postopératoire
s'inquiét@@
bronchiseptica
L'association
l'enfant,
offres
Kor@@
pellicul@@
d’ar@@
Rh@@
éclai@@
génétiques
mobile
oc
371-7
(0@@
compul@@
efficacité.
dénomination
séparés.
band@@
écrite.
mètres.
blocage
réf@@
traitez
l’O@@
usages
érap@@
signale
Kab@@
Retard
mm3)
équivalence
ac.
CCR
mineur
décemb@@
succès.
stipul@@
satellites
ving@@
totaux
causes.
contraire.
Méth@@
survenu
adresse}
activé
instance
décroiss@@
Clini@@
concentré
sûr.
cent.
otoxi@@
défectu@@
F)
Kell@@
observateurs
Past@@
Suiv@@
cuiss@@
neutrophiles,
riers
n'étant
visible,
localisation
découlant
l’être
tasse
cohérent
é;
ouvre
oxydes
me;
moléculaire
Twinrix
propre.
drogu@@
sus.
quitté
prélè@@
sug@@
génération.
Porter
état@@
directe.
schizophré@@
modifié,
d'activités
minimales
plur@@
thérap@@
documents,
métal
carbonique
recueilli
olig@@
alf@@
strept@@
(thromb@@
appâ@@
virologiques
cellulose
one@@
couches
géniques
cris
terre,
fumier
OptiClik
sévère).
clair.
re;
ajustées
intentions
fermés
psychiatriques),
l'Office
200/
limitées.
reflètent
futures
soutiennent
(numération
-à-@@
7%),
traduits
enregistrements
Vid@@
numérique,
gratuit@@
sure
cé
Pent@@
jour;
munis
retirées
ENA
communiqué
rami@@
alternatifs
embl@@
l'avant
affin@@
égouts
s'appliquent
existante
entraver
plastiques
ètre,
surrénales,
interdits.
exclues
rénaux,
Gil@@
sucrase-isomaltase
empir@@
mouill@@
bienf@@
aits
légalement
vision.
d'urgence.
information.
substance.
fourniss@@
attirent
("symptômes
si:
N-glycosidiques
O-glycosidique
tration
invités
promett@@
Ont
tout-@@
47@@
probables
pation.
rendent
gauche,
âgés,
titres
érité
revêtement
amélioré.
tée,
claire.
visit@@
passer@@
confirm@@
automatique,
l’équilibre
lancées
Protop@@
fermé
four
ulc@@
adap@@
d'hyperlactatémie
transaminases.
(P02080),
ignorance
correct@@
L'événement
ément
oter
reaux
SWEDISH
ORPHAN
tian
équilibré,
L'inclusion
l’issue
minimum.
effectue
lu
d'examiner
5/@@
ission
terra@@
descendants
tenez
spécial,
anglais@@
l'oxygèn@@
intense
nouveau,
primo@@
recevra
instaurée
ordonné
nocturne
disulfure
isomérase.
rie.
préventive
Peg@@
Maintenant
Maintenir
Maj@@
@merck.
inciné@@
presse,
bli@@
cident
bourg,
ena
anger
fruits,
effondrement
spasmes
626
pes,
l’alimentation
irlandaise,
Public
cles
Arthralgie,
sale
(0)10
forc@@
âgées.
soir.
laitiers
poussant
sensible,
(vaisseau
œufs
d’en
partager
H5N@@
____________________@@
Johann@@
Note
Bag@@
doses)
NUMERO(S)
ELLE
technique,
disperser
l'intéri@@
Oprymea
Orig@@
clauses
Ouvrir
Pack
saine.
Paramètres
identifiés.
connus,
accordées
calculer
citons
151
télévision,
Nico@@
Bru@@
fun@@
FIN-02151
aies
anta
paroxystique
Polyoside
als
rénine-angiotensine,
gré
suivante,
pointée
Tapotez
réponse,
emploi,
opérationnelle
psycho@@
engra@@
d'ag@@
assurez
regarder
éligi@@
incision
386
rendez
humaines,
ender
ano,
Quatre-vingt
age?
TEVA
RECEVOIR
HUMALOG
KWIKPEN
d'identification
QU’HUMALOG
Rachi@@
Rarement,
maculo-papulaire,
Ul@@
démarch@@
Recommand@@
effectifs
8/@@
VHC-VIH
p,
peuvent,
ctions
Sor@@
Nav@@
Lisbonne
atlanti@@
Amsterdam@@
ascend@@
mammaire,
nap@@
vide,
impossible,
compétent
espa@@
per,
liés,
or.
tchè@@
quelqu’un
primer
sachez
traites
Répon@@
devienne
lé,
fiants
al:
anti-rétroviral
espaces
issent.
éradi@@
barr@@
organizačná
zložka
Ke@@
dix-@@
Sont
Souven@@
Nat@@
Statale
Suboxone
bel@@
eilles
Abbott
gen
raisonnable
entielle
s'av@@
écution
intérieur.
cht
deviendra
sérieusement
vid@@
ménorrhée,
Treize
Che@@
nutritionnels
urgent
Mah@@
bulle@@
abu@@
unique,
6.2mmol/
souri@@
continent
accompagner
réflexes
azak@@
excessivement
endrait
alfentanil
verso
(insuline)
modification.
adulte,
avant.
boulevers@@
eriez
adresser
Camp@@
carot@@
interdites
différentes.
homme.
accidents,
transfé@@
infrac@@
discré@@
mû@@
environnement.
nano@@
affir@@
vodka
chrétiens
nett@@
dém@@
allusion
bais@@
réussit@@
jouets.
d'exploit@@
réformes
entrent
droits,
ceinture
prestations
d’électricité
fiables.
accomplir
accompli@@
pratique.
souffri@@
quelques-uns
fes@@
technique.
augmentation,
tendances
temps?
auxili@@
maî@@
l'égalité
rebois@@
obligat@@
payés
hongrois
Tib@@
horr@@
budget,
décennies
parents.
coûteux
atoire.
lav
partage
fameux
soi.
erry
l'"@@
atures
défen@@
l'Ar@@
Tut@@
confronté
sud-@@
ouest
désespoir
décl@@
siècl@@
estiment
approvisi@@
pirat@@
vagues
eries
relèvent
l'exploitation
personnelle
culteurs
frustr@@
déç@@
volontaire.
camions
techniquement
empêcher@@
primordi@@
élis@@
librement
spécialistes,
éléph@@
l'enseign@@
financement.
l'échec
ouch@@
hectar@@
assassiné
ici.
légal
pili@@
prison.
partici@@
allocations
agricul@@
agricoles,
monté
incendies
vert
monét@@
distributeur
panne
alloué
chargement
poignée
Commiss@@
réd@@
ement"
rapport.
américain@@
synonyme
signifier
rit
sensibles.
d’énergie
thon
électricité,
chôm@@
écologique
construit
paru
ques"
affaib@@
convergence
d'argent
Euro
boute@@
asion
délocalis@@
bon,
appellation
jui@@
soutient
conting@@
tt@@
2020.
enrich@@
nick@@
saut@@
entreprises,
discus@@
écosystèmes
l'OC@@
recense
province
clonés
valable.
combustibles
monte
Bour@@
diox@@
Américains
joie
marée
monde@@
monnai@@
l'art
uniform@@
ité!
espoirs
baser
«»
alités.
euroscepti@@
euro.
Écoss@@
commande
responsabilités
massacre
Atlanti@@
contradiction
élever
épou@@
paludis@@
cultiver
démence.
fermet@@
l'océ@@
décharge.
el-@@
exigence
appréciation
déploi@@
instru@@
Yougos@@
arrachage
soulig@@
s’ag@@
onni@@
Lou@@
aurais
garanti
défense.
injustifi@@
extrémistes
treize
véritablement
hérit@@
L’heure
timid@@
L’histoire
alliance
hiver@@
glace
homé@@
L'homme
instinc@@
déchets.
honnêt@@
erait-elle
l'usine
acheté
L'humanité
balay@@
âme
l'aff@@
diction
pont
commissaires
aider@@
psychologique
d'abor@@
c’était
conventi@@
L’in@@
L'incinération
Canari@@
confrontée
main-d'@@
scandale
médias.
d'ozone
combus@@
ango@@
stig@@
plainte
issage
répercu@@
handicapées
immigrants
esci@@
L’interdiction
imposée
inventions
rons
aucu@@
concurrence,
dépen@@
L'investissement
l'Ira@@
quotas.
monopol@@
2010,
n'aient
union
négociations.
l'acheteur
l'effondrement
diplô@@
/CEE
client
ste
méritent
Milosevic
suscite
l'équi@@
crois
d'aller
habill@@
l’OM@@
falsifiés
ie?
res?
opérateur
nouve@@
érig@@
vict@@
Nev@@
carte.
abeill@@
pêches
sortes
Tchétchéni@@
l'accroissement
législatif
particulier.
fallait
Assemblée,
après-@@
contaminés
soldat
barri@@
Britan@@
employeur
qualifier
dette
d'empl@@
Ari@@
siècle,
achète
passera
sinc@@
aide,
e-t-@@
conséqu@@
entaire
répression
amendement@@
institutions.
frères
redi:
Araf@@
aménag@@
captur@@
Sand@@
auv@@
échap@@
d'épi@@
catas@@
L'urgence
l'avion
diesel
aphteuse
consenti@@
renseignements
déloy@@
littor@@
l'Assemblée
Présidente,
préoccupation
environs
plus!
proposez
genti@@
véri@@
eté,
désespé@@
guérir.
obligés
bill@@
maintenant?
prévisions,
quoi@@
pourrait-on
ah
insiste
noc@@
tempête
Manifestement,
(B5-0@@
(RO)
sexuellement
Conseil.
pathogène
technologiques
lèvent
Mercredi
modific@@
munici@@
ataires
Mesures
fall@@
er!
ka.
Mieux
Martínez
!".
chiffres.
cadre,
sélec@@
Lulling
Moi,
quest@@
procès-verb@@
Gh@@
Uachtará@@
déch@@
nappes
phré@@
ez-leur
échapper
hardt
Jam@@
Pirker
inutil@@
ceint@@
leçons
entendu@@
Khan@@
fass@@
ça.
oublions
États.
système?
vent-ils
animale.
d'équi@@
cabillau@@
(NL)
abstenti@@
l'élargissement.
alité?
électromagné@@
réels
Allemand@@
flexibilité
bie
craintes
serons
erions
aéron@@
toxicom@@
statistiques,
l'EFSA
Orlando
patrimoine
divul@@
détenues
d'accises
Lange
éleveurs
quiconque
inventé
enregistrer
dénombre
fant@@
pensé
paix.
souveraineté
cacher?
u:
qualités
appliquent
explosi@@
proposition?
sion?
ont-@@
seront-ils
sera-t-elle
phtalates
arrang@@
restructuration
impliquerait
camion
Buiten@@
matriculation
stocks,
UE/@@
dites-@@
précisément,
pilotes
syndicat@@
ceci@@
Peu@@
n'est-il
riez-vous
-j@@
liberté@@
6-0@@
instituti@@
Séance
important?
s'est-il
us?
matière?
mesures?
directive?
plus?
crise?
Pourriez-vous
2007)
Niebler
Qu'a-t-elle
licences
ine?
démarches
Qu’en
passerait-il
1/99)
8/97)
7/2000)
(A5-015@@
(A4-019@@
7/98)
(A4-013@@
(A5-028@@
(A4-024@@
(A4-039@@
(A5-034@@
(A5-027@@
(A5-037@@
(A6-0@@
2/98)
4/97)
(A4-017@@
(A5-018@@
Reven@@
International,
Serait-ce
décharges
S’ils
obtiendrez
Techniquement,
о@@
Voy@@
phal@@
gem@@
Denmark
Swedish
aiguë@@
appuy@@
s'accumule
Orgalu@@
exerc@@
antipsychotiques,
OVI@@
secours
Ziagen.
cérébrovasculaires
aripiprazole
sous-groupe,
positive.
pivo@@
animal,
tuméfaction
antérieures
dinavir/
400/
27).
l'accident
%].
hésitez
sédation,
GnR@@
aphér@@
osis
signalée
gastroentérite,
racine
ner@@
myocar@@
cystite,
SNC
neuropathie,
atrophi@@
transfusion
normales,
GF@@
Circadin
3%,
oci@@
picot@@
l’origine
troubles.
dyspnée
Oct@@
us)
bétaïne
ocysté@@
Ferripro@@
leukine-@@
ess
16,@@
(57%)
l'infliximab
statine)
l'aspergillose
l'enoxaparine
décentralis@@
(Q@@
correspondante.
SMP
176
cidofo@@
buvable.
attendues
issement.
cérébral,
harmoniser
sanguin.
rayonnements
39,@@
azard
79,
(valeurs
H-@@
gemcitabine,
logici@@
pimécrolimus
AL,
omes.
67%
comparateur
(17
ZOSTAV@@
candidose,
agitation,
parathyroï@@
34%
poursuivi.
réadministrer
l'abacavir,
accessible.
fumer.
55%
passées
domicile
vision,
indications,
mentionnée.
tuméfac@@
10,7%
thyrotropine
AT)
(6,@@
concentre
intrarachidienne
L/
-2-mimétiques
semaines),
sorties
fertilité,
glucuro@@
UGT1A@@
sérotoninergiques
ergiques
muscar@@
tardive
céphalopathie
cipi@@
(n=
59@@
ans),
ASC)
adolescents,
3,1%
normalement,
initial.
monoxyde
cill@@
multicen@@
connaissances,
gastrique,
coronari@@
VF@@
(1.000/
les/
ase).
AgHBe
vitré@@
d'efficacité.
apolipoprotéine
chor@@
oïdienne
soit@@
K.
d'Humira
uité
Crit@@
5%,
suites
WV16@@
certitu@@
déplacement
stér@@
cro-@@
ell.
mmH@@
fallu
grippal@@
d’allergie
0-24
incluait
(faible
simultanément,
ancienneté
triaz@@
33%
partate
anine
UC
m²@@
néphropathie,
ovariennes
3,75
yaour@@
raisin
pattes
respectivement),
AF,
II)
passagère
Insulat@@
Protap@@
récente,
étape,
côl@@
familiale,
pale
γ
ajoutez
varénicline
l’am@@
acitidine
hion
recueillies
lipa@@
Up@@
ival@@
t:
autorisation/
MM
blancs),
saign@@
dopaminergi@@
émétiques
épaississement
personnel.
strat@@
CYP3A4)
co-administrés
disparaître.
excit@@
1980,
britannique.
pratiqué
menti@@
multinationale
Dru@@
espagnol,
0,9@@
allaitent.
nocives
d'AINS
able:
MI
Déclar@@
d'eau@@
placez
um:
volu@@
défaillance
déficience
CLINIQUES
Erythème
ms
rétinienne,
acte,
postéri@@
kérati@@
03/
carbamazépine
Remicad@@
glotte
réapparition
l'investig@@
l’alcool@@
magnésium,
abouti
Autres
orphelin@@
nébulis@@
pilosité
Démange@@
dentaire
pare-@@
Alim@@
contrôlera
recu@@
sophag@@
actifs,
l’action
omin@@
éthinylestradiol
atoxine
NECESS@@
C:
opée
µg/@@
lisiez
notices
inspect@@
modérée,
triglycéri@@
teinter
bradykinine.
microtubules
malade.
description
Minim@@
lipos@@
céphalo-rachidien
intrav@@
lombaire.
6.2).
davantage.
cytarab@@
dépô@@
xanthine
Comme
désorient@@
révélée
unitaire
adolescent
lymphadéno@@
l’HMG-CoA
d'étiologie
indéterminée,
DRA@@
vaginal
l'entec@@
Der@@
pétéch@@
érythro@@
otr@@
CPMP.
muqu@@
warfar@@
héparine
d’hépatite
entan.
d'abus
agranulocytose,
Pneumo@@
ronique
Tarcev@@
gestion,
dysphagie
multif@@
MP)
épileptique
ful@@
END@@
inexpli@@
eculi@@
extrasyst@@
pause
(concentration
assurant
Aranesp.
Description
9),
sis@@
péridone
N-dés@@
ylation
oxazole
Sprime@@
chirurgicales
soir
parécoxib
ramener
rhumatoïde)
énati@@
inate
évitées
n'augmente
cholestyramine
lient
(16@@
probable,
sifflement
cales,
malaise,
périton@@
ofo@@
signalées
hyponatr@@
négatifs.
tran
réduisait
mous.
um-@@
bile
xim@@
CYP2A6,
humains.
(insuffisance
myocard@@
cytokin@@
radiologiques
l'halopéridol
permé@@
pureté
finalisation
ministration
(2,4%
sécher
EX.
ations),
cholé@@
omyél@@
emea.@@
--@@
ONN@@
l'inhalateur
irrégularités
sélectionnés
queue
idiopathique
réduit,
crème.
contraste.
myopathie,
l’UE.
(LD@@
modifications,
pourcent@@
LDL-cholestérol,
inck@@
objections
dégénérescence
sud@@
inis@@
045
imputable
repro@@
relais
médicales.
(Hypericum
(COM@@
progressives,
anaphylac@@
Jar@@
céfuroxime
eux)
cognitives
dine.
urticaire,
exprimés
contact.
otypes
pâleur
léthargie
cessation
papillaire,
Crohn,
objectifs,
dissous
précip@@
ocution
stromales
d'auto@@
inique.
EN.
dront
lansoprazole.
Churg@@
auss
asthmatiques
boî@@
bleue
contenaient
nucléosi@@
this
Développement
isser
capuch@@
anol
eures
Poli@@
souhaité.
déséquilibr@@
biliaires
(In@@
Emtricitabine
uticas@@
oxygén@@
BYETTA.
oxine
glutam@@
Glob@@
Transfér@@
acti@@
némie
sang)
Diov@@
(E171),
versity
ge,
encapsul@@
King@@
endocr@@
mydri@@
ön@@
gren
Nur@@
emberg
S),
Distr@@
l'exénatide
déséquilibres
glucose,
glarg@@
Div@@
lombaire
General
ía
diplôm@@
Don@@
……@@
mentation
feu,
injection?
Kivexa,
Trizi@@
Dom@@
MENT
Pays@@
Dosage
175
135
gastro-intestinale,
Doul@@
Selles
Faiblesse
Sécheresse
oire:
dermati@@
ton@@
Spasmes
périndo@@
So@@
1.7@@
Director
Presid@@
BO@@
Directorate
Surrey
ley,
ELL@@
morceaux
extérieur@@
que/
l'utilisatrice
rifampicine
acceptables,
stockage,
périodi@@
o:
arrêter.
lique.
thrombocytopéni@@
ménopau@@
l'éjac@@
gie,
dyskiné@@
Dyspnée,
diplopie,
E-28750
démie
démie.
ubicine
Groupe
(n@@
fonctionnelle
majeure,
itions
EDT@@
vigil@@
Allergan
1628
940
SK@@
d.@@
Trading
C/@@
139
Strasse
Efectin
sule
depot
(e.
nourriture:
3A@@
Rétention
floxac@@
Maux
court,
sinus
adult@@
QUES
hémarthr@@
infestations
mal,
faiblesse,
thyroïdienne
difficile,
bruits
aident
Vomiss@@
tracé
(hypersensi@@
l'intestin@@
granulocyt@@
pancyt@@
brun@@
ruption
thyroïde.
Mauv@@
éfavirenz,
larmes,
endocriniens
conjonctival,
dépôts
mélan@@
ténectéplas@@
athér@@
HI@@
choléra
IX@@
Ker@@
Budapest
onia
Roy@@
rhé@@
lapr@@
Hun@@
réversi@@
vej
Lyng@@
sl@@
effective
circuits
DICC501
........................@@
(vCP@@
DICC
LDL.
d'Advagraf
l'agriculture
lactam@@
fabriquée
(toutes
flac@@
5-hydroxy@@
sot@@
cides.
coagulation.
issent,
lévodopa,
off
eudra.
mail:
l'égard
d'Aranesp
scellé
EMEA@@
56@@
dg@@
/97
renforcé
Wy@@
pêcher
mulsion
scientifique.
transférée
d'inform@@
Évaluation
délégations
édition
l'information,
personnel,
finances
celui-ci,
citab@@
myélome
d'initier
généralisation
gardez
réveill@@
dépendante.
Etanercept
bactériostati@@
Calci@@
sumés
sous-cutanée,
fluoroquinol@@
essuy@@
rincée
Teva.
étro@@
rincez
d'écou@@
préexistant
anti-tuberculeux
Trud@@
isoler
Avastin
cure
caractéristique
encer
ater
LEMP
udine
prolongé,
montrez
b/
acari@@
otoxicit@@
comparaison,
spontanée
épil@@
caspofungine
complémentaires.
suffit.
Reg@@
ennent
»;
Enfant
pédiatrie.
sorafénib
ans:
Adul@@
éris@@
recommandées:
Gard@@
n'inter@@
(rapport
normalis@@
astes
gluc@@
like
GIP
d’Agopton
intraveineux
masque
d'avant
octobre,
sp.
d'ajouter
corporation
résidu
détectable
délivrée.
isotop@@
cholinergi@@
variante
méthod@@
normales
Tru@@
rares)
Cozaar
thromboti@@
d'action,
semble,
test.
oper@@
protection,
tér@@
estimation
conservée
d'observer
quotidiennes.
héparine)
transformés
que*,
(sur
fonctionnelles
Epivir
ite)
ectine
polyéthyl@@
vinyl
éthane
des)
thrombocytopénique
allaitez,
E-0@@
blastique
d'Extavia
Onsenal
collectées
pt
Martin@@
posologi@@
R-@@
d’atteinte
similitudes
IX.
procré@@
bactérie.
VO@@
ERA
Conserv@@
épilepti@@
ETI@@
DEVANT
ATIONS
bague
------------@@
--------@@
potentialisation
vardénafil
Études
CONTEN@@
cateurs
pré-rempl@@
039
048
pés
unitaires
FLACON
FLACONS
EU/1/04/279@@
337/
(plaquette
comprimés)
108
387/
7.5
EU/1/08/464/0@@
EU/1/08/465/0@@
3:
5:
transfusionn@@
réglementaires
anticancéreux
médecin@@
thrombotiques
déposé
SER@@
congélation
excessives.
dispositif.
VEN@@
solaires
fantaisie}.
Zomarist
précédents
(ES)
concev@@
bière
propylène
carbonate
199
aminés,
glycér@@
phospho@@
d'ammoni@@
hyl@@
ene@@
étate
verb@@
l'intestin.
foli@@
moutons
fer.
l'itracon@@
Paris,
pert
Py@@
äl@@
dge,
conservés
année}
commercialisé.
paci@@
775
33-@@
Fablyn
Pharm@@
South
Phar@@
wer@@
cé,
infecter
corporels
transfert.
d'habitu@@
Fait
Lami@@
matique.
odip@@
rosiglitazone.
Patrick
F2@@
préremplie.
élix
traché@@
implant
Luer
rotation
500,
moroctocog
inviolable
RIS
Flem@@
phen
Scandin@@
(*@@
affai@@
histoires
Hambourg.
Forme
l'alendronate
arrivés
rè@@
fracture.
Noviana
(0)810
Hughes
MEN@@
Top@@
Tél@@
rhume
photosensibilité.
blépharite,
oesophagite
kérat@@
algies,
amnésie,
dysgueu@@
l'attention,
ocu@@
Fum@@
1,1
obu@@
Green
d’entraîner
EPAR
coiffe
fantaisie
érique.
ules,
lèvre
malades.
fondées
Generics
V.,
TIQUE
GEN@@
OO@@
ofi@@
Finland.
tuoteinfo@gsk.
anaplasi@@
rechute
métastatique
chirurgical@@
blas@@
GFR
s'adresse
PH@@
glitazone
Gö@@
0,50
ly-@@
éline
cie
Barcelon@@
èse.
ROBERT
Ka@@
myalgi@@
trimestre
inconnus.
conduisez
partenaire
Num@@
monothérapies
aque,
Tar@@
D-
ald
Vice-@@
Eli@@
Fri@@
José
Manuel
CAN@@
Kal@@
Mois@@
(5)
Michel
Mary
immunisation
anam@@
chromat@@
Prim@@
Kur@@
GA@@
sum@@
positif,
olysacchar@@
arate
Hycamtin
sulph@@
omet@@
prévenus
males
isés.
ément@@
sirolimus,
sirolim@@
ect
poliomyéli@@
hypers@@
Hypoten@@
thyroïdie
diurétique
RIB
gène.
confiance,
oto
4-9@@
Euratom@@
arthro@@
majeures
apparaiss@@
fonctionnelles.
Rév@@
messager
othérap@@
circovirus
substance,
radioactive
traitements,
d'instaurer
Stat@@
persistent.
d'interdire
dormir
d’infections
croît
d'antirétroviraux
spécifié
converti
mélange.
Levviax
contributions
allaitent
Fun@@
blanc)
peptides
intègre
doute.
chent
médecin/@@
insister
l'interprétation
conjoint@@
tétracyclines,
sessions
mér@@
aux-@@
négatif,
immunodéprim@@
usuelles
retenir
indurée.
dates
prélever
coute@@
d'étiquet@@
contraception.
résultat.
(VIH).
tracon@@
vraisembl@@
pénicilline
variétés
manières
NVC
x:
canaux
trioxyde
lév@@
sildénafil@@
substrat
justification
exemption
avalé
scintigraphie
coronaire
idocétose
soulag@@
l'aspir@@
Child-@@
-les
CIA@@
Non@@
plaques.
hormis
Tandemact
9,5
organes.
més.
réglementation.
l'occurrence
substitut
néglige@@
4.8
surviennent.
consolider
excellent
d'ulcérations
didan@@
nelfin@@
recouvrement
silice
Immunisation
Zona
Tacrolimus
Med@@
glycol,
opin@@
maladi@@
zona,
plai@@
Pharyng@@
Nas@@
res:
cellulite,
tions:
sinus@@
ester@@
dium
d’Information
sulesom@@
NeuroBloc
Volibris
Aerius
d'AMMONAPS
benzalkoni@@
délivrent
administre
dés.
palpit@@
vastatine,
irréversibles,
CYP3A4@@
vendredi@@
redi
ophob@@
d’air
user
spir@@
PREPARATION
Need@@
Child-Pugh
dialysés
négligeable
hépatocellul@@
40%
B).
(ADNr).
±
alyse
lux
benséraz@@
sérologiques
transférés
6000
l'avenir.
associés.
Bil@@
uz@@
tapénème
Invirase
pneu@@
étique.
Sign@@
Hann@@
I/
l’arrêt
détection.
Marché:
.:
Act@@
170
eo
HIV
GI@@
än@@
ker@@
vier
intér@@
BB@@
Jer@@
Jetez
infirmier.
P-2@@
(saquinavir
boosté
sen
ogé@@
(kg)
Μ@@
Ε@@
semaine).
Sus@@
Agu@@
i-@@
Paul-@@
hr@@
lich
kinase
oms
1ère
conserve
divise
sertion
seule.
gobelet
d'instauration
Versailles,
huiles
indifféremment
anesthésiques
homologues
prodrogue
méthyl
rapp@@
peur,
VIRAMUNE
cation@@
porteuses
réchauff@@
augmentent.
tocili@@
6.2
Rati@@
Registration
cel
Bris@@
Baraclude
véol@@
phosphodi@@
d'équipements
évitées.
adhési@@
exten@@
DF@@
dérou@@
torsion
VIH-2
onid@@
20/
clapet
disque
anormale.
induites
fumer,
l'hu@@
midité.
abî@@
original
CIBIC-@@
L'adéfovir
matique,
(0-@@
aux).
119
(Pro@@
écrite
MT@@
l'aluminium
substance(s)
gp@@
onge
progressive.
cible.
cera
aprépitant
obil@@
éruption,
(re-)vaccination
excède
800.000
tter
cérébrale
résine
contrôlée.
compression
squelettiques,
généralisée
ic,
utions
national,
sulfase
recru@@
endogèn@@
chari@@
cartilage
L'agomélatine
chron@@
l’embout
Tenez
hui@@
jetée
casser
remettez
endommager
l’expression
SM@@
TAMM
urticari@@
atrophie
distales
BSC
(95%
RS
Lamictal
inn@@
ym@@
bag@@
liés.
L'ampleur
absolu
plitude
hérédit@@
contenait
ablation
ader
5,0%
réévaluée
pencher
bêta-sympathomimétiques,
East
conom@@
l’initiative
marquée
contre-indication
réseau,
plaquettes.
l'environn@@
membr@@
plaquettes).
Busil@@
heures).
différencié
terminée
séch@@
progression.
discr@@
intensité.
l'anxiété
retenue
agitée
animal.
cassé.
apparence
uniforme.
prouvée
Visud@@
ur.
CA)
antibiotiques.
l'examen.
l'identification
97%
(CV@@
témoins
affectés
cérébrales
sympathom@@
terminaisons
(équivalant
radiomarqué
splén@@
ectomie
-8@@
IT
alfa-
Sing@@
rispéridone
Alzheim@@
BE@@
mentionnée
CEP@@
s/@@
Strept@@
pluri@@
fourru@@
andro@@
nel@@
Procé@@
monoclon@@
xy@@
défauts
vastes
homogène
accou@@
forcé
ars
n=@@
MUL@@
thrombo-
emboliques
(K@@
8),
communément
58a
-401
ī@@
364000
o.@@
zo@@
d’hypersensibilité
ex,
poulets.
Myco@@
O-
ß-@@
linguistiques
réévalué
d'ovaire
mini-@@
obut@@
porcin@@
ex-@@
spot
326@@
harmonisée
distingu@@
papul@@
quantit@@
rapporteur.
avis.
sonores
agonistes
Revatio
rémittente-récurrente,
progressive,
Kaposi
Us@@
entière.
liez
versé
corp@@
suffisent
réunir
moyen.
Daily
proximales
diurèse
génotoxique
sixième
externes
Spar@@
arrêté,
moteurs
héli@@
ladi@@
cédé
adaptée,
Genetic
Å@@
palli@@
(VIH@@
comparti@@
juridiction
confidentialité
négligence
prononcé
zheimer@@
sph@@
opathique
Plavix
infectées.
vigour@@
num@@
Hud@@
172@@
éthy@@
modifiés.
individuelles.
classé
logiciels
MC
maropitant
d'Information
Surveillance
distribué
Nouvelle-@@
espère
l'OMS
AM@@
ument
entiel
attentif
remarquer
boire.
Chypre,
restreint@@
monophosphate
M1
des-@@
side
"à
implanté
digestifs,
d'insp@@
bénéficie
laur@@
méti@@
initiation
adopté,
lingu@@
Prot@@
conju@@
silicone.
observation.
Ta@@
arrêtés
bilatér@@
ment:
agglom@@
Dieu
hémodialysés
c'est-à-@@
messages
(99mTc@@
éru@@
libellé
s'élev@@
obé@@
officiels
contrib@@
adjuvants
sam@@
émet
dine,
d'appétit
det@@
régressé
ferment@@
l-@@
terrestre
Slovénie,
choline,
glutamique,
thrombocyt@@
finit
blister
troisi@@
ings
insulinothérapie
res;
poussés
prévisibles
Müll@@
physiques,
confon@@
reproduction.
donnée.
architectu@@
dopa@@
Roug@@
AZOPT
individuels.
involont@@
code-barre
Carb@@
agl@@
apam@@
Berg@@
manipuler
engagées
entier,
6,0
numéri@@
(v@@
supplémentaires,
exercent
localisée
quelquefois
douloureuse.
danois
néerlandais
conduire,
17-
angoisse
couvertes
fragi@@
plan.
incapables
r-h@@
exposés.
rechuté
hypoxi@@
éventualité.
(800-1.200
inclus@@
ogreffe
TYSABRI
fiable.
Infusat
ques-@@
cherie
d'hypoglycémie")
vendues
rempli
d'années
d'es@@
calade
espèces.
FR-@@
d'applic@@
fourr@@
fournisseurs
tenait
commun.
isa
répéti@@
oniques,
salicyl@@
disposition.
auton@@
isée,
Anor@@
supervisé
juillet.
rouge@@
l'organisme)
3'-@@
Quixidar
l'implication
l'Is@@
lande,
4,3%
augmenter.
OP
démo@@
s'assur@@
seule,
dépendance.
ité;
conventionnelle
précédentes
l'inf@@
alise
PNN
anie.
REF@@
part.
batter@@
concernée.
bure@@
d'huile
congelé.
vaiss@@
194
tres.
diluée,
s'avér@@
guérison.
fal@@
ibafloxacine
SAIN@@
PRIEST
Š@@
MAC@@
avancement
Alcobendas,
L'I@@
idaclopride
86@@
prévoyait
étayée
d'erreurs
conséquences.
L’injection
vache
Rebi@@
6.3
OPI@@
attaquer
arrêtées
stiques
SEN@@
néonat@@
d'émission
'hémoglobine
teaux
débutez
othérapie,
maintenant.
s'effectuer
fois/
L'usage
stac@@
s’aggrav@@
Ben@@
atteint.
Main@@
Lew@@
antipsychotiques.
gérée
31-@@
ding
Arzneimit@@
Kuh@@
diagnostiqués
jointe
Mél@@
ve:
ssement
atan
Nik@@
Postbus
2031
erbur@@
Bas
MERIAL,
69800
perflutr@@
minist@@
ouvements
msdnorge@@@
électrique,
ades,
appelez
rhinite
partez
bol@@
sanguin).
d'aiguille
piston.
bet@@
pa
Bri@@
outil@@
Neutr@@
Nic@@
utilisées,
enza
principe(s)
mail@@
SOCI@@
repér@@
suggérons
Nowogrodzka
02-
+48@@
Proportion
NUMÉRO(S)
g),
Amin@@
qualification
gham
re).
naître,
lorsqu'on
survivre
l'utiliser.
dera
phtal@@
LITE
indispens@@
avec@@
esti
naturelle.
Total
2058
Défense
252
requièrent
péridur@@
facul@@
Tas@@
parentérale,
Suppl@@
500/@@
Paul
clois@@
national@@
fréquent@@
opneumon@@
Sandwich,
Boulevard
boulev@@
ello
Cru@@
Santa
PVC/
étui
THERMOFORMEES
Chineham,
RG24
Poids
Point
d'ouverture
enri@@
Açores
sses
programm@@
projet,
1992.
Poten@@
jusqu
'ce
tours
conviendrait
utile.
oirs,
l'hémorragie
d’im@@
préparation,
UE,
eil,
répéter
refroidissement
sélectionner
che?
groupe,
fabricant:
emballage.
DECHETS,
curs@@
renver@@
cicatrice
vacciné
décidera
Prop@@
Prophylaxie
Propos@@
Cap@@
sia
Quinta
Edifício
l'édi@@
octroyer
Quatorze
remet@@
)?
humaine?
CIPROFLOXACINE
ACTR@@
ANO@@
FA
ENTIS
TAC@@
ante?
euse?
E?
Quinze
anesthésie/
s'inscri@@
prag@@
pandémi@@
conséquences,
Remar@@
différents,
bord,
veillant
eck@@
cercle
RISPERDAL@@
rencontrez
eables
cu
ti,
402@@
don,
2015
ka@@
admis@@
Septi@@
Sérotype
ètes
compétente
informera.
produisent,
fièvre)
particules,
n'utilise
s'aggrave,
nell@@
accél@@
déchi@@
remplit
tombe,
poursuivez
faille
joign@@
merci
malad@@
(angor
cardiaque),
abaissement
prescrira
transit
l’ajout
lâ@@
3355
5500
Soci@@
1N@@
mutagènes
Rod@@
ara
Ster@@
Mich@@
km@@
Belgisch
bijhuis
quiétude
l’emploi
l'internet,
ènes.
fe@@
Tat@@
Partie
frein@@
versi@@
action.
prendre,
centre,
escompté.
vrais
féminin.
assurés
potentielles.
commercialisés
existen@@
futur
(SK)
Transférer
sel@@
abordé
orat
ant;
barres
distribuée
erbaïdj@@
mén@@
d'ami@@
fluctuation
piég@@
FD@@
américaine
incendie
terminer
beta*
estoni@@
indispensable.
servir@@
beta*.
élevées.
sique
sme
souhaitable
diman@@
aider.
solv@@
d’OptiSet.
Franco
erre
compléter
durabl@@
osser
spr@@
inquiète
eter@@
rab@@
Prom@@
force,
stations
l’argent
causent
gypte
connexions
stagn@@
cohésion
marchand@@
marchandise.
appauvri@@
paix,
bulldoz@@
chars
route.
l'acceptation
ressource
publicités
légi@@
rendus
soufre
spécificités
SPFO
club@@
Eurostat
appels
contaminations
celle-ci.
parlent
tlanti@@
fonctionné
chemin.
prétex@@
directes
super-@@
CO2@@
d'additifs
générations
obligatoires
répandu@@
réutilisation
hôpitaux,
bénévol@@
exécutées
cohé@@
Fond@@
hausses
attendent
orateurs
l’heure,
ordres
modernes
laissent
aboutiss@@
expédi@@
connot@@
forêt
Colombi@@
";
sens,
collectés
fusionn@@
consolidé@@
l'auto@@
atroc@@
rivières
pluies
histoire,
tragi@@
agress@@
joueurs
pourraient-elles
finir
confrontés
tribunaux
vendus.
alisés.
devise
armée
gouvernement.
ref@@
fghanist@@
dangereux,
démographique
réfléchir
dirige@@
technocrati@@
supranation@@
facteurs,
empire
commerç@@
l'herb@@
fondamentales
anéanti@@
adis
avant-@@
phytopharmaceutiques
Laek@@
vibrations
reconstru@@
l’impression
l'ice@@
viols
viol
multitude
subventions.
l'installation
deviendront
ainsi@@
apportera
PAC@@
Bis@@
professionnel.
d’alerte
ême
mesures.
accroî@@
co.
ologation
passeport@@
différemment.
d'autoriser
re"
outr@@
délits
fonder
handicaps
hectare,
lieu@@
récolte
onnée
vente,
victimes.
registr@@
prisons
L'établissement
professionnelles
silence
talent
s'accél@@
Napl@@
capa@@
l'OTAN
fonctionner,
vidence
Sad@@
étisation
l'Autri@@
industrialisés.
agricole.
cés.
d'euros.
Brési@@
équilibrée
chemins
remédier
demie
contraint
sûrs,
tables
viendra
établiss@@
ravag@@
e-t-il?
vocabulaire
exper@@
"les
nationalis@@
rése@@
soig@@
eutroph@@
forti@@
technologie.
consommation,
hélas
défensi@@
franchir
conditions.
dies@@
ionisation
stigmatis@@
çon
l’Autriche
stupéfiants
entités
salaires
élargissement.
d'arriver
Scheng@@
préparatoire
proven@@
consentement
tests.
l'inst@@
organi@@
désigner
comb@@
principe,
tronçon
2013@@
trangl@@
d'uranium
faisabilité
personnalité
béné@@
béb@@
Monsant@@
itinér@@
eux-mê@@
Sella@@
réacteurs
caduques.
bonne,
racines
oigne
s'écroul@@
cani@@
L'Europe,
marchands
ce!
prospér@@
peser
myst@@
choix,
biotechnologies
Philipp@@
l'attitude
taxation
ultralibér@@
blessés,
meubles
résulter
automne.
intitul@@
ela
tre-@@
découpl@@
puisqu'il
manière.
renom@@
mondiale.
betterave
île
réacteur
météorologiques
spectaculaire
historiques
envoyé
vraie
vot@@
semences
législatives
bagages
d'aff@@
collectiv@@
d'investiss@@
néerlandais,
magaz@@
assin
flag@@
isten@@
2011
début,
carotte
voulu@@
Mur@@
entreprise,
trons
l'exportation
États,
raffin@@
pétrole,
français.
maintes
dépassement
espérons
sucre.
gren@@
Sharon
palestinien
communiquée
tort
eance
formidable
horreur
hôtel
théâtre
voulait
jamais.
moi.
évoque
société,
figurait
Liber@@
bouddh@@
ray@@
L’idée
meilleur@@
stes,
meu@@
campagn@@
distorsion
faits,
ménages
littéralement
régimes
iment
Limiter
immigration
privil@@
L’impact
nutritionnelles
sondage
à.
coles
cole
sensible.
légitime
l'information.
puits
plate@@
dissi@@
mers
lapid@@
l'instrument
l’Europe,
imp@@
émin@@
l'espoir
dissémination
pel
incohérence
maternité
nouveaut@@
Indonésie
admet
prétendu
innovation
PME,
églement@@
Eurostat,
négative.
climatique
l'agricul@@
L'initiative
slogan
offrant
L'inquiétude
employer
rur@@
réduira
réclamé
hypocris@@
dis,
L’introduction
l'exécution
autocar@@
preuve.
ambassad@@
Irak
ratifi@@
dehor@@
inadmissi@@
nations
istique
préférable.
humanitaire
d'alcoolémie
science@@
capturés
Paci@@
feu@@
limite.
exploiter
livraison
juridiques
zoon@@
fiscale
retenu
fixé.
valorisation
trajet@@
formulaires
obsol@@
allemandes
bel
re»
chans@@
remédi@@
pement
octr@@
offensi@@
élèves
L'OLAF
lym@@
ressour@@
cigarill@@
forcément
glis@@
nitro@@
preuve,
OGM@@
ité".
copt@@
débat.
Lord
chten@@
Sav@@
malheureusement,
élorus@@
l'épidémie
aient-elles
vent,
miel,
azoï@@
mai,
devons-nous
armés
glaci@@
plaign@@
s'effor@@
ou.
amis
interdisant
boucli@@
tous,
adoptée,
Hong@@
programme,
loin,
costu@@
pire,
ots
opprim@@
accusé
faim.
èrent.
choses.
kilos
Creutzfeldt-J@@
tu.
soviétique,
juridique,
étonnant
responsables.
divor@@
pistes
réalise
acceptées.
retard,
L'OTAN
Oug@@
ouragan
ambiant
espérer
visions
Premi@@
crev@@
farde@@
Ibra@@
domaine?
contenter
concurren@@
Morg@@
antini
détenu
Brenn@@
terroristes,
l’avi@@
exemples,
assassins
horaires
refuge
l’Union.
veille
Shal@@
times
pied.
habil@@
missiles
L'uranium
grande,
Air
Boeing
merveill@@
posent
considérations
bruit,
chauffage
fraîch@@
privilégi@@
sulfites
autant,
L&#x02BC;@@
célè@@
j'estime
allströ@@
gouvernement,
attrap@@
herbes
coup,
buts
x?
ed,
affront@@
"Mais
frage
définition,
démocratie,
foul@@
retombées
légitim@@
saisies
interdic@@
scène
consomme
européens@@
année?
paie
gre.
diteurs
transposition
Washing@@
commune,
confin@@
succomb@@
extensi@@
savoir,
beaucou@@
connais
polonais,
anticip@@
puce
(EN)
œuvre,
pages.
catalo@@
l'offre
condamnation
élevage,
tê@@
chan@@
2009,
d’accidents
Brux@@
dames
Sz@@
titu@@
Mett@@
seront-elles
Miguel
le!
également,
Berger
trouvait
Dybkjær
ensen
privées
démissionn@@
interrogées
procur@@
passeport
rables
rédigé
ourir
seo
mili@@
cube
procès.
graci@@
l'armée
ber
Clar@@
etter@@
honte
ils?
monétaire
phoques
prorog@@
souverain@@
accord.
armes.
2013
égal@@
Société
l'industri@@
[...]
prô@@
aborder
mépris
pouvez-vous
autre?
agricol@@
e»?
satisfaire
communautés.
Votes
l'approche
ang
tion!
parfois,
épizooti@@
l'émission
poulet
piè@@
cathol@@
subsidi@@
minérales
accueill@@
admet@@
atteindr@@
non?
affaire,
poursuites
dissid@@
d'enfants,
banque,
donné.
cent,
estimons
jambon
violation
concession
danger,
spécialisées
peintures
respecte
sûre,
statu@@
locu@@
is!
émigr@@
forcer
ciper
importantes,
eté.
Schmid@@
recul
douter
déris@@
en!
fume
mines.
qualifiées
impôts
ailles,
artisan@@
ressortiss@@
incite
pensait
trois@@
faire?
dot.@@
balles
Bah@@
l'Assembl@@
coupe
vendre,
participer@@
école
VI,
Tam@@
kilogrammes
inévitablement
domm@@
risque?
ré?
consommateurs?
le?
ération,
ez!
ques»
traient
refusée.
pollin@@
examinée.
rigoureux
cogénération
Quart@@
ences?
Parfois
magasin
cyclam@@
Varela
Israë@@
Pensez-vous
advenu
attent@@
déploy@@
perdur@@
digne
emprunteurs
sièg@@
jeu?
place?
ent-elle
Pourr@@
ons-nous,
appart@@
timi@@
Précisément
Pren@@
Prix
2/200@@
advient-il
Qu'allons-nous
Qu'avez-vous
Quelqu’un
era-t-elle
nº@@
Cederschiöld
Thi@@
cœur@@
Rappelons-nous
4/98)
(A4-040@@
5/98)
1/96)
(A5-010@@
(A4-020@@
(A4-028@@
(A5-025@@
1/2000)
Ghilardotti
(A4-034@@
Harrison
(A4-036@@
Read
ons-en
Réveill@@
Sais@@
Simplement
décibels
agissez
obtenez
Soit.
Soixante-dix
Soyons
Suffrages
Troisièmement:
(Tumulte
feriez
København
TEN@@
(1)
ders
saigner
d'HbA1c
explicatives
CVMP@@
d'inhibiteur
capacité.
+,
cohor@@
IGF-@@
espèce,
épider@@
inopér@@
MS)
ostéoporotiques
ci-des@@
47,@@
sunitinib
modifié.
35,@@
102@@
[IC
7%,
prépu@@
mortalité.
partielle.
cert@@
TachoS@@
thr@@
engourdissement
buccal@@
oed@@
gastrite,
kys@@
ain-@@
tissus,
37,@@
pemetrexed.
1,2%
QTc
aison.
accrues
ence)
rende
gravides
saut
ostéoporose.
cortico@@
d'altération
suit,
Livensa
NC
sortis
d'ARN-@@
lymphomes
maintenues
48,
vertébrales,
Privigen
rixtra
(16
autorisé,
(formulation
3,1
SCA
chés
remplis.
coupures
abats
SH@@
(14@@
Ca-@@
VAXPRO
postérieure
boiterie
otoxique
carn@@
comy@@
buv@@
GAB@@
participe
orm@@
l'alimentation.
tin,
3,0%
contrôleur
financier.
virale)
MED@@
ORT@@
(>
LSN)
placebo;
complètement.
secondaire,
ophosph@@
ostéopor@@
para
ate:
Ziag@@
5.3
essais,
SP)
Imag@@
bupropion
mmHg
d'heures
OF@@
caillot@@
l'instant
normale)
saignement,
opo@@
suggérer
gynécomasti@@
Myoc@@
d’intensité
d'anxiété
EVISTA
62%
82%
rapportant
(ASAT)
7%)
l'abac@@
LUMIGAN
(DE@@
romiplostim
longs,
InductO@@
pivots
l'abat@@
composantes
CYP2E1
CYP2D@@
(Ki
nM)
D3,
sinusite
émique
communautaires,
usu@@
1.25
confirment
52-@@
85%
érat@@
tissulaires
Alzheimer,
cognitifs
2,9
gique
glycogène,
ogen@@
l'adén@@
ALAT)
oreilles,
auditif.
18)
l).
0,6
NovoNorm
21,
530
péritoné@@
Max@@
FVF@@
néovascularisation
325
(29@@
334@@
ancer
156
9%)
Opt@@
adéquats
86%
patients-anné@@
enrôl@@
décédé
évocateur
Extavi@@
d'adultes
vertébrale,
émé@@
(groupe
concord@@
précédentes.
poumons.
traité,
sperme
ectom@@
ithromycine,
allait
neuropathies
injection)
ci-dessou@@
laps
exclus.
pratiques,
CYP2C9*@@
trois,
28).
lorat@@
totales
(respectivement
oc,
midazolam
1,6
radiographique
témozolomide
carbox@@
ophiles
vertébr@@
zidovudin@@
relevées
cysti@@
INTI
triglycéridémie
post-prandiale,
absorbés
retardée,
immunoglobuline
599
optimisé,
albumine/
(RAC
urinaire),
mmol.
VEMS
(27@@
darunavir
alb@@
diminutions
examinés.
systol@@
malformation
d'amlodip@@
initial,
seul,
respectivement)
HA
aliskir@@
génoty@@
femelles,
génération,
méta-analyse
166
(30@@
215@@
retraités
précédent.
30)
50)
randomisé
(PAF@@
rosiglitazone,
(AD@@
étal@@
transférases
SUR@@
carcinogène.
eron
pseudo@@
eph@@
officiellement
(OMS)
PREMIÈRE
JO@@
L'A@@
__________________
réfrigérat@@
ante:
intravein@@
somat@@
administrés.
try@@
(âge
mâle,
formation,
Magn@@
impliqués.
Rapil@@
cès.
ataxie,
piques
estomac
l’
1972
l'office
statistique.
d'assist@@
1977
Court@@
1982
Montpel@@
Irlande.
1988,
1987
ory
Vienne,
eliers
l’organisation
nosocomi@@
pinc@@
(+)
ctation
bord@@
séances
Déc@@
retenus
souvent.
poitr@@
déchir@@
*.
ignes
contaminer
pez
trou
vécuroni@@
immunomo@@
rétinien,
tis,
capsul@@
cornée,
palpé@@
hyperhémie
Sév@@
signalement
min)
Délai
profond
DS
l'efavirenz
l'irin@@
inscrire
oïdes,
(Al@@
aisons,
kit.
udine,
(III)
ale/
bisphosphonat@@
accentu@@
95%,
jours).
souhaiterais
convulsivants
d’insuline.
inopril
rib@@
DENOMINATION
principa@@
Département
ambulatoires
congénital
coumarine
fluidi@@
tript@@
venlafax@@
perforatum)
sérotoninergique:
d'enlever
attein@@
modul@@
(HD@@
cholestérol)
dégrade
ters
consol@@
polyoxyl
érol
Specification
d'emploi,
Pharmacovigilance,
asti@@
actualisé
lymphomat@@
Les@@
irritabilité,
ation*
activement
10.000
départ,
réductase.
plasique
anti-TNF.
hypokaliémie
d'évolution
mictions
rebon@@
Dermatite
généralisé,
maculopapul@@
busulfan
d'IntronA
saines
émergence
sper@@
mun@@
prématurée
cartil@@
tendin@@
ament@@
traitent
suggestions
altérer
tachy@@
Bronch@@
(BP@@
modérées
traitées,
d'indi@@
épileptiques
maculaires
conduction
splénique
P:
supr@@
ventriculaires
suicidaire
dosés
dy
tabagique
initiaux
carbamazép@@
corporel@@
lorsqu’elle
Ripraz@@
chir@@
vertigineuses,
déterminées
glucurono@@
histopath@@
cyl@@
réduisent
digestives
parentérale
tremblement
biliaire,
fausse
compétentes.
surie,
délétère
lipidiques
acoxib
iso@@
glycanes
CYP2C8
l’albumine
hyperbilirubin@@
micros@@
saproptér@@
isoformes
affecté.
O/
GPR@@
homozy@@
tigécycline.
non-hodgkinien
relargage
contrôlés.
mâchoire,
ponctuelles
bilités
endocard@@
pyélonéph@@
septicémie,
infectée.
Viraferon.
---------------------------------------------------------------------------------------------------------------------------
----@@
CIN@@
SAN@@
europe@@
head@@
medagencies.
envisagées,
cationique
triméthoprime).
zolédronique
tubulaires
multiplier.
suppresseurs
lacticodéshydrogénase
gamma-glutam@@
devenant
5.17
exprimées
trophie
calculés
REYATAZ@@
AVON@@
ophléb@@
SW@@
vascul@@
anaphylactoïdes
rash@@
long-terme
vasomotrices,
otide.
cémies
oxygèn@@
bronchospas@@
développées
lésion,
sensibles,
intéressées
thérapeuti@@
limycine
97,@@
-0,@@
glycoprotéine-P
mark
(rhabdomy@@
essoufflement
tisme
antipsychotiques
lymphoprolifér@@
tacrolimus.
l’équipe
hémoglob@@
TNFα
déposées
verre.
irrégulière
caractérisés
convulsives.
son)
rare.
remises
bovins,
Groupes
bléphar@@
LLC
Κύπρος
-Pl@@
1-
nucléosidi@@
espagnole
érapie
globuline
séjourn@@
tournant
jetez-la
dotés
Agri@@
MEDI@@
Diab@@
Sélectifs
(ISRS)
l'épilepsie
myoclonique
nécrolyse
d'appétit,
Diarrhé@@
ffér@@
terminaux
dysp@@
Alco@@
déca@@
Leucine,
L-Isoleucine,
L-Thréonine,
ylalan@@
ergot@@
DILUER
(diminution
pâle
réfl@@
1;
strati@@
significatif.
vo,
Sam@@
microbiologie
Facul@@
Liverpo@@
Ley@@
196@@
dimbour@@
(Royaume-Uni@@
Stras@@
ty
diab@@
245
D-904@@
oudre
rosuvastatine
majoritairement
l'organe
potassium:
Norvège.
Limer@@
IRA
(UAB).
philosophie
Glasgow@@
philosophi@@
oo@@
biochimi@@
Docu@@
Techn@@
(l')autorisation(s)
lesqu@@
se).
6-10-@@
DONNEES
4.1
DONN@@
ÉES
oses.
rhabdomy@@
AVIS
SAISINE
CLE
(75
350
dépréotide
technétium-99@@
symptômes.
4,0
dyspepsie
oesophagi@@
pollaki@@
Oed@@
Fièvre
d'(auto-)injection
frissons
nerveux.
idos
doxor@@
92@@
Executive
ADI@@
155@@
Jacques
Directeur
TER
Lane,
UK@@
KT@@
193@@
336@@
River@@
cidofovir
rétinite
fosamprénavir
piqûres
D'une
d'injections
es):
dilution.
microgrammes/ml
°C,
234
faux.
Promet@@
ax,
d'utilisation:
dise
hypercalcémie.
éosinophilique
DES@@
jaculation
mictionn@@
molles,
rectale
ett
Pneumonie,
hautes,
surie
lymphoprolifératives,
ufs
glutamate
krus@@
bolus
renseign@@
Éch@@
redevances
Echinococcus
moins...................................................................................................
(CHMP@@
Econor
cholest@@
rendra
Marlow
way
Centr@@
+37@@
Estonia
676
Ares
Zamenhofo
-3,
LT-44287
37320603
msdeesti@merck.
msdeesti@merck.com
Dandery@@
401
380
VIRACEPT.
obi@@
SUSTIVA
sévère@@
Convul@@
Tac@@
sonde
acon@@
co-administré
gris
noirs,
généralisée,
hématome,
optysie,
courants:
connue:
(EI)
orte@@
douloureuse,
dérang@@
acide,
nocturne,
bactériennes,
oreille,
douloureux,
productive,
100)
immobil@@
incon@@
Trembl@@
sence
anorexi@@
concerner
(lésions
ante)
vagin@@
erv@@
connaissance,
ralentissement
bivalirudine
(oedème
érythr@@
(concernent
agressivité
hale@@
ères;
l’intérieur
Fati@@
recouvre
Peti@@
double,
gross@@
médicaments)
l'os
Banglades@@
Pér@@
inau@@
field,
priap@@
électro@@
créatin@@
bilirubin@@
ALAT@@
urique,
sanguin,
Hampshire,
RG@@
Elimin@@
5-ALA
pré-remplies
L'ivabradine
54@@
7,2
façon.
motivé
1994
investig@@
endothéli@@
et).
galactosidase
estér@@
l'écou@@
absente
lipides
saquinavir.
P-g@@
injecteur
adapté.
labori@@
exercices
activités.
l'arch@@
catalytique
sent
Seretide
sociation
cal.
ométri@@
extrap@@
e.@@
a.@@
éman@@
MBALLAGE
perfusion)
efs
EMEA-@@
Produc@@
Wharf
EMEA/MB@@
Soutien
onates
Chef
entré
tropi@@
d'administr@@
pharmaco-@@
”.
-ci,
celle-ci,
melphalan
d’UI
d'abaisser
des),
révélées
attendant
endogènes
0,01
23%
auto-immun@@
dissoute
granulomatose
Wegen@@
chlorothiaz@@
d’augmenter
augmentait
hyperthermie,
d'apnée
respiratoire.
pseudomembraneuse
restau@@
l'étiquetage.
répétées,
insérer
l'époprost@@
rein,
symptomatiques
reconstituée.
précipités
amalgam@@
anaphylactique,
tableaux
glaucom@@
gadoversétamide
fourni,
Valtrop@@
ROVAN@@
symptomati@@
telbiv@@
quinolones
OR.
déroulement
répétition
LIN
précautions.
nettoyé
d'ingestion
l'intervention.
osante
EMS@@
d'épisodes
continence
déterminés
indépendant,
Périodique
Systèmes
égales
allaiter.
VIH/
préserver
GRAN@@
inattendu@@
IL@@
ADMINISTRATION
Oxford
fén@@
tissus.
kératite,
233
énerv@@
pathologi@@
es»,
Enfants:
traduite
Bondron@@
MER@@
corporelle,
PegIntr@@
donnée,
dix@@
diminuera
GER@@
résorption
cancéreuses.
ganciclovir
Kineret.
tubulopathie
disoproxil.
démontrant
document.
corrélation
carbamide
protéines.
risques;
onique.
sortir@@
l'uré@@
l’utiliser.
l'acquisition
prolifération
leucémiques
jeûne,
nutrition,
Lyso@@
olim@@
Nether@@
coagulopathie
ssant
oestroprogest@@
l'insulinorés@@
retardant
taient
liant
thrombine,
kit
grê@@
carton.
)].
sécurisé
quelques-@@
Infiltrats
épithéli@@
Epoetin
tine.
antibio@@
yle,
cetuxim@@
(EGFR)
0,3%),
ons;
sombres
thrombopénique
idiopathique,
coï@@
Lymph@@
Tec@@
Laboratorios
Sclérose
marcher
mation
219
bitu@@
l’inflammation
priétés
l’allaitement.
Berom@@
VII
tiles
extra-utér@@
infectée
PAR
glucides
psychomo@@
Canada
céphalée,
étourdiss@@
L’aiguille
prédisposer
eudra.@@
oral,
D3)
l'entacapone
lévodopa@@
hypotenseur
contact,
industrielle,
046
047
049
blisters
155/
2500
367/
90/
EU/1/07/398/00@@
EU/2/05/054/@@
Noël
décès)
population@@
démyélinisant
oS@@
viation
post-ménopau@@
nouveau@@
pansements
d'introduire
Eucre@@
dentaires,
auto-immun
tolu@@
notoire:
d'éthanol
à-@@
lécithine
soja.
mmol)
polyoxy@@
phénol,
amère
ène@@
istidine
(dermatite
amlodipine/
B:
Ray@@
mond
pédiatrique
ck
AA
Jeter
mois/
trem@@
670
Fabrazyme
ry
Beau@@
Wye
Hay@@
Pac@@
Lt@@
esth@@
burg@@
Medical
Spe@@
4103
Tafarnaubach
Gwent
NP22
3AA
récoltes
Sä@@
Dresden
illustration
existe@@
compte-@@
élection
itaires.
rasburicase.
(saquinavir/ritonavir)
Ak@@
172
Fevaxyn
Pentofel
.....................
ratiopharm
mées.
Fixer
appuyé
intravitréenne.
Prepandrix
OB@@
réserve:
sous-cutané:
Nordisk
Tlf:@@
cam
Novo@@
Proposal
core-data
Lo@@
avas@@
licul@@
Fonc@@
tionnement
masque,
Göteborg.
MACEUTI@@
Virlix,
disponibl@@
épiphyses
We@@
calcifér@@
carence
is)
grosse
porphyr@@
lam
aberr@@
low
ð@@
ā
(3)
roi
TT@@
ími@@
enica
Hen@@
picotements
surpoids.
l'audition,
(effets
Bronchite
fréquentes:
éry@@
conjonctivale,
illaire
Pneumonie
Gri@@
ppe
Sinusite
(sans
flatulence,
urinaires:
pancréatite
acouph@@
l'isoenzyme
CYP1A@@
50-@@
contraste,
dosé
Yorkshire
gueu@@
comprimé.
Gastrite
enrob@@
opaques,
Lansoprazole
Alu@@
Herstellung
sorb@@
Potters
EN6
Hertford@@
Gooimeer
DD
Naard@@
eská
GESTION
réticul@@
YN@@
ecquer@@
coupur@@
Gl@@
diagnostiqué.
cerve@@
remani@@
osar@@
+)
ques/
CE)
PDGFR@@
Pio@@
acquis,
èlent
l'éjaculation,
comblement
C24@@
supplémentaire,
atteindra
no,
ar.
l'être.
naître.
traverser
célécoxib.
(AR@@
WP),
(29,@@
Fabri@@
FR-C,
PRÉ@@
Carte
Hypercalcémie
Pag@@
Salom@@
Simp@@
Street,
n'entraîne
Cryptosporidi@@
déversé
élevages
oïque
tél.
ham,
ão
MARK
(6)
fatale,
vasculaire*,
cotonneux@@
ministères
IRS@@
CCID50
cum
sertie
favorisant
Bed@@
Angleterre
Factor
épon@@
trate
phen@@
hidr@@
l'arach@@
amy@@
céphalosporines
omycine,
tétanique,
urines.
siques,
intraveineux,
pathie,
Hypertension
elle:
e§,
émotionnelle,
hyperlipi@@
baf@@
inactivé,
l'épa@@
elle),
surviv@@
Idées
J.@@
myopathies
chap@@
nucléotidiques
permettait
maintenues,
LDL@@
cine.
téri@@
l’Annexe
interdit@@
neurodégénér@@
masculine
secrétari@@
multinationales
circule
MP-@@
lacos@@
l'élément
cale)
d’agents
(90@@
activement.
aériennes,
reposant
AC
suspectée,
LA@@
l'étoricoxib.
courant,
scanner
photograph@@
orrh@@
résumer
(20
Cli@@
(1,3
libell@@
Econom@@
multiplient
Cel@@
vad@@
manipulation,
protégé
d'hypersensibilité.
intraveineuse@@
brax@@
Xeom@@
siez
ophylline
Neupope@@
amalgames
sulfamides,
peptidi@@
dermique
tumorale.
ADMINISTR@@
CIN
ecch@@
orcer
TRITACE
lame
>@@
Cerezyme
l'avoir
Rotateq
endraient
sugg@@
incontrôlée.
ocytaire
antifongiques
sécr@@
puissante
majeur.
occul@@
angiographie
gènes,
thromboembolique
l'aliment
emplacement
synaptique
pondérale.
reconnus
antécéd@@
(50@@
instable.
cytot@@
cassé,
erb@@
d'alcoolisme
paroxy@@
ambigu@@
Kent@@
désiré.
rétino@@
thérapeutiques.
sympt@@
ère-@@
ercept
CT.
astes.
japonais
gument
justifiant
montelukas@@
NY@@
juger
d’améliorer
artères
(des
ères)
durc@@
gauche)
d’arrêter
Bene@@
incontrôlée
(19@@
lancée
d'accorder
d’autorisation
indésirabl@@
mine,
engagé
empêchent
translocation
synthétiques
imprimée
d'indiquer
mince
entérite
compris.
GARDE
impul@@
d'innocuité
universités
exa
ocoque
l'hôpital,
Sens@@
habitude
habitude.
celli@@
nerveuse
vestig@@
laryng@@
pè@@
immunosup@@
cite,
L’UTILISATEUR
Karvezide
Ret@@
comprimés:
T-1
volet
d’IntronA
préparés
SUPPLEMENTAIRES
graves:
SUSTIVA.
trouvez
UP@@
prazole
gp-@@
injectables,
LAN@@
CHE
Inovelon
ety@@
SPRYCE@@
extérieur,
séparément
L'UTILIS@@
MANIPULATION
(classe
légère.
néphrite
d'atazanavir
représentait
ctu@@
l'énala@@
cétiriz@@
rénaux:
Pen.
biphasique
dissoute)
INTER@@
ACTIONS
tat,
diam@@
Work@@
Internation@@
QTc@@
titul@@
an-@@
PERF
l'adresse
Introduire
d’UI/@@
yrimidine
LS
Cit@@
paré@@
durcissement
Β
Solna
+357
Export
distor@@
armac@@
Walter
Tob@@
azole/
Ches@@
incompatible
inger
persiste
treatment
acqui@@
Neder@@
ken
56,
gasse
75,
Austri@@
Paseo
obre
VAN
Rol@@
septemb@@
particulièrement,
usagées.
Pis@@
Paço
10.@@
thrombo-@@
véralipride
Juste
TRA
principales.
Francfort@@
Main
Ρ@@
agglomérat,
zk@@
skiego
tropical@@
Ku@@
(intervalle:
Nouvelle
L'abacavir
activer
chinois.
bécapl@@
paran@@
5600
olu@@
seringu@@
Marly-le-Roi
Ribeiro
Nova
l’or@@
hypocholestérolémi@@
ivlosin
curo@@
dénuée
maligne.
vertigineuses
sévoflurane,
contrac@@
Aspergillus
intrinsèque
publics,
Barcelona
lutéinis@@
irritant
cicatrisation
A-I
marginale
antipsychotique
+.
l/@@
dose-
20,6
linéaire.
responsabilités.
Normal@@
améliorée.
Piro
AR-@@
ruban
acizumab
caï@@
(PDE@@
38,@@
9,7%
cortex
boîtier
salés
monom@@
Tunis@@
thymidine
circulatoire
antagoniste
fourche
affectées.
nulle
cyclo-oxygénase-2
cyclosporine
d'origine,
25°C)
RT,
continuer/interrompre
l'ADAS@@
administrant
ponts
aupar@@
plasmatiques.
vagraf
TIV@@
ViraferonPeg.
ciblée
rong@@
adjonction
milligram@@
poursuivi@@
ones,
évitée
fosam@@
furosémi@@
rifampicine)
digestif,
saccharose
d'ambrisentan
résiduelles
DPP-4
pemetrexed
reporté
lactique.
contre-
15-@@
6).
pulvérisations
NPC
cellules/
Sustiva
Tyver@@
yttrium
progresse
réparties
épaul@@
âgés.
déjeuner.
atoires.
besoins.
d'aliments,
é),
Aval@@
PRODUIT}
calicivirose,
recevait
affectera
ambrisentan
myco@@
midité
FED@@
N-
d'agrég@@
entité
que}
l'ustekinumab
évoquer
e.»
atiques,
L'Agence
ENTS
cytochromes
mélat@@
récipi@@
biais@@
pendi@@
isseur
dir
remonter
front
nerveux,
Laissez
Aldara
traitant
l’alcool
hypoglycémiant
bandelette
-1b
supposés
médiateurs
lymphocy@@
antihistaminique
lysos@@
contrôlent
large.
dimensions
perceptible
surpoids,
(IMAO@@
tilis@@
normaliser
SK-@@
demment
exu@@
214
sées;
MM-009
MM-0@@
8,3
poolée
586
interrompt
hel@@
pro-drogue
déso@@
neurotox@@
anabolisants,
semi-@@
étis@@
fermentation
amont
explicit@@
configuration
praz@@
antigénique
Lantus
Ox@@
2005-@@
r).
tasonermine
porcins
proportionnelle
pilote
verra
2C@@
ajoutés
20-@@
étage
(stade
licite
Cert@@
reconnues
métri@@
dose).
(quantité
ingestion
cir
clof@@
rau@@
aphy@@
évite
L'apport
d'hépatite
échéant
laser
clé@@
n’aurez
jeszky
thyroglobuline
d'Yttriga
délais.
complè@@
Dyn@@
seuls,
vitesse,
significative,
antimicrobiens
envisagent
d'arbitrage
désinfection
parasites
produisait
profondeur
inspirée
RCyM
s’impose
prescrits
Ytracis
radiomarquage
inadéquate.
APTIV@@
transmise
reliqu@@
3T@@
multipliées
lubri@@
priorité.
germes
exacte.
réservée
s'adap@@
onie,
avaler.
minutieusement
retournant
réfrigé@@
vitrelle
Ê@@
INTR@@
étée
ococcus
spironolact@@
approfondie.
prénavir.
µg.
cétror@@
tris@@
ant).
vomiss@@
l'hydr@@
3,9
pharmacovigilance@@
d'effort
Cox
apparaîtra
é(@@
tailles)
diffusée
triphosph@@
terminologie
décidée
Myél@@
libre,
ectédine
proposés.
ī
jum@@
lité
obsessionnels
sifs
lié.
acceptée
appét@@
sous-type
nicotiniques
distribution.
DV@@
projet.
Posez
d'administration.
l'éventuelle
r-HuEPO
audition,
TAMM@@
toxique.
froide
PSUR
(COX-2)
leucopénie.
adsorbé
énoncé
ust@@
is).
CD4
polaire
erte
MPLI@@
pris.
Tractocile
Tysabri
essentielle.
entrev@@
l'Es@@
ulaire
tirant
principal@@
février,
juin,
essentiels.
aseptique
sachet
citées
formé
d'exam@@
organisationn@@
P).
vities
Tylvalosine
septième
comptable
échograph@@
surveillé
éthanol
anhydre.
Eric
Zone
Therapies
séquences
efavirenz
nationale,
échocardiographie
propyl@@
tétra@@
secondaires.
cian@@
neuron@@
Masivet
Suvaxyn
fermes
guide
intégrante
validation
posséder
gê@@
l'ES@@
Nécess@@
régulières
l’abdom@@
ogènes.
trouble.
pyri@@
doxy@@
transports.
masitinib
contaminé
yo
Zél@@
garantira
octroie
iquimod
diur@@
secour@@
inactive.
thum@@
déjeun@@
étag@@
étroit
l'eng@@
considérable.
dynami@@
L'ensemble
maintenu,
connect@@
CD
L'entacapone
L'enveloppe
colloï@@
traver@@
puis,
taill@@
ellose,
diplômes
recruté
yne
plats
vra@@
fèces.
vom@@
anes,
erlo@@
pid@@
var@@
dac@@
présentée.
DE.
mic@@
rouss@@
vice-présid@@
examiné.
gure
notera
livré
satisfaisante.
IONSYS.
Binocrit
berg.
Dem@@
Robert
son,
figu@@
tissu@@
TMZ,
O)
fournie,
21%
classifiées
hiér@@
eront,
Qualité
héparin@@
reconnaissent
eva
Roumanie,
stéarate
opénie.
exemple).
douleur/
ostéo-@@
ité/
oeufs
démographiques
coulé
préfé@@
bassins
fondés
faces
comparable.
Millepertuis
journées
ban
différence.
globales
budget.
etés
comptaient
instauration
3,6
structurelles
scénarios
sinistr@@
µl
2008)
idation
noirs
épidémiologiques
soutenant
moindres
pratiques.
1715
l’intervention
lui-même,
cholestérolémie
étourdissements.
c’@@
transfu@@
diarrhées.
mycose
pédiatrie
testées
acquisition
[...]
